<unk>	0
<s>	0
</s>	0
,	-2.60592
.	-2.98198
▁и	-3.85684
▁в	-4.06306
▁—	-4.29742
▁не	-4.32971
▁на	-4.51818
▁с	-4.76825
▁–	-4.78521
▁что	-4.79432
а	-4.81557
▁	-5.00193
-	-5.02684
?	-5.20569
и	-5.30606
▁я	-5.36176
е	-5.36246
▁по	-5.43264
▁он	-5.47162
▁как	-5.516
▁к	-5.52232
!	-5.55457
▁за	-5.57367
▁его	-5.63968
▁«	-5.64273
:	-5.68226
...	-5.71423
▁из	-5.72505
у	-5.75156
▁от	-5.7785
▁у	-5.79037
▁а	-5.81047
▁это	-5.85655
м	-5.87677
▁Я	-5.92837
▁все	-5.9591
▁-	-5.96198
то	-5.96908
▁но	-5.96923
▁о	-6.00922
▁А	-6.01837
ы	-6.02224
▁И	-6.02746
▁же	-6.06513
▁В	-6.06632
▁было	-6.18583
▁так	-6.18827
▁она	-6.21941
о	-6.23104
ом	-6.23984
▁бы	-6.26744
▁вы	-6.30383
▁меня	-6.33324
▁ее	-6.33524
▁то	-6.35754
й	-6.35975
▁Но	-6.37387
▁Он	-6.41122
ов	-6.44659
▁до	-6.44806
▁был	-6.46855
▁для	-6.4818
»	-6.4855
▁мне	-6.48979
▁ты	-6.50474
▁только	-6.52038
▁еще	-6.56669
я	-6.56702
▁их	-6.58328
▁они	-6.60547
▁уже	-6.61577
х	-6.63164
▁чтобы	-6.63238
▁мы	-6.63634
▁когда	-6.64963
ся	-6.65595
▁(	-6.66089
▁под	-6.67704
▁при	-6.74476
▁или	-6.75823
▁Не	-6.77391
▁раз	-6.78815
▁С	-6.84999
ой	-6.85596
▁ему	-6.88386
▁если	-6.89884
ми	-6.90892
▁со	-6.92241
▁ни	-6.9233
▁На	-6.95689
▁чем	-6.99592
;	-7.00222
▁Это	-7.00737
▁даже	-7.00824
▁была	-7.01999
ю	-7.02236
▁Да	-7.02871
▁себя	-7.03518
».	-7.03632
▁У	-7.07186
▁него	-7.07332
▁сказал	-7.07352
▁время	-7.07368
▁ли	-7.07729
▁были	-7.08005
ами	-7.08942
ка	-7.10276
ный	-7.10863
го	-7.12897
▁про	-7.13233
▁Она	-7.13894
ной	-7.17286
ные	-7.17816
▁того	-7.19385
▁во	-7.19694
▁По	-7.21232
▁будет	-7.22682
▁очень	-7.22726
▁быть	-7.22804
▁где	-7.23283
▁может	-7.2454
▁есть	-7.25582
▁нас	-7.25801
▁этого	-7.26434
▁об	-7.2651
ли	-7.28172
ных	-7.28886
▁кто	-7.30185
▁этом	-7.31772
▁без	-7.31963
▁Что	-7.3267
▁Ты	-7.33475
▁тебя	-7.33487
ки	-7.34794
▁Как	-7.35694
▁себе	-7.35792
▁нет	-7.36136
)	-7.37477
с	-7.37648
▁там	-7.3854
▁том	-7.39694
▁них	-7.41215
»,	-7.41392
ая	-7.43604
ная	-7.43672
ного	-7.43695
▁больше	-7.45936
ет	-7.46024
▁просто	-7.46538
▁вот	-7.46907
▁этот	-7.471
▁ничего	-7.47229
▁можно	-7.47375
▁Ну	-7.47665
▁Вы	-7.4785
л	-7.48726
▁Если	-7.49984
т	-7.50081
▁тут	-7.50301
ть	-7.5048
▁тебе	-7.52504
▁который	-7.52574
в	-7.53321
▁после	-7.53953
▁ей	-7.5408
▁вас	-7.54402
▁которые	-7.54977
▁здесь	-7.56252
▁тоже	-7.57156
▁Так	-7.57696
▁да	-7.57702
ным	-7.57956
ый	-7.58261
▁За	-7.58862
▁Мы	-7.58913
▁один	-7.58921
▁теперь	-7.59527
▁потом	-7.60107
▁К	-7.60152
▁О	-7.61517
▁сейчас	-7.61995
на	-7.62124
▁тем	-7.62536
▁ним	-7.6329
▁"	-7.63966
▁через	-7.64664
▁более	-7.6476
▁всех	-7.67467
▁несколько	-7.67782
▁всего	-7.67901
▁глаза	-7.68244
ную	-7.68351
ах	-7.68425
▁Все	-7.68685
за	-7.68765
ые	-7.68907
▁Вот	-7.69086
но	-7.69781
ку	-7.70114
▁Они	-7.71164
▁человек	-7.71376
▁надо	-7.72221
▁перед	-7.72908
▁ней	-7.73397
ла	-7.73545
▁вам	-7.74417
▁лишь	-7.7479
▁над	-7.74983
▁лет	-7.75613
▁своей	-7.75856
▁пока	-7.76338
▁г	-7.77946
▁нам	-7.78098
ых	-7.79004
▁сам	-7.79487
▁тот	-7.79519
▁им	-7.80097
нибудь	-7.80195
▁Когда	-7.80853
ого	-7.81016
▁мог	-7.81332
ей	-7.8154
▁жизни	-7.82491
▁пере	-7.83096
▁Нет	-7.84515
▁свою	-7.85523
▁снова	-7.85566
▁потому	-7.85865
▁этой	-7.86905
ым	-7.88512
ем	-7.89086
ую	-7.89591
▁эти	-7.90608
▁всегда	-7.90737
ное	-7.92281
▁нее	-7.92284
ам	-7.93037
▁такой	-7.93306
▁много	-7.93455
▁тогда	-7.95347
▁почти	-7.95355
▁день	-7.95567
▁ведь	-7.95926
▁чего	-7.96958
▁дело	-7.97808
▁руки	-7.98248
▁спросил	-7.98887
▁людей	-8.01112
ий	-8.01792
▁два	-8.01985
▁между	-8.0235
ь	-8.03639
▁При	-8.04129
▁хотя	-8.04408
▁своих	-8.04607
▁стал	-8.05283
▁никогда	-8.05318
▁знаю	-8.05505
▁совсем	-8.06252
▁своего	-8.06355
▁собой	-8.06373
▁свои	-8.06467
▁какой	-8.07
▁сразу	-8.07838
▁*	-8.08057
му	-8.08092
▁года	-8.08267
▁жизнь	-8.08531
лись	-8.08605
).	-8.09126
▁нужно	-8.09201
▁времени	-8.09357
ок	-8.10167
▁Мне	-8.10304
к	-8.10743
ке	-8.10976
▁сказала	-8.11124
▁словно	-8.11923
▁сказать	-8.13262
▁голову	-8.13423
▁уж	-8.13873
▁почему	-8.13947
н	-8.14179
▁люди	-8.14416
▁руку	-8.15005
▁хорошо	-8.15368
▁мой	-8.16876
▁человека	-8.1707
ном	-8.18042
ия	-8.18204
ют	-8.18483
▁именно	-8.19517
▁вдруг	-8.19576
ись	-8.20825
▁будто	-8.2137
сти	-8.21602
▁ответил	-8.21916
не	-8.22039
▁От	-8.2206
ными	-8.22421
лась	-8.22444
▁лучше	-8.23391
ется	-8.23573
ие	-8.23577
▁которой	-8.23741
▁всем	-8.24068
▁вместе	-8.24281
▁быстро	-8.24366
▁тех	-8.25081
▁слишком	-8.25198
▁ко	-8.25316
▁Его	-8.25853
▁куда	-8.25881
▁слова	-8.25895
▁друг	-8.26708
▁три	-8.26864
▁должен	-8.26945
▁которая	-8.27058
▁всё	-8.272
▁свой	-8.27215
▁конечно	-8.28571
▁рядом	-8.29581
лся	-8.29606
▁другой	-8.29927
▁М	-8.30207
▁лицо	-8.30491
▁также	-8.30651
▁эту	-8.31313
ться	-8.31767
ло	-8.31957
▁такое	-8.33003
),	-8.3321
те	-8.33373
▁тому	-8.33553
▁назад	-8.33751
▁которых	-8.33956
"	-8.34148
▁могу	-8.34185
▁те	-8.34302
▁свое	-8.34481
ской	-8.35292
▁этих	-8.35312
▁сторону	-8.35445
▁своим	-8.36144
▁место	-8.36257
▁Только	-8.36928
▁голос	-8.37799
ский	-8.38143
▁этим	-8.38585
▁знал	-8.38831
▁Из	-8.39466
ое	-8.39575
ны	-8.39959
ского	-8.40228
▁случае	-8.40243
▁дома	-8.40575
▁стороны	-8.40613
кой	-8.4093
▁которого	-8.41309
▁Однако	-8.41501
▁вообще	-8.41621
ит	-8.4197
д	-8.42521
▁немного	-8.42573
▁мной	-8.42766
▁сделать	-8.43307
▁дверь	-8.43514
▁никто	-8.43745
ъ	-8.43749
сть	-8.43816
▁одной	-8.43857
▁совершенно	-8.44434
▁головой	-8.44459
им	-8.447
▁чуть	-8.44872
▁Теперь	-8.45144
▁делать	-8.45345
ить	-8.45739
▁эта	-8.46102
ию	-8.4611
ен	-8.46203
▁против	-8.4637
▁её	-8.46764
ась	-8.46932
▁взгляд	-8.48339
▁прямо	-8.48563
▁До	-8.48568
по	-8.49172
▁самом	-8.49411
▁хотел	-8.49557
▁пор	-8.50522
▁одного	-8.51265
▁рас	-8.51336
▁Может	-8.51853
▁ещё	-8.52369
▁кого	-8.52467
▁То	-8.52958
▁точно	-8.54168
▁хоть	-8.54622
▁видел	-8.55323
ни	-8.55703
та	-8.56417
▁затем	-8.56464
▁понял	-8.57283
▁т	-8.5756
▁других	-8.58127
▁должны	-8.58397
▁стало	-8.5888
▁действительно	-8.58967
▁После	-8.59279
▁образом	-8.5935
▁вопрос	-8.59384
▁могла	-8.59528
▁говорил	-8.60327
▁ними	-8.60482
▁одно	-8.60555
▁деле	-8.60625
▁которую	-8.60787
▁сегодня	-8.60942
▁Кто	-8.61389
▁двух	-8.61474
▁говорит	-8.61492
▁одна	-8.61509
▁наконец	-8.61718
▁момент	-8.61903
▁вокруг	-8.61922
да	-8.62552
▁оно	-8.62847
▁всю	-8.62865
▁мир	-8.62876
таки	-8.63824
▁начал	-8.64677
▁нему	-8.64722
▁Потом	-8.64869
▁моей	-8.64984
▁Во	-8.6534
▁могут	-8.65965
▁Про	-8.66119
▁долго	-8.66132
▁равно	-8.66143
▁нем	-8.66595
В	-8.67048
▁дальше	-8.67451
▁минут	-8.68017
▁Там	-8.68357
ось	-8.68386
▁месте	-8.68536
▁хочу	-8.69026
▁таким	-8.69129
▁значит	-8.69252
▁Тогда	-8.69639
▁могли	-8.69741
▁году	-8.69824
▁такие	-8.70054
▁самого	-8.70115
▁будут	-8.7021
▁весь	-8.70493
▁стоит	-8.70521
▁Для	-8.70709
▁опять	-8.70909
▁две	-8.70945
▁ж	-8.71213
▁дом	-8.71319
С	-8.7147
▁Почему	-8.71749
!»	-8.72198
▁дня	-8.7248
▁свет	-8.72657
▁кажется	-8.72669
ин	-8.72853
▁стали	-8.72951
▁которое	-8.72987
▁ноги	-8.73057
▁П	-8.73116
А	-8.73369
▁мало	-8.74037
▁какие	-8.74073
▁та	-8.74197
ыми	-8.74392
ясь	-8.74509
▁конце	-8.74542
?!	-8.75261
ков	-8.75374
▁моя	-8.75407
▁нельзя	-8.75638
▁каждый	-8.75642
р	-8.75951
▁давно	-8.76084
лось	-8.76181
▁среди	-8.76266
ш	-8.76534
сь	-8.76577
ются	-8.76912
▁сама	-8.77264
▁сюда	-8.77388
▁едва	-8.78135
▁часть	-8.78219
▁сделал	-8.78228
▁мои	-8.78441
▁увидел	-8.78536
▁решил	-8.7879
г	-8.78917
▁поэтому	-8.78973
▁говорить	-8.79168
▁знает	-8.79244
▁Под	-8.79358
▁туда	-8.79553
▁Или	-8.79883
▁мысли	-8.79932
ко	-8.80318
▁1	-8.80806
▁заметил	-8.80833
▁дела	-8.81248
▁рукой	-8.81733
ну	-8.8178
▁такого	-8.8179
▁ответ	-8.82317
▁прежде	-8.8241
▁другие	-8.82999
▁стала	-8.8312
или	-8.83176
▁Конечно	-8.83383
▁вполне	-8.83591
▁раньше	-8.83707
▁казалось	-8.84148
▁этому	-8.84625
▁той	-8.85147
▁Даже	-8.85189
▁достаточно	-8.85423
▁глазами	-8.85852
их	-8.86061
ят	-8.86111
▁отец	-8.86237
▁глаз	-8.86237
▁друга	-8.86362
▁хотелось	-8.86603
▁сколько	-8.86744
▁первый	-8.86785
▁буду	-8.86971
▁посмотрел	-8.87149
ному	-8.87175
▁места	-8.87379
ил	-8.87798
▁тело	-8.87843
▁пол	-8.87962
▁Г	-8.8825
ских	-8.88274
▁тобой	-8.88439
▁Т	-8.88533
▁вновь	-8.88779
▁медленно	-8.88961
▁спросила	-8.8898
e	-8.8916
з	-8.89312
▁2	-8.89437
▁часто	-8.89445
▁вперед	-8.89557
▁полу	-8.8966
▁3	-8.89989
▁таких	-8.90049
▁довольно	-8.90351
▁кроме	-8.90432
▁начала	-8.90658
▁год	-8.90711
п	-8.90744
▁сил	-8.91334
ские	-8.91364
б	-8.91373
▁Еще	-8.91483
▁подумал	-8.91648
▁должна	-8.9198
▁пришлось	-8.92192
▁сердце	-8.92389
▁кивнул	-8.92586
▁стоял	-8.92979
▁женщина	-8.9324
ком	-8.93354
▁пять	-8.93744
▁тихо	-8.93843
ец	-8.93939
▁двери	-8.94024
▁однако	-8.94071
▁менее	-8.94073
▁деньги	-8.94153
–	-8.94213
ская	-8.9422
▁своем	-8.94256
▁Ни	-8.94318
▁самое	-8.94502
ев	-8.94568
▁котором	-8.94846
▁Б	-8.94851
от	-8.94894
▁Ведь	-8.95009
ч	-8.95088
▁смерти	-8.95168
ешь	-8.95876
▁знать	-8.95902
▁Д	-8.9596
▁ночь	-8.96213
▁“	-8.96255
▁особенно	-8.96421
▁слово	-8.96425
▁силы	-8.96658
▁правда	-8.9667
▁лица	-8.97591
▁ту	-8.97707
▁город	-8.98018
▁одну	-8.98167
▁удалось	-8.98169
▁моего	-8.98254
▁пути	-8.98365
▁части	-8.98655
▁нашей	-8.9866
▁Хотя	-8.98793
▁понять	-8.98847
▁всей	-8.98864
▁мере	-8.99578
▁возможно	-8.9965
▁большой	-8.99907
▁произнес	-8.99923
▁имя	-9.00032
▁Со	-9.00047
▁сильно	-9.00277
▁руками	-9.00289
▁Поэтому	-9.00404
▁работы	-9.00429
▁руках	-9.00584
▁ну	-9.0079
▁самой	-9.00981
▁наши	-9.01168
▁следует	-9.01224
▁думал	-9.01473
▁Сейчас	-9.01501
▁легко	-9.01547
▁взял	-9.01701
▁вид	-9.01823
▁девушка	-9.01976
▁войны	-9.01988
▁сами	-9.02293
ля	-9.02298
▁домой	-9.02403
▁найти	-9.02431
▁знаешь	-9.02612
!..	-9.02663
▁такая	-9.02743
▁своими	-9.03181
▁второй	-9.03203
са	-9.03205
▁должно	-9.03284
▁мира	-9.03485
▁воды	-9.03597
ша	-9.04432
▁жить	-9.04533
▁какое	-9.04615
ния	-9.04897
ками	-9.04918
▁далеко	-9.05071
▁наш	-9.0524
он	-9.05324
▁думаю	-9.05442
▁столь	-9.05465
▁Здесь	-9.05642
▁имеет	-9.06105
▁которым	-9.06392
▁дней	-9.06524
Я	-9.06782
▁внимание	-9.07069
под	-9.07222
▁п	-9.07296
▁самый	-9.07812
ер	-9.07843
▁Н	-9.07915
▁де	-9.08164
▁вроде	-9.08314
▁города	-9.08411
▁4	-9.08493
ник	-9.08658
▁Где	-9.08767
▁вниз	-9.08841
▁часов	-9.08972
ф	-9.09007
".	-9.09077
▁скоро	-9.09405
И	-9.09714
цы	-9.09757
▁путь	-9.09847
▁является	-9.09883
▁смотрел	-9.10083
▁России	-9.10102
▁мое	-9.10248
вер	-9.10281
ив	-9.10446
▁придется	-9.11144
ль	-9.11251
▁около	-9.11441
▁каким	-9.11505
▁явно	-9.11625
▁весьма	-9.11923
▁мать	-9.12061
▁оказался	-9.12216
▁скорее	-9.12243
▁меньше	-9.12476
▁работу	-9.12727
ма	-9.12881
▁какая	-9.1299
▁вышел	-9.13016
?»	-9.13175
▁Ее	-9.1323
К	-9.13295
ж	-9.13361
▁Раз	-9.13436
▁Тут	-9.13558
▁спокойно	-9.13621
­	-9.13748
▁глазах	-9.13772
ском	-9.13775
▁отца	-9.13948
▁пусть	-9.14294
▁Через	-9.14635
a	-9.14647
▁виду	-9.14904
▁Пока	-9.14909
▁улыбнулся	-9.15015
▁стол	-9.15405
▁взглядом	-9.15554
ность	-9.16313
▁поскольку	-9.16648
▁Хорошо	-9.16758
▁землю	-9.16924
▁Надо	-9.16936
i	-9.16983
▁мире	-9.17144
▁нами	-9.17529
ние	-9.17551
га	-9.17761
вы	-9.1784
▁Затем	-9.17935
▁Значит	-9.1796
▁детей	-9.1796
▁Тем	-9.18087
▁зачем	-9.18466
▁Л	-9.18578
ство	-9.18756
▁иначе	-9.18932
▁идет	-9.19079
▁резко	-9.19144
ле	-9.19541
...»	-9.19882
▁кое	-9.19893
▁комнату	-9.19894
▁вовсе	-9.19899
ва	-9.20336
ты	-9.20343
▁наших	-9.20512
▁четыре	-9.2066
▁д	-9.20788
П	-9.20852
▁5	-9.20854
s	-9.20967
'	-9.21237
▁голове	-9.21464
▁десять	-9.2156
▁случилось	-9.21726
▁мысль	-9.21773
▁ответила	-9.2178
▁обычно	-9.21948
▁откуда	-9.22234
▁час	-9.22292
▁мою	-9.22374
▁Ему	-9.22487
▁Ничего	-9.22544
▁пару	-9.22686
▁сквозь	-9.22701
▁успел	-9.22999
▁хочет	-9.23044
▁истории	-9.23196
▁нашего	-9.2329
o	-9.23393
▁кому	-9.23704
▁будем	-9.23806
▁иногда	-9.23881
ши	-9.23882
▁хочешь	-9.24022
О	-9.24078
либо	-9.24148
▁одним	-9.24165
▁понимаю	-9.24236
стью	-9.24448
▁волосы	-9.24533
▁Об	-9.24587
▁столько	-9.24861
▁видно	-9.24873
▁само	-9.24896
ца	-9.25174
▁возможность	-9.25257
▁знала	-9.25274
▁тысяч	-9.25318
▁сидел	-9.25416
ик	-9.2584
▁женщины	-9.25865
▁разве	-9.25909
▁тела	-9.26096
▁виде	-9.262
ина	-9.2642
▁глядя	-9.26468
▁Впрочем	-9.26488
▁видеть	-9.26582
▁земли	-9.26635
▁идти	-9.26719
э	-9.26727
овой	-9.26782
▁полностью	-9.26797
▁рот	-9.26868
▁говоря	-9.26973
▁Ф	-9.26992
ому	-9.27198
юсь	-9.27252
де	-9.27434
▁Этот	-9.27466
▁доме	-9.27615
▁известно	-9.2769
▁своему	-9.27958
▁никак	-9.28196
▁разговор	-9.28229
/	-9.28534
▁годы	-9.28591
▁обратно	-9.28913
▁стать	-9.28927
▁готов	-9.28978
▁двадцать	-9.29057
▁Глава	-9.29176
▁другом	-9.29305
▁б	-9.29468
▁мимо	-9.29585
▁продолжал	-9.2971
▁моих	-9.29711
ать	-9.29764
▁земле	-9.29972
▁ясно	-9.3005
ди	-9.30213
▁либо	-9.30419
▁слов	-9.30484
▁ради	-9.30627
ности	-9.30735
▁прав	-9.31062
скую	-9.31235
▁пришел	-9.31281
нее	-9.31326
▁матери	-9.31538
ан	-9.31539
▁одном	-9.31569
▁конца	-9.31656
▁никаких	-9.31829
▁Просто	-9.31864
ти	-9.31887
▁поднял	-9.31948
▁внимания	-9.32183
▁самым	-9.32189
▁плохо	-9.3238
▁хотела	-9.3292
▁вещи	-9.3311
▁настолько	-9.33305
▁выше	-9.33307
▁груди	-9.33338
▁плечами	-9.33501
▁лице	-9.33581
▁наверное	-9.33633
▁Один	-9.33718
Д	-9.33838
▁невозможно	-9.34032
ра	-9.34056
ней	-9.34325
▁вами	-9.34381
▁вместо	-9.34421
▁трудно	-9.34567
ское	-9.34739
▁например	-9.34848
▁власти	-9.34933
У	-9.34975
ился	-9.35014
▁пошел	-9.35273
▁обо	-9.35446
▁трех	-9.35489
▁произошло	-9.35525
▁брат	-9.35687
▁комнате	-9.35706
▁Их	-9.35748
▁последний	-9.35854
ите	-9.35879
▁многие	-9.35898
▁кем	-9.35901
ман	-9.35992
▁вернулся	-9.35999
ова	-9.36214
▁связи	-9.36238
ис	-9.36458
▁Правда	-9.36512
▁внутри	-9.3665
▁другого	-9.36807
до	-9.37068
▁Тот	-9.37143
▁души	-9.37247
▁происходит	-9.37442
▁помочь	-9.37461
▁думать	-9.37509
▁сын	-9.37588
▁слегка	-9.3798
нет	-9.38065
▁постоянно	-9.38086
▁Р	-9.38177
▁Меня	-9.38184
▁минуту	-9.38209
ским	-9.3879
▁удар	-9.39269
▁концов	-9.39406
p	-9.39474
▁головы	-9.39645
▁стены	-9.39663
▁мужчина	-9.3972
▁взять	-9.39833
▁пред	-9.40022
▁10	-9.40135
▁всему	-9.40324
▁дать	-9.40596
▁сначала	-9.40663
▁сих	-9.40837
▁станет	-9.40864
ст	-9.40899
?..	-9.4095
ц	-9.4098
▁крови	-9.41006
▁губы	-9.41164
▁неожиданно	-9.41332
▁самых	-9.41385
ут	-9.41455
▁Потому	-9.41564
ится	-9.4159
▁армии	-9.41603
▁ибо	-9.41685
▁Возможно	-9.41692
▁возле	-9.41695
▁вверх	-9.41869
▁какую	-9.41888
М	-9.41916
▁другим	-9.42011
▁Наконец	-9.42047
▁спиной	-9.42063
▁вся	-9.42379
▁осталось	-9.4246
▁оказалось	-9.42762
из	-9.42769
ри	-9.42778
—	-9.42905
▁Та	-9.42918
▁нос	-9.43056
▁получил	-9.43091
▁другое	-9.43263
▁дал	-9.43313
▁рук	-9.43435
▁свете	-9.43488
ал	-9.4363
▁могло	-9.43689
▁Чтобы	-9.43795
.)	-9.438
▁уверен	-9.4442
▁гораздо	-9.44431
▁Есть	-9.44691
ры	-9.44794
ства	-9.4488
▁поняла	-9.44945
▁голосом	-9.45013
ба	-9.45131
▁любви	-9.45214
ту	-9.45295
▁ночью	-9.45479
▁пре	-9.45566
▁кровь	-9.45732
▁подошел	-9.45749
▁капитан	-9.45819
су	-9.45843
▁завтра	-9.45882
▁молча	-9.45893
при	-9.45919
вшись	-9.45989
▁случай	-9.46017
▁Бог	-9.46052
тер	-9.46216
▁Э	-9.46226
▁воздух	-9.46343
▁слышал	-9.46485
ха	-9.46639
▁воду	-9.46647
▁Пусть	-9.46765
▁воз	-9.46874
Г	-9.47104
▁Очень	-9.47118
▁Разве	-9.47121
▁никого	-9.472
▁говорят	-9.47218
▁машины	-9.47232
▁знаете	-9.47275
▁часа	-9.47555
▁течение	-9.47567
▁права	-9.47615
▁узнать	-9.47722
Б	-9.47816
▁народ	-9.47869
▁отношения	-9.47942
",	-9.47999
▁смог	-9.48131
▁имени	-9.48168
▁помощь	-9.48199
▁ночи	-9.48256
▁лес	-9.48293
▁денег	-9.48452
▁Кроме	-9.4883
▁имел	-9.48911
ья	-9.48926
▁речь	-9.49026
▁право	-9.49066
ение	-9.49194
▁похоже	-9.49243
▁No	-9.49348
Н	-9.49495
тся	-9.49679
▁таком	-9.49689
▁осторожно	-9.49727
▁некоторые	-9.49758
▁помощью	-9.49798
▁вечер	-9.49835
▁Гарри	-9.4988
▁лицом	-9.49898
▁необходимо	-9.50341
▁одновременно	-9.50451
▁Именно	-9.5049
▁вздохнул	-9.50623
▁Эта	-9.50689
ила	-9.50795
▁говорю	-9.50859
▁любой	-9.50935
би	-9.51014
▁можешь	-9.51073
”	-9.51243
▁новые	-9.51257
▁твой	-9.51313
▁крайней	-9.51366
во	-9.51593
▁возможности	-9.51635
▁любовь	-9.51756
▁порядке	-9.51833
ня	-9.51846
▁Ладно	-9.51849
▁силу	-9.51891
▁Зачем	-9.51933
си	-9.51948
ве	-9.51993
▁оружие	-9.52061
ель	-9.52062
▁качестве	-9.52185
▁очередь	-9.52269
▁первой	-9.52371
ре	-9.52425
▁видела	-9.52563
▁человеком	-9.52567
▁работа	-9.52586
иться	-9.52599
илась	-9.52662
овые	-9.52706
▁Эти	-9.52715
▁море	-9.5295
про	-9.53034
▁утром	-9.53081
▁работать	-9.53177
ги	-9.53179
▁увидеть	-9.53226
▁молодой	-9.53259
▁дороге	-9.53325
▁6	-9.53332
▁никакого	-9.53407
▁внимательно	-9.53425
▁парень	-9.53595
▁Можно	-9.53765
▁сел	-9.53982
▁Пере	-9.53987
▁18	-9.54046
▁состоянии	-9.54169
▁чтоб	-9.54171
▁самые	-9.54402
ющий	-9.545
▁дни	-9.54558
ения	-9.54574
▁трудом	-9.54618
▁смерть	-9.54866
▁ждать	-9.54889
▁такую	-9.54941
лю	-9.55029
▁солдат	-9.55035
.]	-9.55035
▁чувство	-9.55061
▁общем	-9.55072
▁смотреть	-9.55136
ились	-9.55144
мер	-9.55308
▁многих	-9.55428
▁вижу	-9.55443
▁чему	-9.55619
▁дети	-9.55727
ость	-9.55747
▁боль	-9.55768
▁говорили	-9.55828
▁15	-9.55888
▁впервые	-9.5593
▁руке	-9.56159
▁книги	-9.56242
ишь	-9.56258
▁огонь	-9.56271
▁прекрасно	-9.56515
ее	-9.56557
прежнему	-9.56769
▁находится	-9.5681
▁вопросы	-9.56867
▁мгновение	-9.56868
▁шаг	-9.56878
ье	-9.57031
▁первого	-9.57052
▁новый	-9.57108
▁внезапно	-9.572
▁встал	-9.57221
▁несмотря	-9.57351
дер	-9.57365
▁практически	-9.57417
▁дорогу	-9.57544
▁последние	-9.57675
▁тяжело	-9.57751
▁бывает	-9.578
▁СССР	-9.57825
▁стояла	-9.57849
▁оказалась	-9.57974
ча	-9.58165
▁страны	-9.58174
▁показалось	-9.58484
▁утра	-9.58707
▁улыбнулась	-9.58707
▁пытался	-9.58715
▁каких	-9.58783
▁Ш	-9.58792
▁иметь	-9.58812
▁язык	-9.58825
▁Сам	-9.58847
▁можем	-9.58924
▁Без	-9.58988
овых	-9.59049
▁узнал	-9.59177
▁почувствовал	-9.59221
▁мама	-9.59223
что	-9.59472
▁Неужели	-9.59682
▁оба	-9.59866
цев	-9.59955
▁бросил	-9.60005
ар	-9.60171
▁вечером	-9.60311
▁комнаты	-9.60318
▁жена	-9.60364
ющие	-9.60418
▁начали	-9.60443
▁генерал	-9.6062
▁Ю	-9.60819
▁отсюда	-9.60872
▁стояли	-9.6091
▁нечто	-9.6094
▁роль	-9.6094
▁дел	-9.60997
▁века	-9.61065
ница	-9.6109
▁Ли	-9.61119
▁м	-9.61174
▁которому	-9.61309
▁какого	-9.61317
▁нашел	-9.61376
▁всеми	-9.61565
▁нескольких	-9.61597
ости	-9.61821
▁письмо	-9.61866
▁остался	-9.61887
▁улице	-9.61987
▁окна	-9.6208
▁I	-9.62256
али	-9.62257
шей	-9.62257
▁помощи	-9.62318
▁решение	-9.6256
вин	-9.6259
▁солнце	-9.62644
▁посмотрела	-9.62674
▁мистер	-9.62727
▁можете	-9.62765
▁чувствовал	-9.6278
▁цели	-9.62793
▁шел	-9.6287
▁Иван	-9.62874
▁немедленно	-9.62915
ру	-9.62973
▁остановился	-9.6313
▁будешь	-9.63181
▁поднялся	-9.63246
▁Уже	-9.63258
чи	-9.63316
▁план	-9.63328
▁Вам	-9.63362
▁поле	-9.63412
мы	-9.63519
▁хуже	-9.63696
▁протянул	-9.63834
▁ваш	-9.63905
Т	-9.63917
▁ума	-9.63996
че	-9.64027
▁гор	-9.64042
▁пытаясь	-9.64058
па	-9.64077
▁Тебе	-9.64079
▁согласился	-9.64132
▁17	-9.64276
▁P	-9.64281
▁ног	-9.64387
▁получить	-9.64473
▁главное	-9.64482
▁сына	-9.64612
йте	-9.64613
▁Нам	-9.64756
▁господин	-9.64787
▁городе	-9.64835
гу	-9.65151
▁обязательно	-9.65254
▁З	-9.6529
▁машину	-9.65342
y	-9.65348
ше	-9.65419
▁наверняка	-9.65431
▁говорила	-9.65547
▁вскоре	-9.65685
▁правильно	-9.6581
▁открыл	-9.65833
▁Эй	-9.65962
ках	-9.66028
▁каждого	-9.66132
▁голова	-9.66141
▁женщин	-9.66207
▁ближе	-9.66415
▁первым	-9.66567
▁рода	-9.66624
▁света	-9.66708
▁следующий	-9.67025
▁стола	-9.67093
▁душе	-9.67156
▁знали	-9.67213
▁оказались	-9.67233
▁э	-9.67234
▁громко	-9.67263
▁бес	-9.67273
▁повернулся	-9.67313
▁положение	-9.67507
об	-9.67542
▁силой	-9.6755
▁сэр	-9.67602
пер	-9.67665
▁людьми	-9.67685
▁видимо	-9.67856
]	-9.67873
▁людям	-9.67886
▁ребенка	-9.67896
ший	-9.67951
лин	-9.68113
▁Спасибо	-9.68226
▁вернуться	-9.68394
▁работе	-9.68487
▁небо	-9.68595
ро	-9.6865
▁моим	-9.68925
же	-9.68979
▁временем	-9.68983
мо	-9.69011
1	-9.69066
чу	-9.69415
▁Те	-9.69489
▁пожал	-9.69514
▁добавил	-9.6985
▁берегу	-9.69945
▁становится	-9.69981
▁увидела	-9.70086
ща	-9.70097
▁жил	-9.70124
со	-9.70192
▁понимал	-9.70249
▁важно	-9.70532
▁шум	-9.70721
▁услышал	-9.70759
▁мол	-9.71058
▁словами	-9.71078
▁Ей	-9.71085
▁плечо	-9.71116
▁поздно	-9.71375
▁смысл	-9.71388
▁хотите	-9.71425
▁номер	-9.71484
▁7	-9.71492
▁сможет	-9.71547
▁Ар	-9.716
се	-9.71805
▁нравится	-9.71851
▁принять	-9.71852
▁дочь	-9.72149
▁предложил	-9.7219
▁насколько	-9.72394
▁действия	-9.72408
тон	-9.72492
кин	-9.72527
▁кофе	-9.72591
▁боли	-9.7262
▁конец	-9.72627
▁чувства	-9.72715
▁спать	-9.7289
▁приходилось	-9.72925
▁вышла	-9.72935
▁хочется	-9.72987
ющих	-9.72988
его	-9.7301
▁плечи	-9.73044
▁другу	-9.73099
▁искать	-9.73246
▁вести	-9.7325
▁группы	-9.73468
нуть	-9.73482
▁остальные	-9.735
нов	-9.73532
вшийся	-9.73588
ски	-9.73588
▁цвет	-9.73934
▁Ах	-9.73991
▁пришла	-9.74005
▁двумя	-9.74022
▁черт	-9.74172
▁делает	-9.74239
▁дороги	-9.743
▁Александр	-9.7438
Не	-9.74406
▁зрения	-9.74474
▁противника	-9.74502
▁стороне	-9.74512
▁решила	-9.74538
▁стене	-9.74761
▁вчера	-9.74808
▁период	-9.74862
▁вдоль	-9.74934
вший	-9.74979
▁меч	-9.74993
▁странно	-9.75031
ист	-9.75172
▁смысле	-9.7541
ников	-9.75478
▁[	-9.7549
▁Никто	-9.75532
▁шли	-9.75655
▁двое	-9.75672
▁проблемы	-9.75674
2	-9.75701
▁сильнее	-9.75831
▁нового	-9.75956
▁появился	-9.75995
▁16	-9.75995
▁страшно	-9.76032
▁Мой	-9.76097
▁20	-9.76116
▁усмехнулся	-9.7612
▁грудь	-9.76187
▁умер	-9.76368
▁числе	-9.76495
▁желание	-9.76507
ировать	-9.76535
▁шесть	-9.76555
▁нужен	-9.76565
▁девушки	-9.76616
▁видели	-9.7665
▁Е	-9.76891
мен	-9.76924
▁пяти	-9.76929
▁Наверное	-9.76949
▁спину	-9.76983
ор	-9.7706
род	-9.77085
▁8	-9.77121
▁пальцы	-9.77124
ью	-9.77233
▁ваше	-9.77237
▁верно	-9.7752
▁Х	-9.77554
▁страх	-9.77607
▁поводу	-9.77771
▁угодно	-9.77905
ешься	-9.78245
Л	-9.78275
▁разных	-9.78356
▁результате	-9.78554
По	-9.7859
▁другую	-9.78666
▁подумала	-9.7875
▁новой	-9.78792
▁Андрей	-9.78815
▁Сегодня	-9.78861
▁сон	-9.78873
▁миг	-9.789
▁Перед	-9.79038
▁помню	-9.79063
лен	-9.79071
▁недавно	-9.79163
▁Было	-9.793
▁власть	-9.79338
▁вспомнил	-9.79516
▁постепенно	-9.79518
вид	-9.79567
▁люблю	-9.79608
▁цвета	-9.79644
▁наша	-9.79878
▁сделала	-9.79881
▁никому	-9.79889
▁вашей	-9.79922
▁окно	-9.80041
▁глубоко	-9.80068
▁самому	-9.80106
▁думала	-9.80127
▁12	-9.80172
▁народа	-9.8021
▁Кон	-9.80231
▁секунд	-9.80312
ста	-9.80537
▁запах	-9.80574
▁водой	-9.8077
щ	-9.80826
ос	-9.81226
ск	-9.8136
емся	-9.81383
ает	-9.81514
▁движения	-9.81568
цу	-9.8157
▁ногами	-9.81718
▁спустя	-9.81728
▁Сколько	-9.81871
▁ветер	-9.81896
▁позже	-9.81983
ятся	-9.82057
▁заметила	-9.82081
▁счет	-9.82179
ат	-9.82218
▁мужчины	-9.82297
▁рука	-9.82417
3	-9.82517
▁писал	-9.82664
▁Ко	-9.82754
▁ваши	-9.82833
▁утро	-9.82909
▁смотрела	-9.8295
▁корабль	-9.83008
(	-9.83014
▁Чего	-9.83018
▁начале	-9.83124
▁кровати	-9.83136
▁движение	-9.83205
▁новых	-9.83322
▁Кстати	-9.83374
▁лично	-9.8342
ви	-9.83467
вар	-9.83526
▁благодаря	-9.83653
▁крепко	-9.83745
▁доктор	-9.83761
▁Рас	-9.83875
▁попытался	-9.83883
▁н	-9.83917
▁S	-9.83986
▁Итак	-9.83988
▁примерно	-9.8399
▁пришли	-9.84017
▁неделю	-9.84043
▁воздухе	-9.84052
▁посмотреть	-9.84083
▁пошли	-9.84113
▁нужна	-9.84166
▁использовать	-9.8424
▁человеку	-9.84253
▁однажды	-9.84257
▁впереди	-9.84375
▁представить	-9.84451
▁муж	-9.84456
▁степени	-9.8466
▁характер	-9.8479
▁которыми	-9.84961
▁системы	-9.84964
▁платье	-9.85094
▁небольшой	-9.8512
▁твоя	-9.85192
▁понятно	-9.85265
ек	-9.85302
▁памяти	-9.85365
ду	-9.85527
▁США	-9.85552
▁пора	-9.85695
▁ушел	-9.8573
▁оставалось	-9.85777
▁точки	-9.858
▁заявил	-9.85856
▁покачал	-9.85875
▁звук	-9.85935
▁наиболее	-9.85988
▁воскликнул	-9.86034
ика	-9.86235
▁колени	-9.86278
▁вода	-9.86294
▁шла	-9.8635
▁вероятно	-9.86352
▁напротив	-9.86414
▁первую	-9.86573
▁Сергей	-9.86626
▁случайно	-9.86636
▁факт	-9.86854
▁Думаю	-9.86879
▁мужа	-9.86896
▁часы	-9.86896
ника	-9.869
▁the	-9.86943
▁мальчик	-9.87019
ники	-9.87034
ды	-9.8709
овая	-9.87322
▁старик	-9.87351
▁Мак	-9.87384
▁некоторое	-9.87392
▁уйти	-9.8745
▁большим	-9.8754
▁Куда	-9.8765
▁Бога	-9.87665
▁состояние	-9.8771
▁поговорить	-9.87721
нии	-9.87726
овать	-9.87915
▁Чем	-9.88005
▁история	-9.88057
▁проговорил	-9.88138
5	-9.8824
▁оттуда	-9.88316
▁14	-9.88446
▁семьи	-9.88447
▁считать	-9.88521
▁брата	-9.88553
▁наше	-9.88752
▁времена	-9.88753
▁убить	-9.88833
▁душу	-9.88869
▁выход	-9.88888
▁нечего	-9.88892
сон	-9.88901
▁причем	-9.89061
▁Давай	-9.89113
ового	-9.89116
ющего	-9.89208
▁крикнул	-9.89262
▁вошел	-9.89312
▁области	-9.89421
▁телефон	-9.89438
▁вряд	-9.89559
▁решили	-9.8956
▁месяц	-9.89571
▁улыбкой	-9.89618
▁лежал	-9.89629
▁старый	-9.89699
▁дыхание	-9.89843
▁окончательно	-9.89858
▁разные	-9.89928
ум	-9.89943
▁одному	-9.90034
▁метров	-9.90096
▁касается	-9.90099
▁взглянул	-9.90246
▁всякий	-9.9033
▁стране	-9.90337
▁безопасности	-9.9042
Ф	-9.90433
▁нужны	-9.90468
▁Ка	-9.90497
▁зубы	-9.90514
▁рад	-9.90542
▁приказал	-9.90561
▁Три	-9.90586
▁кивнула	-9.90729
▁9	-9.90763
▁любил	-9.90818
▁твоей	-9.90875
▁собственной	-9.9093
▁любит	-9.91094
▁сообщил	-9.91165
▁полной	-9.91216
▁забыл	-9.91255
▁очевидно	-9.91288
шие	-9.91333
▁существует	-9.91473
▁л	-9.91501
▁миссис	-9.91634
▁близко	-9.91634
▁волос	-9.91642
▁абсолютно	-9.91666
▁большую	-9.9172
зи	-9.91722
▁минуты	-9.91826
▁столом	-9.91892
лы	-9.91895
▁Сначала	-9.92042
▁никакой	-9.92091
▁двор	-9.92137
▁способ	-9.92176
▁неё	-9.92183
▁образ	-9.92188
▁сторон	-9.92263
▁девочка	-9.9232
▁количество	-9.92389
ус	-9.92407
▁некоторых	-9.92483
ями	-9.9253
▁последнее	-9.92642
ием	-9.92747
▁остались	-9.92763
▁попросил	-9.92778
шего	-9.92887
це	-9.92992
▁пошла	-9.92994
▁принял	-9.93002
▁нашли	-9.93007
▁положил	-9.93127
▁друзей	-9.93131
▁ситуации	-9.93234
▁историю	-9.93291
▁ждал	-9.93577
▁выйти	-9.93703
▁тридцать	-9.93835
▁твои	-9.93866
лей	-9.93898
ран	-9.93914
▁вашего	-9.94035
▁партии	-9.94082
▁Девушка	-9.94116
Х	-9.94139
▁Какой	-9.94146
▁маленький	-9.94164
▁компании	-9.94201
▁собирался	-9.94259
▁благо	-9.94373
▁видом	-9.94416
▁приказ	-9.94424
▁каждой	-9.94447
▁Люди	-9.94453
▁быстрее	-9.94453
▁жив	-9.94538
▁форме	-9.9468
▁находился	-9.94712
щие	-9.94753
▁секунду	-9.94939
▁Ор	-9.94982
▁развития	-9.95046
▁решительно	-9.9507
4	-9.95071
▁дух	-9.95101
▁прошел	-9.952
▁делал	-9.95212
▁друзья	-9.95247
▁пожалуйста	-9.95251
▁11	-9.95291
прав	-9.95293
▁связь	-9.95326
▁буквально	-9.9539
▁мужчин	-9.95449
▁ниже	-9.95469
ний	-9.95533
мор	-9.95559
▁30	-9.95589
▁первые	-9.9563
лов	-9.95681
щий	-9.95742
▁цель	-9.95742
▁нашу	-9.95765
скому	-9.95781
▁этими	-9.9585
▁большие	-9.95997
▁вслед	-9.96034
вшихся	-9.96231
▁тысячи	-9.96339
▁множество	-9.96381
лу	-9.96402
▁Ха	-9.96434
▁считал	-9.96455
три	-9.96462
▁моем	-9.96486
▁бой	-9.96491
▁Мир	-9.96569
▁вышли	-9.96593
▁думаешь	-9.96645
▁Похоже	-9.96651
▁стараясь	-9.96659
▁хватит	-9.96674
раз	-9.96832
▁сила	-9.96859
▁широко	-9.96892
▁серьезно	-9.96963
▁впечатление	-9.9701
ической	-9.97025
▁Ла	-9.97083
▁взяла	-9.97099
ала	-9.97152
ай	-9.97157
▁II	-9.97206
▁сто	-9.97254
▁общества	-9.97321
гор	-9.97322
▁сердца	-9.97349
нос	-9.97388
вал	-9.97427
▁ход	-9.97433
ска	-9.97518
тель	-9.97541
▁Вас	-9.97725
овым	-9.97734
▁of	-9.97808
ении	-9.97991
▁остается	-9.981
▁война	-9.98228
вшиеся	-9.98237
▁скажу	-9.98296
▁опыт	-9.98337
шь	-9.9839
▁слезы	-9.9843
▁мисс	-9.98475
▁интересно	-9.98487
ившись	-9.98717
▁лестнице	-9.98762
▁Вер	-9.98846
▁Таким	-9.98862
▁рано	-9.98917
ович	-9.98925
▁недели	-9.98933
▁объяснить	-9.98947
▁страха	-9.99007
енный	-9.99097
▁упал	-9.99189
▁показал	-9.99243
вших	-9.99251
▁моря	-9.99275
▁живет	-9.99278
▁сделали	-9.99393
▁чаще	-9.99399
▁подумать	-9.99401
▁войск	-9.99445
енко	-9.99512
▁ногу	-9.99561
▁знают	-9.99562
▁деятельности	-9.99661
▁машина	-9.99675
▁редко	-9.99701
пол	-9.99707
▁большая	-9.99761
▁Иногда	-9.99774
▁появилась	-9.99781
▁принялся	-9.99814
ню	-9.99873
▁Несколько	-10.0009
▁другими	-10.001
▁пар	-10.0011
сы	-10.0017
З	-10.002
▁тщательно	-10.0035
▁честь	-10.0051
▁сорок	-10.0051
щих	-10.0054
▁рассказал	-10.0059
▁дым	-10.0061
▁типа	-10.0066
▁Джек	-10.0067
E	-10.0076
▁лесу	-10.0084
▁следовало	-10.009
▁Человек	-10.0097
▁пальцами	-10.0099
Е	-10.0108
▁удивился	-10.011
очка	-10.0117
▁труда	-10.0133
▁Москве	-10.0138
▁значение	-10.0143
▁каком	-10.0145
▁тени	-10.015
▁Ле	-10.0151
чик	-10.0162
▁кор	-10.0163
рон	-10.0184
жа	-10.0184
▁оставил	-10.019
▁девушку	-10.0194
▁C	-10.0198
▁знак	-10.0198
шка	-10.02
▁зал	-10.0209
▁земля	-10.0209
er	-10.0217
▁высоко	-10.0217
ают	-10.0218
▁раздался	-10.0241
▁трубку	-10.0243
▁Николай	-10.0246
▁пальцем	-10.0258
▁кабинет	-10.026
▁шею	-10.0267
ших	-10.0274
▁сознание	-10.0275
▁месяцев	-10.0275
▁весело	-10.028
▁закон	-10.0286
▁процесс	-10.0286
▁Анна	-10.029
▁книгу	-10.0294
▁Виктор	-10.0295
▁интерес	-10.0299
▁реки	-10.0301
▁Дело	-10.0302
▁пожалуй	-10.0304
▁A	-10.031
▁раза	-10.031
▁ваша	-10.031
▁короля	-10.0311
▁больно	-10.0315
▁and	-10.0319
▁начинает	-10.032
ете	-10.032
▁семь	-10.032
▁камень	-10.0325
▁Отец	-10.0339
▁хотели	-10.0344
енные	-10.0346
▁голоса	-10.0347
она	-10.035
▁смотрит	-10.0359
▁вкус	-10.0361
▁постели	-10.0361
шая	-10.0361
▁з	-10.0362
▁ребенок	-10.0374
ге	-10.0377
▁темно	-10.0379
▁Каждый	-10.0384
▁легче	-10.0384
▁Джон	-10.0388
▁Откуда	-10.0391
▁разу	-10.0396
▁улицу	-10.0398
▁дает	-10.0402
шу	-10.0404
▁Между	-10.041
ющей	-10.0411
▁лоб	-10.0412
▁вз	-10.0412
▁ладно	-10.0416
▁корабля	-10.042
▁Гор	-10.0436
▁Оно	-10.0438
ян	-10.0448
▁самая	-10.0451
ические	-10.0459
▁месяца	-10.0461
Э	-10.0465
кам	-10.0467
▁сидели	-10.0473
▁память	-10.048
▁произнесла	-10.0484
▁начало	-10.0484
▁13	-10.0496
▁оставить	-10.0499
▁ф	-10.0509
▁Всё	-10.0518
▁лицу	-10.0519
t	-10.052
▁леди	-10.0527
▁па	-10.0534
▁Ага	-10.0534
▁хозяин	-10.0537
▁мгновенно	-10.0542
нь	-10.0544
бор	-10.0551
▁рассказать	-10.0553
вшие	-10.0567
▁приходится	-10.0572
▁зная	-10.0573
▁берег	-10.0582
▁желания	-10.0589
бо	-10.0591
▁король	-10.06
▁вон	-10.0618
ван	-10.0618
▁ум	-10.0627
▁кон	-10.0627
ган	-10.063
▁прошло	-10.0631
ана	-10.0634
▁остаться	-10.0634
▁гости	-10.0637
▁первых	-10.0656
▁государства	-10.0658
▁//	-10.0659
▁бумаги	-10.0666
▁понимаешь	-10.0669
▁поля	-10.0672
▁войска	-10.0674
зна	-10.0693
▁информации	-10.0696
▁задумчиво	-10.0706
▁управления	-10.0717
▁навстречу	-10.0725
▁делом	-10.073
▁зовут	-10.0734
▁выражение	-10.0734
▁честно	-10.0736
Р	-10.0742
▁условиях	-10.0755
▁нашем	-10.0766
▁товарищ	-10.0768
▁ответа	-10.077
▁вздохнула	-10.0784
▁душа	-10.0793
▁стен	-10.0793
ющая	-10.0794
лет	-10.0804
▁моему	-10.0806
▁имеют	-10.0813
▁воде	-10.0818
▁разумеется	-10.0821
▁Су	-10.0824
▁Кажется	-10.0828
▁ужас	-10.083
▁сказали	-10.0832
▁сидела	-10.0837
ел	-10.0841
.].	-10.0845
▁всяком	-10.0856
▁десяти	-10.0861
▁горы	-10.0865
▁(«	-10.0867
▁пара	-10.087
бер	-10.0872
▁зло	-10.0872
▁обратился	-10.0875
▁жизнью	-10.0878
▁наоборот	-10.088
▁Например	-10.0882
▁отправился	-10.0884
ических	-10.0885
тор	-10.0885
▁углу	-10.0893
▁Кор	-10.0898
ич	-10.0899
▁правду	-10.0901
▁навсегда	-10.0902
▁имею	-10.0905
▁дорогой	-10.0907
Ш	-10.0907
S	-10.0909
▁пробормотал	-10.0915
▁порядок	-10.0924
▁будь	-10.0925
На	-10.0926
▁означает	-10.0928
ид	-10.0934
ину	-10.0934
▁направился	-10.0934
▁ждет	-10.0935
▁ответить	-10.0936
▁сверху	-10.0948
▁немало	-10.0948
ический	-10.0949
▁смогу	-10.0964
▁решения	-10.0966
▁чай	-10.0967
▁церкви	-10.0971
▁достал	-10.0973
▁такими	-10.0977
▁проблем	-10.098
▁дому	-10.0983
вод	-10.0984
▁повторил	-10.0988
щей	-10.0995
▁ею	-10.0998
▁Лучше	-10.1014
▁встречи	-10.1021
бы	-10.1026
▁новую	-10.1026
▁направлении	-10.1036
▁B	-10.1039
ницы	-10.1039
▁голосе	-10.1052
▁стоило	-10.1061
ющим	-10.1062
▁состав	-10.1066
▁25	-10.1069
▁стр	-10.1072
»?	-10.1103
▁действий	-10.111
▁Больше	-10.1117
▁поставил	-10.1118
▁третий	-10.112
▁работал	-10.1121
▁работает	-10.1127
▁тепло	-10.1136
ден	-10.1137
▁событий	-10.1142
ров	-10.1148
▁целый	-10.1155
▁кстати	-10.116
▁Ма	-10.1166
щего	-10.1179
▁будете	-10.1182
▁бог	-10.1199
▁вечера	-10.12
▁пойти	-10.1211
▁ощущение	-10.1213
жи	-10.1217
▁леса	-10.122
▁губ	-10.1223
▁попал	-10.1228
▁письма	-10.1234
▁остальных	-10.1238
▁папа	-10.1238
▁вина	-10.1239
йся	-10.1242
▁чувств	-10.1245
▁новое	-10.1249
▁основном	-10.1252
▁речи	-10.1254
▁территории	-10.1256
▁потерял	-10.1258
▁исчез	-10.1258
▁знаем	-10.1262
▁осталась	-10.1269
▁восемь	-10.1271
▁внутрь	-10.1274
▁Вскоре	-10.1285
▁строго	-10.1298
▁позади	-10.1298
▁сомнения	-10.1303
▁местах	-10.1304
▁давай	-10.1305
▁дворе	-10.1307
▁Зато	-10.1308
▁хватало	-10.1308
▁теле	-10.1309
▁Германии	-10.1311
хо	-10.132
щая	-10.1321
рин	-10.1321
▁Владимир	-10.1323
▁командир	-10.1328
▁четырех	-10.133
6	-10.134
▁зале	-10.1347
▁события	-10.1348
▁держать	-10.1352
▁князь	-10.1352
▁целью	-10.1354
▁центре	-10.1356
▁организации	-10.1361
▁ре	-10.1366
как	-10.1372
▁нож	-10.1373
▁отличие	-10.1381
▁радио	-10.1391
чер	-10.1391
▁продолжил	-10.1394
▁женщину	-10.141
▁Па	-10.1412
нем	-10.1418
▁насчет	-10.1419
▁отношении	-10.1429
▁ком	-10.1437
▁получилось	-10.1442
ими	-10.1444
▁крайне	-10.1444
▁приятно	-10.1447
кон	-10.1451
▁Джо	-10.1461
▁смотрели	-10.1463
▁естественно	-10.1464
бу	-10.1467
▁столе	-10.1468
мет	-10.1473
C	-10.1477
▁жены	-10.1489
▁относительно	-10.1497
▁крест	-10.1504
▁провел	-10.1505
ией	-10.1505
Да	-10.1506
▁р	-10.1509
▁гг	-10.1526
c	-10.1529
▁сожалению	-10.1533
▁одни	-10.1535
▁ладони	-10.1546
▁читать	-10.1549
▁почувствовала	-10.1561
▁Вдруг	-10.1564
▁отдал	-10.1571
▁Мор	-10.1576
▁плен	-10.1578
▁(19	-10.1584
▁название	-10.1585
▁M	-10.1589
нув	-10.159
ева	-10.1599
▁появились	-10.1599
▁лежит	-10.16
▁1.	-10.1601
вен	-10.1604
▁дали	-10.1605
▁Два	-10.1613
▁особо	-10.163
вшего	-10.1632
стве	-10.1638
▁группа	-10.164
▁пить	-10.1642
▁выбор	-10.1654
▁Какая	-10.1655
▁делу	-10.1661
рос	-10.1677
▁начать	-10.1682
▁Эл	-10.1683
▁видит	-10.1688
▁энергии	-10.1693
▁имели	-10.1695
▁идея	-10.1703
▁пользу	-10.1703
▁Бо	-10.1708
▁днем	-10.1721
▁отношение	-10.1723
▁русских	-10.1724
▁Мар	-10.1726
▁Бар	-10.1726
▁исключительно	-10.1727
ики	-10.1727
ического	-10.1737
пи	-10.1746
▁темноте	-10.1749
▁Нужно	-10.175
▁большинство	-10.1759
▁стену	-10.176
▁сотни	-10.1765
▁пистолет	-10.1765
▁Над	-10.1767
▁машине	-10.1768
▁большое	-10.177
ющихся	-10.1772
▁Ре	-10.1776
▁боя	-10.178
▁мягко	-10.1785
▁заметно	-10.179
n	-10.1795
▁ворот	-10.1801
▁ряд	-10.1803
хи	-10.1806
▁держал	-10.1815
▁очередной	-10.182
лад	-10.1827
▁прочь	-10.1832
▁Де	-10.1834
▁Пре	-10.1842
▁сестра	-10.1842
▁Интересно	-10.1855
▁зато	-10.1856
ою	-10.1857
кс	-10.1866
кая	-10.1869
▁оружия	-10.1879
▁кино	-10.1881
▁линии	-10.1885
▁срок	-10.1885
фа	-10.1886
▁счастье	-10.1887
▁ярко	-10.189
▁суд	-10.1891
нут	-10.1894
▁подошла	-10.19
▁другая	-10.1902
▁p	-10.1903
▁второго	-10.1911
▁языке	-10.1919
▁Боже	-10.192
▁Глаза	-10.1925
▁успела	-10.1926
▁специально	-10.1927
▁стран	-10.1932
▁сидит	-10.1933
▁прошлом	-10.194
▁момента	-10.1944
овую	-10.1949
▁Несмотря	-10.1957
▁сознания	-10.1958
▁солнца	-10.1959
нер	-10.1959
ун	-10.1961
ях	-10.1966
ило	-10.1972
“	-10.1976
сов	-10.1977
▁правило	-10.1978
▁Надеюсь	-10.1978
▁Им	-10.1981
▁спас	-10.199
u	-10.1993
▁войну	-10.2003
▁хлеб	-10.2014
▁твоего	-10.2021
▁мая	-10.2028
▁граф	-10.2029
▁чувствовала	-10.2031
▁ребята	-10.2034
нию	-10.2044
▁заранее	-10.2048
нул	-10.2055
▁каждом	-10.2058
▁показать	-10.207
▁нашим	-10.2075
▁пройти	-10.2082
▁схватил	-10.2086
▁главе	-10.2088
▁ходу	-10.2094
▁настоящий	-10.2109
▁Господи	-10.211
▁Петр	-10.211
▁обе	-10.2131
▁Моя	-10.2133
▁пример	-10.2141
▁удастся	-10.2142
ины	-10.215
▁секрет	-10.2152
▁Сталин	-10.216
▁поинтересовался	-10.216
▁Иванович	-10.2163
▁крик	-10.2164
▁отряд	-10.2164
▁Особенно	-10.2168
стей	-10.217
стер	-10.2172
овый	-10.2174
▁трое	-10.2177
▁замок	-10.2181
▁придет	-10.2183
▁бур	-10.2183
▁стар	-10.2204
▁вопросов	-10.221
▁Франции	-10.2217
вшегося	-10.2228
▁впрочем	-10.2229
▁начальник	-10.223
▁зря	-10.2231
первых	-10.2234
▁тотчас	-10.2236
▁сидеть	-10.2236
▁любом	-10.2238
▁хватает	-10.2243
▁забыть	-10.2246
▁угол	-10.2247
▁информацию	-10.2252
▁шагов	-10.2263
моему	-10.2265
▁твердо	-10.2267
ическая	-10.2269
▁являются	-10.2274
▁Разумеется	-10.2275
▁отвечал	-10.2283
етесь	-10.2284
▁врага	-10.2286
▁изо	-10.2289
▁живот	-10.2293
▁играть	-10.2295
▁карман	-10.2302
ё	-10.2302
▁отлично	-10.2302
▁вернулась	-10.2307
▁мед	-10.2309
▁вел	-10.2332
▁маг	-10.2332
▁судя	-10.2333
▁предложение	-10.2334
▁назвать	-10.2336
▁Казалось	-10.234
▁невольно	-10.2341
▁кровью	-10.2341
▁ходить	-10.2347
▁Ан	-10.235
▁анти	-10.235
▁край	-10.2356
▁смогла	-10.2357
▁вынужден	-10.2359
▁пришло	-10.236
▁мнению	-10.2364
▁хотят	-10.2372
▁далее	-10.2378
▁Однажды	-10.2386
▁спросить	-10.2389
▁жили	-10.2394
▁твое	-10.2397
▁встреча	-10.2398
▁Кар	-10.24
▁мнение	-10.2402
▁останется	-10.2402
▁обернулся	-10.2408
▁снег	-10.2413
▁судьба	-10.2418
▁хороший	-10.2419
сен	-10.2421
▁автор	-10.2421
▁обоих	-10.2421
▁спине	-10.2433
▁рассказывал	-10.2441
▁род	-10.2448
▁Алекс	-10.245
▁вне	-10.2453
▁многое	-10.2466
▁Игорь	-10.2469
▁Марк	-10.247
▁войне	-10.2475
▁дочери	-10.2476
▁Мама	-10.2483
▁отозвался	-10.2489
▁след	-10.249
7	-10.2492
▁первом	-10.2497
▁села	-10.2498
▁причин	-10.25
изм	-10.2505
▁прошу	-10.2506
сер	-10.2507
▁Пол	-10.2512
▁провести	-10.2513
▁заниматься	-10.2522
▁случаях	-10.2527
▁Никогда	-10.2528
▁Черт	-10.2533
▁Нью	-10.2537
скими	-10.2542
ству	-10.2543
▁приехал	-10.2546
▁замуж	-10.2549
▁рождения	-10.255
▁обнаружил	-10.2563
▁труд	-10.2571
▁внизу	-10.2572
▁написал	-10.2573
твор	-10.2577
▁пространство	-10.2584
▁Уж	-10.2589
▁называется	-10.26
▁необходимости	-10.2621
▁верить	-10.2641
▁/	-10.2642
йтесь	-10.2643
▁слез	-10.2644
ели	-10.2649
эн	-10.2649
▁опасности	-10.2657
▁готовы	-10.2657
▁удовольствием	-10.2674
▁прошептал	-10.2674
▁улицы	-10.2678
▁Том	-10.2681
▁действовать	-10.2682
▁путем	-10.2686
▁каждым	-10.2687
▁оказаться	-10.269
ще	-10.2695
▁бежать	-10.2705
▁одежду	-10.271
▁продолжала	-10.2715
▁Макс	-10.2722
▁принес	-10.2722
ско	-10.2723
▁Михаил	-10.2726
▁профессор	-10.2732
▁рассказ	-10.2732
▁ваших	-10.274
▁радости	-10.2742
ющиеся	-10.2757
▁увидев	-10.2764
мир	-10.2766
▁машин	-10.2769
▁старался	-10.2775
▁снял	-10.2776
▁ожидал	-10.2781
енная	-10.2784
▁читал	-10.2785
▁кресло	-10.2788
▁частью	-10.2796
▁ничем	-10.2802
▁Олег	-10.2804
▁огня	-10.2805
▁силах	-10.2806
▁словом	-10.2809
▁24	-10.2813
▁писать	-10.2817
▁роли	-10.2818
▁будущее	-10.2823
▁воздуха	-10.2825
▁др	-10.2827
▁Некоторые	-10.2828
▁привык	-10.2829
зе	-10.2829
▁первое	-10.2832
▁ехать	-10.2833
▁лист	-10.2833
тан	-10.2835
▁дар	-10.2837
▁сад	-10.2844
▁Алексей	-10.2845
▁заговорил	-10.2861
щим	-10.2867
шим	-10.2878
▁тоном	-10.2879
▁значительно	-10.2885
▁способен	-10.2888
▁система	-10.2888
рик	-10.2891
▁убил	-10.2894
▁Ч	-10.2896
▁думает	-10.2901
▁попасть	-10.2904
▁сумел	-10.2913
▁полковник	-10.2941
▁школы	-10.2941
▁Пер	-10.2944
рен	-10.2949
▁деревьев	-10.296
▁пишет	-10.2967
▁ключ	-10.297
рис	-10.2971
▁чувствую	-10.2972
▁поверхности	-10.2974
▁участие	-10.2981
▁столу	-10.2991
▁холодно	-10.2991
ера	-10.2999
▁звезд	-10.3007
лом	-10.3013
▁прошла	-10.3019
аль	-10.3019
▁уши	-10.302
▁парня	-10.3022
▁2.	-10.3023
▁горло	-10.3032
▁туман	-10.3038
▁лейтенант	-10.3043
чет	-10.3043
▁пятьдесят	-10.3044
▁больших	-10.3044
▁жаль	-10.3046
▁22	-10.3053
▁сторонам	-10.3055
▁Первый	-10.306
▁различных	-10.307
▁вида	-10.3071
▁См	-10.308
▁операции	-10.3081
▁существо	-10.3092
итесь	-10.3093
▁бросился	-10.3095
▁бок	-10.3097
▁ударил	-10.31
▁спал	-10.3104
▁согласно	-10.3107
▁аккуратно	-10.3109
▁Бен	-10.3111
ена	-10.3116
вот	-10.3123
щи	-10.3128
▁гостей	-10.3129
▁сне	-10.3134
▁подняла	-10.3134
▁Вообще	-10.3135
▁Сер	-10.3135
▁берега	-10.3145
▁жену	-10.3145
▁июня	-10.3148
ическое	-10.315
▁число	-10.3155
▁последнего	-10.3156
тро	-10.3156
▁разум	-10.3157
I	-10.3164
▁Второй	-10.3166
ация	-10.3169
кий	-10.317
▁мин	-10.3172
▁формы	-10.3177
▁делают	-10.318
▁самую	-10.318
▁долларов	-10.3193
▁Сан	-10.3193
▁тему	-10.3206
▁краю	-10.3208
19	-10.3208
▁Лишь	-10.321
▁стакан	-10.3213
▁офицер	-10.3216
▁средства	-10.3217
▁первая	-10.322
▁Нас	-10.3221
▁Одна	-10.323
▁Время	-10.325
▁главным	-10.3255
▁службы	-10.3255
▁готова	-10.3258
▁Голос	-10.3261
▁круг	-10.3261
▁коротко	-10.3269
▁последних	-10.3276
кова	-10.3277
▁тон	-10.3286
▁счастью	-10.3295
жен	-10.3295
образ	-10.3297
▁двадцати	-10.3307
▁открыть	-10.3308
▁подальше	-10.3311
▁объяснил	-10.3314
▁Ц	-10.3315
▁полный	-10.3321
▁вещей	-10.3323
▁получается	-10.3324
▁недо	-10.3326
▁целом	-10.3337
▁вечно	-10.3344
▁стул	-10.3347
шки	-10.335
▁тишина	-10.3351
▁словам	-10.3352
▁книге	-10.3355
▁роман	-10.3365
▁Москву	-10.3367
▁ладонь	-10.3372
▁ушла	-10.3375
▁коня	-10.3377
▁c	-10.3379
▁класс	-10.3382
▁ворота	-10.3387
▁носом	-10.3387
en	-10.3387
лит	-10.339
ющее	-10.3397
▁игры	-10.3397
кер	-10.34
фер	-10.3404
▁мысленно	-10.3406
лан	-10.3406
▁выглядел	-10.3414
▁'	-10.3428
▁радость	-10.3432
▁черные	-10.3435
▁дверью	-10.3442
▁успели	-10.3446
▁русской	-10.3447
▁поможет	-10.3457
▁слышала	-10.346
▁живут	-10.3461
▁никуда	-10.3462
▁говоришь	-10.3467
▁площади	-10.3469
▁книг	-10.3472
r	-10.3472
▁указал	-10.3474
▁школе	-10.3475
▁ста	-10.3477
ющийся	-10.3479
▁единственный	-10.3483
ём	-10.3488
▁принимать	-10.3488
▁родителей	-10.3488
▁лошади	-10.3489
!!!	-10.3493
▁непосредственно	-10.3494
▁августа	-10.3495
▁уровне	-10.3501
▁знаком	-10.3502
▁Мал	-10.3503
▁уровень	-10.3506
▁имела	-10.351
▁понимать	-10.351
▁большого	-10.3519
▁проблема	-10.3521
▁Дон	-10.3521
▁Какие	-10.3523
▁сзади	-10.3526
▁значения	-10.3527
▁радостно	-10.3528
▁сей	-10.3529
▁квартиру	-10.353
▁животных	-10.3536
▁ужасно	-10.3539
▁твою	-10.354
зы	-10.3541
тели	-10.3545
▁пост	-10.3547
▁лежала	-10.3549
▁бар	-10.3555
▁времен	-10.3556
▁семье	-10.3559
▁фон	-10.356
▁уверена	-10.3565
▁Ку	-10.3568
▁полном	-10.3579
▁оказывается	-10.3581
▁вовремя	-10.3583
▁23	-10.3583
▁поэт	-10.3588
бе	-10.3593
▁душ	-10.3595
стоя	-10.3599
вторых	-10.3601
▁улыбка	-10.3603
▁сигнал	-10.3606
▁Более	-10.3607
вшейся	-10.3609
▁прием	-10.3614
▁лиц	-10.3616
▁всякого	-10.3621
▁последней	-10.364
▁видишь	-10.3641
▁E	-10.3643
▁Лицо	-10.3645
▁районе	-10.3647
▁звуки	-10.365
▁оставаться	-10.3657
▁здания	-10.366
▁следом	-10.3662
гер	-10.3665
▁вариант	-10.3673
▁глубине	-10.3674
▁телом	-10.3675
▁пыль	-10.3679
▁настоящее	-10.3679
▁революции	-10.368
ed	-10.3683
▁Скорее	-10.3684
овал	-10.369
▁живых	-10.3695
▁пер	-10.3697
▁намного	-10.3701
▁ровно	-10.3703
▁получится	-10.3706
▁смысла	-10.3708
▁родители	-10.3708
жу	-10.3716
▁шанс	-10.372
▁Среди	-10.3724
▁причине	-10.3726
▁пыталась	-10.3727
▁следы	-10.3731
▁чисто	-10.3739
▁вспомнить	-10.374
▁нормально	-10.3741
f	-10.3745
▁дерева	-10.3762
▁остров	-10.3762
ген	-10.3772
рас	-10.3772
овский	-10.3772
▁суда	-10.3773
▁ч	-10.3775
▁обед	-10.3776
▁населения	-10.3779
▁старого	-10.3787
▁Ба	-10.3792
▁N	-10.38
▁19	-10.3808
▁Мария	-10.3808
ак	-10.3811
мон	-10.3811
▁находились	-10.3813
▁неплохо	-10.3814
оп	-10.3822
▁шар	-10.3825
▁пойдет	-10.3827
▁Пред	-10.3827
▁считает	-10.3832
▁прошли	-10.3832
▁еле	-10.3832
▁любого	-10.3834
▁черный	-10.3835
▁июля	-10.3838
▁женой	-10.3839
▁Многие	-10.3846
▁Прежде	-10.3847
▁спасибо	-10.3851
▁предмет	-10.3863
▁адрес	-10.3868
▁Видимо	-10.3875
▁Лу	-10.3877
▁Мои	-10.3887
▁выходит	-10.3889
▁подобного	-10.3895
▁сентября	-10.3896
▁погиб	-10.3899
дар	-10.3901
▁положении	-10.3902
▁возразил	-10.3905
▁кусок	-10.3908
▁ст	-10.3912
▁взгляда	-10.3913
▁природы	-10.3928
▁центр	-10.3932
▁проще	-10.3933
▁поверить	-10.3934
▁поставить	-10.3934
▁Ди	-10.3947
▁коридор	-10.3958
дел	-10.396
▁идут	-10.3963
ировал	-10.3966
▁удовольствие	-10.3967
цов	-10.397
▁заставить	-10.397
ания	-10.3971
дра	-10.3972
[	-10.3974
▁личности	-10.3977
▁закрыл	-10.398
▁форму	-10.3981
▁слушать	-10.3981
▁28	-10.3985
▁хозяина	-10.3989
▁ногах	-10.3995
▁тень	-10.4008
P	-10.4013
овое	-10.4015
▁рост	-10.4022
▁собственно	-10.4026
▁in	-10.4028
▁разговора	-10.4032
▁неизвестно	-10.4036
ание	-10.4037
чит	-10.4044
▁Ру	-10.4049
▁непременно	-10.4051
▁держа	-10.4057
▁заставил	-10.4057
▁дам	-10.4059
▁21	-10.406
▁дорога	-10.4061
кур	-10.4063
▁прийти	-10.4063
▁велел	-10.4064
▁Свет	-10.4065
лить	-10.4066
▁огромный	-10.4067
фр	-10.4073
▁брови	-10.4078
▁повезло	-10.4086
Ч	-10.409
▁удивленно	-10.409
▁лошадей	-10.4099
▁Точно	-10.4102
▁самим	-10.4103
▁смогли	-10.4109
шую	-10.411
▁игра	-10.4111
▁100	-10.4118
▁нашла	-10.4118
▁купить	-10.412
▁палец	-10.4122
пере	-10.4124
▁Ох	-10.4125
▁армия	-10.4129
▁ухо	-10.4134
▁получили	-10.4135
ёр	-10.4135
▁подобно	-10.4137
▁открыла	-10.4138
тен	-10.4142
▁Знаешь	-10.4145
том	-10.4146
▁вред	-10.4151
▁средств	-10.4153
цион	-10.4155
▁скажет	-10.4158
▁отчего	-10.4164
▁годов	-10.4168
так	-10.4171
▁планы	-10.4173
▁27	-10.4177
чен	-10.4179
▁Вместо	-10.4182
▁ведет	-10.4183
▁кровать	-10.4188
▁встала	-10.4188
▁самолет	-10.4189
▁50	-10.4194
es	-10.4197
чат	-10.4198
▁наружу	-10.4201
A	-10.4213
▁условия	-10.4216
▁воли	-10.4224
▁Бер	-10.4226
▁километров	-10.4228
▁Хар	-10.4229
▁отцом	-10.423
иль	-10.4231
▁Почти	-10.4233
▁ЦК	-10.4233
▁высокий	-10.4237
▁Пи	-10.4238
За	-10.4238
стр	-10.4238
тов	-10.4251
▁привести	-10.4254
▁Ж	-10.4255
▁семья	-10.4261
▁Лев	-10.4265
лер	-10.4266
▁ветра	-10.4266
▁заметить	-10.4271
▁взяли	-10.4272
▁книга	-10.4274
▁горе	-10.4274
▁главный	-10.4275
▁понимает	-10.4279
▁боюсь	-10.4281
▁Ши	-10.4282
▁Га	-10.4283
▁Англии	-10.4286
▁выглядит	-10.4289
▁Богу	-10.429
▁империи	-10.4291
▁мною	-10.4295
▁большей	-10.4295
▁ничто	-10.4298
▁вслух	-10.4298
дор	-10.4302
▁спасти	-10.4303
ям	-10.4309
0	-10.431
вор	-10.4315
мин	-10.4315
▁скорость	-10.4317
▁удара	-10.4319
▁Эр	-10.432
вшей	-10.4328
);	-10.4328
воз	-10.4331
▁замер	-10.4333
▁постель	-10.4335
▁пятнадцать	-10.4341
▁Судя	-10.4347
▁помог	-10.436
▁поход	-10.4367
▁передать	-10.4368
▁Был	-10.4373
ению	-10.4376
ѣ	-10.4382
очки	-10.4384
▁Капитан	-10.4388
дав	-10.439
▁Мало	-10.4394
очек	-10.4396
▁капитана	-10.4397
ас	-10.4399
▁искренне	-10.4402
▁мальчика	-10.4411
▁полчаса	-10.4411
▁чрезвычайно	-10.4413
▁мозг	-10.4413
енных	-10.4417
▁Опять	-10.4419
дон	-10.4421
▁мастер	-10.4422
▁подобных	-10.4423
▁зависит	-10.4426
изма	-10.4427
ическую	-10.4428
▁прошептала	-10.4439
мат	-10.444
▁планеты	-10.4441
▁создать	-10.4442
▁понятия	-10.4443
▁Ра	-10.445
▁мо	-10.4451
▁желая	-10.4458
▁Пар	-10.4459
▁Много	-10.4463
▁знания	-10.4467
▁договор	-10.4469
▁стоять	-10.448
▁ранее	-10.4483
▁будущем	-10.4484
▁приходит	-10.4488
▁представляет	-10.4489
▁сведения	-10.4492
▁Мари	-10.4493
гар	-10.4497
▁кожи	-10.4498
▁оставив	-10.4499
ушка	-10.4501
телей	-10.4506
▁делали	-10.4509
▁вещь	-10.4514
ar	-10.4516
▁понимая	-10.4519
▁живой	-10.4519
кор	-10.452
▁похож	-10.4521
▁Ник	-10.4522
▁остановилась	-10.4523
▁уровня	-10.4531
зор	-10.4532
▁Ой	-10.4537
▁скажи	-10.4538
видимому	-10.4538
▁встретил	-10.454
▁каждую	-10.4543
▁поднялась	-10.4546
шись	-10.4549
ция	-10.4549
▁Гар	-10.4555
▁князя	-10.4556
8	-10.4562
вой	-10.4571
▁военных	-10.4571
▁слышно	-10.4573
▁пытались	-10.4576
▁счастья	-10.4583
▁хватило	-10.4586
▁октября	-10.4587
▁понимала	-10.4588
▁тип	-10.4588
▁смех	-10.4592
▁стремительно	-10.4596
итель	-10.4598
▁квартире	-10.4601
▁повернулась	-10.4611
▁подобное	-10.4611
▁царя	-10.4615
▁порой	-10.4618
l	-10.4619
▁просил	-10.4619
ци	-10.4624
▁дождь	-10.4626
▁Ван	-10.4628
▁положения	-10.4629
дан	-10.4629
▁фронта	-10.4632
▁закричал	-10.4633
▁результат	-10.4637
дж	-10.4637
▁назвал	-10.4638
▁мест	-10.4642
нный	-10.4644
шку	-10.4647
▁вино	-10.4649
▁император	-10.4651
▁борьбы	-10.4653
▁станции	-10.4656
▁Женщина	-10.466
▁членов	-10.466
инг	-10.4667
▁Какое	-10.4672
▁воскликнула	-10.4674
▁прошлого	-10.4676
▁отдать	-10.4678
▁русского	-10.4682
Ж	-10.4686
▁Ти	-10.4686
▁полиции	-10.4692
▁документы	-10.4695
▁русский	-10.4697
ву	-10.4699
▁проверить	-10.4699
▁рассказывать	-10.4699
▁рассмеялся	-10.4699
▁воин	-10.4702
▁V	-10.4705
▁a	-10.4709
▁кухню	-10.471
▁состоит	-10.4711
▁настроение	-10.4714
▁примеру	-10.4715
▁выхода	-10.4718
▁хвост	-10.4719
▁пальцев	-10.4733
▁существа	-10.4735
▁вашу	-10.4736
▁майор	-10.4738
сто	-10.4741
▁опасность	-10.4743
▁опустил	-10.4744
▁Ленин	-10.4749
ющую	-10.476
▁боялся	-10.4763
▁чём	-10.4765
▁отсутствие	-10.477
▁маленькая	-10.4772
▁Антон	-10.4777
▁прочим	-10.4786
▁вошли	-10.4787
▁Кол	-10.4793
▁вернулись	-10.4798
▁домов	-10.4798
▁возраста	-10.4799
▁мер	-10.4799
▁меж	-10.48
▁Рядом	-10.481
▁задача	-10.481
пле	-10.4821
▁искусства	-10.4828
▁молодого	-10.4831
▁увидели	-10.4832
▁вытащил	-10.4833
кар	-10.4838
▁принято	-10.4838
M	-10.4842
пре	-10.4844
▁26	-10.4844
▁надеюсь	-10.4845
▁всяких	-10.4846
▁обещал	-10.4847
▁дядя	-10.4847
▁Александра	-10.4849
▁вывод	-10.4855
▁называют	-10.4864
▁собственного	-10.4867
▁мыслей	-10.4869
▁сказано	-10.4875
▁болезни	-10.4882
илось	-10.4884
▁автомат	-10.4885
▁идеи	-10.4889
▁лошадь	-10.4889
▁ад	-10.4895
▁пояс	-10.4899
▁добраться	-10.4905
▁основе	-10.4908
▁уверенно	-10.4913
al	-10.4913
”.	-10.4915
▁Стар	-10.4925
знач	-10.4929
▁Господь	-10.4929
▁гнев	-10.4933
▁повел	-10.4939
▁незаметно	-10.4941
▁услышала	-10.4944
▁кухне	-10.4944
▁новая	-10.4949
▁ситуацию	-10.4949
T	-10.495
▁вернуть	-10.4958
▁Павел	-10.4963
▁наблюдал	-10.4963
ря	-10.4965
▁Фа	-10.4969
▁подобные	-10.497
▁русские	-10.4973
▁срочно	-10.4984
▁пойду	-10.4992
▁спрашивает	-10.4995
▁наверх	-10.4996
▁лежали	-10.5003
вит	-10.5009
▁каждое	-10.5009
▁контроль	-10.5011
▁Ри	-10.502
Что	-10.5026
сад	-10.5028
▁поспешно	-10.5029
▁подтвердил	-10.503
▁края	-10.5032
▁брать	-10.5038
▁следующее	-10.5048
▁сложно	-10.5049
▁поняли	-10.505
▁лорд	-10.5052
пис	-10.5052
▁пан	-10.5054
▁языка	-10.5056
▁дед	-10.5057
▁Земли	-10.506
▁твоих	-10.5061
чки	-10.5067
▁четко	-10.5068
▁мужик	-10.5073
▁воинов	-10.5081
▁Ге	-10.5083
▁рабочих	-10.5085
▁солдаты	-10.509
лег	-10.5092
▁маленькой	-10.5093
▁определить	-10.5094
▁небе	-10.5099
▁шее	-10.5103
сом	-10.5105
▁здорово	-10.5106
кра	-10.5107
▁белые	-10.5113
▁врагов	-10.5113
▁мировой	-10.5115
▁камни	-10.5125
▁марта	-10.5126
ации	-10.5129
▁Москвы	-10.5133
▁Дар	-10.5134
син	-10.5134
вшая	-10.5138
▁Поскольку	-10.5139
▁позиции	-10.514
▁отношений	-10.5144
▁одежды	-10.5145
▁отцу	-10.5153
щее	-10.5154
вшим	-10.5156
▁замка	-10.5162
▁ждали	-10.5172
▁старой	-10.5172
▁звезды	-10.5179
▁Саша	-10.5189
▁Василий	-10.5189
▁ноября	-10.5189
▁старика	-10.519
ряд	-10.5192
▁коп	-10.5195
чин	-10.5196
▁середине	-10.5196
▁своё	-10.5196
▁происходило	-10.5204
▁недостаточно	-10.5213
▁посреди	-10.5215
▁борт	-10.5217
▁длинные	-10.5217
▁простой	-10.5218
енной	-10.522
▁шести	-10.522
▁Ман	-10.5221
▁верю	-10.5224
▁пристально	-10.5229
▁понимаете	-10.5235
▁отвечает	-10.5236
▁кур	-10.5244
▁декабря	-10.5244
▁пожар	-10.5251
▁курс	-10.5253
▁пола	-10.5253
▁молчал	-10.5254
▁долг	-10.5256
▁Причем	-10.5258
ход	-10.5261
▁культуры	-10.5266
▁слушал	-10.5267
▁января	-10.5269
▁говорите	-10.5269
▁Лес	-10.5273
▁белый	-10.5282
▁завод	-10.5283
▁Са	-10.5289
▁требует	-10.5289
▁изменить	-10.5291
▁штаб	-10.5291
▁задумался	-10.5291
▁глупо	-10.5292
▁попыталась	-10.5293
▁отношению	-10.5293
▁махнул	-10.5298
▁старший	-10.53
цем	-10.5301
▁транспорт	-10.5301
▁кресла	-10.5303
▁молодых	-10.5311
▁Хо	-10.5311
▁думаете	-10.5319
▁Нельзя	-10.5319
цами	-10.532
тра	-10.532
▁Жан	-10.5325
▁Понятно	-10.5328
▁Борис	-10.5333
ним	-10.5336
▁огнем	-10.5338
▁чувствуя	-10.5339
▁Роберт	-10.5342
▁старые	-10.5346
ху	-10.5356
▁вошла	-10.536
▁Давайте	-10.5362
▁демон	-10.5362
▁поведение	-10.5363
ед	-10.5364
▁Би	-10.5365
▁острова	-10.5365
▁услышать	-10.5369
▁уме	-10.537
▁барон	-10.5372
▁апреля	-10.5373
▁школу	-10.5377
▁кабинете	-10.5378
зу	-10.5381
▁Кир	-10.5384
нные	-10.5386
▁Доктор	-10.5389
▁другому	-10.5389
▁правительства	-10.5393
▁данные	-10.5396
▁Скоро	-10.5396
▁Мистер	-10.5399
▁объявил	-10.54
▁труп	-10.5402
▁совет	-10.5402
▁слышать	-10.5404
пор	-10.541
▁кармана	-10.5413
▁фоне	-10.5413
▁команды	-10.5417
▁Дай	-10.5418
▁несомненно	-10.5422
▁влияние	-10.5423
▁левой	-10.5423
▁окон	-10.5429
▁Мэри	-10.543
зем	-10.543
ницу	-10.5431
Как	-10.5433
▁29	-10.5433
▁систему	-10.5434
▁собирается	-10.5435
жив	-10.5437
дей	-10.5445
▁Тор	-10.5453
▁вскочил	-10.5457
▁остановить	-10.5457
▁оставался	-10.5457
▁пьян	-10.5461
▁начальника	-10.5464
▁Старик	-10.5469
▁Мин	-10.5472
▁Ай	-10.5475
▁частности	-10.5476
▁3.	-10.5476
▁Ту	-10.5477
▁способности	-10.5488
▁Тар	-10.5492
▁черной	-10.5499
▁Такой	-10.5504
▁общего	-10.5505
ень	-10.5507
кал	-10.5508
▁кости	-10.5511
▁неба	-10.5512
ступ	-10.5512
▁Европе	-10.5513
▁порт	-10.5516
▁полка	-10.5516
▁правой	-10.5516
альный	-10.5518
▁итоге	-10.5518
▁некогда	-10.5518
▁кожа	-10.5524
▁этаж	-10.5525
▁Бел	-10.5526
▁будучи	-10.5526
!"	-10.5533
▁Федор	-10.5541
▁входа	-10.5542
▁корабли	-10.5547
▁отдел	-10.5553
▁Одно	-10.5553
▁причины	-10.5564
▁поисках	-10.5568
▁состояния	-10.5574
▁действие	-10.5577
▁дала	-10.5579
▁высокой	-10.5579
▁генерала	-10.5593
▁вышло	-10.5595
▁de	-10.5601
▁губами	-10.5618
▁узнала	-10.5618
▁надежды	-10.5619
▁силами	-10.562
▁сохранить	-10.5623
▁Сара	-10.5638
▁позволяет	-10.5639
▁хорошего	-10.5644
имся	-10.5651
▁уставился	-10.5655
▁воспоминания	-10.5657
▁ходил	-10.5659
пар	-10.5661
▁ушли	-10.5662
▁умереть	-10.5663
▁класса	-10.5666
▁Иначе	-10.5666
▁стоят	-10.5666
▁кресле	-10.5675
▁сути	-10.5678
▁Карл	-10.5684
▁Хоть	-10.5686
▁Прошу	-10.5688
▁Люб	-10.5689
бой	-10.5689
▁груз	-10.569
▁словах	-10.5691
▁Род	-10.5694
ниц	-10.5696
▁молчание	-10.5696
▁сестры	-10.5697
▁хлеба	-10.5707
▁--	-10.5714
▁кораблей	-10.5717
мут	-10.5719
ир	-10.5721
мар	-10.5732
▁нежно	-10.5733
▁III	-10.5735
▁числа	-10.5735
▁клуб	-10.5738
▁Дом	-10.574
▁бывало	-10.5741
▁аромат	-10.5742
ён	-10.5744
▁духа	-10.5752
щу	-10.5758
истов	-10.576
▁взгляды	-10.5762
»)	-10.5768
▁дай	-10.5769
▁откровенно	-10.5769
▁недолго	-10.5772
▁изменения	-10.5777
▁дивизии	-10.5787
▁Обычно	-10.5791
▁T	-10.5791
▁компьютер	-10.5793
чка	-10.5797
▁отчаянно	-10.5798
▁Завтра	-10.58
настоящему	-10.58
▁суть	-10.5809
▁кожу	-10.5813
▁дерево	-10.5815
▁отказался	-10.5818
▁видите	-10.5818
▁попытки	-10.582
енную	-10.582
▁послал	-10.5827
ing	-10.5827
лив	-10.5828
▁миру	-10.5831
▁девять	-10.5833
▁член	-10.5835
▁оружием	-10.5835
▁зала	-10.5836
▁недель	-10.5839
▁позволить	-10.584
▁Бор	-10.5845
нье	-10.5851
▁судьбы	-10.5851
▁новым	-10.5851
▁обществе	-10.5856
▁жителей	-10.5857
▁сна	-10.5858
▁Оба	-10.5861
▁любила	-10.5864
▁закончил	-10.5864
свет	-10.5868
▁фигура	-10.587
ланд	-10.588
▁признать	-10.5882
▁40	-10.5883
▁Скажи	-10.5889
еть	-10.589
▁переход	-10.5893
▁вес	-10.5893
▁газеты	-10.5896
▁Сэм	-10.5897
▁концу	-10.5898
▁общество	-10.5899
▁еду	-10.5899
▁обязан	-10.59
▁Главное	-10.5907
▁поток	-10.5908
▁какими	-10.591
▁ужаса	-10.5911
▁занят	-10.5922
▁половину	-10.5925
▁великий	-10.5928
▁недалеко	-10.5935
эр	-10.5938
▁Пан	-10.5939
▁Земле	-10.5943
▁любовью	-10.5943
▁шаги	-10.5949
is	-10.5954
▁свободу	-10.5954
▁деревья	-10.5956
▁вели	-10.5956
▁сообщение	-10.5962
▁мрачно	-10.5963
▁окажется	-10.5968
▁будущего	-10.5969
▁выяснить	-10.597
▁ждала	-10.597
▁боевой	-10.5983
▁упала	-10.5983
▁дорогая	-10.5984
▁светом	-10.5985
▁фи	-10.5991
▁возьми	-10.5992
▁спор	-10.6007
▁двигаться	-10.6012
▁принадлежит	-10.6015
аться	-10.6017
▁крестьян	-10.6025
▁работ	-10.6026
▁магии	-10.6031
▁район	-10.604
▁Максим	-10.604
▁правительство	-10.6045
▁скажешь	-10.6049
▁дверей	-10.6049
▁юноша	-10.6052
▁пытается	-10.6054
альные	-10.606
▁Эль	-10.6066
▁Пожалуйста	-10.6066
нная	-10.6067
▁написано	-10.6072
▁бога	-10.6074
▁собираюсь	-10.6074
▁сильный	-10.6077
▁The	-10.6081
▁символ	-10.6081
▁Мать	-10.6082
▁женщиной	-10.6083
▁чудо	-10.6086
стро	-10.6092
▁каждому	-10.6092
▁Гер	-10.6095
▁везде	-10.6098
▁снять	-10.61
d	-10.6106
▁меры	-10.6107
▁ситуация	-10.6108
▁встретиться	-10.6118
▁пояснил	-10.612
нья	-10.6125
▁писатель	-10.6135
чек	-10.6136
рав	-10.6142
▁Снова	-10.6143
▁царь	-10.6147
▁Кур	-10.6155
▁взрыв	-10.6155
▁казался	-10.6156
▁согласилась	-10.6159
▁находилась	-10.6164
▁продолжать	-10.6165
▁именем	-10.6165
▁врач	-10.6166
оз	-10.6171
▁вторая	-10.6172
▁въ	-10.6174
▁ногой	-10.6174
▁поближе	-10.6178
▁избавиться	-10.6182
Ну	-10.6184
▁волю	-10.6188
▁говорится	-10.6188
▁проект	-10.6195
▁Такое	-10.6208
▁скажем	-10.6209
▁называли	-10.6211
▁ими	-10.6213
▁кар	-10.6213
▁бою	-10.6214
▁слабо	-10.6215
▁маленькие	-10.6216
▁протянула	-10.6222
▁костюм	-10.6222
▁здание	-10.6222
▁выйдет	-10.6228
▁получила	-10.623
ица	-10.6231
▁деятельность	-10.6236
▁месту	-10.6238
▁Питер	-10.6242
▁Тебя	-10.6246
▁удивительно	-10.6252
▁войти	-10.6256
▁волны	-10.626
▁Мол	-10.626
▁здоровье	-10.626
готов	-10.6266
▁жила	-10.6272
▁Внезапно	-10.6273
▁Роман	-10.6276
вшаяся	-10.6277
▁встрече	-10.6277
▁Всего	-10.628
см	-10.6284
▁вспомнила	-10.6288
ирует	-10.6291
▁отдела	-10.6293
гра	-10.6295
▁брак	-10.6295
▁миллионов	-10.6297
▁Ваше	-10.6308
▁жест	-10.6317
суд	-10.6317
▁ящик	-10.632
▁причина	-10.6322
▁подняться	-10.6328
▁роз	-10.6328
▁огромные	-10.6328
▁Такие	-10.6329
▁картины	-10.6331
▁Слишком	-10.6331
щую	-10.6336
20	-10.6336
▁риск	-10.6339
▁господа	-10.634
Ю	-10.6342
▁полно	-10.6346
▁умел	-10.6349
▁поднять	-10.6354
▁представление	-10.6356
▁даст	-10.6357
▁черно	-10.636
▁рос	-10.6375
▁передал	-10.6389
▁Слушай	-10.6396
ент	-10.64
▁картину	-10.6402
▁to	-10.6405
▁Сталина	-10.6411
▁повернул	-10.6415
▁остальное	-10.6416
▁квартиры	-10.6417
▁самостоятельно	-10.642
▁Мо	-10.6421
▁языком	-10.6429
▁усилия	-10.6432
▁сделает	-10.6438
▁торопливо	-10.6442
▁сунул	-10.6444
цен	-10.6446
▁зубами	-10.6447
▁рта	-10.6448
▁проводить	-10.6448
▁разобраться	-10.6453
▁решить	-10.6453
▁движением	-10.6454
▁век	-10.6459
▁чувствовать	-10.6461
▁бывший	-10.6464
▁отнюдь	-10.6468
▁голод	-10.6469
▁роста	-10.6471
▁бросила	-10.6476
▁взглянула	-10.6477
▁детства	-10.6479
▁Знаю	-10.6479
▁границы	-10.6481
▁перестал	-10.6484
▁нервно	-10.6485
▁науки	-10.6494
▁цен	-10.6495
▁добиться	-10.6495
▁служить	-10.6496
▁убили	-10.65
▁Вся	-10.6502
B	-10.6507
▁кафе	-10.6507
ора	-10.6509
ари	-10.6509
▁прибыл	-10.651
▁грустно	-10.6516
▁возник	-10.6516
▁мясо	-10.6519
▁стану	-10.6521
▁Дверь	-10.6525
ишься	-10.6527
▁Вон	-10.6528
on	-10.6532
▁народу	-10.6535
▁Ин	-10.6535
▁исчезла	-10.6536
▁поверхность	-10.6536
▁службу	-10.6542
▁магазин	-10.6547
▁учитель	-10.655
▁телу	-10.655
▁встать	-10.6552
▁доступ	-10.6556
▁захотелось	-10.6557
▁расстоянии	-10.6558
▁теории	-10.6562
ред	-10.6564
▁любить	-10.6565
▁воле	-10.6565
▁защиты	-10.6567
▁кол	-10.6568
▁создания	-10.6569
▁женщине	-10.6574
руч	-10.6577
▁семи	-10.6579
▁развитие	-10.6579
▁Кот	-10.6582
▁считают	-10.6582
ницей	-10.6583
уса	-10.6598
h	-10.6599
▁Ольга	-10.6602
ант	-10.6604
▁Петрович	-10.6605
▁сухо	-10.661
▁подарок	-10.661
▁покачала	-10.6611
▁союз	-10.6616
▁ожидая	-10.6619
▁эффект	-10.6622
▁Ми	-10.6625
▁белой	-10.6628
▁корпуса	-10.6631
▁Кара	-10.6637
▁сержант	-10.6641
▁лагерь	-10.6643
сс	-10.6644
▁ш	-10.6649
▁давал	-10.6651
▁началась	-10.6653
ющейся	-10.6653
▁реке	-10.6658
▁полное	-10.6659
▁имена	-10.6661
▁Генри	-10.6662
▁толку	-10.6662
▁вашим	-10.6666
пе	-10.6666
▁волосами	-10.667
▁карты	-10.6671
нных	-10.6672
иков	-10.6672
ул	-10.6674
▁целую	-10.6679
▁хмыкнул	-10.6684
рад	-10.6694
▁Совсем	-10.6694
▁Фи	-10.6698
▁текст	-10.6701
▁помещение	-10.6702
▁Едва	-10.6703
▁свободно	-10.6705
исты	-10.6707
▁Ро	-10.6707
▁Вместе	-10.6709
▁включая	-10.671
▁Иди	-10.6713
us	-10.6716
▁бутылку	-10.6724
▁Солнце	-10.6729
▁считаю	-10.6731
▁способность	-10.6731
▁мозга	-10.6735
енным	-10.6736
тар	-10.674
▁Весь	-10.6744
енного	-10.6744
Про	-10.6748
▁сверх	-10.6748
▁Действительно	-10.6758
▁Россия	-10.6762
ющегося	-10.6765
▁избежать	-10.6768
став	-10.6775
▁холод	-10.6776
▁бу	-10.6777
▁появилось	-10.678
▁подробно	-10.6784
▁ма	-10.6785
▁производства	-10.6786
▁возрасте	-10.6789
Это	-10.6791
▁собственных	-10.6791
▁ныне	-10.6793
▁минимум	-10.6794
рей	-10.6795
▁нашему	-10.6802
▁опасно	-10.6803
вали	-10.6804
▁Артур	-10.6804
▁Бур	-10.6805
ены	-10.6807
фи	-10.6811
▁кошмар	-10.6812
▁немцы	-10.682
▁надеялся	-10.6822
▁находятся	-10.6823
▁февраля	-10.6823
▁вернется	-10.6825
ыч	-10.6829
▁данном	-10.6831
▁бабушка	-10.6832
ует	-10.6835
▁знакомый	-10.6835
▁собака	-10.6837
▁Че	-10.6838
▁рыб	-10.6839
▁императора	-10.684
▁отвечать	-10.684
▁обороны	-10.6841
▁герцог	-10.6841
▁групп	-10.6841
▁очереди	-10.6844
вес	-10.6844
Ц	-10.6845
▁исследования	-10.6846
▁ужин	-10.685
▁военной	-10.6852
▁стихи	-10.6854
▁театр	-10.6854
▁Тре	-10.6855
иной	-10.6858
дов	-10.686
▁главного	-10.6862
лем	-10.6862
▁девочки	-10.6863
▁любят	-10.6866
▁успешно	-10.6867
▁ран	-10.6867
▁Мон	-10.6877
▁Ответ	-10.6877
▁относится	-10.6878
▁ходе	-10.6889
▁старых	-10.689
le	-10.6891
▁способны	-10.6893
▁борьбе	-10.6894
▁черты	-10.6895
▁улыбаясь	-10.6896
▁командира	-10.6903
емые	-10.6903
ало	-10.6904
▁неподвижно	-10.6905
▁ласково	-10.691
▁остатки	-10.6914
▁мороз	-10.6923
ёт	-10.6923
▁якобы	-10.6923
▁существование	-10.6925
шек	-10.6926
плат	-10.6926
▁отправиться	-10.6929
in	-10.6931
▁s	-10.6932
▁дважды	-10.6933
▁Ал	-10.6933
нин	-10.6935
▁справа	-10.6936
▁смертью	-10.6936
▁материал	-10.6936
▁собственные	-10.6937
▁бокал	-10.6937
нием	-10.6947
▁Привет	-10.6952
re	-10.6953
слав	-10.696
▁данный	-10.696
нка	-10.6961
▁процентов	-10.6962
▁строй	-10.6962
▁Ис	-10.6962
▁протяжении	-10.6964
▁телефону	-10.6969
фе	-10.6971
▁флот	-10.6972
год	-10.6975
▁отряда	-10.6979
гранич	-10.698
▁плотно	-10.6982
▁деревни	-10.6986
▁встречу	-10.6986
▁вос	-10.6995
k	-10.6995
▁вопроса	-10.7005
▁правила	-10.7009
▁Джордж	-10.7009
▁родился	-10.7012
▁основания	-10.7015
овыми	-10.7016
▁великого	-10.7016
▁президент	-10.7024
▁пороге	-10.7028
▁двенадцать	-10.7032
▁оставили	-10.7033
▁любую	-10.7035
▁исход	-10.7037
▁казалась	-10.704
▁неподалеку	-10.7043
▁точку	-10.7047
▁теми	-10.7049
▁Словно	-10.7054
▁покой	-10.7054
шее	-10.7055
телем	-10.7058
▁церковь	-10.7058
▁местных	-10.706
▁уничтожить	-10.706
▁двинулся	-10.7061
▁детьми	-10.7063
▁звали	-10.7069
▁кольцо	-10.707
▁заняться	-10.7073
▁офицеров	-10.7074
▁единственным	-10.7076
▁деревне	-10.7077
альная	-10.7078
▁Наш	-10.7079
▁форма	-10.7082
▁сообщить	-10.7084
▁принялась	-10.7085
▁началось	-10.7087
▁последнюю	-10.7092
▁успех	-10.7093
▁поведения	-10.7101
лат	-10.7101
▁вежливо	-10.7103
▁собиралась	-10.7103
▁вызвать	-10.7104
▁Бес	-10.7104
▁плащ	-10.7105
зер	-10.7106
вато	-10.7109
”,	-10.7111
▁выпить	-10.7111
▁запас	-10.7116
▁кот	-10.7128
▁всякой	-10.7129
▁Этого	-10.7129
ион	-10.7134
▁обратил	-10.7137
▁странное	-10.7144
▁кабинета	-10.7146
ицы	-10.7151
▁Лен	-10.7153
▁поезд	-10.7154
▁дабы	-10.7161
▁становилось	-10.7163
▁начинается	-10.7167
ур	-10.7169
▁расстояние	-10.7173
▁доктора	-10.7173
▁анализ	-10.7178
▁добавила	-10.718
▁атаку	-10.7181
ез	-10.7185
▁требуется	-10.7187
▁свободы	-10.7189
▁помнил	-10.719
▁Дальше	-10.7193
▁семью	-10.7193
▁убивать	-10.7199
▁девушке	-10.7205
▁подходит	-10.7205
▁страну	-10.7205
▁справиться	-10.721
дом	-10.7214
▁Жизнь	-10.7216
▁качества	-10.7222
▁соответствии	-10.7222
сте	-10.7223
бил	-10.7225
▁виноват	-10.7226
▁Прости	-10.7227
▁ду	-10.7227
▁прошлое	-10.7229
▁данных	-10.7232
▁народов	-10.7233
10	-10.7233
жд	-10.7234
▁Вероятно	-10.7236
▁надежда	-10.724
▁упор	-10.7244
▁представления	-10.7245
▁нахмурился	-10.7245
▁говори	-10.7246
▁остановились	-10.7247
▁умеет	-10.7247
▁особенности	-10.725
▁возвращаться	-10.7257
▁зависимости	-10.7258
▁тел	-10.726
рок	-10.7262
▁эльф	-10.7266
атор	-10.7266
▁песни	-10.7266
▁визит	-10.7267
▁проговорила	-10.727
▁Сен	-10.727
▁разом	-10.7271
▁давать	-10.7272
зов	-10.7274
быт	-10.7276
▁белых	-10.7276
▁полную	-10.7276
▁особого	-10.7276
▁убийства	-10.7277
▁слева	-10.7283
зд	-10.7283
▁спит	-10.7284
▁цветы	-10.7284
лага	-10.7284
▁дают	-10.7286
▁пыли	-10.7286
форм	-10.7291
▁Вера	-10.7291
▁разговаривать	-10.7302
▁автомобиль	-10.7305
▁ранен	-10.7306
▁Тай	-10.7307
▁Рим	-10.7307
▁f	-10.7308
▁ладонью	-10.7314
теля	-10.7314
▁зуб	-10.7317
ес	-10.7322
▁считали	-10.7326
▁выходу	-10.7327
▁добавить	-10.7328
▁штаба	-10.7329
зо	-10.7335
▁отказаться	-10.7335
▁Простите	-10.7336
▁наряд	-10.7339
ата	-10.7341
▁Пожалуй	-10.7343
▁позвонил	-10.7345
▁Маг	-10.735
▁флота	-10.735
▁Ки	-10.7351
▁имеется	-10.7352
▁сделаю	-10.7357
▁воспользоваться	-10.7359
ража	-10.736
▁рублей	-10.7363
ительно	-10.7365
▁звон	-10.7367
▁огромной	-10.7368
▁океан	-10.7372
▁шагом	-10.7374
▁Гу	-10.7375
▁поцеловал	-10.7376
▁толпа	-10.7378
▁Катя	-10.7381
▁точнее	-10.7382
▁слышали	-10.7383
▁верил	-10.7384
▁жар	-10.7389
▁сжал	-10.7395
▁потери	-10.7398
▁Европы	-10.7398
▁капли	-10.7399
▁вызвал	-10.74
▁Ян	-10.7402
30	-10.7407
▁стоя	-10.7408
▁мадам	-10.7409
▁видим	-10.7413
▁Тур	-10.7413
▁пакет	-10.7414
▁Ша	-10.7414
рой	-10.7414
▁цветов	-10.7415
▁Будь	-10.7417
▁темные	-10.7417
▁коленях	-10.742
шин	-10.7424
ление	-10.7425
нев	-10.7425
нки	-10.7426
▁автора	-10.7427
▁каждая	-10.7428
▁герой	-10.7431
▁секунды	-10.7432
Ты	-10.7435
▁колен	-10.7439
▁Дик	-10.7439
▁сравнению	-10.744
▁наблюдать	-10.7445
мысл	-10.7448
▁зла	-10.745
▁занимался	-10.7452
▁толпы	-10.746
▁портрет	-10.7463
щик	-10.7465
▁гостиной	-10.747
▁дворец	-10.7472
▁грубо	-10.7475
▁берет	-10.7475
▁жалко	-10.7476
▁ответственность	-10.7478
▁лег	-10.7479
▁забыла	-10.748
▁послышался	-10.7481
▁враг	-10.7487
вест	-10.749
▁уходить	-10.7493
▁проход	-10.7496
▁картина	-10.7497
▁Прямо	-10.7497
▁подал	-10.7499
▁скрип	-10.75
▁нежели	-10.7502
▁играл	-10.7504
▁стекло	-10.7505
▁Кейт	-10.7508
ара	-10.7508
▁разглядеть	-10.7509
9	-10.7512
▁веков	-10.7513
▁список	-10.7514
▁миром	-10.7514
▁отдыха	-10.7515
ьный	-10.7517
▁добро	-10.7521
кина	-10.7522
▁задачи	-10.7522
ол	-10.7526
▁озера	-10.7527
▁Эх	-10.7528
▁человеческого	-10.7532
▁лбу	-10.7536
▁бо	-10.7539
чок	-10.7545
ура	-10.755
ающий	-10.7551
кос	-10.7555
▁уехал	-10.7557
аем	-10.756
▁повод	-10.7561
▁Ев	-10.7562
▁плечу	-10.7567
▁достиг	-10.7568
▁Ричард	-10.7571
▁вашем	-10.7572
▁столик	-10.7572
▁предстоит	-10.7573
▁контакт	-10.7575
▁Фу	-10.7575
▁Наши	-10.7578
▁слух	-10.7584
▁двора	-10.7588
▁Ясно	-10.7588
▁тридцати	-10.7589
▁прервал	-10.7592
▁отчет	-10.7592
▁молод	-10.76
▁порядка	-10.7601
▁крики	-10.7602
▁детстве	-10.761
▁представлял	-10.7613
▁скал	-10.7614
бр	-10.7617
фу	-10.7617
вая	-10.7617
▁опыта	-10.7618
▁пал	-10.762
▁череп	-10.7624
▁лучших	-10.7627
▁непонятно	-10.7629
▁этаже	-10.7638
▁Город	-10.7638
▁команду	-10.7638
▁называть	-10.7646
▁информация	-10.7646
▁Се	-10.7649
▁Генерал	-10.7655
▁позднее	-10.7656
шен	-10.7657
▁судьбу	-10.7658
▁отношениях	-10.766
▁удавалось	-10.7661
▁взрыва	-10.7664
щем	-10.7667
▁праздник	-10.7672
▁направление	-10.7672
вшее	-10.7674
▁огромное	-10.7675
▁ждут	-10.7678
чем	-10.768
▁экран	-10.7685
▁умерла	-10.7689
▁старше	-10.7692
▁обеда	-10.7694
▁стук	-10.7695
▁присутствие	-10.7695
▁двоих	-10.7695
▁Странно	-10.7698
бит	-10.7699
▁принц	-10.7699
▁ощутил	-10.77
▁удовольствия	-10.7707
▁проводил	-10.771
▁Земля	-10.7712
▁газет	-10.7713
▁Сама	-10.7714
▁человечества	-10.7717
▁дракон	-10.7718
джи	-10.772
▁скорости	-10.7721
▁искал	-10.7725
кан	-10.7726
▁пес	-10.7727
▁реальности	-10.7728
▁пик	-10.7731
ьев	-10.7732
▁названием	-10.7736
▁важное	-10.7737
▁директор	-10.7741
▁чужой	-10.7746
▁покинуть	-10.7751
▁храм	-10.7755
лик	-10.7755
▁дав	-10.7757
▁жене	-10.7757
люб	-10.7757
▁север	-10.7759
▁надеяться	-10.7761
▁31	-10.7762
▁положила	-10.777
▁любое	-10.7772
▁пил	-10.7775
▁выглядела	-10.778
▁исключением	-10.7781
бар	-10.7781
▁видя	-10.7781
▁заметили	-10.7781
▁явился	-10.7783
▁правил	-10.7792
▁лук	-10.78
▁компания	-10.7803
▁Вокруг	-10.7803
аешь	-10.7806
▁ха	-10.7809
▁засмеялся	-10.7812
▁Господа	-10.7813
емый	-10.7818
▁сущности	-10.7818
▁различные	-10.7819
▁Вопрос	-10.7819
▁успеха	-10.7821
кие	-10.7822
▁чувствует	-10.7823
▁трав	-10.7826
▁характера	-10.783
▁испуганно	-10.783
▁узнали	-10.7831
▁молодые	-10.7834
▁Господин	-10.7835
▁третьего	-10.7835
▁окну	-10.784
▁работой	-10.7843
▁богов	-10.7843
▁стрелять	-10.7851
▁Мужчина	-10.7853
▁ощущения	-10.7855
▁кругом	-10.7856
▁результаты	-10.7858
▁ди	-10.786
▁родной	-10.7861
▁камня	-10.7865
▁радостью	-10.7865
an	-10.7865
▁станут	-10.7866
▁Джеймс	-10.787
▁ел	-10.7872
▁жители	-10.7873
кол	-10.7875
▁Само	-10.7875
▁армию	-10.7875
▁гибели	-10.7876
▁друзьями	-10.7878
▁аппарат	-10.7882
бра	-10.7886
бан	-10.7887
▁человеческой	-10.7889
▁музыка	-10.7894
▁Дмитрий	-10.7895
▁боевых	-10.7897
▁узнает	-10.7899
▁впоследствии	-10.7901
▁отправились	-10.7902
▁перемен	-10.7903
▁признался	-10.7905
▁нигде	-10.7906
рез	-10.7912
▁собрались	-10.7914
▁позволил	-10.7915
▁пустой	-10.7921
▁общей	-10.7921
▁идиот	-10.7923
▁гад	-10.7924
▁Эд	-10.7924
уз	-10.7925
▁кулак	-10.7926
▁побежал	-10.7927
▁игру	-10.7929
сел	-10.793
▁группу	-10.793
▁диск	-10.793
▁стекла	-10.7931
▁длинный	-10.7933
ra	-10.7936
▁Сердце	-10.7937
▁склад	-10.7942
▁ожидать	-10.7946
ьных	-10.7946
▁втором	-10.7948
▁существ	-10.7949
▁городу	-10.795
▁ребят	-10.7951
▁ловко	-10.7951
▁рев	-10.7952
без	-10.7954
▁собаки	-10.7956
ита	-10.7961
▁целиком	-10.7963
▁товар	-10.7971
▁Жаль	-10.7973
▁написать	-10.7974
▁курсе	-10.7982
▁случится	-10.7982
▁фотографии	-10.7982
▁электро	-10.7987
▁подбородок	-10.7988
▁способом	-10.799
▁раздел	-10.7991
it	-10.7993
▁приняли	-10.7993
▁Тан	-10.7993
▁метод	-10.8001
▁мяса	-10.8002
ностью	-10.8003
▁форм	-10.8005
▁проходит	-10.8007
▁разница	-10.8008
▁политики	-10.8009
▁Париж	-10.801
▁вызывает	-10.8012
▁перебил	-10.8016
ировали	-10.8016
▁делах	-10.8021
▁скрыть	-10.8021
▁полез	-10.8021
▁сутки	-10.8023
▁торжественно	-10.8023
▁пространства	-10.8025
▁Си	-10.8032
▁убийство	-10.8034
▁члены	-10.8036
Вы	-10.8036
▁Хочешь	-10.8038
▁ограничен	-10.8041
▁вопросом	-10.8041
▁скоростью	-10.805
▁мужчину	-10.8054
емых	-10.8056
▁вздрогнул	-10.806
▁собирались	-10.8063
▁Шар	-10.8065
▁дне	-10.8066
ur	-10.8066
▁Папа	-10.8066
▁остановил	-10.8067
▁нравилось	-10.8068
▁попросила	-10.8069
▁показался	-10.8069
▁бывают	-10.8075
▁бросить	-10.8076
овского	-10.808
▁очки	-10.808
▁зеркало	-10.8081
▁преступления	-10.8082
▁Рай	-10.8087
▁документ	-10.8087
▁системе	-10.8087
▁шло	-10.8089
▁имея	-10.8089
ват	-10.8089
40	-10.8095
▁пламя	-10.8095
Й	-10.81
▁Христа	-10.8101
▁братья	-10.8101
▁удивилась	-10.8105
▁оттого	-10.8108
▁кара	-10.811
бин	-10.8111
▁немцев	-10.8113
▁предстояло	-10.8116
▁неправильно	-10.8126
▁удивление	-10.8128
▁отчетливо	-10.8133
▁щеки	-10.8137
▁золото	-10.8139
▁бал	-10.8141
▁опустился	-10.8145
▁Го	-10.8147
ическим	-10.8149
тай	-10.8151
▁имело	-10.8156
▁Али	-10.8158
▁хорошие	-10.8162
▁удивлением	-10.8163
▁шагнул	-10.8163
▁неизбежно	-10.8164
▁полтора	-10.817
▁коридоре	-10.8171
▁крепости	-10.8172
▁возникает	-10.8175
▁снаружи	-10.8177
есь	-10.8178
▁улыбку	-10.8179
ьте	-10.8183
▁Елена	-10.8189
▁Рад	-10.8191
мент	-10.8191
▁частей	-10.8192
▁сесть	-10.8193
▁привел	-10.8197
▁сумку	-10.8197
▁птицы	-10.8198
▁ред	-10.8205
▁дурак	-10.8208
шем	-10.8209
▁рту	-10.8219
▁диван	-10.8225
▁принципе	-10.8227
▁сомнений	-10.8227
▁хорошее	-10.8227
or	-10.8228
▁мечта	-10.8231
▁делала	-10.8238
▁Фил	-10.8239
▁запад	-10.8241
▁доказать	-10.8241
▁напомнил	-10.8243
сан	-10.8244
▁Могу	-10.8245
▁выбрал	-10.825
стой	-10.8251
▁пользоваться	-10.8255
▁невероятно	-10.8257
▁пи	-10.8263
▁лагеря	-10.8264
▁собою	-10.8264
пал	-10.8267
руж	-10.8268
▁мост	-10.8272
▁евреев	-10.8277
▁Говорят	-10.8277
▁заглянул	-10.8278
▁Ген	-10.8279
▁сидя	-10.828
▁покоя	-10.8281
▁работали	-10.8286
▁играет	-10.8288
▁начинают	-10.829
▁Смотри	-10.829
▁ла	-10.829
▁обнял	-10.8292
▁Утром	-10.8292
▁твоим	-10.8293
▁продолжали	-10.8294
рак	-10.8295
▁глава	-10.8297
▁убедить	-10.8302
▁светло	-10.8303
▁неловко	-10.8308
▁военного	-10.8314
вшуюся	-10.8316
ток	-10.8318
▁Марина	-10.8322
▁странным	-10.8323
▁находиться	-10.8325
▁Союза	-10.8327
▁вторую	-10.833
хан	-10.8331
▁матерью	-10.8335
▁ро	-10.8337
▁интересом	-10.8338
▁Мер	-10.834
▁фронт	-10.8341
▁рез	-10.8341
▁Брат	-10.8343
нс	-10.8346
▁оглянулся	-10.8347
▁процессе	-10.8353
▁XX	-10.8363
▁учителя	-10.8364
▁давая	-10.8372
▁природе	-10.8373
▁оп	-10.8376
▁уходит	-10.8377
▁Стр	-10.8377
▁государство	-10.8381
пит	-10.8384
лия	-10.8386
лина	-10.8398
▁существования	-10.8399
▁Костя	-10.8402
▁летом	-10.8405
▁Дома	-10.8405
▁черных	-10.8406
-1	-10.841
шит	-10.841
▁новости	-10.8414
▁устало	-10.8417
▁низ	-10.8419
шийся	-10.8422
▁сможешь	-10.8424
▁баб	-10.8424
▁низко	-10.8425
▁помогает	-10.8425
▁открыто	-10.8426
▁Вроде	-10.8426
▁Мел	-10.8428
▁принимал	-10.843
▁разговоры	-10.8434
▁Лет	-10.8435
▁хорошая	-10.8436
▁чьи	-10.8437
рит	-10.8441
▁высокого	-10.8442
кую	-10.8442
▁вернее	-10.8443
▁Раньше	-10.8443
лек	-10.8445
вшимся	-10.8453
▁Совета	-10.8454
▁печально	-10.8457
▁сахар	-10.8459
шему	-10.8462
▁еды	-10.8463
▁дворца	-10.8464
▁Чу	-10.8466
▁судить	-10.8466
▁Такая	-10.8467
▁мотор	-10.8469
▁полным	-10.8471
▁Пришлось	-10.8472
един	-10.8473
▁борту	-10.8477
▁остановиться	-10.8479
▁Сар	-10.8483
▁верх	-10.8483
▁нём	-10.8492
▁прибыли	-10.8493
рет	-10.8496
▁купил	-10.8497
▁советской	-10.8497
▁правы	-10.8498
m	-10.8501
дель	-10.8501
сты	-10.8503
тей	-10.8506
нес	-10.8507
▁наверно	-10.8508
▁появляется	-10.8509
▁Насколько	-10.8511
▁пространстве	-10.8512
▁советских	-10.8512
город	-10.8513
▁открыв	-10.8518
▁Народ	-10.8518
▁старая	-10.8522
пред	-10.8523
▁пальто	-10.8524
▁выполнять	-10.8524
▁сможем	-10.8525
коп	-10.8526
▁прос	-10.8533
▁Две	-10.8533
▁давайте	-10.854
чив	-10.8541
▁запрет	-10.8542
▁ос	-10.8542
ящий	-10.8546
ался	-10.8548
▁подо	-10.855
мана	-10.855
▁Томас	-10.8551
од	-10.8552
ине	-10.8555
▁фото	-10.8556
все	-10.8556
▁рассказала	-10.8556
▁стенах	-10.8557
▁земель	-10.856
▁поспешил	-10.8561
ций	-10.8562
50	-10.8563
▁оставались	-10.8564
▁девушек	-10.8566
.).	-10.8566
▁Егор	-10.8567
ост	-10.8567
▁защиту	-10.8568
▁установить	-10.857
00	-10.8577
▁слава	-10.8581
▁пойдем	-10.8582
▁шепотом	-10.8584
▁просить	-10.859
▁казались	-10.8591
▁повсюду	-10.8593
ируя	-10.8596
▁обмен	-10.8597
▁устроить	-10.8598
▁Николаевич	-10.8598
▁покинул	-10.86
▁согласен	-10.86
ром	-10.8601
▁лишен	-10.8603
дет	-10.8604
▁Эн	-10.8607
▁думая	-10.8614
▁недовольно	-10.8614
▁закрыла	-10.862
▁надолго	-10.8622
▁охраны	-10.8623
ких	-10.8624
▁комната	-10.8624
▁руб	-10.8627
▁кричал	-10.8628
▁вела	-10.863
▁подошли	-10.8633
▁взглянуть	-10.8634
▁взяв	-10.8637
▁делам	-10.8639
бран	-10.864
▁изменилось	-10.8643
▁бежал	-10.8648
g	-10.865
▁поверх	-10.8653
уют	-10.8653
▁самих	-10.8654
▁мат	-10.8655
овали	-10.8656
▁единого	-10.8656
ким	-10.8656
▁боялась	-10.8658
▁победы	-10.8659
▁страна	-10.8661
▁голода	-10.8664
фф	-10.8664
▁братьев	-10.8665
▁сосед	-10.8671
▁карту	-10.8673
▁малыш	-10.8674
▁вход	-10.8675
▁устал	-10.8676
▁техники	-10.8685
▁землей	-10.8693
▁всякие	-10.8693
▁источник	-10.8695
брос	-10.8695
▁проснулся	-10.8701
▁дыма	-10.8708
▁d	-10.8709
▁негромко	-10.8709
▁попробовать	-10.871
▁крупных	-10.871
пут	-10.8711
▁саду	-10.8712
▁служил	-10.8713
▁Вид	-10.8714
▁выстрел	-10.8717
▁поворот	-10.8718
▁госпожа	-10.8719
тур	-10.872
el	-10.8722
▁Сразу	-10.8725
▁Вар	-10.8725
▁решать	-10.8727
▁смогут	-10.8729
▁детали	-10.8733
▁собак	-10.8735
▁Ибо	-10.8747
▁***	-10.8748
▁Ещё	-10.8749
▁думали	-10.875
▁испытывал	-10.875
▁сыном	-10.875
▁конверт	-10.8752
▁наклонился	-10.8753
▁Бу	-10.8753
▁Бе	-10.8756
▁сделано	-10.8759
нский	-10.8759
чуть	-10.876
»...	-10.876
▁покое	-10.8761
▁прочих	-10.8762
▁самолета	-10.8763
▁1-	-10.8765
▁маленькую	-10.8765
▁фактически	-10.8767
чист	-10.8771
▁коллектив	-10.8777
разум	-10.8778
еля	-10.8778
▁иди	-10.8778
очку	-10.8781
▁камней	-10.8783
аре	-10.8784
▁Ум	-10.8784
▁связано	-10.8785
▁День	-10.8789
▁молодая	-10.879
ять	-10.879
тин	-10.8793
эй	-10.8793
ическом	-10.8795
▁прямой	-10.8796
кто	-10.8799
▁беда	-10.8804
▁выяснилось	-10.8813
▁понравилось	-10.8814
▁чувством	-10.8816
▁раны	-10.8817
▁делаешь	-10.8821
▁сердито	-10.8824
▁городов	-10.8824
▁Ху	-10.8825
Если	-10.8825
▁собственный	-10.8831
▁бояться	-10.8832
▁слухи	-10.8832
рек	-10.8834
▁губам	-10.8835
▁положено	-10.8835
▁ракет	-10.8836
▁надеясь	-10.8837
▁заявила	-10.8837
▁фигуры	-10.8841
▁окном	-10.8841
▁догадался	-10.8842
▁поиски	-10.8842
▁смешно	-10.8844
▁Первым	-10.8845
▁Кер	-10.8846
▁Аль	-10.8848
▁Эрик	-10.8848
▁бросилась	-10.8849
▁половине	-10.8853
▁корпус	-10.8856
▁инженер	-10.8859
▁Алиса	-10.8859
▁суток	-10.886
▁причиной	-10.8863
▁пас	-10.8864
▁отдохнуть	-10.8869
▁волна	-10.8869
▁Очевидно	-10.8871
▁учиться	-10.8872
▁термин	-10.8878
▁перевел	-10.888
▁Боб	-10.888
▁приводит	-10.8882
нят	-10.8892
▁золотой	-10.8894
▁предложения	-10.8894
вет	-10.8897
бал	-10.89
▁последним	-10.8901
▁ручку	-10.8903
▁десятка	-10.8904
▁помогать	-10.8911
▁1941	-10.8914
▁приходил	-10.8915
▁заодно	-10.8915
▁искусство	-10.8916
▁сбор	-10.8916
▁стыдно	-10.8916
нице	-10.8917
▁присел	-10.8917
остью	-10.8918
станов	-10.892
▁потребовал	-10.8922
▁глянул	-10.8924
▁Мальчик	-10.8925
▁помимо	-10.8929
▁Хан	-10.8932
▁передо	-10.8935
▁сомневался	-10.8935
▁Остальные	-10.8935
▁половина	-10.8945
лес	-10.8946
вед	-10.8947
▁главной	-10.8947
▁пожала	-10.8951
рыв	-10.8953
▁вызов	-10.8953
▁жертву	-10.8955
▁вор	-10.8956
ида	-10.8956
▁товарищей	-10.8958
▁прекрасный	-10.8958
▁мешок	-10.8959
▁бред	-10.8959
усь	-10.8959
▁показывает	-10.896
▁ходили	-10.8963
▁Вчера	-10.8964
пон	-10.8965
ад	-10.8968
▁возраст	-10.8969
▁товарищи	-10.8969
ела	-10.8971
▁особой	-10.8971
▁Рон	-10.8972
▁понадобится	-10.8975
▁холодной	-10.8979
▁пе	-10.898
▁Верно	-10.8983
▁надел	-10.8984
▁предположить	-10.8986
▁годах	-10.8987
▁площадь	-10.8989
▁малейшего	-10.8991
няя	-10.8993
▁организм	-10.8995
говор	-10.8995
ьер	-10.8996
енное	-10.8996
▁уверены	-10.8999
▁друж	-10.9
▁жестом	-10.9002
вис	-10.9003
▁выбора	-10.9004
▁такому	-10.9004
▁зверь	-10.9007
▁заметив	-10.9009
▁Глеб	-10.9011
▁пу	-10.9015
▁4.	-10.9019
▁Маша	-10.9022
▁оборот	-10.9023
рю	-10.9023
▁Вряд	-10.903
▁исчезли	-10.903
стями	-10.9033
▁объект	-10.9033
?"	-10.9035
▁принести	-10.904
▁большими	-10.904
лок	-10.904
дели	-10.904
▁тесно	-10.9041
▁похожи	-10.9042
яр	-10.9042
нар	-10.9044
▁Прошло	-10.9045
▁дышать	-10.9046
▁2-	-10.9047
▁ремонт	-10.9051
эл	-10.9054
▁ничуть	-10.9055
▁добрый	-10.9057
▁Шу	-10.9058
▁глазам	-10.9061
гон	-10.9066
ард	-10.9066
▁башни	-10.9067
чная	-10.9067
▁Париже	-10.9071
▁случая	-10.9072
▁Слава	-10.9072
▁Стас	-10.9073
▁мистера	-10.9074
▁Хм	-10.9075
▁заключается	-10.9076
еб	-10.9077
еры	-10.9078
▁необходимость	-10.9085
▁центра	-10.9087
▁звонок	-10.9088
▁веру	-10.9089
другому	-10.9091
лый	-10.9091
▁буркнул	-10.9097
▁Ло	-10.9098
ений	-10.9099
▁странный	-10.9102
▁Син	-10.9103
▁дольше	-10.9105
▁газ	-10.9107
▁рада	-10.9109
▁Май	-10.9115
▁коридору	-10.9117
▁бороться	-10.9118
▁восьми	-10.9118
▁остро	-10.9119
▁собрать	-10.912
▁Лили	-10.912
▁поверил	-10.9122
раж	-10.9125
▁Мартин	-10.9128
▁идей	-10.9133
▁спрашивал	-10.9134
▁Ос	-10.9134
тек	-10.9135
▁ярости	-10.9136
▁приехали	-10.9137
▁парни	-10.9138
▁попали	-10.914
▁десяток	-10.914
эль	-10.9141
▁журнал	-10.9142
▁Мат	-10.9142
знаком	-10.9143
ющимся	-10.9143
▁Россию	-10.9145
▁всерьез	-10.915
▁команда	-10.9151
▁шоссе	-10.9155
чей	-10.9155
лип	-10.9159
▁полк	-10.916
▁Зо	-10.9161
▁становятся	-10.9161
ющими	-10.9162
▁воины	-10.9163
▁дама	-10.9167
▁Чуть	-10.9168
b	-10.9169
▁Влад	-10.917
били	-10.917
▁X	-10.9171
▁представитель	-10.9172
▁луч	-10.9173
▁охотно	-10.9173
▁рис	-10.9176
▁одежда	-10.9179
реш	-10.918
▁давали	-10.9182
▁плане	-10.9184
▁замолчал	-10.9187
▁совета	-10.9188
▁странах	-10.919
▁масла	-10.919
▁собственную	-10.9191
▁узнав	-10.9193
▁задачу	-10.9197
▁счастлив	-10.9197
▁предложить	-10.9198
▁подхватил	-10.9198
стра	-10.9199
▁пошло	-10.9199
слов	-10.9205
▁подруга	-10.9206
▁держаться	-10.9207
▁законы	-10.9208
▁Пошли	-10.9211
▁встретились	-10.9218
▁записи	-10.9222
▁Бат	-10.9222
▁костра	-10.9224
▁свод	-10.9224
▁начнет	-10.9225
▁лестницы	-10.9226
Мы	-10.9228
▁гнева	-10.9233
▁тихонько	-10.9238
▁ряда	-10.9239
▁убедиться	-10.924
▁обязанности	-10.9241
▁обстоятельства	-10.9245
▁обстоятельствах	-10.9246
▁заорал	-10.925
▁домом	-10.925
▁стула	-10.9251
ливо	-10.9253
▁упорно	-10.9254
ске	-10.9255
▁слышу	-10.9256
▁мужем	-10.9257
рам	-10.9258
▁достижения	-10.9259
▁небрежно	-10.926
ol	-10.9261
▁бойцов	-10.9263
ции	-10.9265
▁боится	-10.9265
▁получив	-10.9266
ацию	-10.9268
▁Отлично	-10.9268
▁искр	-10.9269
45	-10.9269
▁военные	-10.9272
▁собрался	-10.9275
бл	-10.9276
▁нередко	-10.9282
▁черного	-10.9288
▁терпеть	-10.9293
▁поехал	-10.9293
▁создание	-10.9297
▁настоящего	-10.9297
▁кос	-10.9299
▁пройдет	-10.9302
▁огне	-10.9302
▁обеих	-10.9308
▁чей	-10.931
▁высокие	-10.9314
▁присутствии	-10.9316
▁продолжает	-10.9317
▁долю	-10.9319
▁просит	-10.9319
▁чемодан	-10.932
▁объем	-10.9321
▁усилий	-10.9322
жига	-10.9325
▁порог	-10.9326
▁красно	-10.9327
▁составе	-10.9327
след	-10.933
тельный	-10.9334
вил	-10.9334
▁показалась	-10.9341
▁разрешения	-10.9341
альных	-10.9342
▁высоты	-10.9342
▁старалась	-10.9344
лон	-10.9344
▁тяжелый	-10.9347
▁Майкл	-10.9348
▁мнения	-10.935
▁Гитлер	-10.9356
▁гордо	-10.9358
▁лежа	-10.9358
▁лучший	-10.936
▁Иисус	-10.9362
▁беседу	-10.9364
▁какому	-10.937
▁строить	-10.937
▁пота	-10.9373
▁детям	-10.9375
▁программы	-10.9376
▁маневр	-10.9377
▁пот	-10.9377
▁дверях	-10.9378
▁половины	-10.9379
▁попала	-10.9379
▁Боюсь	-10.9379
▁уверенность	-10.9383
▁перевод	-10.9384
▁сильным	-10.9386
▁сиденье	-10.9393
кро	-10.9395
действительности	-10.9396
▁делами	-10.9397
вол	-10.94
▁смотри	-10.9406
▁Пу	-10.9411
бур	-10.9412
▁Быть	-10.9414
▁Петра	-10.9414
▁ходит	-10.9415
▁лед	-10.9418
▁отправил	-10.9418
▁Фар	-10.942
▁ПО	-10.9421
▁гость	-10.9426
▁травы	-10.9426
▁сопровожда	-10.9429
▁приговор	-10.943
▁ночной	-10.943
зв	-10.9431
▁спины	-10.9431
мена	-10.9432
▁выходить	-10.9433
ьные	-10.9434
▁личность	-10.9434
ову	-10.9435
Вот	-10.9438
▁граждан	-10.9439
ством	-10.9442
▁Увидев	-10.9444
▁Кому	-10.9444
▁листья	-10.9448
▁пригласил	-10.9449
плыв	-10.9449
ключи	-10.945
▁наверху	-10.9453
▁вод	-10.9453
рус	-10.9454
▁Будет	-10.9457
нг	-10.9459
▁приятель	-10.9461
▁болезнь	-10.9462
▁Должно	-10.9462
▁выдержал	-10.9462
▁провал	-10.9463
чный	-10.9464
▁господина	-10.9465
▁веке	-10.9466
▁Кирилл	-10.9467
▁поступил	-10.9469
▁грех	-10.9469
▁билет	-10.947
очкой	-10.9474
стан	-10.9476
каз	-10.948
▁начиная	-10.9481
▁гроз	-10.9484
▁накануне	-10.9484
▁белого	-10.9486
▁закона	-10.9487
мол	-10.9488
чики	-10.949
as	-10.949
▁пары	-10.9491
▁ожидании	-10.9496
▁действует	-10.9497
▁Король	-10.9497
истый	-10.9498
▁Ради	-10.95
um	-10.95
айте	-10.9503
▁университет	-10.9504
▁иной	-10.9504
il	-10.951
▁Никаких	-10.9512
▁фильм	-10.9514
▁отметил	-10.9517
▁вампир	-10.9517
▁сердцем	-10.9518
▁птиц	-10.9519
▁жертвы	-10.9522
▁занятия	-10.9523
ивший	-10.9524
▁Воз	-10.9525
▁ребенком	-10.9528
▁статьи	-10.9528
▁орган	-10.9528
▁гул	-10.9529
▁XIX	-10.953
ике	-10.9533
▁режим	-10.9535
▁лап	-10.9536
▁заряд	-10.9538
▁наук	-10.9539
▁красный	-10.9542
▁героя	-10.9543
▁35	-10.9544
▁Великий	-10.9545
▁ствол	-10.9546
▁тяжелые	-10.9546
▁веры	-10.9548
▁песок	-10.955
▁сме	-10.955
▁Богом	-10.9555
▁знакомых	-10.9557
▁полного	-10.9558
▁адмирал	-10.956
▁морской	-10.9563
▁миль	-10.9565
▁управлять	-10.9569
▁обнаружили	-10.9571
▁изнутри	-10.9575
▁чести	-10.9577
▁лодки	-10.9577
▁древних	-10.9577
▁известный	-10.9585
гре	-10.9585
▁перешел	-10.9588
ирование	-10.9588
▁мелкие	-10.959
▁смотрю	-10.9591
▁встретить	-10.9593
▁желает	-10.9594
▁Вен	-10.9595
▁РФ	-10.9595
11	-10.9595
▁Лиза	-10.9598
▁выполнить	-10.9599
ления	-10.96
▁Ваш	-10.9601
▁позвал	-10.9601
▁масса	-10.9602
▁планете	-10.9602
▁Лена	-10.9603
▁танков	-10.9605
▁задание	-10.9609
▁путешествие	-10.9609
▁литературы	-10.9611
▁провела	-10.9611
▁спорить	-10.9614
▁ресторан	-10.9616
▁полагаю	-10.9618
▁обернулась	-10.9619
▁200	-10.962
▁привез	-10.962
▁потерять	-10.9621
▁авто	-10.9626
▁ле	-10.9633
▁соль	-10.9634
▁живу	-10.9635
▁мальчишка	-10.9637
▁наблюдая	-10.9637
▁делаю	-10.9637
▁помнишь	-10.9639
▁требовалось	-10.964
▁терять	-10.964
▁оставалась	-10.9648
▁положить	-10.965
▁маленьких	-10.9653
▁следить	-10.9657
»:	-10.9659
▁страдания	-10.966
гляд	-10.966
аж	-10.9664
▁Большой	-10.9669
▁забыли	-10.967
▁связаны	-10.9671
▁Жив	-10.9671
▁дождя	-10.9673
▁экипаж	-10.9674
▁пообещал	-10.9676
▁Ги	-10.9676
25	-10.9676
▁мертв	-10.9681
евич	-10.9681
тка	-10.9682
▁Дэн	-10.9684
▁противник	-10.9684
▁Парень	-10.9688
▁подняв	-10.969
▁вспоминал	-10.9694
▁рассмеялась	-10.9695
крас	-10.9696
пу	-10.9697
▁Совет	-10.9697
▁примет	-10.9699
▁Ленина	-10.9701
▁неприятно	-10.9702
▁взялся	-10.9703
йди	-10.9703
▁кров	-10.9706
▁Ст	-10.9706
▁тайны	-10.9708
▁Сто	-10.9708
▁Слова	-10.971
ались	-10.9712
▁новом	-10.9712
▁душой	-10.9716
▁работают	-10.9716
▁горько	-10.9718
▁совершил	-10.9718
▁виски	-10.9718
▁плоти	-10.9718
▁сети	-10.9719
▁настоящая	-10.9721
▁Москва	-10.9726
пят	-10.973
▁бывшего	-10.9732
▁случаев	-10.9736
▁милая	-10.9737
▁комплекс	-10.9738
▁Пора	-10.9738
ище	-10.9738
▁выбраться	-10.9742
▁приняла	-10.9742
нной	-10.9746
▁набрал	-10.975
▁политической	-10.9751
▁че	-10.9751
▁рассмотреть	-10.9758
▁мыслями	-10.9758
▁острове	-10.9759
ически	-10.9759
▁приступ	-10.976
▁поблизости	-10.9763
▁победу	-10.9765
вшееся	-10.9765
▁появления	-10.977
▁организма	-10.9778
▁назван	-10.9778
▁Сил	-10.9779
▁внутренней	-10.978
▁лучи	-10.9781
▁плав	-10.9784
▁Миша	-10.979
▁крылья	-10.979
▁крупные	-10.9791
▁реку	-10.9791
▁страсти	-10.9794
▁Сын	-10.9797
уд	-10.9798
▁Кам	-10.9798
▁занять	-10.9801
▁процесса	-10.9804
ается	-10.9807
▁живым	-10.9808
▁потолок	-10.9812
▁кучу	-10.9814
▁существу	-10.9819
вай	-10.9823
▁щит	-10.9827
▁возвращения	-10.9829
вшими	-10.9831
▁строя	-10.9831
▁приготовления	-10.9835
▁желал	-10.9837
пад	-10.9838
▁эпохи	-10.9839
▁Ивана	-10.9842
▁Джейн	-10.9842
▁снизу	-10.9844
▁мечом	-10.9846
▁Спустя	-10.9846
▁подробности	-10.9855
▁отдельных	-10.9855
▁помощник	-10.9857
▁поднялись	-10.9861
▁туалет	-10.9861
▁корм	-10.9862
▁платья	-10.9868
дур	-10.987
▁Кос	-10.987
нку	-10.9872
▁Константин	-10.9873
ань	-10.9875
▁удержать	-10.9877
маз	-10.9878
▁последовал	-10.9881
▁Мое	-10.9882
▁Эмили	-10.9882
▁Голова	-10.9888
▁фразу	-10.9893
▁маленького	-10.9897
▁подход	-10.9897
▁ошибки	-10.9898
мест	-10.9899
▁художник	-10.9899
▁сообщила	-10.9902
пы	-10.9904
▁двести	-10.9904
▁Совершенно	-10.9907
▁направилась	-10.9908
▁Руси	-10.9909
ируют	-10.992
▁обладает	-10.9921
▁штат	-10.9921
▁благополучно	-10.9921
▁четверо	-10.9927
w	-10.9927
▁целей	-10.9928
▁основной	-10.9929
▁совести	-10.9929
▁содержание	-10.9931
зин	-10.9932
▁спальню	-10.9935
▁Быстро	-10.9936
▁бетон	-10.9938
▁представил	-10.9938
▁появится	-10.9942
▁кредит	-10.9943
▁Новый	-10.9947
▁сорока	-10.9948
▁титул	-10.9949
▁появление	-10.9951
ств	-10.9954
▁придумать	-10.9954
▁систем	-10.9958
▁пра	-10.9958
▁высоких	-10.9959
▁открылась	-10.9963
▁неужели	-10.9963
▁платить	-10.9964
▁образования	-10.9965
▁широкой	-10.9966
▁чист	-10.9967
тельные	-10.9968
▁звучит	-10.9971
сме	-10.9971
▁прижал	-10.9971
▁Запад	-10.9973
▁мастера	-10.9974
лож	-10.9975
Но	-10.9976
▁такси	-10.998
▁любые	-10.9981
печат	-10.9982
▁Оп	-10.9985
▁ведут	-10.9986
▁большом	-10.999
▁куски	-10.9992
▁единственное	-10.9992
▁принимает	-10.9994
▁вечеру	-10.9996
▁получает	-10.9998
▁Ду	-10.9998
▁бизнес	-11.0003
▁должность	-11.0004
стях	-11.0005
▁Люк	-11.0005
цам	-11.0011
▁облик	-11.0012
▁Мил	-11.0013
ведение	-11.0015
▁письме	-11.0016
енок	-11.0022
нула	-11.0025
▁урод	-11.0026
движ	-11.003
▁завтрак	-11.0032
▁Лондон	-11.0034
▁Скажите	-11.0035
шке	-11.0035
▁Лин	-11.0037
жит	-11.0037
▁отвернулся	-11.0038
▁Работа	-11.0039
чке	-11.0041
▁небольшую	-11.0044
▁Немного	-11.0045
▁пищи	-11.0045
▁достать	-11.0047
▁своя	-11.0049
▁сообщения	-11.005
▁ру	-11.0051
▁судно	-11.0052
▁сперва	-11.0053
▁считая	-11.0053
ченко	-11.0058
▁мусор	-11.0061
▁авторитет	-11.0064
▁дорого	-11.0069
▁носить	-11.007
-2	-11.0071
▁вдвоем	-11.0071
▁управление	-11.0072
▁Были	-11.0073
▁десятки	-11.0073
еле	-11.0076
▁группе	-11.0076
эт	-11.0078
рост	-11.008
▁Естественно	-11.0081
▁замке	-11.0081
▁et	-11.0082
▁толпу	-11.0086
▁последняя	-11.0086
▁эмоции	-11.0086
▁спустился	-11.009
кры	-11.009
▁входит	-11.0093
▁держит	-11.0095
▁масло	-11.0095
▁подозрительно	-11.0099
▁энергию	-11.0099
▁поступить	-11.01
▁захочет	-11.0104
ником	-11.0105
▁северо	-11.0105
▁традиции	-11.011
стрел	-11.0112
▁богу	-11.0113
▁глухо	-11.0113
▁юг	-11.0114
▁сможете	-11.0114
як	-11.0115
▁крем	-11.0116
▁лето	-11.0123
▁людях	-11.0126
▁река	-11.0127
▁хотим	-11.0127
▁забрать	-11.0133
▁ударом	-11.0134
▁реакции	-11.0134
▁заставила	-11.0135
▁границу	-11.0135
▁расскажу	-11.0137
нова	-11.0138
▁ткани	-11.0139
От	-11.0139
▁служит	-11.014
▁старательно	-11.014
щими	-11.0141
▁яростно	-11.0144
▁Большинство	-11.0148
▁Самое	-11.0155
чку	-11.0156
тона	-11.0157
▁лучшие	-11.0157
гин	-11.0158
▁ощущал	-11.0158
[1	-11.0164
ающих	-11.0165
▁пешком	-11.0167
▁сумму	-11.0168
▁цивилизации	-11.0169
▁Ран	-11.0169
▁одиночестве	-11.017
▁здоровья	-11.0172
▁духом	-11.0173
▁тер	-11.0176
▁побольше	-11.0176
▁красиво	-11.0177
▁скалы	-11.0178
▁зверя	-11.0179
▁идеал	-11.0181
вшую	-11.0181
▁одеяло	-11.0182
▁следовательно	-11.0187
нную	-11.0188
▁воскрес	-11.0189
▁полная	-11.019
▁мелко	-11.0191
▁кинжал	-11.0192
▁означало	-11.0193
▁существуют	-11.0194
▁послан	-11.0194
▁случиться	-11.0195
вшему	-11.0196
воль	-11.0197
▁создал	-11.0197
▁сопротивление	-11.0198
▁интересует	-11.0199
▁впрямь	-11.0199
▁безусловно	-11.02
▁зашел	-11.0203
▁продолжая	-11.0204
▁линию	-11.0204
▁Лю	-11.0207
14	-11.0212
При	-11.0213
▁моими	-11.0216
▁красивая	-11.0218
▁добра	-11.0219
бол	-11.0222
▁Руки	-11.0223
▁окружен	-11.0225
▁пламени	-11.0227
топ	-11.0228
они	-11.0229
▁возникла	-11.0231
▁спрашиваю	-11.0233
▁вернусь	-11.0234
▁услышав	-11.0235
▁ль	-11.0236
▁местные	-11.0243
▁грязи	-11.0247
▁защитить	-11.025
▁отправить	-11.0251
▁Хозяин	-11.0254
▁короткий	-11.0254
▁славян	-11.0257
▁встреч	-11.0258
▁графа	-11.0259
▁последствия	-11.0264
днев	-11.0268
▁скандал	-11.0269
▁черта	-11.027
▁органов	-11.0271
▁Ветер	-11.0271
▁названия	-11.0272
▁предварительно	-11.0273
▁раствор	-11.0274
куп	-11.0278
▁писателя	-11.0278
▁слуг	-11.0278
▁холодный	-11.0278
▁Рис	-11.0279
▁взор	-11.0279
стар	-11.0282
нец	-11.0284
▁Ча	-11.0287
▁военно	-11.0289
▁шт	-11.029
▁поражение	-11.0293
▁позицию	-11.0294
▁Рей	-11.0297
▁попытка	-11.0298
▁Герман	-11.0299
чить	-11.0302
▁обращая	-11.0303
▁яйца	-11.0303
▁работала	-11.0304
▁устав	-11.0306
бег	-11.0306
▁дальнейшем	-11.0308
▁бра	-11.0308
▁гром	-11.0311
▁глубины	-11.0317
▁милый	-11.0318
дал	-11.0319
▁попытаться	-11.0319
▁Гри	-11.0319
▁помещения	-11.0321
Нет	-11.0321
▁некуда	-11.0323
▁сотрудников	-11.0325
▁реальность	-11.0325
▁ло	-11.0327
▁заказ	-11.0337
▁вплоть	-11.0343
▁произведения	-11.0344
▁нашими	-11.0345
▁потеряла	-11.0346
ушки	-11.0347
гад	-11.0349
▁сознании	-11.035
▁предметы	-11.0352
▁одних	-11.0353
▁Филипп	-11.0356
▁растерянно	-11.0356
▁кармане	-11.0357
▁убит	-11.0358
▁обеспечить	-11.0362
▁прощения	-11.0366
▁уехать	-11.0367
▁борьба	-11.0368
тик	-11.037
▁решив	-11.0371
▁активно	-11.0371
▁обращаясь	-11.0372
▁одежде	-11.0374
▁пробормотала	-11.0376
▁похожа	-11.0377
▁Увы	-11.0378
▁сделав	-11.0382
▁решился	-11.0384
▁избран	-11.0386
ику	-11.0391
▁фирмы	-11.0394
мой	-11.0401
▁облака	-11.0402
▁красные	-11.0405
▁наблюдения	-11.0405
▁прочие	-11.0407
▁попросту	-11.0407
▁близ	-11.0413
▁превратился	-11.042
▁общий	-11.0422
▁партизан	-11.0423
N	-11.0425
▁задач	-11.0427
пря	-11.0428
вать	-11.0429
Все	-11.0431
▁обман	-11.0434
▁оставила	-11.0437
▁Долго	-11.0437
▁Неожиданно	-11.0437
▁признаться	-11.0439
лез	-11.0442
▁здоров	-11.0445
пил	-11.0449
▁сыну	-11.0449
▁наступление	-11.045
▁заняты	-11.0451
рии	-11.0454
▁напрасно	-11.0455
▁беседы	-11.0457
▁тысячу	-11.0457
▁пору	-11.0459
▁ворон	-11.046
▁разума	-11.0461
чий	-11.0463
▁отпустил	-11.0464
▁Италии	-11.0466
▁лад	-11.0467
▁кулаком	-11.0469
▁некоторым	-11.0469
▁экране	-11.047
▁штаны	-11.0471
▁путешествия	-11.0472
▁ненадолго	-11.0473
▁подойти	-11.0474
▁представителей	-11.0474
▁Шел	-11.0475
нным	-11.0476
▁Мед	-11.0476
▁толком	-11.0478
▁IV	-11.0479
ирования	-11.048
▁пятидесяти	-11.0482
▁сего	-11.0485
▁наполовину	-11.0485
▁товарища	-11.0485
▁свист	-11.0485
▁стиле	-11.0486
очной	-11.0487
▁глубже	-11.0488
зар	-11.0488
▁сотен	-11.0494
мина	-11.0495
▁выдохнул	-11.0495
▁стрел	-11.0495
▁дно	-11.0501
▁плюс	-11.0503
▁поклонился	-11.0504
▁став	-11.0505
▁собственное	-11.0505
▁сход	-11.0506
▁хорошенько	-11.0509
шив	-11.0512
▁делается	-11.0512
▁подождать	-11.0513
▁этажа	-11.0514
уха	-11.0514
▁ал	-11.0518
▁Пойдем	-11.0519
▁номера	-11.052
лл	-11.0524
▁носил	-11.0525
▁транс	-11.0529
▁произойдет	-11.053
▁разрушен	-11.0533
▁ц	-11.0534
нное	-11.0536
▁боги	-11.0543
▁называл	-11.0544
енький	-11.0544
▁Хватит	-11.0544
▁вынул	-11.0545
15	-11.0546
▁Год	-11.0547
▁противо	-11.0548
▁музыку	-11.0548
▁взят	-11.0548
чика	-11.0551
▁Первая	-11.0551
▁профессора	-11.0551
▁переговоры	-11.0555
конец	-11.0555
▁животное	-11.0556
▁общения	-11.0558
очке	-11.0558
▁второе	-11.056
▁страстно	-11.0567
▁h	-11.0571
▁силе	-11.0572
▁включил	-11.0573
▁сторож	-11.0577
▁квадрат	-11.0578
▁птица	-11.0578
▁предложила	-11.0579
▁небес	-11.0579
▁вашему	-11.0581
▁Хочу	-11.0583
▁внутренних	-11.0584
▁кругу	-11.0584
▁гроб	-11.0585
▁легкий	-11.0587
▁обратиться	-11.0587
▁орудий	-11.0588
▁Лорд	-11.059
рат	-11.0593
▁Му	-11.0594
▁0	-11.0595
▁барабан	-11.0597
▁службе	-11.0597
▁регулярно	-11.0599
▁захват	-11.0601
ающие	-11.0602
▁начинал	-11.0603
▁участок	-11.0606
▁60	-11.0608
▁Ше	-11.0609
▁огромным	-11.061
ители	-11.061
тре	-11.0612
▁Кого	-11.0613
▁корабле	-11.0614
▁носа	-11.0614
▁посмотрим	-11.0616
▁президента	-11.0617
жда	-11.0619
▁лав	-11.062
линг	-11.0621
▁делая	-11.0621
▁жестко	-11.0622
▁звери	-11.0622
▁вздох	-11.0623
▁рай	-11.0626
▁подряд	-11.0627
▁настоящим	-11.0633
▁собственным	-11.0634
▁идею	-11.0636
▁холма	-11.0636
▁наедине	-11.0637
▁кавалер	-11.0638
▁знаний	-11.0638
▁Хи	-11.0642
лой	-11.0644
▁должности	-11.0648
▁Илья	-11.0648
▁пилот	-11.0649
ук	-11.0649
бери	-11.0651
▁духов	-11.0654
▁Тоже	-11.0655
сп	-11.0657
▁следующей	-11.0657
▁предупредил	-11.0658
ue	-11.0659
▁Кап	-11.0659
▁провели	-11.066
▁рыба	-11.066
▁чин	-11.066
▁десятков	-11.0662
▁спец	-11.0663
водит	-11.0663
▁хорошим	-11.0667
▁связан	-11.067
▁заявление	-11.0672
].	-11.0677
▁данной	-11.0677
▁Эм	-11.068
дин	-11.0681
бежал	-11.0682
▁чашку	-11.0683
▁возникло	-11.0683
▁старшего	-11.0685
▁Иванов	-11.0687
▁попросить	-11.0687
▁тряс	-11.0692
▁бывал	-11.0692
▁солнцем	-11.0693
▁проблему	-11.0694
▁Вечером	-11.0695
▁трон	-11.0696
▁ухмыльнулся	-11.0698
▁любопытством	-11.07
▁комиссар	-11.07
▁считается	-11.0701
▁удачно	-11.0703
▁волнения	-11.0705
ании	-11.0707
▁поймал	-11.0707
стен	-11.071
▁масс	-11.0713
▁плана	-11.0715
▁театра	-11.0716
дум	-11.0716
▁тремя	-11.0718
▁Правильно	-11.0718
▁постоял	-11.072
▁ножом	-11.0721
ест	-11.0721
кус	-11.0722
▁деревню	-11.0722
▁девочку	-11.0722
нного	-11.0723
ителя	-11.0723
щен	-11.0723
▁потянулся	-11.0723
альной	-11.0724
▁человеческих	-11.0727
▁рубашку	-11.073
▁выглядеть	-11.073
▁дура	-11.0732
▁военный	-11.0734
▁удары	-11.0742
▁бесполезно	-11.0743
▁представляю	-11.0743
▁смотрят	-11.0743
▁проник	-11.0745
▁поскорее	-11.0747
▁ужасом	-11.0748
▁Знаете	-11.0749
▁одинаково	-11.0749
▁доклад	-11.075
▁Короче	-11.075
▁отдельные	-11.075
▁территорию	-11.075
▁правую	-11.0752
▁разведки	-11.0752
▁выбрать	-11.0753
▁выскочил	-11.0756
▁деньгами	-11.0759
▁Вз	-11.076
▁хозяйка	-11.0763
луч	-11.077
▁контроля	-11.077
▁атаки	-11.0774
▁золота	-11.0774
▁пункт	-11.0774
▁кладбище	-11.0776
работ	-11.0777
▁отошел	-11.0779
▁Тим	-11.078
▁длинными	-11.078
рь	-11.078
▁Согласно	-11.0782
▁неуверенно	-11.0782
▁фа	-11.0784
▁Малыш	-11.0785
▁Никита	-11.0786
хар	-11.0791
▁толпе	-11.0795
▁носу	-11.0795
▁спинку	-11.0796
▁факты	-11.0796
▁Тро	-11.08
ово	-11.0801
пра	-11.0802
▁Впервые	-11.0804
▁убежден	-11.0805
▁указ	-11.0807
▁удобно	-11.0807
▁Дэвид	-11.081
▁Хор	-11.081
▁весел	-11.081
▁объяснять	-11.0812
▁показала	-11.0813
ьи	-11.0815
▁нажал	-11.0816
жим	-11.0817
▁массы	-11.0817
▁красоты	-11.0818
овна	-11.0818
▁романа	-11.0819
нок	-11.082
V	-11.0821
▁Император	-11.0823
▁шлем	-11.0829
▁Сергеевич	-11.0829
▁Твой	-11.083
▁руководство	-11.0831
▁следов	-11.0835
▁убийца	-11.0836
▁механизм	-11.0837
▁получал	-11.0837
лиз	-11.0837
▁Америке	-11.0845
▁сестру	-11.0847
▁расти	-11.0847
▁мужчиной	-11.085
▁средство	-11.0852
▁45	-11.0852
▁пятна	-11.0853
▁племени	-11.0853
▁мотив	-11.0853
80	-11.0853
▁горах	-11.0857
▁совершить	-11.0859
▁подъем	-11.086
▁слезами	-11.0861
▁траве	-11.0862
▁принесли	-11.0868
тив	-11.0869
▁труб	-11.0869
ющаяся	-11.0871
▁тишине	-11.0876
▁ежедневно	-11.0877
▁официально	-11.0878
▁святой	-11.0881
▁местности	-11.0881
▁отыскать	-11.0881
бел	-11.0881
▁гостя	-11.0882
▁Кал	-11.0886
▁вперёд	-11.0887
▁бить	-11.0887
»).	-11.0887
▁перейти	-11.0888
▁ожидания	-11.0888
▁отметить	-11.0892
▁дитя	-11.0893
▁бархат	-11.0895
гал	-11.0897
▁девчонка	-11.0898
at	-11.09
▁Красной	-11.0901
овом	-11.0906
▁Всем	-11.0907
▁кнопку	-11.0909
▁Была	-11.091
тал	-11.0912
▁увидит	-11.0912
▁духе	-11.0914
▁тварь	-11.0916
емая	-11.0918
▁пута	-11.0918
▁видов	-11.0919
▁пят	-11.0919
▁уточнил	-11.0919
вала	-11.092
▁документов	-11.0922
▁интересы	-11.0922
▁сильные	-11.0922
▁обычный	-11.0923
▁канал	-11.0923
лич	-11.0927
▁ошибка	-11.0927
▁Лео	-11.0927
▁звука	-11.0929
▁автобус	-11.0929
▁креп	-11.093
▁улицам	-11.093
▁иду	-11.0931
▁способна	-11.0931
лар	-11.0932
▁направил	-11.0935
▁задал	-11.0936
▁кирпич	-11.0938
▁Грин	-11.094
▁понимали	-11.0942
▁обстоятельств	-11.0942
▁гре	-11.0942
форд	-11.0946
ir	-11.0946
ицу	-11.0946
▁ритм	-11.095
▁Ме	-11.0952
▁марш	-11.0952
▁современной	-11.0952
▁развернулся	-11.0956
▁уселся	-11.0957
езд	-11.0958
инский	-11.0963
▁непри	-11.0966
▁потеря	-11.0966
мур	-11.0966
▁величество	-11.0969
надцат	-11.0971
et	-11.0971
бить	-11.0971
▁Николая	-11.0976
▁ненависть	-11.0977
▁посоветовал	-11.0978
▁густой	-11.0978
▁привели	-11.0978
▁шеф	-11.0978
▁играли	-11.0982
нима	-11.0984
▁автоматически	-11.0985
ливый	-11.0988
▁акт	-11.0988
▁прошлой	-11.0989
▁справедливо	-11.0991
▁Молодой	-11.0992
телю	-11.0995
▁ошибку	-11.0995
▁изображение	-11.1
ствовать	-11.1002
▁Вадим	-11.1004
▁Другие	-11.1004
▁Юр	-11.1008
▁нисколько	-11.1008
▁скот	-11.101
▁храма	-11.1011
▁твоем	-11.1013
ьная	-11.1014
▁закрыть	-11.1014
▁скучно	-11.1014
ливая	-11.1014
▁начался	-11.1014
▁думают	-11.1015
▁Вин	-11.1019
▁сыр	-11.1021
▁независимо	-11.1025
▁Союз	-11.1027
лил	-11.1027
▁000	-11.1029
игра	-11.1031
емой	-11.1031
▁Генрих	-11.1032
▁l	-11.1037
▁верхом	-11.1038
хим	-11.1039
▁стеной	-11.1047
▁Семен	-11.1047
▁нападения	-11.1047
▁потеряли	-11.1047
▁ген	-11.1047
риан	-11.1048
▁странные	-11.1049
ывая	-11.105
▁усмехнулась	-11.105
▁сомневаюсь	-11.1051
▁32	-11.1052
▁истины	-11.1054
▁многом	-11.1055
▁прости	-11.1055
▁пр	-11.1055
цвет	-11.1057
▁философ	-11.1057
▁полагал	-11.106
▁Дед	-11.106
▁отправилась	-11.1062
▁огромная	-11.1062
▁принялись	-11.1064
юр	-11.1066
▁непрерывно	-11.1066
▁следующего	-11.1072
пас	-11.1073
▁позвонить	-11.1074
▁улыбался	-11.1076
▁гостиную	-11.1077
▁Денис	-11.1077
▁пределы	-11.1077
▁урок	-11.1078
▁занимается	-11.1079
▁Всегда	-11.1081
▁королева	-11.1082
▁настоящей	-11.1083
пала	-11.1083
гла	-11.1083
▁черная	-11.1084
▁b	-11.1084
там	-11.1084
▁явления	-11.1086
▁темной	-11.1089
▁Ком	-11.1089
▁мага	-11.1089
▁сине	-11.1093
▁Крис	-11.1094
чные	-11.1094
▁сцене	-11.1094
):	-11.1095
▁испытания	-11.1098
▁определенно	-11.1099
▁дрожь	-11.1099
▁траву	-11.11
▁плот	-11.11
▁Чарли	-11.11
▁объяснял	-11.1102
▁Прим	-11.1104
▁облегчением	-11.1107
▁Наташа	-11.1108
▁жарко	-11.1111
▁окончания	-11.1113
тр	-11.1115
▁экспедиции	-11.1115
▁люк	-11.1117
До	-11.1121
уль	-11.1121
щему	-11.1121
▁жду	-11.1124
▁повтор	-11.1124
▁Америки	-11.1126
душ	-11.1127
ключа	-11.1127
стям	-11.1128
цию	-11.1128
▁поставили	-11.1129
18	-11.113
нор	-11.113
▁Юрий	-11.1134
инов	-11.1135
▁вопросу	-11.1135
▁плат	-11.1137
▁показания	-11.1138
▁ангел	-11.1139
▁придумал	-11.1139
▁университета	-11.1139
▁соответственно	-11.114
▁битвы	-11.114
▁поколения	-11.114
▁бесконечно	-11.1141
▁принесла	-11.1141
▁отцов	-11.1142
▁чересчур	-11.1142
▁компанию	-11.1143
▁единственная	-11.1143
▁побед	-11.1145
▁следил	-11.1145
▁конь	-11.1145
▁ученых	-11.1147
▁высшей	-11.1149
▁вдали	-11.1149
пом	-11.1149
▁стена	-11.115
▁Вал	-11.1154
▁Дети	-11.1155
▁получать	-11.1158
13	-11.1159
▁отрицательно	-11.1159
▁5.	-11.1161
▁общее	-11.1162
▁большинства	-11.1162
id	-11.1163
▁захотел	-11.1163
▁Кен	-11.1165
▁некий	-11.1167
▁переспросил	-11.1168
ож	-11.1169
еров	-11.1171
▁мешает	-11.1175
▁грохот	-11.1175
▁моё	-11.1176
сса	-11.1176
▁братом	-11.1177
фон	-11.1178
▁порыв	-11.1178
▁Ева	-11.1179
▁несколькими	-11.1181
▁поддерживать	-11.1182
▁Советского	-11.1183
▁костер	-11.1183
▁расположен	-11.1187
теле	-11.1188
▁Мастер	-11.119
▁чуд	-11.1191
мира	-11.1191
оф	-11.1192
▁напоминает	-11.1192
▁показывая	-11.1193
жать	-11.1194
▁плод	-11.1197
▁металл	-11.1197
▁коллег	-11.1201
▁кухни	-11.1202
▁Чер	-11.1203
▁глубокий	-11.1203
▁поп	-11.1203
леп	-11.1205
▁дошло	-11.1207
43	-11.1208
▁мут	-11.121
▁Извините	-11.1211
порт	-11.1214
▁лучшее	-11.1214
▁поднос	-11.1215
▁целая	-11.1217
▁следовать	-11.1217
▁основных	-11.1219
▁Пушкин	-11.122
▁поморщился	-11.1221
хал	-11.1222
▁Дер	-11.1223
▁мил	-11.1225
▁сцену	-11.1226
▁выводу	-11.1227
▁w	-11.1229
▁темноты	-11.1229
▁бомб	-11.1234
▁рва	-11.1239
▁громче	-11.124
низ	-11.1241
▁напряженно	-11.1242
▁Трудно	-11.1243
01	-11.1245
▁образование	-11.1246
рев	-11.1247
▁Майк	-11.1247
иров	-11.125
▁домик	-11.125
▁актив	-11.1251
▁рыбы	-11.1252
▁жениться	-11.1255
▁смело	-11.1255
▁голов	-11.1256
▁раб	-11.1256
▁настойчиво	-11.1257
▁выражением	-11.126
▁Коля	-11.1262
▁журналист	-11.1264
ющееся	-11.1265
▁океана	-11.1266
▁напряжение	-11.1267
▁стандарт	-11.1267
▁Мисс	-11.1271
▁область	-11.1272
▁вначале	-11.1272
▁дьявол	-11.1273
▁колено	-11.1273
▁обращаться	-11.1274
ему	-11.1276
▁аль	-11.1279
▁отдельно	-11.1283
▁Вит	-11.1283
▁История	-11.1287
▁остальным	-11.1287
▁шутку	-11.1288
▁скажите	-11.1289
▁жадно	-11.129
▁пород	-11.1293
▁успев	-11.1294
запад	-11.1295
▁поклон	-11.1295
▁занял	-11.1298
▁белым	-11.1299
▁хорошей	-11.1302
▁Гра	-11.1303
▁коже	-11.1303
ителей	-11.1303
▁белом	-11.1304
кого	-11.1306
▁Видишь	-11.1307
▁батальон	-11.1307
чал	-11.1308
▁видны	-11.131
▁доволен	-11.1311
▁фигуру	-11.1313
▁эмоций	-11.1313
▁Кай	-11.1315
это	-11.1315
▁считала	-11.1319
▁причинам	-11.1319
▁Тра	-11.1319
▁Гол	-11.1322
▁Всю	-11.1322
евой	-11.1323
▁Далее	-11.1324
▁щеке	-11.1324
▁успехом	-11.1326
▁жертв	-11.1327
▁наказание	-11.1327
▁ночам	-11.1328
аз	-11.1328
▁нелегко	-11.1329
▁сапоги	-11.1332
▁восстановить	-11.1334
▁забор	-11.1334
▁поставила	-11.1339
Со	-11.134
▁допустить	-11.1341
▁пульс	-11.1341
▁Этим	-11.1344
▁чистой	-11.1346
▁живо	-11.1346
кат	-11.1346
▁враги	-11.1348
▁Сав	-11.1348
альным	-11.1349
ища	-11.135
▁Элис	-11.135
▁бег	-11.135
▁Извини	-11.1351
дела	-11.1353
▁легкой	-11.1353
▁личной	-11.1354
▁объяснения	-11.1357
▁рухнул	-11.1359
овской	-11.136
▁Часть	-11.1361
▁бак	-11.1361
иса	-11.1362
▁заново	-11.1364
▁христиан	-11.1368
▁составляет	-11.137
▁основании	-11.1371
▁население	-11.1371
вел	-11.1371
▁получалось	-11.1376
▁объяснение	-11.1377
▁бедра	-11.1377
▁легким	-11.1379
▁частично	-11.138
▁немецких	-11.138
▁девушкой	-11.1381
льные	-11.1386
▁комнат	-11.1386
дре	-11.1389
очный	-11.1389
▁темы	-11.1389
пл	-11.139
▁видят	-11.139
▁Любовь	-11.1392
▁коридора	-11.1393
▁полет	-11.1394
▁Кэтрин	-11.1397
▁познакомиться	-11.1401
▁Ры	-11.1401
▁хрипло	-11.1401
▁основные	-11.1406
▁забот	-11.1406
▁i	-11.1408
▁шкаф	-11.1409
▁губу	-11.1409
ленд	-11.1413
▁великой	-11.1414
▁массив	-11.1416
где	-11.1418
▁высоким	-11.1421
▁поры	-11.1423
тянут	-11.1427
▁случалось	-11.1429
▁дипломат	-11.1429
▁даром	-11.143
▁рассказа	-11.1432
дам	-11.1433
ленный	-11.1436
▁небольшая	-11.1436
▁НА	-11.1437
▁сели	-11.1439
▁пива	-11.1441
▁ман	-11.1444
▁нетерпеливо	-11.1444
▁Ваша	-11.1444
▁энергия	-11.1447
▁Индии	-11.1447
▁тур	-11.1448
▁рассматривать	-11.1448
▁Таня	-11.1448
▁похожий	-11.145
▁футов	-11.145
▁жир	-11.145
▁обычной	-11.1451
▁грязь	-11.1451
▁спала	-11.1454
▁партия	-11.1454
▁институт	-11.1456
▁прочитал	-11.1456
▁борьбу	-11.1457
русски	-11.1459
▁Одним	-11.146
▁карте	-11.1461
▁выпил	-11.1464
▁конфликт	-11.1465
▁блок	-11.1467
пов	-11.1467
▁подготовки	-11.1468
▁зимой	-11.1468
▁половиной	-11.1473
▁крепость	-11.1476
▁Добро	-11.1477
▁брал	-11.1479
▁чая	-11.1479
Он	-11.148
▁миф	-11.1481
▁крикнула	-11.1482
▁крыши	-11.1484
▁терпеливо	-11.1484
▁рассказывает	-11.1485
▁ученые	-11.1486
лас	-11.1486
▁массу	-11.149
▁бросились	-11.149
▁звучал	-11.1494
▁дамы	-11.1495
нис	-11.1496
▁Первое	-11.1497
▁угла	-11.1498
▁утверждает	-11.1498
▁достоинства	-11.1501
▁продать	-11.1503
▁золотом	-11.1505
▁состава	-11.1507
▁страшного	-11.1507
▁водитель	-11.1508
▁следующие	-11.1519
▁использовал	-11.152
▁войско	-11.1521
▁судьбе	-11.1521
▁неприятности	-11.1523
▁намерен	-11.1523
▁занимались	-11.1524
▁рявкнул	-11.1527
▁33	-11.1529
▁увидишь	-11.153
▁внутренний	-11.1533
▁врача	-11.1533
▁перестала	-11.1534
▁проворчал	-11.1537
▁слаб	-11.154
▁шеи	-11.154
▁государственной	-11.1541
▁священник	-11.1548
▁спрашивать	-11.1549
▁новость	-11.1553
▁телевизор	-11.1553
▁ушей	-11.1557
▁желаю	-11.1558
кали	-11.156
▁Отсюда	-11.1561
▁Готов	-11.1562
▁найдет	-11.1563
17	-11.1564
▁Вполне	-11.1564
хов	-11.1566
▁промышленности	-11.1566
голов	-11.1566
ору	-11.1567
▁базы	-11.1569
ць	-11.1572
▁1917	-11.1573
лев	-11.1574
▁Давно	-11.1575
▁участия	-11.1575
берг	-11.1575
..."	-11.158
▁Степан	-11.158
▁черными	-11.1581
опыт	-11.1582
▁дра	-11.1583
!)	-11.1585
▁становился	-11.1585
▁воля	-11.1586
▁черту	-11.1587
▁бед	-11.159
▁забыв	-11.1591
▁пояса	-11.1591
▁Собственно	-11.1592
▁глазом	-11.1593
ота	-11.1594
спо	-11.1594
60	-11.1594
▁ярость	-11.1595
▁Михайлович	-11.1596
▁дуб	-11.1597
▁густо	-11.1598
▁насквозь	-11.1599
▁чужие	-11.1603
зелен	-11.1604
ad	-11.1604
▁поначалу	-11.1605
▁Около	-11.1606
▁Джа	-11.1608
▁Андрея	-11.1608
▁Чтоб	-11.1613
21	-11.1613
нимал	-11.1618
29	-11.162
ie	-11.1623
тельная	-11.1623
добр	-11.1626
▁Граф	-11.1626
▁съ	-11.1627
мал	-11.1628
▁влияния	-11.1629
▁имеем	-11.1629
тки	-11.163
▁судорожно	-11.1633
▁мелких	-11.1634
▁английский	-11.1636
▁Кит	-11.1636
фор	-11.1637
зон	-11.1638
▁эпизод	-11.164
▁Внутри	-11.1641
▁легкие	-11.1643
▁насмешливо	-11.1644
▁испугался	-11.1644
▁увы	-11.1644
ума	-11.1647
▁юго	-11.1648
поинтересовалась	-11.1648
▁поэта	-11.1649
▁правде	-11.165
»;	-11.1651
▁умею	-11.1654
▁сделан	-11.1655
▁дев	-11.1655
▁топ	-11.1656
▁потряс	-11.1656
▁предназначен	-11.1658
▁целых	-11.166
▁подвал	-11.1661
▁близких	-11.1661
инского	-11.1661
▁бор	-11.1662
пущен	-11.1663
иц	-11.1663
▁модель	-11.1664
▁обнаружить	-11.1666
▁Взгляд	-11.1667
▁большее	-11.1668
▁сигарету	-11.1671
▁наука	-11.1671
бле	-11.1672
▁каб	-11.1674
▁этап	-11.1674
▁ГЛАВА	-11.1674
▁доложил	-11.1678
▁парней	-11.1678
арь	-11.168
▁волн	-11.1681
▁ключи	-11.1681
Йорк	-11.1682
▁ищет	-11.1684
▁талант	-11.1686
▁утверждал	-11.1686
▁относятся	-11.1689
▁пос	-11.1689
▁иностранных	-11.169
▁материала	-11.1692
▁пулемет	-11.1692
▁привело	-11.1694
▁мет	-11.1695
▁холода	-11.1698
▁молодым	-11.1699
ющуюся	-11.17
▁поддержки	-11.1703
▁повторила	-11.1704
▁Оказалось	-11.1709
ял	-11.1712
▁слабость	-11.1715
▁помнить	-11.1718
▁родов	-11.1718
▁начинать	-11.1719
▁расход	-11.1719
▁страсть	-11.1721
▁Крест	-11.1723
▁потер	-11.1724
▁Миссис	-11.1728
▁веки	-11.1729
24	-11.1732
▁заклинание	-11.1732
▁изрядно	-11.1733
▁отчасти	-11.1734
▁бас	-11.1734
▁Великой	-11.1735
▁орудия	-11.1735
▁вступил	-11.1735
▁ша	-11.1738
▁количества	-11.1738
▁многим	-11.1738
▁неторопливо	-11.1739
▁снега	-11.174
▁Смерть	-11.174
▁Наша	-11.174
бес	-11.1741
▁Рука	-11.1742
▁вины	-11.1744
▁самыми	-11.1747
ia	-11.1748
▁Валентин	-11.1751
▁Благодаря	-11.1755
▁выгод	-11.1755
▁запись	-11.1755
▁чья	-11.1758
▁лапы	-11.1759
лых	-11.176
▁удивления	-11.1762
▁тайну	-11.1764
▁толкнул	-11.1765
▁реакция	-11.1766
▁глядел	-11.1767
▁обрадовался	-11.1769
▁огромную	-11.1769
лли	-11.1769
▁директора	-11.177
▁Можешь	-11.1771
▁человеке	-11.1772
▁ветром	-11.1773
▁понятие	-11.1774
▁ответственности	-11.1778
оса	-11.1779
▁наличие	-11.1779
▁окружающих	-11.1781
▁послушно	-11.1783
▁Ур	-11.1783
12	-11.1784
▁отвлек	-11.1785
▁хорош	-11.1785
▁защищать	-11.1787
▁размышления	-11.1787
▁Пес	-11.179
▁склон	-11.1791
▁получит	-11.1791
▁отличается	-11.1794
▁городом	-11.1799
▁кризис	-11.1799
▁обход	-11.18
▁единственной	-11.1802
▁37	-11.1804
▁ряды	-11.1805
▁мужу	-11.1806
▁занима	-11.1806
▁бело	-11.1807
▁дыша	-11.1809
▁Рен	-11.1809
▁вправду	-11.181
▁Тихо	-11.1812
▁тыс	-11.1812
▁изредка	-11.1813
рож	-11.1815
▁понимание	-11.1816
▁Рик	-11.1817
▁тонкие	-11.1818
▁Кое	-11.1818
совет	-11.1818
▁Лис	-11.182
▁Ваши	-11.1822
▁тюрьме	-11.1823
▁Дан	-11.1824
▁мышцы	-11.1824
▁Благодарю	-11.1827
▁36	-11.1828
мед	-11.1829
▁поражен	-11.183
▁левую	-11.1831
▁политика	-11.1831
▁умолк	-11.1832
▁любишь	-11.1832
▁достичь	-11.1834
▁Тер	-11.1837
кле	-11.1838
эм	-11.1838
▁тест	-11.1839
шими	-11.1839
▁Стоит	-11.1839
водил	-11.184
▁Люси	-11.1841
▁оглядел	-11.1842
▁вплотную	-11.1844
▁дракона	-11.1844
▁простор	-11.1845
▁подготовлен	-11.1845
▁заставляет	-11.1847
▁принцип	-11.1847
▁ошибся	-11.185
▁схватила	-11.1853
▁организация	-11.1857
▁высоте	-11.1859
▁Артем	-11.1862
▁люд	-11.1862
▁принца	-11.1863
te	-11.1863
▁лаборатории	-11.1866
▁пен	-11.1868
▁ново	-11.1868
раб	-11.187
▁контракт	-11.1872
▁супруга	-11.1873
▁погибли	-11.1874
▁Чи	-11.1874
▁полгода	-11.1875
▁кричит	-11.1881
центр	-11.1883
тая	-11.1885
▁Вселенной	-11.1886
▁асфальт	-11.1886
▁плавно	-11.1887
▁четверть	-11.1888
▁пушки	-11.1889
▁Лондоне	-11.189
▁любили	-11.189
ируем	-11.1891
▁нынче	-11.1891
пуск	-11.1894
▁знакомы	-11.1895
▁тяжелым	-11.1898
▁платок	-11.19
▁Джим	-11.19
бивать	-11.19
▁кувшин	-11.1902
▁Вос	-11.1902
▁соблазн	-11.1903
▁Ол	-11.1904
▁рабочие	-11.1906
▁бумагу	-11.1906
пп	-11.1908
чным	-11.1908
▁офицеры	-11.1911
тем	-11.1911
▁костей	-11.1911
ительный	-11.1911
▁Послушай	-11.1913
▁темных	-11.1916
▁полета	-11.1916
▁Сказал	-11.1916
▁своём	-11.1916
лис	-11.1918
▁железной	-11.1919
клад	-11.1919
▁назначен	-11.1921
▁размеров	-11.1924
▁ужина	-11.1925
▁офицера	-11.1926
ску	-11.1927
чиков	-11.1927
▁становились	-11.193
▁материалы	-11.1931
▁направо	-11.1932
▁договора	-11.1935
▁влюблен	-11.1935
▁рукав	-11.1936
▁позволит	-11.1939
▁немножко	-11.1939
▁понимают	-11.1941
▁возможностей	-11.1941
▁продукты	-11.1941
▁Марии	-11.1944
▁огромного	-11.1944
▁сообразил	-11.1945
▁детектив	-11.1945
▁долгие	-11.1945
▁молоко	-11.1946
▁министр	-11.1947
Ма	-11.1949
ическими	-11.1949
вез	-11.1951
»!	-11.1953
▁долгое	-11.1953
какие	-11.1954
пел	-11.1958
▁аж	-11.1959
▁наклон	-11.1961
▁рассчитывать	-11.1963
ани	-11.1963
▁лучшего	-11.1964
сып	-11.1966
нд	-11.1967
▁лодку	-11.1967
бед	-11.1968
бри	-11.1969
зен	-11.1971
▁Суд	-11.1972
▁ложь	-11.1972
▁дико	-11.1973
уч	-11.1974
▁предупредить	-11.1975
▁лежать	-11.1975
▁дворце	-11.1977
▁поймать	-11.1977
дол	-11.1977
груз	-11.1978
▁Последний	-11.1978
▁танк	-11.198
▁ар	-11.1986
▁приехала	-11.1986
▁опер	-11.1988
▁шага	-11.1988
▁веществ	-11.1988
Так	-11.1988
▁пыл	-11.1988
▁добрался	-11.1989
ворот	-11.199
▁Российской	-11.199
▁двинулись	-11.1991
глаз	-11.1994
нк	-11.1996
▁клан	-11.1996
▁инстинкт	-11.1996
▁цену	-11.1996
▁План	-11.1997
▁ожидала	-11.1997
▁сурово	-11.1999
▁Стало	-11.2
▁зл	-11.2002
▁встречались	-11.2003
▁сует	-11.2007
▁рассматривал	-11.201
▁нервы	-11.2011
▁старались	-11.2012
▁меньшей	-11.2012
▁носит	-11.2013
▁тратить	-11.2016
▁любопытство	-11.2019
▁городской	-11.202
▁рак	-11.202
▁найден	-11.2021
▁привет	-11.2023
▁происхождения	-11.2025
▁бессмысленно	-11.2026
▁нужды	-11.2028
▁поддержку	-11.2028
▁небу	-11.2028
▁осмотрел	-11.2029
изации	-11.203
▁показывал	-11.2031
▁послать	-11.2031
16	-11.2032
▁напряжения	-11.2033
▁закричала	-11.2035
щит	-11.2035
▁собрал	-11.2036
▁главных	-11.2036
▁следующим	-11.2038
▁Фо	-11.2038
цией	-11.2039
▁рюкзак	-11.204
09	-11.204
▁дон	-11.2041
▁ставить	-11.2041
▁охран	-11.2044
▁статус	-11.2045
▁пароход	-11.2045
иста	-11.2045
▁отступил	-11.2048
▁продуктов	-11.2048
▁код	-11.205
▁клад	-11.2051
▁ушах	-11.2052
▁неудач	-11.2053
▁обычного	-11.2054
ter	-11.2054
▁Фер	-11.2055
▁Билл	-11.2056
тянуть	-11.2058
▁рок	-11.2059
▁отказ	-11.2059
70	-11.2059
▁объятия	-11.2061
▁слуги	-11.2065
▁Эли	-11.2068
▁сестре	-11.2069
▁пиво	-11.2069
▁неважно	-11.207
▁профессионально	-11.2071
цел	-11.2071
▁рассказывала	-11.2074
жат	-11.2074
ош	-11.2075
▁экс	-11.2077
Ре	-11.2077
▁Твоя	-11.2078
лая	-11.208
▁необходимые	-11.2082
▁самолетов	-11.2085
▁научиться	-11.2086
▁резерв	-11.2086
▁растения	-11.2087
▁шут	-11.2087
▁равнодушно	-11.2088
▁забрал	-11.209
▁плоть	-11.2091
▁мечтал	-11.2092
▁Другой	-11.2092
▁знакомые	-11.2094
▁знание	-11.2095
▁цепи	-11.2098
▁черном	-11.2099
▁природа	-11.21
▁Впереди	-11.2101
▁столицы	-11.2101
▁практике	-11.2102
дея	-11.2104
емого	-11.2104
енд	-11.2109
▁Адам	-11.2109
▁говорилось	-11.2109
▁выстрелил	-11.211
▁попробовал	-11.2112
▁оценить	-11.2113
▁Цвет	-11.2113
▁годами	-11.2114
▁прозвучал	-11.2115
▁событие	-11.2115
▁пищу	-11.2118
▁усталость	-11.2118
нского	-11.2121
ut	-11.2121
▁возможным	-11.2121
▁нужда	-11.2124
▁спасения	-11.2125
тесь	-11.2127
▁доверять	-11.2129
▁отдых	-11.2131
▁буквы	-11.2134
▁важным	-11.2134
▁политических	-11.2134
▁успокоить	-11.2135
▁представляют	-11.2135
▁функции	-11.2135
глав	-11.2136
▁красивый	-11.214
▁большинстве	-11.2141
носит	-11.2142
▁Двое	-11.2144
вели	-11.2145
▁тупо	-11.2145
▁плеча	-11.2145
▁ткнул	-11.2148
▁сеть	-11.2158
▁участников	-11.216
▁Тело	-11.216
26	-11.2161
▁запомнил	-11.2163
05	-11.2164
сона	-11.2164
▁метро	-11.2165
▁многочисленные	-11.2165
▁надежде	-11.2167
▁реклам	-11.2168
▁ведьма	-11.2169
▁сюрприз	-11.2174
▁зрелище	-11.2175
27	-11.2175
90	-11.2175
▁вспоминать	-11.2175
▁фамилия	-11.2176
▁инспектор	-11.2179
▁секретарь	-11.218
▁импульс	-11.2184
▁Кра	-11.2185
▁красным	-11.2185
▁страхом	-11.2187
▁Девочка	-11.2188
▁небольшие	-11.219
▁доставить	-11.2191
лён	-11.2192
▁соч	-11.2193
▁Каким	-11.2194
▁халат	-11.2196
▁ходят	-11.2198
▁полковника	-11.22
▁святого	-11.22
▁милость	-11.2204
▁восток	-11.2204
онов	-11.2204
▁Волк	-11.2208
▁нарушил	-11.2209
▁боясь	-11.221
▁спасение	-11.221
▁свойства	-11.2211
▁издалека	-11.2212
▁опустилась	-11.2215
▁озеро	-11.2217
▁сцены	-11.2219
▁удается	-11.222
▁Уилл	-11.2222
ограф	-11.2224
▁властью	-11.2225
▁приготовлен	-11.2225
▁тонн	-11.2225
▁Цар	-11.2225
Об	-11.2225
▁личного	-11.2226
▁Иисуса	-11.2227
▁возвращается	-11.2229
▁e	-11.223
▁Иль	-11.223
▁куб	-11.2231
▁основан	-11.2231
▁заставило	-11.2234
мышлен	-11.2238
▁Речь	-11.2238
ивая	-11.2239
▁Ангел	-11.2239
▁фронте	-11.2241
▁ехали	-11.2242
▁смотря	-11.2242
▁участвовал	-11.2245
▁враща	-11.2246
▁монет	-11.2246
▁суп	-11.2246
жение	-11.225
▁уставилась	-11.2252
▁проникнуть	-11.2257
▁пейзаж	-11.2258
▁замерла	-11.2259
руш	-11.226
два	-11.226
▁Леонид	-11.2261
▁хозяйства	-11.2261
▁направления	-11.2262
▁обще	-11.2262
▁профессиональны	-11.2263
▁опустила	-11.2263
▁Джона	-11.2264
кнул	-11.2265
ведения	-11.2266
▁разрыв	-11.2266
▁модели	-11.2266
▁представители	-11.2266
▁рыбу	-11.2267
▁держала	-11.2267
▁отделения	-11.2268
▁колес	-11.2268
▁готовить	-11.2271
▁обоз	-11.2273
▁приподнял	-11.2276
▁обнаружила	-11.2276
▁обстановке	-11.2278
▁Старый	-11.2279
▁проходили	-11.228
▁34	-11.2282
▁набор	-11.2285
▁раздраженно	-11.2288
▁огляделся	-11.2288
▁столовой	-11.2288
▁1)	-11.2289
▁жестоко	-11.2289
▁вздрогнула	-11.229
▁улыбается	-11.229
▁Полу	-11.2293
▁неизменно	-11.2294
▁Командир	-11.2295
ело	-11.2297
▁дорог	-11.2297
▁весной	-11.2298
▁Дух	-11.2298
▁ненависти	-11.2299
зван	-11.2299
▁записку	-11.2299
▁особых	-11.2302
▁маршрут	-11.2302
▁ча	-11.2302
▁вер	-11.2303
▁целое	-11.2304
▁контр	-11.2304
инка	-11.2306
▁лома	-11.2307
▁целях	-11.2308
▁полиция	-11.2308
▁скрылся	-11.2309
▁представляла	-11.231
▁сказав	-11.231
06	-11.2312
стон	-11.2313
▁кусты	-11.2313
▁явление	-11.2313
▁длинной	-11.2316
▁плеч	-11.2317
нда	-11.2318
▁Слав	-11.232
▁идем	-11.2322
▁шестьдесят	-11.2322
КА	-11.2322
вик	-11.2324
▁Боль	-11.2324
am	-11.2324
▁мечты	-11.2325
бен	-11.2327
▁добровольно	-11.2327
лог	-11.2328
▁охотник	-11.2328
▁опубликован	-11.2328
▁экзамен	-11.2329
▁хор	-11.233
▁Ника	-11.2332
▁брату	-11.2336
▁пропал	-11.2339
▁главы	-11.234
▁кулаки	-11.234
▁лениво	-11.234
▁коснулся	-11.2342
жида	-11.2347
▁вылез	-11.2348
еро	-11.235
▁Нина	-11.235
▁премьер	-11.235
▁ударов	-11.2351
▁внешней	-11.2352
▁тихий	-11.2353
▁белье	-11.2357
ею	-11.236
▁m	-11.2362
чных	-11.2363
гов	-11.2368
▁литературе	-11.2368
▁жен	-11.237
еев	-11.237
▁попытку	-11.2372
▁Уильям	-11.2372
▁Роб	-11.2373
пев	-11.2373
▁принцесса	-11.2374
▁развернул	-11.2374
▁парад	-11.2377
▁потребуется	-11.2377
▁философии	-11.2379
▁настоящие	-11.2381
▁религии	-11.2384
▁советского	-11.2385
▁захватить	-11.2387
▁стыд	-11.2387
▁металла	-11.2388
▁сундук	-11.2388
сил	-11.2389
▁данным	-11.2391
кинув	-11.2392
▁проекта	-11.2393
▁переглянулись	-11.2394
▁Азии	-11.2395
▁ехал	-11.2396
▁броне	-11.2397
стран	-11.2397
▁условий	-11.2397
▁сражаться	-11.24
▁периода	-11.24
▁нрав	-11.2404
оне	-11.2407
▁верхней	-11.2408
▁моментально	-11.2409
хот	-11.241
▁налево	-11.2411
▁офис	-11.2413
чество	-11.2415
▁Гур	-11.2415
▁министра	-11.2416
▁Васильевич	-11.2421
▁Дела	-11.2421
▁темноту	-11.2422
▁Ск	-11.2422
▁гибель	-11.2422
▁ученый	-11.2423
▁протокол	-11.2426
▁мгновений	-11.2427
▁тревожно	-11.2427
▁головами	-11.2427
▁Будем	-11.2429
▁поцелуй	-11.2429
▁привыкли	-11.243
▁рамках	-11.243
▁вере	-11.2433
▁парк	-11.2434
▁щедро	-11.2436
▁потихоньку	-11.2436
▁слове	-11.2437
▁Сол	-11.2438
мп	-11.2441
▁подруги	-11.2442
▁расчет	-11.2443
▁ванной	-11.2444
бре	-11.2445
▁общаться	-11.2445
еж	-11.2447
▁прибор	-11.2447
▁кратко	-11.2449
▁показаться	-11.2451
▁коров	-11.2457
▁готово	-11.2459
▁Фрэнк	-11.246
▁падает	-11.2461
▁повторял	-11.2462
▁умрет	-11.2463
▁уха	-11.2464
▁лагере	-11.2466
▁имеешь	-11.2468
▁производство	-11.2469
im	-11.247
▁замечал	-11.2471
олог	-11.2474
▁змеи	-11.2476
▁атом	-11.2476
▁больнице	-11.248
▁площадке	-11.2482
▁поговорим	-11.2482
▁Понял	-11.2483
▁руководством	-11.2484
▁2)	-11.2485
▁стояло	-11.2486
▁точка	-11.2487
▁черным	-11.2489
ано	-11.2489
▁местного	-11.249
▁молодости	-11.2491
▁надежду	-11.2491
▁спрятал	-11.2492
лам	-11.2494
ацией	-11.2495
▁выражения	-11.2496
▁существовать	-11.2497
крыл	-11.2497
▁Баб	-11.2497
▁Бри	-11.2498
▁оставляя	-11.2499
▁найдется	-11.2501
▁красной	-11.2501
▁поправил	-11.2502
▁фамилии	-11.2502
07	-11.2502
полз	-11.2503
▁меча	-11.2503
▁Профессор	-11.2503
▁тюрьмы	-11.2504
▁глоток	-11.2504
▁доказательства	-11.2505
кса	-11.2505
▁ветру	-11.2505
▁налогов	-11.2507
трен	-11.2508
▁тяжелой	-11.2508
28	-11.2509
▁зашагал	-11.251
▁сердцу	-11.2515
22	-11.2516
▁Киев	-11.2517
▁погреб	-11.2517
▁хмуро	-11.2518
▁полки	-11.2518
▁актер	-11.2519
▁38	-11.252
вей	-11.2522
▁секс	-11.2524
▁удивлен	-11.2526
▁Гон	-11.2527
▁белая	-11.2527
▁Пра	-11.2527
▁телефона	-11.2528
▁плече	-11.2529
лё	-11.2529
▁третьей	-11.253
▁костюме	-11.253
▁красного	-11.2531
▁бежали	-11.2531
▁двум	-11.2531
▁вызван	-11.2532
▁рабочего	-11.2532
▁являлся	-11.2533
▁коем	-11.2534
▁встали	-11.2535
*	-11.2535
▁горле	-11.2535
▁маслом	-11.2537
▁позор	-11.2539
▁призыв	-11.2539
▁важные	-11.2541
▁смеха	-11.2542
▁человечество	-11.2543
▁крыше	-11.2544
▁поехать	-11.2548
дать	-11.255
▁столетия	-11.2553
▁проходил	-11.2554
▁тюрьму	-11.2555
ального	-11.2556
▁продукт	-11.2556
▁осмотр	-11.2557
ицей	-11.2557
▁стенами	-11.2558
▁кожей	-11.2561
▁бутылки	-11.2562
▁эксперимент	-11.2563
▁уйдет	-11.2567
▁помните	-11.2569
▁использования	-11.257
▁богат	-11.2571
▁засмеялась	-11.2571
▁муки	-11.2571
▁продолжить	-11.2574
▁предприятия	-11.2575
▁держали	-11.2577
рия	-11.2578
▁поехали	-11.258
▁приблизился	-11.2581
роз	-11.2583
▁улыбке	-11.2583
ent	-11.2587
▁Благо	-11.2587
вуд	-11.2589
▁сильное	-11.259
▁сознательно	-11.2591
▁показали	-11.2591
▁Элизабет	-11.2592
▁собрание	-11.2593
тых	-11.2597
▁доход	-11.2599
▁тетя	-11.26
ящие	-11.2601
▁голосов	-11.2603
▁мертвых	-11.2605
▁пили	-11.2606
гло	-11.2606
▁камеры	-11.2607
▁правом	-11.2608
▁лом	-11.2608
▁газету	-11.2609
нувшись	-11.261
▁мужской	-11.2613
анта	-11.2614
▁команде	-11.2615
▁больной	-11.2617
▁достала	-11.2617
▁монах	-11.2619
▁воспоминаний	-11.2621
▁1942	-11.2622
▁мозги	-11.2622
▁всякое	-11.2623
▁закончить	-11.2623
▁выступил	-11.2623
▁коней	-11.2625
кать	-11.2628
аты	-11.2628
▁добрались	-11.2629
▁согласиться	-11.263
▁рванул	-11.263
ляр	-11.2633
▁адвокат	-11.2635
▁вопросительно	-11.2637
▁несет	-11.264
оль	-11.2642
▁Тол	-11.2642
▁выпустил	-11.2644
▁трубы	-11.2649
»),	-11.2649
▁Саймон	-11.2649
▁волк	-11.265
▁штука	-11.2651
▁спешил	-11.2651
▁гал	-11.2652
▁магов	-11.2652
▁смехом	-11.2652
▁верит	-11.2653
▁сум	-11.2655
▁сопровождении	-11.2656
▁старуха	-11.2657
▁находилось	-11.2659
▁причину	-11.2661
▁чужих	-11.2662
▁начались	-11.2663
▁крышу	-11.2667
▁серьезные	-11.2669
▁надеждой	-11.2669
шир	-11.2669
▁дожидаясь	-11.267
▁фыркнул	-11.267
▁Четыре	-11.2671
▁Дж	-11.2673
▁собирать	-11.2673
ающего	-11.2673
▁Ирина	-11.2677
▁устроил	-11.2677
▁Также	-11.2678
▁восторг	-11.2679
▁Лор	-11.268
▁Дю	-11.268
▁определил	-11.2682
▁равновесие	-11.2683
▁вещества	-11.2685
▁Фин	-11.2685
▁выдал	-11.2685
▁6.	-11.2687
▁уст	-11.2688
▁Помню	-11.269
▁Жен	-11.2691
аны	-11.2693
▁инструмент	-11.2694
▁Сэр	-11.2694
▁кап	-11.2694
▁Настя	-11.2694
еет	-11.2695
▁3-	-11.2695
уча	-11.2699
▁Петров	-11.27
▁украшен	-11.27
▁Света	-11.2702
▁Слово	-11.2702
лежа	-11.2703
▁Гре	-11.2703
▁открытия	-11.2705
креп	-11.2705
▁игр	-11.2705
▁Закон	-11.2705
▁кричать	-11.2706
▁убрал	-11.2707
▁ногам	-11.2707
истые	-11.2708
▁Рейн	-11.271
▁кусочек	-11.2711
▁образован	-11.2715
▁реально	-11.2717
35	-11.2717
писал	-11.2718
▁занятий	-11.2718
▁щеку	-11.272
ясн	-11.272
▁известных	-11.2721
▁границе	-11.2725
шейся	-11.2727
23	-11.2728
пан	-11.2728
▁записал	-11.273
аются	-11.2732
▁многочисленных	-11.2732
▁превратилась	-11.2733
ьную	-11.2737
36	-11.2739
▁отпуск	-11.2741
▁возьмет	-11.2743
▁слышит	-11.2743
▁созда	-11.2745
▁сошел	-11.2745
▁отозвалась	-11.2745
▁Надежда	-11.2746
▁Лей	-11.2746
▁Кира	-11.2746
▁пусто	-11.2747
ri	-11.2747
▁почувствовать	-11.2747
▁шепот	-11.2747
▁ткань	-11.2748
▁треск	-11.2748
▁завода	-11.275
▁огромных	-11.2752
▁количестве	-11.2753
▁гору	-11.2753
▁правды	-11.2753
▁глуп	-11.2755
▁покажу	-11.2758
▁намек	-11.2762
▁осознал	-11.2766
сия	-11.2766
алась	-11.2767
▁местом	-11.2768
▁клетки	-11.2768
▁максимально	-11.2769
▁злобно	-11.2769
▁Стивен	-11.2769
▁маленьким	-11.2772
▁придётся	-11.2772
▁Кан	-11.2774
▁вырваться	-11.2775
▁паузу	-11.2775
смотр	-11.2777
▁отвечала	-11.2778
▁пребывания	-11.2779
▁фигур	-11.278
▁начинаю	-11.2781
▁писем	-11.2782
вшимися	-11.2784
▁уверенности	-11.2786
▁Наверняка	-11.2788
▁сидят	-11.2789
▁выглядели	-11.2789
▁твари	-11.2789
▁родственников	-11.279
▁огород	-11.2791
▁мяч	-11.2791
▁шпион	-11.2791
▁продолжила	-11.2794
▁признал	-11.2794
▁свидания	-11.2797
▁банк	-11.2797
▁постучал	-11.2798
▁спокойствие	-11.2798
▁палубе	-11.2803
▁зов	-11.2806
▁конечном	-11.2808
▁всюду	-11.2809
▁развод	-11.281
▁глубин	-11.281
▁троих	-11.2813
▁автомобиля	-11.2813
▁стремление	-11.2813
▁презрительно	-11.2814
▁упрямо	-11.2815
▁живого	-11.2815
▁давала	-11.2815
ино	-11.2815
▁зеленый	-11.2815
▁получше	-11.2818
ялся	-11.2818
▁проч	-11.282
оте	-11.282
▁мор	-11.2825
▁привязан	-11.2825
▁учитывая	-11.2826
▁пределами	-11.2827
рес	-11.2831
▁менять	-11.2831
шихся	-11.2831
рем	-11.2832
▁нужным	-11.2835
▁Св	-11.2836
иком	-11.2836
▁идеально	-11.2836
▁экипажа	-11.2836
верен	-11.2836
ением	-11.2837
▁луна	-11.2838
▁Джи	-11.2839
▁пределах	-11.2841
▁Александрович	-11.2842
нит	-11.2846
▁планет	-11.2846
ЛИ	-11.2847
▁сторона	-11.2847
▁вследствие	-11.2849
▁револьвер	-11.2849
▁Полагаю	-11.285
▁тайна	-11.2852
▁Пал	-11.2852
▁особенного	-11.2853
▁мусульман	-11.2853
▁Петербург	-11.2854
▁наступления	-11.2855
▁круга	-11.2855
▁интервью	-11.2855
▁Григорий	-11.2856
▁требования	-11.2857
ившийся	-11.2859
▁Великого	-11.2861
▁страшный	-11.2863
▁легких	-11.2863
▁дернул	-11.2864
▁болью	-11.2865
▁свин	-11.2866
▁обучения	-11.2868
енно	-11.2869
▁вопреки	-11.287
▁глубокой	-11.2871
▁Джей	-11.2871
▁высокая	-11.2872
▁спокойным	-11.2873
▁лорда	-11.2875
▁цел	-11.2875
▁горел	-11.2877
▁обращен	-11.2879
ющему	-11.2879
▁паспорт	-11.2879
▁началом	-11.288
щихся	-11.2881
▁дворян	-11.2881
ительные	-11.2885
▁пещеры	-11.2885
▁известны	-11.2887
▁сущность	-11.2887
ером	-11.2888
▁жутко	-11.2888
▁командование	-11.2892
▁камеру	-11.2893
▁предлагал	-11.2894
евский	-11.2895
▁среднего	-11.2897
▁брошен	-11.2901
пен	-11.2901
▁желанием	-11.2902
▁дружно	-11.2902
▁Ребята	-11.2902
▁линия	-11.2902
▁цветами	-11.2903
▁чудом	-11.2904
▁органы	-11.2906
▁листок	-11.2911
вернут	-11.2911
▁простым	-11.2914
▁песню	-11.2914
▁распространен	-11.2914
▁кле	-11.2919
33	-11.292
▁цикл	-11.2921
▁магазина	-11.2921
▁команд	-11.2923
▁скомандовал	-11.2923
▁конкретно	-11.2926
▁слову	-11.2927
▁связанные	-11.2927
нными	-11.2928
глас	-11.2929
▁особ	-11.2935
▁бесшумно	-11.294
лист	-11.2941
▁подозрения	-11.2943
▁роде	-11.2944
бель	-11.2945
▁рисковать	-11.2946
▁занятие	-11.2949
▁Автор	-11.2949
▁плакать	-11.295
▁затылок	-11.295
▁Эту	-11.295
▁открытым	-11.2951
1.	-11.2951
▁спеша	-11.2951
▁заставили	-11.2951
▁Гос	-11.2951
беж	-11.2953
тера	-11.2953
▁герцога	-11.2954
▁славу	-11.2954
▁развел	-11.2955
▁бросив	-11.2955
лай	-11.2955
▁Будто	-11.2955
▁брюки	-11.2958
▁забав	-11.2962
▁Обо	-11.2966
нуться	-11.2966
▁напоминал	-11.2967
▁ложки	-11.2967
▁положив	-11.2969
гнул	-11.297
▁хитро	-11.297
▁отвел	-11.2972
▁обязаны	-11.2973
▁размером	-11.2974
ic	-11.2974
▁великолепно	-11.2977
нить	-11.2978
▁живое	-11.2978
▁комиссии	-11.2978
ведя	-11.2982
▁собственными	-11.2982
▁Порт	-11.2983
▁разговаривал	-11.2983
рд	-11.2985
тис	-11.2986
▁спальне	-11.2989
▁виды	-11.2989
нешь	-11.2989
▁отделение	-11.2992
▁боевые	-11.2993
▁герои	-11.2993
сек	-11.2995
▁давление	-11.2996
▁победа	-11.2997
▁первыми	-11.2997
меня	-11.2997
▁вскинул	-11.2999
▁собеседник	-11.3
▁судов	-11.3
▁Видно	-11.3
сель	-11.3003
▁работников	-11.3004
▁выходил	-11.3005
▁прост	-11.3005
▁позволила	-11.3007
▁магия	-11.301
Ко	-11.301
▁беспокойство	-11.3012
▁неожиданности	-11.3013
▁епископ	-11.3013
тес	-11.3013
мас	-11.3014
▁Шан	-11.3014
▁вдох	-11.3014
▁моменты	-11.3015
▁разглядывая	-11.3016
ься	-11.3016
▁галстук	-11.3019
▁застыл	-11.3019
▁Володя	-11.302
▁га	-11.302
▁темный	-11.3023
▁председатель	-11.3023
▁Её	-11.3026
▁слуга	-11.303
▁зайти	-11.303
▁вырос	-11.3031
▁татар	-11.3031
▁интересов	-11.3035
кров	-11.3035
▁убрать	-11.3036
▁русским	-11.3038
▁открытой	-11.3038
ступив	-11.3039
▁ослаб	-11.304
▁сюжет	-11.3041
▁Бал	-11.3042
▁Японии	-11.3042
иг	-11.3043
▁встречал	-11.3043
тельных	-11.3044
▁фразы	-11.3047
▁ответы	-11.3047
носил	-11.3048
▁держав	-11.3049
▁ртом	-11.3049
цом	-11.305
бира	-11.3051
▁Оказывается	-11.3052
▁столице	-11.3052
▁2000	-11.3055
▁встречаться	-11.3057
▁вера	-11.3058
▁целые	-11.3058
▁приходят	-11.3058
▁нога	-11.306
Ка	-11.3063
▁волну	-11.3065
▁следующую	-11.3065
▁пули	-11.3065
▁бегу	-11.3066
▁собеседника	-11.3066
▁мило	-11.3067
▁района	-11.3068
▁вынуждены	-11.3069
▁соседей	-11.3071
▁привела	-11.3073
▁Гитлера	-11.3074
▁обстоятельство	-11.3075
▁наполнен	-11.3077
▁раскрыл	-11.308
▁страницы	-11.3081
рах	-11.3081
▁проклят	-11.3082
▁сумеет	-11.3084
дро	-11.3084
▁законов	-11.3085
▁Христос	-11.3087
верт	-11.3088
▁небольшое	-11.3089
▁авиа	-11.309
▁банка	-11.3091
▁подняли	-11.3091
▁Вед	-11.3092
▁разрешение	-11.3093
▁пассажир	-11.3093
▁хлопнул	-11.3094
▁начнут	-11.3094
▁Честно	-11.3096
▁магнит	-11.3099
▁допрос	-11.3101
▁ценности	-11.3102
▁дверцу	-11.3103
▁потянул	-11.3106
▁картин	-11.3106
▁высказал	-11.3108
чувств	-11.3108
▁Лиз	-11.3108
▁рабочий	-11.3108
▁печаль	-11.3109
▁едет	-11.3114
▁черную	-11.3115
▁лучшим	-11.3118
▁привлечь	-11.312
▁престол	-11.3121
▁70	-11.3121
▁кольца	-11.3121
▁золотых	-11.3122
▁Лар	-11.3122
▁получения	-11.3123
▁улыбки	-11.3124
▁белыми	-11.3125
деля	-11.3125
▁задать	-11.3127
▁крас	-11.3127
▁холодным	-11.3127
▁Вода	-11.3129
кри	-11.3131
▁занавес	-11.3131
▁Кле	-11.3133
▁Достаточно	-11.3134
▁исследований	-11.3136
нтар	-11.3136
▁случаю	-11.3136
▁игре	-11.3137
▁горячо	-11.3137
▁лодка	-11.3138
▁заключение	-11.3139
▁Князь	-11.3139
▁Ас	-11.3141
▁важнее	-11.3142
▁приходили	-11.3143
▁Землю	-11.3143
▁программу	-11.3145
▁понимания	-11.3146
▁красивые	-11.3147
▁смертельно	-11.3147
▁пад	-11.3147
▁выглядело	-11.315
▁метрах	-11.3151
▁приложил	-11.3151
▁перестали	-11.3154
▁государь	-11.3154
енными	-11.3154
▁Первые	-11.3154
▁предков	-11.3155
▁див	-11.3155
▁внутреннего	-11.3156
▁возьму	-11.3157
▁племен	-11.3158
▁учеников	-11.3159
▁мрамор	-11.316
▁закат	-11.316
▁Йо	-11.3161
▁трудности	-11.3162
▁концерт	-11.3162
▁подать	-11.3164
тельно	-11.3164
▁Конан	-11.3164
▁Пьер	-11.3165
▁золотые	-11.3168
▁найду	-11.317
▁всячески	-11.3171
бежав	-11.3171
▁улицах	-11.3172
евых	-11.3173
▁Королев	-11.3173
▁разными	-11.3175
▁помнит	-11.3178
▁льда	-11.3178
енс	-11.3178
▁приехать	-11.3178
▁изменился	-11.3179
▁собираешься	-11.3179
плет	-11.3179
труд	-11.3181
▁кончик	-11.3183
▁широкий	-11.3184
▁стиль	-11.3184
47	-11.3186
▁воевать	-11.3186
▁группой	-11.3187
▁двигатель	-11.3189
чн	-11.319
▁угрозы	-11.319
▁тревоги	-11.319
▁плечах	-11.3195
▁желто	-11.3197
▁призван	-11.3199
▁больницу	-11.3199
▁старым	-11.3202
ьян	-11.3207
▁преступление	-11.3207
▁древней	-11.3209
▁преодолеть	-11.3209
▁молока	-11.3209
▁Одни	-11.3211
▁отражение	-11.3211
▁Тони	-11.3212
▁завет	-11.3215
мок	-11.3216
▁случаи	-11.3217
▁караван	-11.3217
рий	-11.3219
▁швед	-11.3219
▁возвращался	-11.322
▁устройство	-11.322
▁героев	-11.3222
▁ритуал	-11.3222
Во	-11.3222
▁скромно	-11.3225
ложив	-11.3226
▁направились	-11.3228
ставлял	-11.3233
▁карт	-11.3233
▁подобной	-11.3234
▁Фе	-11.3234
▁великих	-11.3238
.).]	-11.3238
▁сколь	-11.3238
▁гон	-11.3239
▁побег	-11.324
▁стрелы	-11.324
подоб	-11.324
ru	-11.3241
▁обратилась	-11.3241
▁пятно	-11.3243
▁пальца	-11.3243
▁признание	-11.3244
▁силуэт	-11.3246
▁Эми	-11.3246
жал	-11.3246
▁Понимаешь	-11.3247
своему	-11.3248
▁французский	-11.3248
▁квартир	-11.3249
▁заклинания	-11.3252
▁Вторая	-11.3252
▁ордена	-11.3255
шиеся	-11.3258
▁Муж	-11.326
▁трус	-11.3262
▁методы	-11.3262
▁неудобно	-11.3264
▁читает	-11.3265
▁остаются	-11.3265
▁института	-11.3269
▁капитал	-11.327
▁квартира	-11.3271
▁грани	-11.3272
▁супер	-11.3272
▁смеяться	-11.3275
▁кошка	-11.3276
▁СС	-11.3277
▁хан	-11.3278
шко	-11.3278
вязан	-11.3279
▁Полковник	-11.3285
▁маму	-11.3285
▁пахло	-11.3286
▁Прав	-11.3286
▁лечения	-11.3286
▁прицел	-11.3287
▁рынок	-11.3287
▁висел	-11.3288
▁охранник	-11.3289
▁выжить	-11.3289
▁вождя	-11.3289
▁признак	-11.3289
▁коли	-11.329
▁распоряжение	-11.3294
▁произнёс	-11.3295
вести	-11.3296
▁новыми	-11.3299
▁Энн	-11.3299
▁поднимая	-11.33
▁совесть	-11.33
▁безнадежно	-11.3301
▁Надя	-11.3301
▁отлича	-11.3302
▁блеск	-11.3302
▁побери	-11.3303
▁крепче	-11.3304
▁Мик	-11.3305
▁лун	-11.3306
ul	-11.3309
▁открыли	-11.331
ально	-11.3314
▁круто	-11.3315
.],	-11.3315
▁перехода	-11.3316
▁главная	-11.3316
▁предположил	-11.3316
▁Пе	-11.3316
▁портал	-11.3317
▁заглянуть	-11.3317
очные	-11.3317
еш	-11.3317
▁помолчал	-11.332
▁поглядел	-11.3322
▁Лит	-11.3322
▁повторить	-11.3322
▁Машина	-11.3323
▁настроения	-11.3323
li	-11.3324
▁мамы	-11.3327
▁эпоху	-11.3327
▁произойти	-11.3327
▁вспомнив	-11.3327
▁свернул	-11.3328
▁нанести	-11.3329
▁рынке	-11.3332
▁Позже	-11.3332
os	-11.3334
вое	-11.3335
ящих	-11.3337
▁выразил	-11.3337
▁Павлович	-11.3338
▁Ред	-11.334
РА	-11.3341
▁собралась	-11.3343
ьного	-11.3343
▁ката	-11.3345
тельную	-11.3346
▁салат	-11.3347
онос	-11.3353
▁неоднократно	-11.3353
айн	-11.3354
▁пыта	-11.3357
▁оставлять	-11.3358
▁зеленые	-11.336
▁ветви	-11.3362
ленные	-11.3362
▁вывел	-11.3364
▁висели	-11.3366
▁услышали	-11.3367
▁спали	-11.3368
▁указывает	-11.3369
брав	-11.3369
▁варвар	-11.337
▁песня	-11.337
▁барьер	-11.337
▁болезненно	-11.3372
▁американский	-11.3376
44	-11.3377
▁обойтись	-11.338
▁Лан	-11.338
▁направлен	-11.338
▁архив	-11.3381
▁тарелку	-11.3381
▁деда	-11.3384
▁царство	-11.3384
▁пират	-11.3385
ьной	-11.3386
грыз	-11.3386
▁бара	-11.3386
▁обычных	-11.339
▁соли	-11.339
▁замечательно	-11.3391
чную	-11.3392
▁Бело	-11.3394
▁одет	-11.3394
звуч	-11.3395
▁помогли	-11.3396
▁смущенно	-11.3396
нять	-11.3396
▁легла	-11.3397
▁глубину	-11.3398
Ле	-11.3399
▁заговор	-11.3401
▁Север	-11.3402
▁имеются	-11.3403
▁Эдвард	-11.3406
▁изначально	-11.3408
▁стороной	-11.341
▁согласие	-11.3411
▁надпись	-11.3413
▁Буду	-11.3415
▁1943	-11.3415
▁спальни	-11.3416
▁обещание	-11.3416
▁Дракон	-11.3418
тика	-11.3419
▁скрывать	-11.342
▁растений	-11.3423
▁взгляде	-11.3424
▁колдун	-11.3425
▁жалоб	-11.3425
▁глупости	-11.3433
▁держался	-11.3433
▁Джесси	-11.3436
▁покинули	-11.3437
▁музыки	-11.3438
▁воскресенье	-11.3439
▁дневник	-11.3441
▁временно	-11.3441
▁дерга	-11.3441
кладывал	-11.3442
нт	-11.3448
▁электрон	-11.3448
▁вреда	-11.345
▁Бак	-11.3451
льный	-11.3452
▁отвечаю	-11.3453
▁Единственное	-11.3454
сту	-11.3455
▁оборон	-11.3455
▁машинально	-11.3456
чина	-11.3458
▁поиск	-11.3461
▁коло	-11.3461
04	-11.3461
▁важных	-11.3462
▁намерения	-11.3462
▁выразить	-11.3465
▁топор	-11.3466
▁прикрыл	-11.3466
рэ	-11.3467
▁наступил	-11.347
▁случается	-11.347
▁Точнее	-11.3472
▁Демон	-11.3473
▁Жена	-11.3476
▁молитвы	-11.3479
▁операцию	-11.3483
▁Зе	-11.3484
▁теория	-11.3486
▁рус	-11.3486
▁хирург	-11.3488
▁мышц	-11.3489
▁американских	-11.3489
▁любимой	-11.3492
▁предполагал	-11.3494
бли	-11.3494
▁Пен	-11.3496
▁цены	-11.3497
▁явля	-11.3497
мести	-11.3497
▁называет	-11.3498
▁королю	-11.3498
▁разговоров	-11.3498
▁робко	-11.3499
▁построить	-11.35
бек	-11.3501
▁500	-11.3502
▁руководства	-11.3502
▁реформ	-11.3504
▁искали	-11.3504
▁взглянув	-11.3505
зя	-11.3505
▁одиночку	-11.3506
ьем	-11.3507
▁баба	-11.3515
▁шумно	-11.3515
▁Мам	-11.3517
▁суждено	-11.3518
▁Вернее	-11.3519
▁качество	-11.352
▁пир	-11.352
▁80	-11.3521
▁Леди	-11.3523
▁болот	-11.3523
▁бр	-11.3524
бах	-11.3526
▁организовать	-11.3528
53	-11.3528
▁присутствующих	-11.3529
▁Гл	-11.3529
▁пресс	-11.353
▁тонкой	-11.353
▁щелкнул	-11.3533
▁Ке	-11.3533
▁39	-11.3536
▁удаля	-11.3536
▁казаться	-11.3538
▁обладал	-11.3539
▁триста	-11.354
▁закрыв	-11.3541
того	-11.3543
кнув	-11.3543
▁требовал	-11.3543
▁диване	-11.3544
▁существовании	-11.3544
▁рабов	-11.3545
▁возразила	-11.3545
тянув	-11.3545
▁звезда	-11.3547
▁вывести	-11.3549
летний	-11.3551
2)	-11.3553
▁Пара	-11.3554
▁убор	-11.3554
▁вернул	-11.3555
▁звуков	-11.3557
▁интереса	-11.3557
▁государств	-11.3558
▁предположение	-11.356
▁двигались	-11.356
▁пел	-11.3561
шегося	-11.3563
▁кристалл	-11.3564
▁армий	-11.3565
▁коль	-11.3565
▁столб	-11.3566
▁структур	-11.3569
▁подниматься	-11.357
▁женился	-11.3571
▁создавать	-11.3573
▁видимости	-11.3574
▁Стив	-11.3574
▁операция	-11.3575
▁крыс	-11.3576
нке	-11.3577
▁убедился	-11.3578
▁объектив	-11.3578
▁любимый	-11.3579
▁статью	-11.3579
▁постарался	-11.3582
▁локоть	-11.3583
▁устала	-11.3583
▁углом	-11.3583
доб	-11.3583
ини	-11.3584
▁комитет	-11.3584
▁маме	-11.3587
▁предлагает	-11.3587
▁войсками	-11.3587
▁Софи	-11.3588
▁точности	-11.359
▁опустив	-11.359
▁змея	-11.3591
▁осенью	-11.3591
▁страшное	-11.3594
▁моста	-11.3594
▁Иоанн	-11.3595
▁заговорила	-11.3597
▁трава	-11.3599
▁мал	-11.36
▁учения	-11.3601
ительная	-11.3602
▁добрые	-11.3603
▁плечом	-11.3603
▁художника	-11.3604
▁выпуск	-11.3604
▁доверие	-11.3604
▁бабушки	-11.3606
▁приказу	-11.3607
▁блин	-11.3609
▁посредством	-11.3609
▁колхоз	-11.361
атур	-11.3611
▁помещении	-11.3611
▁чудовище	-11.3612
▁бросал	-11.3612
▁Кре	-11.3615
ывал	-11.3616
▁встретила	-11.3618
▁заверил	-11.3619
▁газете	-11.3619
▁растет	-11.3619
▁выбирать	-11.362
▁сном	-11.362
▁собран	-11.362
ложены	-11.3623
▁воздействия	-11.3625
▁труднее	-11.3625
▁разрешил	-11.3626
▁собаку	-11.3627
▁шляпу	-11.3627
▁блюдо	-11.3628
▁(18	-11.3629
вые	-11.363
▁ужасе	-11.3631
▁шрам	-11.3632
▁слабый	-11.3633
веща	-11.3633
▁красивой	-11.3634
нич	-11.3635
▁призрак	-11.3635
▁Северус	-11.3635
▁фраза	-11.3636
▁молчали	-11.3637
▁программ	-11.3637
▁обстановку	-11.3637
▁сухой	-11.3637
▁орден	-11.3638
▁снегу	-11.3638
енькая	-11.364
нно	-11.3642
▁весом	-11.3644
▁Пас	-11.3644
▁обнаружен	-11.3645
▁почет	-11.3645
▁признаки	-11.365
очного	-11.3651
▁успокоил	-11.3655
прос	-11.3657
кину	-11.366
▁деревьями	-11.366
▁Сон	-11.3663
▁Китай	-11.3663
рал	-11.3663
▁повторять	-11.3664
щиеся	-11.3665
▁щекам	-11.3665
▁последнем	-11.3665
▁мирно	-11.3665
▁нарочно	-11.3667
▁вправо	-11.367
▁Силь	-11.367
рош	-11.367
▁собор	-11.367
▁результатов	-11.3671
▁имеете	-11.3671
веду	-11.3672
▁устройства	-11.3672
▁открывать	-11.3672
▁вал	-11.3673
▁базе	-11.3674
акт	-11.3674
▁призналась	-11.3675
▁стакана	-11.3676
▁печати	-11.3677
▁опор	-11.3678
▁задумалась	-11.3678
▁Дей	-11.3678
▁древние	-11.3679
▁вмешался	-11.368
пали	-11.3681
▁промолчал	-11.3682
▁ге	-11.3682
▁би	-11.3682
▁пасть	-11.3682
▁Видите	-11.3685
▁столицу	-11.3687
▁вину	-11.3687
▁бытия	-11.3688
▁маги	-11.369
крат	-11.369
▁вершине	-11.3695
вых	-11.3695
▁куртку	-11.3696
▁прошлый	-11.3696
▁организован	-11.3698
ro	-11.3698
крест	-11.3698
▁приход	-11.3699
▁новому	-11.37
нской	-11.37
▁выводы	-11.3701
▁сражения	-11.3701
иш	-11.3702
▁Последние	-11.3702
▁Сергея	-11.3703
жил	-11.3703
▁горд	-11.3706
▁горя	-11.3707
▁Сид	-11.3707
▁300	-11.3708
рог	-11.3708
пс	-11.3713
▁применения	-11.3718
▁размышлял	-11.3718
▁умеют	-11.3719
▁мужчине	-11.372
ящего	-11.3721
▁назначения	-11.3722
▁физически	-11.3722
▁греш	-11.3723
▁миллион	-11.3723
▁ти	-11.3726
▁Эмма	-11.3727
▁проведен	-11.3728
▁Ак	-11.3729
▁десант	-11.373
▁соответствует	-11.3731
▁программа	-11.3732
▁мыслью	-11.3732
▁пита	-11.3733
▁чудеса	-11.3733
▁ба	-11.3734
▁существовало	-11.3736
▁настаивал	-11.3736
ительным	-11.3737
орд	-11.3737
▁содержа	-11.3737
▁шире	-11.3738
▁земной	-11.3739
фо	-11.3739
▁расстояния	-11.3739
▁использовали	-11.3739
▁подумав	-11.3739
ёв	-11.3739
лав	-11.3742
▁отвернулась	-11.3742
▁удивлению	-11.3742
▁обеими	-11.3742
бат	-11.3743
▁существенно	-11.3744
▁научился	-11.3745
▁боку	-11.3748
▁красота	-11.3748
▁донесся	-11.3752
▁плохого	-11.3753
▁эконом	-11.3754
▁поездки	-11.3756
▁Пять	-11.3756
▁происходящее	-11.3756
▁обычным	-11.3757
▁Пир	-11.3759
▁водки	-11.3761
меш	-11.3762
▁араб	-11.3763
▁влиянием	-11.3763
▁выражен	-11.3766
▁двенадцати	-11.3767
▁животные	-11.3767
бравшись	-11.3767
▁внешне	-11.3768
▁судья	-11.3769
▁собираются	-11.377
▁недоверчиво	-11.3771
▁Сел	-11.3772
▁Вест	-11.3774
мел	-11.3774
▁пополам	-11.3775
▁тормоз	-11.3775
дай	-11.3778
тека	-11.3779
▁Примерно	-11.3779
55	-11.378
фин	-11.3782
▁блокнот	-11.3783
▁сан	-11.3783
▁уходил	-11.3789
▁свечи	-11.3789
▁губах	-11.379
▁отправили	-11.3791
▁надежно	-11.3792
▁ши	-11.3792
▁ладонями	-11.3792
сам	-11.3792
▁педагог	-11.3793
▁XVIII	-11.3795
▁огни	-11.3796
▁Гай	-11.3797
▁тучи	-11.38
▁рецепт	-11.38
▁дороже	-11.3801
▁правления	-11.3802
альную	-11.3809
▁умом	-11.381
▁отсутствия	-11.381
▁прекратить	-11.3811
хожу	-11.3812
▁цирк	-11.3813
[6	-11.3813
▁предметов	-11.3814
32	-11.3817
чь	-11.3819
▁девяти	-11.3819
тащил	-11.382
▁признан	-11.3821
▁цепь	-11.3822
▁донос	-11.3823
▁отрезал	-11.3824
▁высоту	-11.3827
▁боятся	-11.3829
▁планов	-11.383
▁друзьям	-11.383
▁рассчитывал	-11.3832
▁вернемся	-11.3833
▁каза	-11.3834
▁городах	-11.3835
▁надеялась	-11.3835
▁Испании	-11.3837
▁наказания	-11.3837
▁Прекрасно	-11.3838
▁Украины	-11.3838
▁лежат	-11.3838
ch	-11.3839
▁впечатления	-11.384
49	-11.3841
48	-11.3841
▁служба	-11.3841
▁старую	-11.3843
▁понравился	-11.3844
уна	-11.3846
ице	-11.3846
▁Кат	-11.3847
▁НКВД	-11.3848
▁Женя	-11.3849
▁любезно	-11.385
▁скуч	-11.385
▁Хе	-11.3852
▁тонкий	-11.3853
рать	-11.3854
ьным	-11.3855
▁Аня	-11.3855
чать	-11.3856
▁освободить	-11.3856
▁выходили	-11.3857
дри	-11.3859
▁простые	-11.386
оч	-11.386
▁флаг	-11.3862
▁диалог	-11.3863
торг	-11.3863
▁Толстой	-11.3865
сет	-11.3866
▁животе	-11.3866
▁спрятан	-11.3867
▁красавица	-11.3869
если	-11.3871
▁грозит	-11.3872
▁смутно	-11.3872
▁согласия	-11.3875
▁Думаешь	-11.3876
▁сада	-11.3877
▁идеолог	-11.3879
▁сыновей	-11.3879
вич	-11.3879
▁зубов	-11.3881
▁ростом	-11.3882
▁мл	-11.3884
иды	-11.3884
▁закончилась	-11.3889
джа	-11.389
▁понадобилось	-11.3892
елю	-11.3892
▁букет	-11.3892
▁подобным	-11.3893
▁арест	-11.3894
▁холм	-11.3895
▁восторга	-11.3896
▁лета	-11.3899
▁мебель	-11.3903
▁груд	-11.3903
▁усы	-11.3905
▁рам	-11.3905
ование	-11.3906
рим	-11.3906
▁контролировать	-11.3906
ливать	-11.3907
вад	-11.3908
▁влево	-11.3909
сед	-11.391
▁готовности	-11.3911
здоров	-11.3913
ation	-11.3913
боль	-11.3914
▁разряд	-11.3914
▁двигался	-11.3915
▁НЕ	-11.3916
▁услуг	-11.3917
▁клана	-11.3917
▁относиться	-11.3918
▁Академии	-11.3918
▁заполнен	-11.3918
пустил	-11.3919
▁Способ	-11.392
▁представляется	-11.3921
▁закончится	-11.3921
46	-11.3922
▁Алан	-11.3923
▁фе	-11.3924
▁подобрал	-11.3925
▁прочел	-11.3925
▁проснулась	-11.3926
▁проб	-11.3928
▁вблизи	-11.3929
▁первому	-11.3929
имо	-11.3929
▁подвиг	-11.393
▁пытаются	-11.393
▁тупик	-11.3931
▁партию	-11.3932
▁используя	-11.3932
гром	-11.3932
▁осад	-11.3933
иф	-11.3933
давно	-11.3934
ившиеся	-11.3934
яться	-11.3937
▁страда	-11.3939
ыш	-11.3941
▁плит	-11.3941
▁социальной	-11.3941
НО	-11.3942
▁добычу	-11.3943
▁g	-11.3944
▁монастыря	-11.3946
▁рассеянно	-11.3948
▁похожие	-11.395
▁одиннадцать	-11.3951
▁приглашение	-11.3951
▁выдать	-11.3953
▁вызвали	-11.3953
▁Гром	-11.3953
▁Ган	-11.3954
▁обычные	-11.3954
▁важный	-11.3958
ори	-11.3958
стрит	-11.3958
▁сорвал	-11.3958
▁сумки	-11.3959
▁простых	-11.3959
ейн	-11.396
▁живые	-11.396
▁горели	-11.396
▁казни	-11.3961
скочив	-11.3961
▁Сквозь	-11.3961
▁учился	-11.3964
▁почт	-11.3965
▁штраф	-11.3965
▁встретили	-11.3966
▁небольшого	-11.3966
▁сомневаться	-11.3966
▁Ким	-11.3967
▁доброго	-11.3967
▁жива	-11.3969
▁определенные	-11.3969
▁Толстого	-11.397
▁строительство	-11.3971
▁договорились	-11.3971
▁сия	-11.3971
▁услуги	-11.3977
▁питания	-11.3977
▁разговоре	-11.3978
ёл	-11.3979
▁судна	-11.3979
▁твоему	-11.398
щиков	-11.398
▁милиции	-11.3982
▁рыцарь	-11.3982
▁погода	-11.3983
инга	-11.3984
▁данного	-11.3986
еру	-11.3986
▁Принц	-11.3987
▁падения	-11.3989
▁выступления	-11.399
▁злой	-11.399
▁поднес	-11.3992
рова	-11.3992
▁понравится	-11.3993
тороп	-11.3994
▁клинок	-11.3994
▁окнами	-11.3996
ования	-11.3998
▁Некоторое	-11.3998
▁стон	-11.3998
зра	-11.4
▁Рок	-11.4
▁Лай	-11.4003
▁закончилось	-11.4003
▁признаков	-11.4003
▁некое	-11.4005
▁семьдесят	-11.4008
чев	-11.4009
▁полицейский	-11.4009
▁Меч	-11.401
▁перевести	-11.401
▁ценность	-11.401
▁считаешь	-11.4011
летнего	-11.4012
писать	-11.4013
равня	-11.4015
▁делаете	-11.4016
мель	-11.4018
▁Вол	-11.4019
▁поступать	-11.4019
▁занимает	-11.4022
▁испытал	-11.4023
ly	-11.4026
▁кружев	-11.4028
▁материалов	-11.4029
▁весть	-11.403
дев	-11.403
▁помогал	-11.4031
▁среде	-11.4034
▁плакала	-11.4034
▁великим	-11.4035
▁особый	-11.4035
▁задания	-11.4036
▁правилам	-11.4036
▁приют	-11.4038
▁Армии	-11.4039
▁скорей	-11.404
▁замерз	-11.4041
▁1918	-11.4041
▁печ	-11.4042
▁содержимое	-11.4042
▁млн	-11.4043
▁стер	-11.4045
▁био	-11.4046
▁стукнул	-11.4046
▁фамилию	-11.4046
▁молчала	-11.4047
▁участвовать	-11.4049
▁школа	-11.405
▁Центр	-11.4051
un	-11.4052
ог	-11.4053
▁евреи	-11.4053
поль	-11.4055
▁советник	-11.4055
▁полон	-11.4059
▁Пап	-11.4063
▁отыскал	-11.4064
▁артефакт	-11.4066
▁выхватил	-11.4067
▁вытер	-11.407
▁Сами	-11.4071
▁мрак	-11.4071
▁любых	-11.4071
▁Ля	-11.4072
▁помешать	-11.4073
▁ценой	-11.4074
▁указывая	-11.4074
▁чар	-11.4077
▁пса	-11.4077
▁идёт	-11.4078
▁объекта	-11.4079
▁советские	-11.4079
▁расположение	-11.4079
▁толк	-11.408
▁резин	-11.408
жива	-11.4083
▁русском	-11.4083
▁демократ	-11.4083
75	-11.4085
▁тяжелых	-11.4087
▁шорох	-11.4087
▁тре	-11.4088
▁Хуан	-11.409
▁кг	-11.409
▁ра	-11.4091
▁1939	-11.4092
▁Помнишь	-11.4093
54	-11.4094
▁Сал	-11.4094
▁Сим	-11.4095
овала	-11.4095
▁вертолет	-11.4095
▁осведомился	-11.4096
▁небольшим	-11.4096
[5	-11.4097
очных	-11.4099
льная	-11.4102
▁сладко	-11.4102
▁побережье	-11.4105
▁юности	-11.4106
▁побежала	-11.4106
▁колонны	-11.4106
▁слушала	-11.4108
▁постиг	-11.4109
▁Кровь	-11.4109
ящая	-11.4109
▁Роза	-11.411
▁слон	-11.411
▁хо	-11.4112
▁Товарищ	-11.4112
яли	-11.4113
://	-11.4113
▁формально	-11.4113
авший	-11.4114
нести	-11.4114
▁гу	-11.4115
веден	-11.4115
▁исправить	-11.4115
▁раненых	-11.4116
▁обняла	-11.4117
▁пап	-11.4117
▁сломан	-11.4118
▁Расс	-11.4119
ёшь	-11.4119
енька	-11.4121
▁начнется	-11.4125
42	-11.4125
▁наслед	-11.4127
▁гостинице	-11.4129
▁Выходит	-11.413
силь	-11.4131
▁справедливости	-11.4136
▁серьезным	-11.4136
коричнев	-11.4137
▁больного	-11.4137
сар	-11.4138
▁пересек	-11.4139
битый	-11.414
▁чел	-11.414
▁студентов	-11.414
ывать	-11.4141
▁Крас	-11.4141
▁известен	-11.4142
▁Шер	-11.4143
▁сигарет	-11.4143
▁побывал	-11.4147
гн	-11.415
▁умный	-11.4151
▁солдата	-11.4151
оны	-11.4151
▁лихорадочно	-11.4152
ллер	-11.4152
▁неделе	-11.4152
▁Бет	-11.4153
дем	-11.4153
▁коллеги	-11.4153
▁историк	-11.4155
▁просвет	-11.4155
38	-11.4156
st	-11.4157
▁покор	-11.4157
▁Империи	-11.4158
▁Татьяна	-11.4158
▁любая	-11.4159
иан	-11.416
▁миллиона	-11.416
▁журнала	-11.4162
▁Хотел	-11.4163
▁Дев	-11.4165
▁дадут	-11.4166
▁полоса	-11.4166
▁Напротив	-11.4166
▁прибавил	-11.4169
▁Удар	-11.417
сея	-11.4172
вос	-11.4173
▁степень	-11.4174
нька	-11.4174
ющем	-11.4175
▁звонил	-11.4176
▁бойся	-11.4177
▁Игнат	-11.4177
▁официант	-11.4177
▁современных	-11.4178
▁счета	-11.418
▁видео	-11.4182
▁множества	-11.4183
▁похорон	-11.4183
▁баран	-11.4183
план	-11.4187
▁Джейк	-11.4188
част	-11.4188
▁выбросил	-11.4188
▁еврей	-11.4189
▁учение	-11.4189
▁указания	-11.4189
76	-11.4194
▁кат	-11.4196
резал	-11.4196
▁семьей	-11.4198
▁академии	-11.4201
гр	-11.4202
▁распоряжении	-11.4202
дя	-11.4204
▁очертания	-11.4205
▁баланс	-11.4206
▁Кро	-11.4206
▁королевы	-11.4207
▁Сай	-11.4207
▁потолка	-11.4209
ира	-11.4209
▁тонко	-11.4211
▁Пят	-11.4211
▁виден	-11.4212
▁конча	-11.4212
▁Мур	-11.4213
▁(17	-11.4213
▁поражения	-11.4215
▁свадьбы	-11.4218
▁следа	-11.422
▁дошли	-11.4221
▁спуск	-11.4222
▁Ночью	-11.4222
атель	-11.4222
▁мета	-11.4223
▁Луи	-11.4224
▁сеньор	-11.4225
▁серые	-11.4225
▁объятиях	-11.4225
▁монастырь	-11.4226
▁месяцы	-11.4226
енье	-11.4228
▁рассказы	-11.4228
▁основа	-11.4228
▁шоколад	-11.4229
обра	-11.4229
▁уважение	-11.4229
▁Здравствуйте	-11.423
▁монитор	-11.423
▁скелет	-11.423
цар	-11.4232
▁оказать	-11.4232
▁Деньги	-11.4232
▁заключил	-11.4234
▁выполнения	-11.4235
▁шагах	-11.4237
▁Фор	-11.4237
▁жених	-11.4239
▁приблизительно	-11.4241
▁дано	-11.4244
▁лог	-11.4244
▁ученик	-11.4246
щика	-11.4247
▁сравнительно	-11.4248
▁допустим	-11.4249
▁фильма	-11.4249
лении	-11.425
▁чье	-11.4251
▁просила	-11.4256
▁ще	-11.4258
дь	-11.4258
▁ровным	-11.4259
▁достигли	-11.4259
▁слеп	-11.4259
▁Поттер	-11.426
▁амулет	-11.426
▁48	-11.426
▁падали	-11.426
▁показались	-11.4263
▁пустыне	-11.4263
▁специалистов	-11.4264
▁расстроен	-11.4264
▁немецкий	-11.4266
▁жажду	-11.4266
рут	-11.4268
31	-11.4269
▁Ад	-11.4269
▁связанных	-11.427
▁послание	-11.4272
▁банки	-11.4272
▁хлоп	-11.4273
▁обсудить	-11.4273
▁листьев	-11.4274
▁поймет	-11.4274
▁Цел	-11.4274
39	-11.4276
▁агент	-11.4276
▁крышку	-11.4277
▁общих	-11.4277
▁обратить	-11.4278
th	-11.4278
трав	-11.4281
▁пляж	-11.4282
▁освещен	-11.4284
▁дочерью	-11.4285
▁воображение	-11.4285
▁командиров	-11.4286
▁короткие	-11.4287
▁Можете	-11.4287
▁особое	-11.4288
▁крупный	-11.4289
▁гордость	-11.4292
▁май	-11.4292
▁Ch	-11.4293
ведет	-11.4297
▁ущерб	-11.4297
еда	-11.4297
дорож	-11.4298
▁рейс	-11.4298
▁Роджер	-11.4298
▁Подожди	-11.4299
▁42	-11.4301
▁милорд	-11.4301
▁благодарность	-11.4302
▁стуле	-11.4302
▁изучать	-11.4303
▁Свят	-11.4303
шев	-11.4305
▁английского	-11.4307
▁обсуждать	-11.4308
▁берегов	-11.4308
▁уголь	-11.4308
▁описание	-11.4309
▁тянет	-11.4309
▁единой	-11.431
▁бригады	-11.4311
даст	-11.4312
брат	-11.4312
волос	-11.4312
▁стан	-11.4313
▁используют	-11.4313
▁Куп	-11.4314
▁Понимаю	-11.4314
▁боже	-11.4318
▁потребность	-11.432
▁разговаривали	-11.4321
▁феномен	-11.4322
▁ели	-11.4323
▁Придется	-11.4324
▁бил	-11.4325
ge	-11.4325
слал	-11.4326
▁студент	-11.4327
▁усталости	-11.4328
▁руль	-11.4328
▁петь	-11.4328
▁третья	-11.4329
▁Лук	-11.433
▁успеть	-11.433
▁движении	-11.4331
▁стих	-11.4332
▁средствами	-11.4332
утся	-11.4334
▁климат	-11.4334
▁криво	-11.4336
▁собственности	-11.4337
▁палубу	-11.4339
▁молот	-11.4347
▁посмотри	-11.435
▁перешли	-11.4351
▁соседней	-11.4352
▁Ворон	-11.4353
▁глупость	-11.4358
▁учить	-11.4358
▁проявления	-11.436
град	-11.4361
▁больных	-11.4362
▁бодр	-11.4363
▁свету	-11.4363
руб	-11.4364
▁отчаяния	-11.4366
▁распахнул	-11.4367
▁la	-11.4367
▁обращение	-11.4368
▁испугалась	-11.4372
▁сняла	-11.4374
▁караул	-11.4376
▁Сад	-11.4378
водят	-11.4379
кот	-11.4379
▁умы	-11.438
▁свобода	-11.438
▁вещах	-11.4381
▁Женщины	-11.4383
шёл	-11.4384
▁сообщили	-11.4386
▁Постепенно	-11.4386
▁Коз	-11.4387
уме	-11.4389
▁достав	-11.439
▁беспокоиться	-11.4393
▁следующем	-11.4393
▁замкнут	-11.4394
▁передачи	-11.4396
▁сказки	-11.4396
▁обла	-11.4396
▁Святого	-11.4396
чего	-11.4397
▁мудр	-11.4398
чил	-11.4399
▁Хью	-11.44
▁ходила	-11.4401
▁метра	-11.4401
▁колеса	-11.4401
▁воина	-11.4403
▁пах	-11.4404
▁клиент	-11.4406
▁поднимается	-11.4407
▁миллионы	-11.4407
▁человеческий	-11.4409
v	-11.441
альное	-11.4411
▁молчать	-11.4411
▁создан	-11.4412
▁смотрите	-11.4413
▁площадку	-11.4413
▁обнаружив	-11.4413
▁Разговор	-11.4414
▁Уверен	-11.4415
▁погас	-11.4416
▁слабым	-11.4417
▁штук	-11.4417
ствовал	-11.4417
▁цыган	-11.4419
▁взглядами	-11.442
▁армией	-11.4421
▁лейтенанта	-11.4421
▁Помимо	-11.4421
▁шума	-11.4422
▁провод	-11.4422
▁широкие	-11.4423
▁коз	-11.4425
▁приказа	-11.4425
▁замечает	-11.4425
ИТ	-11.4426
▁грудью	-11.443
▁кро	-11.4431
▁Третий	-11.4432
ечка	-11.4432
▁разрыва	-11.4432
▁трёх	-11.4434
▁танки	-11.4438
▁элементов	-11.4438
▁Бре	-11.4439
▁угрозу	-11.4439
▁завел	-11.444
тел	-11.4442
ола	-11.4443
селен	-11.4444
▁относился	-11.4447
▁страхов	-11.4448
государственного	-11.4449
▁произошла	-11.4451
▁пуст	-11.4451
▁сестрой	-11.4453
▁Следовательно	-11.4456
▁контейнер	-11.4456
▁собственном	-11.4456
▁подушку	-11.4457
▁узнаю	-11.4459
▁верхов	-11.446
▁камнем	-11.446
▁поделать	-11.4461
▁курса	-11.4462
▁морю	-11.4463
▁предлагаю	-11.4463
▁установил	-11.4464
берт	-11.4465
▁прежней	-11.4466
▁догадаться	-11.4467
▁ракеты	-11.4467
▁сфере	-11.4469
▁тайной	-11.4471
▁принадлежал	-11.4472
▁легенда	-11.4473
▁появляются	-11.4474
▁деятель	-11.4475
▁бе	-11.4475
▁откинулся	-11.4475
▁прим	-11.4477
▁Федерации	-11.4478
АР	-11.4483
▁просьбу	-11.4483
▁150	-11.4483
▁королем	-11.4485
▁заменить	-11.4488
ающей	-11.4489
▁младший	-11.4489
▁отказалась	-11.449
▁угрюмо	-11.4491
▁открытие	-11.4493
▁туго	-11.4494
▁экономики	-11.4497
▁Ново	-11.4498
▁обрыв	-11.4499
▁знаки	-11.4501
▁горячей	-11.4502
and	-11.4503
▁лимон	-11.4504
▁врагом	-11.4504
▁партнер	-11.4504
▁туфли	-11.4505
▁корни	-11.4505
▁авиации	-11.4508
ставить	-11.4509
гун	-11.4511
елей	-11.4511
▁лишний	-11.4511
▁оси	-11.4512
▁извлек	-11.4513
▁Хотелось	-11.4514
изация	-11.4514
гас	-11.4515
▁воспринимал	-11.4515
▁потенциал	-11.4515
▁надоело	-11.4516
▁Коп	-11.4516
▁уз	-11.4517
03	-11.4518
уш	-11.4518
▁Всех	-11.4519
ДА	-11.4519
▁вином	-11.4523
▁девица	-11.4525
▁гладко	-11.4525
▁прекрасная	-11.4526
▁преимущество	-11.4526
Де	-11.4528
▁подмигнул	-11.4529
▁миров	-11.4529
▁Оста	-11.453
шкой	-11.4531
▁вспоминая	-11.4535
▁Бир	-11.4537
▁плохой	-11.4537
▁знакомства	-11.4537
▁встретился	-11.4538
▁редкость	-11.4538
ложения	-11.4538
▁странная	-11.4538
▁образа	-11.4539
десят	-11.4539
▁победить	-11.454
анти	-11.4541
▁нуждается	-11.4541
▁дна	-11.4541
закон	-11.4543
▁мотоцикл	-11.4543
ходят	-11.4544
▁беспомощно	-11.4546
ТО	-11.4546
▁Шум	-11.4547
▁пахнет	-11.4547
▁разорвал	-11.4549
уп	-11.4549
▁СПб	-11.4553
▁поезда	-11.4554
▁привлек	-11.4554
▁семей	-11.4557
вшем	-11.4558
зел	-11.4558
▁Дженни	-11.456
▁пассажиров	-11.456
▁фунтов	-11.4562
▁вдвое	-11.4562
▁поистине	-11.4564
▁Довольно	-11.4567
▁бывших	-11.4567
▁шепнул	-11.4568
▁потянулась	-11.4569
▁пользовался	-11.457
▁бровь	-11.4572
▁Марго	-11.4572
▁знакомым	-11.4572
▁вкусу	-11.4573
▁третьем	-11.4575
▁Ив	-11.4577
благодар	-11.4577
▁швырнул	-11.4577
гни	-11.4578
▁мышления	-11.4578
▁Ста	-11.4579
65	-11.458
▁видать	-11.4582
▁полицию	-11.4585
▁Коль	-11.4585
▁эр	-11.4585
▁аристократ	-11.4586
▁пытаюсь	-11.4587
▁боялись	-11.4587
ичный	-11.4589
▁цена	-11.459
▁микро	-11.459
▁похожее	-11.4591
▁прислал	-11.4593
▁мучительно	-11.4593
лова	-11.4594
▁собираясь	-11.4594
гл	-11.4596
▁пустые	-11.4597
▁тихим	-11.4597
▁умирать	-11.4599
▁коробку	-11.4599
▁невозмутимо	-11.4599
▁странной	-11.4599
▁выбран	-11.46
ийский	-11.4601
▁женский	-11.4601
▁сложнее	-11.4602
▁умение	-11.4602
▁возмутился	-11.4602
раст	-11.4602
▁облегчение	-11.4602
▁Часто	-11.4603
▁Вик	-11.4603
ета	-11.4604
▁иное	-11.4604
▁заключен	-11.4605
▁Бед	-11.4605
▁вагон	-11.4605
овича	-11.4608
шаяся	-11.4608
▁Страх	-11.4609
▁Екатерина	-11.461
08	-11.461
▁взором	-11.461
▁похлопал	-11.4611
цин	-11.4612
вард	-11.4612
льник	-11.4613
▁гостиницы	-11.4616
▁шок	-11.4616
▁членом	-11.4616
▁1944	-11.4616
▁рынка	-11.4618
▁Кей	-11.4618
▁ударила	-11.462
нулась	-11.4621
▁Тео	-11.4622
копа	-11.4623
▁ус	-11.4623
▁спрыгнул	-11.4624
▁объяснила	-11.4625
▁Берлин	-11.4625
▁плевать	-11.4625
▁песка	-11.4626
▁свободе	-11.4627
▁отдавал	-11.4628
▁зоны	-11.4629
пада	-11.4629
кое	-11.463
▁джентльмен	-11.4632
▁КГБ	-11.4632
ласт	-11.4633
▁станешь	-11.4634
чкой	-11.4634
▁камнями	-11.4635
▁Мира	-11.4635
▁вклад	-11.4635
▁слой	-11.4639
цер	-11.4639
▁зенит	-11.4639
“.	-11.464
▁неохотно	-11.4641
▁источников	-11.4641
шиб	-11.4642
ква	-11.4643
▁Первой	-11.4644
ено	-11.4644
емое	-11.4646
▁владения	-11.4648
▁хвостом	-11.4649
▁свободное	-11.465
▁продаж	-11.4652
▁мод	-11.4652
▁появиться	-11.4652
▁пошёл	-11.4653
▁верный	-11.4653
▁выстрела	-11.4654
▁43	-11.4657
▁любимого	-11.4658
▁пуга	-11.4659
▁высшего	-11.4662
02	-11.4662
▁лба	-11.4662
рина	-11.4665
▁сильной	-11.4665
▁Соня	-11.4666
▁подвод	-11.4666
▁сахара	-11.4666
▁рубеж	-11.4668
уг	-11.4669
▁звание	-11.4669
▁подтверждение	-11.4672
▁клиентов	-11.4673
▁мятеж	-11.4673
▁вопросам	-11.4673
ивает	-11.4675
гул	-11.4676
▁Церкви	-11.4678
▁поступок	-11.4679
▁банков	-11.468
▁Минут	-11.4682
▁помогла	-11.4683
▁ковер	-11.4685
▁приносит	-11.4685
▁бойцы	-11.4687
▁перенес	-11.4687
▁политике	-11.4687
66	-11.4687
сох	-11.4688
▁мешать	-11.4689
клон	-11.469
▁предпочел	-11.4691
кала	-11.4692
бет	-11.4692
▁убийстве	-11.4697
ологии	-11.47
лета	-11.47
▁Юра	-11.47
горел	-11.47
▁театре	-11.4701
▁читала	-11.4702
носить	-11.4702
▁ан	-11.4703
▁элементы	-11.4704
бывал	-11.4705
▁задачей	-11.4705
▁Павла	-11.4705
ивать	-11.4705
▁подозревал	-11.4706
▁ребенку	-11.4706
▁бежит	-11.4707
▁живы	-11.4708
▁интересное	-11.471
▁драться	-11.4711
▁Владимира	-11.4712
граф	-11.4713
▁соединя	-11.4713
▁Вика	-11.4713
изирован	-11.4715
льных	-11.4715
▁бунт	-11.4717
▁базу	-11.4718
▁строительства	-11.4718
лые	-11.472
▁Двадцать	-11.472
74	-11.472
рот	-11.4721
56	-11.4722
▁лип	-11.4723
▁брон	-11.4724
▁Смит	-11.4726
▁связана	-11.4728
▁отмахнулся	-11.4728
лился	-11.4728
эк	-11.4728
ича	-11.4729
▁карандаш	-11.473
▁41	-11.4731
боя	-11.4731
скор	-11.4731
▁несчастный	-11.4733
▁рубашки	-11.4734
▁охоту	-11.4735
▁хорошую	-11.4737
▁вызвало	-11.4739
▁молнии	-11.474
оры	-11.474
▁человеческие	-11.474
▁дяди	-11.4741
▁стадии	-11.4741
▁вступить	-11.4742
▁пустил	-11.4743
шить	-11.4746
▁произнести	-11.4746
▁Обе	-11.4746
▁чудовищ	-11.4747
▁Мет	-11.4747
▁общин	-11.4747
анов	-11.4749
▁Мэтью	-11.4749
▁текста	-11.4751
ьей	-11.4751
анна	-11.4752
▁Марта	-11.4754
▁Спас	-11.4754
▁прыгнул	-11.4755
▁статья	-11.4755
▁проведения	-11.4758
▁Услышав	-11.476
▁ощутила	-11.4761
▁обвинения	-11.4761
▁отчаяние	-11.4762
▁знаменитый	-11.4764
мета	-11.4765
▁пишу	-11.4765
▁ударить	-11.4766
▁наполнил	-11.4766
▁вяло	-11.4767
▁маленькое	-11.4767
▁близости	-11.4769
▁Жак	-11.4769
▁мм	-11.477
▁оставшиеся	-11.4771
▁прекрасной	-11.4772
▁отстал	-11.4773
▁дер	-11.4773
тащить	-11.4774
▁интеллигент	-11.4775
ИН	-11.4775
исто	-11.4777
чай	-11.4777
▁велика	-11.4778
▁упасть	-11.478
▁пробежал	-11.478
▁представлен	-11.4781
▁вторым	-11.4783
ne	-11.4784
▁рану	-11.4786
▁свободной	-11.4787
▁наблюдала	-11.4791
▁Вес	-11.4792
нике	-11.4794
▁грузовик	-11.4794
▁смел	-11.4796
▁лучшем	-11.4798
▁вынес	-11.4799
▁нанес	-11.48
▁бел	-11.48
▁запястье	-11.4801
Си	-11.4803
▁имен	-11.4804
▁Ночь	-11.4804
▁выругался	-11.4805
▁упражнения	-11.4806
▁местами	-11.4809
▁парт	-11.481
▁скажете	-11.4812
▁шнур	-11.4813
▁творится	-11.4813
▁специалист	-11.4813
▁структуры	-11.4814
▁рукам	-11.4815
▁зачастую	-11.4818
▁кинулся	-11.4818
▁пожелал	-11.4818
▁совместно	-11.4818
▁забывать	-11.482
▁сделаем	-11.482
▁Зи	-11.482
скорб	-11.4821
▁ветки	-11.4822
▁среды	-11.4823
▁вождь	-11.4824
▁заплатить	-11.4824
▁извини	-11.4826
▁ружье	-11.4827
льд	-11.4828
сли	-11.4828
▁ложе	-11.4828
▁светлые	-11.4828
▁сбежал	-11.4829
-3	-11.4829
96	-11.4829
истым	-11.483
▁сынок	-11.4832
▁пациент	-11.4833
▁запустил	-11.4834
▁круги	-11.4834
▁свежий	-11.4834
чан	-11.4835
▁вручил	-11.4835
▁задумал	-11.4838
▁горяч	-11.4839
▁Какого	-11.4842
етт	-11.4844
▁мужики	-11.4845
▁спокойной	-11.4846
▁сборник	-11.4846
94	-11.4846
▁настроении	-11.4846
▁ставит	-11.4847
ирован	-11.4848
▁задавать	-11.4848
▁пытаться	-11.4848
▁тьма	-11.4849
▁вопросами	-11.4849
▁Джин	-11.4851
двига	-11.4851
▁землян	-11.4855
▁Ильич	-11.4856
▁встречаются	-11.4857
▁Дин	-11.4857
▁демона	-11.486
▁народом	-11.4861
вшемуся	-11.4862
98	-11.4862
▁Большая	-11.4864
▁снимать	-11.4867
ложен	-11.4869
52	-11.487
▁коммунист	-11.487
▁фашист	-11.4871
сор	-11.4871
▁сопротивления	-11.4874
▁считаете	-11.4875
▁вздохом	-11.4877
▁44	-11.4878
грамм	-11.4879
▁окруж	-11.4881
▁Хай	-11.4882
▁полезно	-11.4882
▁отверстие	-11.4883
▁Яр	-11.4884
▁короткое	-11.4885
▁революция	-11.4886
▁начинали	-11.4886
▁поту	-11.4887
▁одева	-11.4888
вернув	-11.4888
▁VI	-11.4889
абель	-11.489
▁шест	-11.489
▁назвали	-11.489
▁планету	-11.4894
▁взрослых	-11.4894
▁беды	-11.4896
▁государственных	-11.4897
нется	-11.4898
▁становилась	-11.4898
▁показывать	-11.4898
ЛА	-11.4899
▁языки	-11.4902
кладывая	-11.4902
▁отряды	-11.4902
ступление	-11.4905
▁слушая	-11.4906
работа	-11.4906
▁Сашка	-11.4908
▁сумели	-11.4908
▁аппетит	-11.4909
▁Дже	-11.491
▁свыше	-11.4913
▁вооруженных	-11.4913
▁сильных	-11.4914
▁посту	-11.4918
▁зараз	-11.4919
▁высокую	-11.4919
▁поняв	-11.4921
шли	-11.4923
▁лишних	-11.4924
▁нахмурилась	-11.4924
▁Ир	-11.4925
▁борода	-11.4925
▁Зак	-11.4926
меча	-11.4926
▁наступила	-11.4927
▁полит	-11.4928
▁приема	-11.4928
▁писателей	-11.4929
▁отнес	-11.4929
▁необычайно	-11.4932
▁черное	-11.4932
▁морских	-11.4933
▁сирот	-11.4934
▁аппарата	-11.4935
▁желании	-11.4936
▁дальнем	-11.4936
▁чертов	-11.4938
Ла	-11.4938
2.	-11.4939
шками	-11.4939
жек	-11.4941
▁штурм	-11.4941
▁решений	-11.4941
▁счету	-11.4942
щики	-11.4944
▁вершины	-11.4945
▁ожидает	-11.4946
▁приходить	-11.4947
ушку	-11.4947
▁нападение	-11.4948
▁Але	-11.4949
▁отдавать	-11.495
▁простого	-11.495
▁Начальник	-11.4951
▁велико	-11.4952
▁находил	-11.4952
▁остальными	-11.4952
▁оглядываясь	-11.4954
Та	-11.4954
▁пришёл	-11.4955
▁посетителей	-11.4955
▁Бек	-11.4955
▁отличался	-11.4958
▁рек	-11.4958
▁пирамид	-11.496
▁Одновременно	-11.4961
▁занимал	-11.4961
▁сообщает	-11.4961
анная	-11.4962
▁родителям	-11.4963
▁сумма	-11.4963
ене	-11.4964
▁серо	-11.4966
▁кружку	-11.4966
▁сыт	-11.4967
▁женщинами	-11.4967
бегает	-11.497
Ст	-11.4972
▁тишину	-11.4973
монт	-11.4974
▁версии	-11.4977
▁отвести	-11.4977
▁Люд	-11.4979
▁арестован	-11.4979
▁теплой	-11.498
▁привезли	-11.498
▁альбом	-11.498
▁необходимым	-11.498
аса	-11.4983
▁развитии	-11.4985
▁гном	-11.4985
▁КПСС	-11.4987
▁лож	-11.4987
37	-11.4989
▁понравилась	-11.4989
▁борта	-11.4989
тягивая	-11.499
▁состоял	-11.499
▁грозно	-11.4993
▁участке	-11.4994
▁Михаила	-11.4995
▁Майор	-11.4996
ере	-11.4996
▁фургон	-11.4996
▁Такого	-11.4997
▁союзников	-11.4997
▁салон	-11.4997
▁окружении	-11.4998
85	-11.4999
рач	-11.4999
▁Голуб	-11.5001
68	-11.5003
▁местной	-11.5004
▁обречен	-11.5005
78	-11.5008
АЛ	-11.5011
▁политику	-11.5011
▁пропасть	-11.5011
▁градусов	-11.5012
▁красными	-11.5012
▁аргумент	-11.5015
▁лабиринт	-11.5018
▁балкон	-11.5018
▁счастлива	-11.5019
▁обсуждали	-11.5019
▁1940	-11.5019
▁покосился	-11.502
▁статье	-11.502
▁следствие	-11.5022
няк	-11.5024
▁1945	-11.5025
▁простить	-11.5025
▁Карла	-11.5027
▁врачи	-11.5028
▁Иосиф	-11.5031
гружен	-11.5031
99	-11.5032
▁перенос	-11.5032
▁взлет	-11.5034
чие	-11.5034
▁Стан	-11.5034
▁несчастье	-11.5034
▁Фред	-11.5037
▁фотографию	-11.5038
▁запросто	-11.5038
весел	-11.5039
▁увидите	-11.5039
▁фундамент	-11.5039
▁памятник	-11.5041
▁моменту	-11.5041
▁мощный	-11.5042
▁Ци	-11.5043
▁мозгу	-11.5044
▁Хелен	-11.5044
▁принимали	-11.5044
▁четвертый	-11.5045
▁покорно	-11.5046
▁Северной	-11.5046
▁производил	-11.5048
▁рассказывали	-11.5048
▁осуществить	-11.505
▁страниц	-11.5051
▁сильного	-11.5052
▁Перси	-11.5052
▁местность	-11.5053
▁ближайшие	-11.5053
елла	-11.5053
▁начав	-11.5056
▁умирает	-11.5058
▁комфорт	-11.5059
фт	-11.5059
▁браслет	-11.5059
▁начальником	-11.5062
▁придут	-11.5063
▁прожил	-11.5064
▁зеркала	-11.5065
▁звать	-11.5065
▁безумно	-11.5067
▁обнажен	-11.5068
▁n	-11.5068
▁кадров	-11.507
▁любому	-11.507
▁движений	-11.5071
▁известного	-11.5072
▁обидно	-11.5072
▁каприз	-11.5072
▁начальство	-11.5073
▁обучение	-11.5073
▁особым	-11.5074
▁заключения	-11.5074
▁читатель	-11.5074
▁санитар	-11.5074
▁выпрямился	-11.5075
бург	-11.5076
▁лишним	-11.5076
▁Сор	-11.5077
▁Гуд	-11.5078
виз	-11.5079
▁велосипед	-11.5079
нял	-11.508
▁Твои	-11.508
▁изменение	-11.5081
▁испытывать	-11.5081
▁шофер	-11.5083
▁вытащить	-11.5083
ийского	-11.5084
▁классе	-11.5085
▁гол	-11.5086
тый	-11.5086
▁узкой	-11.5088
▁угроза	-11.5089
62	-11.509
▁волнение	-11.509
▁Наверно	-11.5092
▁сохрани	-11.5092
86	-11.5093
шат	-11.5096
▁периодически	-11.5096
▁разошлись	-11.5097
▁уроки	-11.5097
кла	-11.51
ностей	-11.51
▁подразделения	-11.51
▁роты	-11.51
▁покраснел	-11.5104
▁коры	-11.5104
▁немецкие	-11.5105
существ	-11.5105
▁сосредоточен	-11.5107
▁магазине	-11.5107
ико	-11.5107
▁категорически	-11.5107
▁Вор	-11.5108
▁терял	-11.5108
▁прилив	-11.5109
▁град	-11.5109
Из	-11.5109
▁приду	-11.5111
67	-11.5111
▁мощь	-11.5112
▁Чай	-11.5112
гой	-11.5113
▁воздействие	-11.5114
вый	-11.5115
▁Джонни	-11.5118
ложить	-11.5119
кладывать	-11.512
▁аспект	-11.5121
▁взглядов	-11.5122
люби	-11.5124
▁большего	-11.5124
▁жу	-11.5124
▁описал	-11.5126
руга	-11.5128
▁пережить	-11.513
кажу	-11.513
▁чаю	-11.513
▁горизонт	-11.5133
▁поддержал	-11.5135
▁подобие	-11.5135
▁некромант	-11.5137
▁змей	-11.5138
88	-11.5138
▁познания	-11.5139
ходим	-11.5141
▁играла	-11.5142
▁кинул	-11.5142
▁сдержать	-11.5142
спеш	-11.5144
ада	-11.5144
▁тракт	-11.5144
▁культ	-11.5144
▁тревога	-11.5145
▁ледяной	-11.5146
▁заставляя	-11.5146
▁Пат	-11.5149
▁господ	-11.5149
▁составить	-11.5149
X	-11.515
▁заброшен	-11.5151
▁долгих	-11.5151
▁хозяйство	-11.5153
▁сломал	-11.5153
▁Глядя	-11.5154
▁Стефан	-11.5154
▁имущество	-11.5154
41	-11.5157
▁Брон	-11.5158
▁похвал	-11.5159
▁посетил	-11.516
▁отража	-11.5161
▁шансы	-11.5162
▁уважением	-11.5163
ившихся	-11.5163
▁понедельник	-11.5164
▁Жуков	-11.5164
▁разобрать	-11.5164
▁вскочила	-11.5165
▁Наполеон	-11.5166
om	-11.5167
▁девочек	-11.5169
евые	-11.5169
▁бухгалтер	-11.5169
▁расширя	-11.517
▁исполнение	-11.517
▁любопытно	-11.517
▁исходя	-11.5171
эд	-11.5171
▁вечность	-11.5173
▁торговли	-11.5174
▁прочесть	-11.5176
▁t	-11.5177
нина	-11.5177
▁отчаянии	-11.5179
ранж	-11.5179
гли	-11.5182
▁исчезло	-11.5182
▁цифры	-11.5183
▁пойдут	-11.5184
▁принимая	-11.5187
▁уста	-11.5187
▁47	-11.5189
▁очередную	-11.5189
▁ухода	-11.5189
▁шал	-11.519
▁мальчишки	-11.519
34	-11.519
Ар	-11.5191
▁ЗА	-11.5193
▁позвонила	-11.5193
оре	-11.5195
див	-11.5197
▁мелочи	-11.5198
▁взвод	-11.5198
▁паузы	-11.5198
▁псих	-11.5198
▁Туда	-11.52
▁Бра	-11.52
▁чувствуешь	-11.5201
▁восемьдесят	-11.5201
▁Мэтт	-11.5202
▁артиллерии	-11.5202
жав	-11.5203
▁длинным	-11.5205
▁изображен	-11.5206
▁спутник	-11.5206
▁вырвался	-11.5208
▁Степ	-11.5209
▁кричали	-11.5209
▁доски	-11.5209
▁черед	-11.521
▁чистый	-11.5211
▁подарил	-11.5212
▁возникли	-11.5212
▁красных	-11.5212
▁направлению	-11.5213
▁мамой	-11.5215
▁прочитать	-11.5215
▁реже	-11.5216
▁Возле	-11.5217
▁Рез	-11.5218
▁законам	-11.5218
тельной	-11.5219
▁отказа	-11.522
▁товаров	-11.5222
▁толстый	-11.5222
▁Китае	-11.5223
▁известной	-11.5223
мак	-11.5224
ающая	-11.5225
лилась	-11.5225
▁печать	-11.5226
▁проводили	-11.5228
▁решено	-11.5229
▁открывая	-11.5231
▁канон	-11.5231
▁реальной	-11.5232
актив	-11.5234
▁предела	-11.5234
▁шу	-11.5234
▁упрям	-11.5235
пет	-11.5237
▁скрыт	-11.5238
▁парламент	-11.5239
▁предпринять	-11.524
▁Леон	-11.524
▁родилась	-11.5244
▁терпение	-11.5244
▁звонка	-11.5247
97	-11.5248
▁разбудил	-11.5248
летней	-11.5248
▁белое	-11.5248
эконом	-11.525
▁сезон	-11.5251
▁святых	-11.5252
▁ближайшее	-11.5252
▁пятнадцати	-11.5252
▁Сп	-11.5255
▁привыкла	-11.5256
▁Драко	-11.5257
▁публично	-11.5258
87	-11.5259
▁пишут	-11.526
брать	-11.526
ийских	-11.5261
▁очередного	-11.5261
евым	-11.5264
▁щель	-11.5264
иде	-11.5265
▁тема	-11.5266
▁деталь	-11.5266
▁Последнее	-11.5269
▁перец	-11.527
▁личный	-11.527
▁всякую	-11.527
ec	-11.5272
нен	-11.5272
▁воротам	-11.5273
▁манер	-11.5273
▁ошибок	-11.5275
▁трудов	-11.5275
▁дивизия	-11.5275
▁нелепо	-11.5277
▁брака	-11.5277
бирает	-11.5278
сло	-11.5279
▁слышишь	-11.5279
▁Вижу	-11.5282
▁осени	-11.5282
▁Кин	-11.5284
▁покои	-11.5285
▁сбежать	-11.5285
▁непро	-11.5285
▁сосредоточиться	-11.5286
▁хи	-11.5288
▁ботинки	-11.529
▁побежали	-11.529
▁Сюда	-11.529
Хо	-11.5291
▁изучал	-11.5291
▁лидер	-11.5293
▁общение	-11.5294
▁Пушкина	-11.5295
жка	-11.5295
▁личные	-11.5297
▁старости	-11.5298
яет	-11.53
▁Сила	-11.5302
ТА	-11.5302
▁поднимался	-11.5302
▁лихо	-11.5302
ителем	-11.5303
▁аналог	-11.5303
▁немецкой	-11.5304
▁богатства	-11.5307
▁утверждать	-11.531
▁природу	-11.5312
▁крыльями	-11.5312
▁сирен	-11.5312
▁Остров	-11.5315
валь	-11.5316
▁шп	-11.5318
▁зоне	-11.5319
▁св	-11.5321
▁Стро	-11.5323
▁отбросил	-11.5324
▁1991	-11.5325
▁родственники	-11.5329
▁понят	-11.533
тана	-11.533
ОВ	-11.533
▁Ари	-11.5331
▁подле	-11.5331
зия	-11.5333
▁сосуд	-11.5333
▁купе	-11.5334
▁первоначально	-11.5335
нн	-11.5335
▁слав	-11.5336
▁пуля	-11.5336
▁маз	-11.5337
▁действ	-11.5337
▁Давид	-11.5338
дис	-11.5341
▁Хэ	-11.5341
▁7.	-11.5343
▁Вася	-11.5343
▁необходимое	-11.5345
ill	-11.5346
▁уважения	-11.5346
▁найдут	-11.5346
▁рычаг	-11.535
▁приказы	-11.5351
▁футбол	-11.5351
▁надеть	-11.5351
покой	-11.5351
кром	-11.5352
▁привычка	-11.5352
▁пистолета	-11.5353
▁выбрался	-11.5355
▁вставил	-11.5355
▁Патрик	-11.5357
▁маркиз	-11.5358
▁залив	-11.5358
▁предложен	-11.5359
▁роду	-11.536
▁3)	-11.5362
▁фонтан	-11.5365
▁мыслях	-11.5366
лд	-11.5366
▁дышал	-11.5366
врат	-11.5367
▁Лер	-11.5367
метр	-11.5368
▁поисков	-11.5369
▁Пет	-11.5369
▁глав	-11.537
▁красоту	-11.537
▁луны	-11.537
▁произведение	-11.5371
▁максимум	-11.5371
▁Феликс	-11.5374
▁самолеты	-11.5374
▁проводит	-11.5375
▁раздражение	-11.5375
▁дву	-11.5376
▁застал	-11.5376
▁расследование	-11.5377
▁трижды	-11.5377
▁Святой	-11.5378
▁верст	-11.538
▁устроили	-11.5381
▁катер	-11.5382
▁горит	-11.5382
▁животного	-11.5383
▁бомбы	-11.5383
▁танец	-11.5383
▁ранга	-11.5384
▁уютно	-11.5384
▁хозяином	-11.5384
▁жертвой	-11.5386
▁строки	-11.5387
ывали	-11.5388
▁полку	-11.5389
ходишь	-11.5389
▁науке	-11.5391
▁трупы	-11.5393
▁спуска	-11.5394
ющимися	-11.5394
▁вероятность	-11.5395
▁полные	-11.5397
овских	-11.5398
▁убежище	-11.5399
▁дыхания	-11.5399
▁Мэгги	-11.5401
▁бешено	-11.5402
▁узел	-11.5403
ившего	-11.5403
▁ор	-11.5405
теп	-11.5406
▁размер	-11.5406
ною	-11.5407
▁богатство	-11.5407
▁голубые	-11.5408
▁дошел	-11.5408
▁Робин	-11.5409
▁бат	-11.5409
▁свидетельствует	-11.541
ану	-11.541
йд	-11.541
▁клин	-11.541
▁Кост	-11.5412
олов	-11.5413
▁издали	-11.5413
▁огромными	-11.5415
▁снегом	-11.5415
▁странного	-11.5417
▁Солнца	-11.5417
▁простите	-11.5418
крашен	-11.5419
▁зиму	-11.5419
▁шансов	-11.5419
▁определение	-11.542
▁Хотите	-11.542
кинуть	-11.5421
▁комплект	-11.5422
▁болит	-11.5423
▁песен	-11.5423
▁сапог	-11.5426
▁Роланд	-11.5426
▁кормить	-11.5427
▁бре	-11.5428
▁переговоров	-11.5429
▁творчества	-11.543
▁разглядел	-11.543
рт	-11.5431
▁Книга	-11.5431
тельным	-11.5433
▁длинных	-11.5434
▁находит	-11.5434
▁Баз	-11.5436
▁славы	-11.5436
▁часами	-11.5437
док	-11.5439
рай	-11.5439
▁Дядя	-11.5439
▁громким	-11.544
▁доказательств	-11.5441
▁Эк	-11.5443
▁Словом	-11.5446
▁парашют	-11.5446
▁зим	-11.5447
▁Михайлов	-11.5447
▁Мен	-11.5447
▁собрания	-11.5448
▁просьбой	-11.5448
▁Луна	-11.5449
▁виднелись	-11.5451
▁приняв	-11.5452
▁XVI	-11.5454
▁французского	-11.5456
тический	-11.5457
чел	-11.5457
▁хрен	-11.5459
▁Сир	-11.5463
▁изменений	-11.5465
рил	-11.5466
Мо	-11.5466
▁стремится	-11.5466
▁писали	-11.5467
▁облако	-11.5468
▁играют	-11.5469
▁Добрый	-11.5471
▁лыс	-11.5472
▁чу	-11.5473
▁бюро	-11.5474
▁научно	-11.5476
▁живем	-11.5476
Ли	-11.5476
поро	-11.5477
▁финал	-11.5478
▁бумаг	-11.5479
рид	-11.5481
етта	-11.5483
ийской	-11.5483
▁содержания	-11.5485
▁руга	-11.5487
▁Мужчины	-11.5487
▁вниманием	-11.5487
▁прелест	-11.5487
▁Ана	-11.5488
▁учил	-11.5489
▁некоторой	-11.5489
▁видение	-11.549
▁гуля	-11.5491
▁Й	-11.5492
▁родину	-11.5492
▁обид	-11.5493
тти	-11.5494
▁клуба	-11.5496
▁робот	-11.5496
▁милости	-11.5497
хай	-11.5497
▁обзор	-11.5498
▁плоды	-11.5498
▁прогресс	-11.5498
телен	-11.5499
▁юге	-11.5501
▁будьте	-11.5502
▁опасаясь	-11.5504
▁смесь	-11.5504
▁энергично	-11.5504
▁Рот	-11.5504
▁англичан	-11.5505
кач	-11.5506
▁строк	-11.5507
дева	-11.5508
▁поцеловала	-11.5508
есс	-11.5509
▁сходить	-11.5513
▁Рам	-11.5516
▁порога	-11.5516
давались	-11.5517
▁планета	-11.5517
▁напасть	-11.5517
дже	-11.5517
▁Вир	-11.5519
▁приведет	-11.552
▁довелось	-11.5522
▁тщетно	-11.5522
▁полосы	-11.5522
▁снят	-11.5525
▁запер	-11.5525
▁комсомол	-11.5525
▁увижу	-11.5526
▁предположения	-11.5526
дой	-11.5526
▁фыркнула	-11.5528
▁успокоиться	-11.553
▁середины	-11.553
▁подполковник	-11.5532
▁хаос	-11.5533
▁мае	-11.5534
▁русская	-11.5534
▁Поль	-11.5534
▁возможных	-11.5534
▁Джен	-11.5535
▁воров	-11.5536
▁сжала	-11.5537
▁фокус	-11.5538
▁валя	-11.5539
▁бандит	-11.5539
▁удержаться	-11.5539
▁хода	-11.5541
▁ведро	-11.5542
▁Верховного	-11.5542
▁недоуменно	-11.5543
▁слабости	-11.5544
▁создает	-11.5544
▁уехала	-11.5544
полит	-11.5546
93	-11.5546
ковский	-11.5547
▁4-	-11.5549
▁Посмотри	-11.555
▁рассвете	-11.5551
▁произвести	-11.5553
▁оценки	-11.5554
Ме	-11.5562
▁холл	-11.5562
▁Ярослав	-11.5562
инь	-11.5563
▁меняется	-11.5563
▁46	-11.5563
▁наставник	-11.5563
▁большому	-11.5564
▁библиотеке	-11.5567
▁превратились	-11.5568
▁зеркале	-11.5568
▁куча	-11.557
фар	-11.5571
▁юноши	-11.5572
▁заняли	-11.5572
▁великое	-11.5572
▁быстрый	-11.5573
▁хранить	-11.5573
▁использование	-11.5573
▁Право	-11.5573
▁разработан	-11.5574
▁границ	-11.5575
▁метр	-11.5576
▁руководителя	-11.5577
▁высших	-11.5579
▁камере	-11.5579
▁провинции	-11.558
▁свеч	-11.5582
▁мам	-11.5584
▁Стоя	-11.5585
▁ряду	-11.5586
▁посмотрев	-11.5589
▁стремился	-11.559
▁шарик	-11.559
▁наличии	-11.5591
▁попало	-11.5592
▁брит	-11.5594
голос	-11.5595
▁почтительно	-11.5595
59	-11.5596
ce	-11.5596
▁Ленинград	-11.5599
▁довести	-11.5599
▁изменилась	-11.5601
▁острый	-11.5601
▁округ	-11.5601
▁слушает	-11.5602
▁цветок	-11.5602
▁Бан	-11.5602
▁определенной	-11.5602
гард	-11.5603
▁гражданин	-11.5604
▁Ден	-11.5604
бон	-11.5605
▁счастливой	-11.5605
▁молчит	-11.5608
op	-11.5609
пек	-11.561
▁степи	-11.5612
▁белую	-11.5613
▁яркие	-11.5615
▁тяжко	-11.5615
▁ожидали	-11.5617
даль	-11.5618
▁шутки	-11.5618
▁коне	-11.5618
▁склону	-11.5619
▁зол	-11.5619
▁прах	-11.562
▁племянник	-11.5621
▁обиды	-11.5621
95	-11.5621
▁спрятаться	-11.5621
▁тайно	-11.5623
сот	-11.5623
▁бул	-11.5623
Ис	-11.5624
▁скользнул	-11.5624
▁шутка	-11.5626
▁тягот	-11.5626
▁экземпляр	-11.5626
▁рисунок	-11.5627
▁серьезное	-11.5628
мм	-11.5628
▁острые	-11.5628
▁Валь	-11.5629
лена	-11.5629
гур	-11.563
▁бесплатно	-11.5631
▁свидание	-11.5631
▁язв	-11.5631
щийся	-11.5633
▁заснул	-11.5634
▁хороших	-11.5635
63	-11.5635
овод	-11.5635
▁крейсер	-11.5635
▁ищут	-11.5637
▁крут	-11.5637
▁ставил	-11.5637
ящей	-11.5638
▁Позвольте	-11.5638
▁яркий	-11.5639
▁согласны	-11.5639
▁прокричал	-11.5639
▁посмотрели	-11.5642
крутил	-11.5642
▁блюда	-11.5643
▁современного	-11.5643
▁взмахнул	-11.5644
▁мужика	-11.5644
пустив	-11.5645
▁подругу	-11.5646
нские	-11.5649
▁расходы	-11.565
▁лежало	-11.565
▁легкостью	-11.5651
тягивал	-11.5653
▁политические	-11.5653
72	-11.5653
▁дрожа	-11.5654
▁средней	-11.5655
▁волч	-11.5655
▁улыбалась	-11.5656
▁застыла	-11.5656
эс	-11.5657
аясь	-11.5657
▁неверно	-11.5659
▁New	-11.5661
▁закону	-11.5662
▁безопасность	-11.5663
▁нижней	-11.5663
▁долгий	-11.5663
▁кустов	-11.5664
▁обратном	-11.5665
▁схватить	-11.5665
▁запрещен	-11.5666
▁Сент	-11.5666
▁мигом	-11.5667
▁танка	-11.5668
▁испытание	-11.567
кажет	-11.5674
▁рады	-11.5676
▁немецкого	-11.5676
▁захвачен	-11.5679
▁пустую	-11.568
▁горизонта	-11.5681
▁научных	-11.5681
▁помогут	-11.5681
▁батальона	-11.5683
▁покупать	-11.5685
друг	-11.5685
▁сведений	-11.5686
▁уходили	-11.5687
▁зад	-11.5687
читал	-11.5688
▁убеди	-11.5689
▁проявил	-11.569
▁бросили	-11.569
▁оригинал	-11.5692
▁пожалел	-11.5693
▁жертва	-11.5695
▁рукава	-11.5695
▁ребра	-11.5695
▁шаман	-11.5696
▁сражение	-11.5696
▁рога	-11.5698
енка	-11.5699
▁закурил	-11.57
кладывает	-11.57
елем	-11.5702
▁срока	-11.5702
▁Зло	-11.5702
▁владел	-11.5702
ары	-11.5702
▁безум	-11.5706
▁способы	-11.5706
изу	-11.5708
▁описать	-11.5713
▁Небес	-11.5713
▁поесть	-11.5716
▁вирус	-11.5716
▁кончится	-11.5718
▁пролив	-11.5718
▁понемногу	-11.5718
▁пользы	-11.5718
▁испытывает	-11.5719
нцы	-11.5721
▁старается	-11.5721
▁родитель	-11.5722
▁прочее	-11.5722
▁вспоминает	-11.5723
▁Погоди	-11.5726
▁глухой	-11.5727
▁болта	-11.5729
▁Мей	-11.5729
▁Поначалу	-11.5729
тас	-11.573
▁наследник	-11.5731
валились	-11.5731
▁смену	-11.5732
▁исполнен	-11.5733
▁цилиндр	-11.5733
▁Мысли	-11.5735
77	-11.5735
▁каса	-11.5736
79	-11.5737
гонять	-11.5737
народ	-11.5738
▁наблюдатель	-11.574
▁анализа	-11.574
▁голубой	-11.5741
аций	-11.5741
джер	-11.5742
▁предмета	-11.5742
▁подходил	-11.5744
▁Бол	-11.5744
▁развед	-11.5746
▁действовал	-11.5746
▁облач	-11.5746
пур	-11.5748
▁долга	-11.5748
рр	-11.5749
▁табурет	-11.5749
▁благ	-11.5749
▁личное	-11.575
[7	-11.575
▁распахнулась	-11.575
▁страшной	-11.575
▁тьмы	-11.5751
▁пружин	-11.5751
▁Ход	-11.5753
▁хлопот	-11.5755
▁обоим	-11.5758
▁Тир	-11.5758
▁поступки	-11.5758
▁заработал	-11.5759
▁сумела	-11.576
▁заботы	-11.5762
▁Барон	-11.5762
кли	-11.5762
▁затих	-11.5763
рап	-11.5763
▁маску	-11.5766
▁спирт	-11.5767
▁музей	-11.5767
▁Плохо	-11.5767
▁установки	-11.5768
▁истину	-11.5768
юще	-11.5768
▁бояр	-11.5768
▁редактор	-11.5769
▁энергией	-11.5769
арт	-11.577
▁заставив	-11.5773
▁серый	-11.5773
▁бережно	-11.5775
▁Твое	-11.5777
▁полдень	-11.5778
▁Симон	-11.5778
▁американской	-11.5778
▁Павлов	-11.5779
▁располага	-11.5779
ати	-11.5781
▁размера	-11.5782
▁погладил	-11.5783
▁хол	-11.5783
▁заболевания	-11.5783
▁Конрад	-11.5784
▁мяс	-11.5785
▁проверил	-11.5785
▁составлен	-11.5786
▁серьезный	-11.5786
▁языков	-11.5787
▁собира	-11.5787
▁Вернувшись	-11.5789
мара	-11.5789
▁Юля	-11.579
чо	-11.579
▁Георгий	-11.579
▁незнакомец	-11.5791
сок	-11.5792
▁налил	-11.5792
▁тревогу	-11.5792
▁любим	-11.5793
ставим	-11.5793
▁преимущественно	-11.5794
сю	-11.5794
▁полицейских	-11.5795
▁обморок	-11.5795
▁краски	-11.5796
открыт	-11.5796
▁Пит	-11.5796
тереть	-11.5797
▁помнила	-11.5798
▁пиджак	-11.5798
▁каменной	-11.5798
пить	-11.5798
▁информацией	-11.5799
▁насыщен	-11.58
▁дорогие	-11.58
▁поднимаясь	-11.5801
▁Дел	-11.5803
▁молодец	-11.5804
▁выслушал	-11.5804
▁опытом	-11.5804
▁повторяю	-11.5806
▁приходило	-11.5806
▁варианты	-11.5808
▁туч	-11.5808
▁микрофон	-11.5808
▁Лейтенант	-11.5809
▁дождем	-11.581
ировала	-11.581
▁состояла	-11.5811
▁сбоку	-11.5812
▁мел	-11.5812
▁мешало	-11.5813
▁прочно	-11.5814
▁приятеля	-11.5814
▁виновато	-11.5815
▁гар	-11.5816
▁губернатор	-11.5816
▁открывает	-11.5816
ьтесь	-11.5817
▁находясь	-11.5818
нга	-11.5818
▁железа	-11.5821
шт	-11.5821
мил	-11.5821
▁поддержать	-11.5822
щелк	-11.5823
бей	-11.5823
▁ответили	-11.5824
▁Дет	-11.5828
рика	-11.5828
▁исполня	-11.5828
▁больницы	-11.5828
▁убедительно	-11.5829
▁притом	-11.5831
▁отверг	-11.5832
▁тяжелое	-11.5834
▁хозяев	-11.5834
дз	-11.5834
▁температура	-11.5836
▁интересах	-11.5836
правил	-11.5838
▁спуститься	-11.5838
▁вытянул	-11.5841
▁Росс	-11.5841
▁личных	-11.5841
▁Стоило	-11.5842
▁St	-11.5842
▁сняли	-11.5843
▁издал	-11.5844
▁худ	-11.5844
▁удержался	-11.5844
▁копыт	-11.5845
▁народы	-11.5846
▁привычно	-11.5847
жела	-11.5848
▁известие	-11.5849
ёс	-11.585
▁жалобно	-11.585
лёт	-11.585
▁склонился	-11.5851
▁переживания	-11.5853
▁говорим	-11.5854
кей	-11.5858
▁прибыль	-11.586
▁короткой	-11.586
▁Десять	-11.5861
▁охота	-11.5861
▁ежели	-11.5861
▁очаг	-11.5862
▁сочета	-11.5862
▁основу	-11.5862
▁пропустить	-11.5865
▁подобный	-11.5868
меть	-11.5868
▁эфир	-11.5869
▁патруль	-11.5872
▁согре	-11.5872
ant	-11.5873
▁техника	-11.5874
желт	-11.5876
▁гидро	-11.5876
▁утверждение	-11.5879
▁точке	-11.5879
нож	-11.5879
▁режиссер	-11.588
▁бегом	-11.5882
▁яйцо	-11.5883
дд	-11.5885
▁Германия	-11.5887
▁условно	-11.5888
▁Эльф	-11.5888
▁хозяину	-11.5888
▁арбалет	-11.589
▁представляли	-11.5891
64	-11.5891
▁женщинам	-11.5892
▁процессы	-11.5892
57	-11.5894
▁знакомство	-11.5896
дат	-11.5896
▁Рак	-11.5896
человечески	-11.5897
▁горячий	-11.5899
▁49	-11.5899
▁упоминал	-11.59
▁присутствия	-11.59
▁оторвал	-11.59
тора	-11.5901
тии	-11.5901
ывает	-11.5903
▁девяносто	-11.5903
▁Куб	-11.5905
▁свар	-11.5905
▁опасения	-11.5906
▁Западной	-11.5907
▁Хал	-11.5907
▁изображения	-11.591
▁частенько	-11.591
▁спутников	-11.5911
▁Миш	-11.5912
аков	-11.5915
▁широким	-11.5916
▁прокурор	-11.5917
▁родных	-11.5917
цо	-11.5918
▁выгодно	-11.5919
тым	-11.592
вери	-11.592
ватый	-11.592
▁операций	-11.5921
▁XVII	-11.5921
▁человеческое	-11.5922
▁приходила	-11.5922
▁Война	-11.5924
▁криком	-11.5926
▁Лов	-11.5926
▁Никак	-11.5927
пр	-11.5929
▁Мысль	-11.5929
▁Небо	-11.5929
▁очистить	-11.5931
▁падал	-11.5931
▁убийцы	-11.5931
▁што	-11.5935
com	-11.5935
▁рассуждения	-11.5935
▁Виктория	-11.5936
▁акцент	-11.5936
▁резкий	-11.5936
▁познакомился	-11.5936
▁Сей	-11.5938
▁изд	-11.5938
▁газов	-11.5938
▁несу	-11.5938
▁нагло	-11.5938
▁камин	-11.5939
▁практики	-11.5939
икой	-11.5942
▁движется	-11.5942
▁образу	-11.5943
▁лампы	-11.5947
▁Послушайте	-11.5949
тру	-11.5949
▁скуп	-11.5949
▁Альберт	-11.5952
▁возвращались	-11.5954
▁позволили	-11.5954
▁учебник	-11.5955
▁летать	-11.5955
▁общественного	-11.5957
▁подошёл	-11.5957
▁газета	-11.5959
ment	-11.5959
▁менеджер	-11.596
▁источником	-11.596
▁Станислав	-11.5961
▁обещан	-11.5962
▁отпустить	-11.5962
▁найдем	-11.5962
▁Маркус	-11.5963
▁Лок	-11.5965
▁разочарование	-11.5966
▁Учитель	-11.5966
▁показывают	-11.5966
▁перспектив	-11.5967
est	-11.5967
▁визг	-11.5968
▁отвратительно	-11.5969
▁90	-11.5969
▁увлека	-11.5969
▁требуют	-11.597
▁исключено	-11.5972
▁низким	-11.5972
оваться	-11.5973
▁секретаря	-11.5975
▁челюсть	-11.5975
▁отеля	-11.5976
▁маленькими	-11.5977
▁Став	-11.5977
▁Помните	-11.5978
▁Самый	-11.598
▁вещами	-11.5981
▁пачку	-11.5981
▁готовый	-11.5982
▁нетерпением	-11.5982
ленная	-11.5984
▁бормотал	-11.5985
▁ресторане	-11.5985
времен	-11.5986
жден	-11.5986
▁съезд	-11.5988
▁Курт	-11.5988
▁реакцию	-11.599
рк	-11.599
▁перерыв	-11.5991
▁изучения	-11.5991
▁сообща	-11.5992
ящим	-11.5993
▁хром	-11.5994
▁победил	-11.5996
Кар	-11.5997
▁поте	-11.5997
▁Рус	-11.5998
▁некому	-11.5998
▁книжку	-11.5998
▁вооружение	-11.6001
▁имелись	-11.6001
▁Черный	-11.6001
▁похода	-11.6002
ac	-11.6003
▁стрелял	-11.6003
тяг	-11.6003
дзе	-11.6005
брод	-11.6005
▁дедушка	-11.6006
▁чайник	-11.6006
▁собственному	-11.6006
▁теряет	-11.6008
▁лев	-11.6008
▁образы	-11.6008
инки	-11.601
водя	-11.6011
▁учетом	-11.6012
▁завтрака	-11.6012
▁вырвал	-11.6013
▁берут	-11.6013
▁прижалась	-11.6014
береж	-11.6015
▁упомянут	-11.6016
сток	-11.6018
▁охоты	-11.6018
▁закончен	-11.6019
▁страшные	-11.6022
▁возвращении	-11.6023
▁устраивает	-11.6023
дох	-11.6023
▁карта	-11.6025
▁детской	-11.6025
нских	-11.6025
▁закончился	-11.6026
▁фор	-11.6026
▁наблюдали	-11.6027
▁разделить	-11.6028
▁думай	-11.6029
гг	-11.603
бивал	-11.603
▁Петербурге	-11.6032
▁двига	-11.6033
▁обстановка	-11.6033
▁коснулась	-11.6034
истом	-11.6035
▁Дайте	-11.6035
▁краем	-11.6035
▁родителями	-11.6036
один	-11.6038
▁противников	-11.6039
▁майора	-11.6042
Те	-11.6042
▁сотрудники	-11.6043
▁проблемой	-11.6043
▁убитых	-11.6043
только	-11.6044
▁освободи	-11.6044
йдёт	-11.6046
▁произведен	-11.6046
▁Жанна	-11.6047
▁происхождение	-11.6049
▁спутника	-11.6054
▁нехорошо	-11.6055
▁Смотрите	-11.6056
коро	-11.6056
▁комитета	-11.6057
▁Дим	-11.6057
ческой	-11.6057
рн	-11.6058
▁Эс	-11.6059
▁греб	-11.606
был	-11.606
▁защищен	-11.6061
▁длинную	-11.6061
▁ружья	-11.6062
▁надела	-11.6063
▁неопределенно	-11.6063
▁Рима	-11.6065
дос	-11.6066
ивал	-11.6068
▁воротник	-11.607
▁материи	-11.6071
▁Перевод	-11.6071
▁тарелки	-11.6073
▁противником	-11.6073
▁Гр	-11.6074
▁Даша	-11.6075
ери	-11.6075
РИ	-11.6075
▁севере	-11.6077
сков	-11.6077
греб	-11.6078
▁протест	-11.6078
▁усилием	-11.6078
▁интер	-11.6079
▁особняк	-11.6079
▁доброй	-11.608
▁свидетелей	-11.6081
▁Ваня	-11.6082
▁отваж	-11.6082
▁леп	-11.6085
▁необыкновенно	-11.6085
▁окликнул	-11.6085
▁звонить	-11.6087
▁высоком	-11.609
▁защита	-11.6091
▁стрелков	-11.6091
▁подъезда	-11.6092
▁Браун	-11.6092
▁искус	-11.6093
▁напомнить	-11.6094
▁паре	-11.6096
▁короче	-11.6097
гонял	-11.6097
▁Алексея	-11.6097
▁посол	-11.6098
▁психо	-11.6098
▁висела	-11.6099
▁In	-11.6099
ительных	-11.61
▁тьме	-11.6101
▁виновата	-11.6101
▁масштаб	-11.6102
▁эпи	-11.6104
▁Белл	-11.6105
▁писала	-11.6105
▁бодро	-11.6107
▁потребности	-11.6108
▁След	-11.6108
еса	-11.6109
▁суде	-11.6109
▁Ноги	-11.611
▁книгах	-11.6112
▁артист	-11.6112
▁указывал	-11.6113
▁карманы	-11.6113
чков	-11.6114
▁пропустил	-11.6115
▁крестьяне	-11.6115
▁Евгений	-11.6117
▁рассвета	-11.6117
▁лицами	-11.6118
▁помощника	-11.6118
▁лодке	-11.612
▁хороша	-11.6121
84	-11.6121
жин	-11.6121
51	-11.6122
ага	-11.6125
▁солнечный	-11.6126
▁ступени	-11.6126
рублен	-11.6127
▁издания	-11.6127
▁встречается	-11.6128
▁Указ	-11.6129
▁шёл	-11.6129
▁Клянусь	-11.6129
▁Медленно	-11.6132
▁счёт	-11.6132
▁запасы	-11.6133
▁поспешила	-11.6134
ивших	-11.6135
▁психологии	-11.6135
▁перелом	-11.6136
▁снаряд	-11.6136
▁отодвинул	-11.6137
▁Салли	-11.6137
▁украшения	-11.6138
▁беззвучно	-11.6139
▁обращать	-11.6141
▁видения	-11.6141
мах	-11.6141
▁свидетельство	-11.6142
оде	-11.6142
Когда	-11.6142
▁представлять	-11.6142
▁попыток	-11.6145
▁фонарь	-11.6146
▁пещеру	-11.6147
▁послышались	-11.6148
de	-11.6149
▁заместитель	-11.6149
▁просьба	-11.6149
▁Крым	-11.6149
▁тревож	-11.615
▁били	-11.6152
▁прихода	-11.6152
плю	-11.6153
двор	-11.6155
▁количеством	-11.6155
▁давным	-11.6156
пусти	-11.6156
олет	-11.6157
▁повесил	-11.6158
▁Макар	-11.616
▁войной	-11.616
▁икон	-11.6161
▁сложив	-11.6161
▁Клэр	-11.6162
▁владельца	-11.6166
▁повести	-11.6167
еты	-11.6167
сии	-11.6172
▁вправе	-11.6173
▁битве	-11.6175
▁1920	-11.6175
▁захватил	-11.618
▁Место	-11.6181
▁настороженно	-11.6182
▁зрение	-11.6183
▁дыр	-11.6183
▁обращения	-11.6183
▁http	-11.6184
▁успокоился	-11.6185
▁нехотя	-11.6185
шан	-11.6185
▁грохотом	-11.6185
▁продолжение	-11.6186
▁Георг	-11.6187
▁Гермиона	-11.6187
пин	-11.6188
92	-11.6188
▁средних	-11.6193
▁маленьком	-11.6194
шний	-11.6194
аф	-11.6197
▁зрителей	-11.6198
▁поврежден	-11.6199
▁слыхал	-11.6199
▁уверенностью	-11.6199
иты	-11.6201
▁получали	-11.6201
▁лак	-11.6202
▁Сем	-11.6202
лейтенант	-11.6203
кен	-11.6203
▁предельно	-11.6204
▁вызвала	-11.6204
▁демонов	-11.6204
▁пульт	-11.6206
▁ходом	-11.6206
▁влез	-11.621
▁священника	-11.6211
▁Флор	-11.6211
▁приедет	-11.6212
▁парой	-11.6212
▁открыт	-11.6212
▁печали	-11.6213
▁залива	-11.6213
▁зритель	-11.6213
▁ответом	-11.6214
чного	-11.6214
▁рабы	-11.6215
яд	-11.6215
▁упомянул	-11.6215
▁Лед	-11.6216
▁заведения	-11.6217
▁Любой	-11.6217
▁камен	-11.6218
▁тысяча	-11.6218
▁упали	-11.6218
▁доказательство	-11.6218
▁вздохнув	-11.6219
ёк	-11.6219
▁Необходимо	-11.6221
▁отныне	-11.6221
рё	-11.6224
▁предметом	-11.6225
▁крепкий	-11.6226
▁профессии	-11.6227
▁Хей	-11.6227
▁возникают	-11.6228
▁промах	-11.6228
▁мешка	-11.6231
▁быстрым	-11.6232
▁округа	-11.6233
▁умело	-11.6235
▁исключения	-11.6235
хитр	-11.6236
▁благодарен	-11.6237
▁опираясь	-11.6237
штейн	-11.6238
▁уют	-11.6239
▁категории	-11.6239
энд	-11.6239
▁исследование	-11.6241
например	-11.6242
читать	-11.6242
▁посла	-11.6243
▁испортил	-11.6244
▁обезьян	-11.6245
▁принят	-11.6245
▁Анны	-11.6245
▁палатки	-11.6246
Ха	-11.6247
▁тронул	-11.6248
▁талию	-11.6248
▁лифт	-11.6249
▁целовал	-11.625
▁Гус	-11.625
▁высот	-11.6251
▁Жар	-11.6251
▁подарки	-11.6252
цеп	-11.6253
▁Орлов	-11.6253
▁дерьмо	-11.6254
тт	-11.6254
▁75	-11.6254
▁поколение	-11.6255
▁этапе	-11.6256
▁летит	-11.6256
вяз	-11.6256
▁веришь	-11.6256
▁фантазии	-11.6257
▁саму	-11.6257
▁вертел	-11.6257
▁пауза	-11.6258
пира	-11.6259
▁восста	-11.626
▁сильная	-11.6261
▁вольно	-11.6261
▁разочарован	-11.6261
▁поглощен	-11.6261
▁кан	-11.6262
▁испытывала	-11.6264
▁тише	-11.6264
ственным	-11.6264
▁падение	-11.6267
▁кида	-11.6268
▁связаться	-11.6269
нз	-11.627
▁великан	-11.6271
▁милиционер	-11.6271
▁воздухом	-11.6271
▁Разум	-11.6276
раста	-11.6277
▁Воздух	-11.6277
▁канат	-11.6278
▁обращал	-11.6278
▁выдохнула	-11.6279
▁запрос	-11.6281
▁злости	-11.6281
бас	-11.6281
▁оставшихся	-11.6281
▁матушка	-11.6281
пуга	-11.6284
▁внешность	-11.6286
▁желудок	-11.6286
▁мар	-11.6288
▁сохранять	-11.6289
▁духовной	-11.629
нским	-11.6293
▁уродлив	-11.6294
гнув	-11.6295
полу	-11.6295
▁поэзии	-11.6296
▁дур	-11.6296
гран	-11.6297
▁применять	-11.6297
▁Виль	-11.6297
ard	-11.6298
▁магией	-11.6299
▁вскрикнула	-11.6299
истая	-11.6299
▁выключил	-11.63
▁ноге	-11.63
▁буй	-11.63
держа	-11.63
числен	-11.63
“,	-11.6302
▁суше	-11.6304
▁версия	-11.6304
▁Лично	-11.6307
pe	-11.6307
ОЙ	-11.6309
▁выглянул	-11.6309
▁нарушение	-11.6309
▁правый	-11.631
нули	-11.6311
▁снимал	-11.6311
▁пользовались	-11.6311
числ	-11.6311
▁стека	-11.6311
▁трепет	-11.6312
▁американского	-11.6313
▁окончил	-11.6314
▁процедил	-11.6314
▁Матвей	-11.6314
▁четверти	-11.6314
▁посвящен	-11.6315
▁показывали	-11.6315
▁судеб	-11.6315
▁следователь	-11.6315
валилась	-11.6317
▁Дорога	-11.6317
▁Ер	-11.6317
▁морем	-11.6318
▁распорядился	-11.6319
▁Старший	-11.6319
▁Отчего	-11.632
▁требовать	-11.6321
▁пленных	-11.6322
▁теплый	-11.6322
▁Друг	-11.6323
▁спустились	-11.6323
▁консерв	-11.6323
▁мелькнула	-11.6326
филд	-11.6326
▁учит	-11.6327
▁служили	-11.6327
против	-11.6328
▁подъезд	-11.6329
▁объясняет	-11.6329
▁вложил	-11.633
▁психолог	-11.6331
▁Кри	-11.6331
ическому	-11.6332
▁приятным	-11.6332
▁повернувшись	-11.6332
▁ездить	-11.6336
▁тумана	-11.6337
▁Васильев	-11.6337
▁Брайан	-11.6338
▁сны	-11.6339
▁почувствовав	-11.6341
▁Луис	-11.6341
ивали	-11.6341
▁конкурент	-11.6342
▁горла	-11.6342
▁Прос	-11.6343
аг	-11.6343
▁юноше	-11.6345
сей	-11.6345
чник	-11.6347
▁обещаю	-11.6349
▁тьму	-11.6349
▁соединения	-11.6349
ерс	-11.635
▁Говори	-11.635
▁парус	-11.635
▁пыш	-11.6351
▁заднем	-11.6352
▁национальной	-11.6353
▁мягкой	-11.6355
очную	-11.6356
▁нашлось	-11.6356
▁содержит	-11.6356
▁ухом	-11.6356
▁лечь	-11.6357
▁могилу	-11.6357
▁Думал	-11.6357
▁поднима	-11.6358
▁благодарности	-11.636
▁Сперва	-11.636
▁оборону	-11.6361
▁бегать	-11.6361
▁поглядывая	-11.6362
▁Вначале	-11.6362
▁доверял	-11.6363
опа	-11.6364
▁колокол	-11.6364
ork	-11.6364
▁Эг	-11.6365
58	-11.6366
ОР	-11.6366
▁фар	-11.6367
анд	-11.6368
▁кончилось	-11.637
ометр	-11.6371
▁развива	-11.6372
▁предложили	-11.6374
▁помогло	-11.6375
мени	-11.6375
▁рыцаря	-11.6375
▁ручей	-11.6377
▁сопротивляться	-11.6377
битые	-11.6378
▁стойки	-11.6379
▁доверия	-11.6379
ТИ	-11.638
чих	-11.638
▁днях	-11.6381
▁лазер	-11.6381
▁прочего	-11.6382
▁всадников	-11.6382
▁волшебник	-11.6384
▁перехватил	-11.6384
▁возбужден	-11.6384
▁кра	-11.6384
▁вскричал	-11.6386
ливым	-11.6387
▁свитер	-11.6387
оген	-11.6387
▁водил	-11.6388
▁Южной	-11.6388
▁Путь	-11.6388
▁график	-11.6389
▁нечем	-11.639
▁праздника	-11.6391
▁построен	-11.6392
ительную	-11.6393
кл	-11.6394
▁руководитель	-11.6395
▁обеспечен	-11.6395
▁субботу	-11.6395
▁забота	-11.6395
▁спина	-11.6396
биты	-11.6396
▁низкий	-11.6396
▁выкрикнул	-11.6396
▁плет	-11.6397
▁молодежь	-11.6399
▁бумаге	-11.6399
▁угрожающе	-11.6401
▁технологии	-11.6401
смерт	-11.6402
▁получают	-11.6404
▁американцы	-11.6404
лера	-11.6406
▁отправлен	-11.6406
▁закончила	-11.6407
нас	-11.6408
дана	-11.6408
▁длиной	-11.6409
▁отомстить	-11.6411
▁поделаешь	-11.6411
▁выдержать	-11.6411
▁воспоминание	-11.6412
▁завис	-11.6413
▁брод	-11.6414
▁либерал	-11.6415
▁многими	-11.6416
▁барона	-11.6417
▁алмаз	-11.6418
▁различия	-11.6418
▁небом	-11.6418
▁Наталья	-11.6419
▁охрана	-11.642
йдите	-11.6421
▁Бон	-11.6422
▁нравился	-11.6422
▁серьёзно	-11.6423
▁добрым	-11.6423
▁мудрость	-11.6424
▁Виктора	-11.6426
▁поперек	-11.6427
▁громкий	-11.6428
▁откликнулся	-11.6429
▁Америка	-11.6429
▁английском	-11.6429
▁Огонь	-11.6431
пыта	-11.6431
▁лука	-11.6432
стать	-11.6432
▁водя	-11.6434
▁рассчитан	-11.6438
пт	-11.6439
▁повернула	-11.6441
▁напоминала	-11.6441
▁едой	-11.6442
▁тревогой	-11.6442
▁островов	-11.6443
служив	-11.6443
кси	-11.6443
▁врачей	-11.6444
▁сквер	-11.6444
▁оснований	-11.6445
▁бюджет	-11.6445
▁кип	-11.6447
▁широкую	-11.6447
83	-11.6447
НИ	-11.6448
▁боишься	-11.6449
▁журнале	-11.6449
▁физической	-11.6451
▁небольших	-11.6451
англ	-11.6451
▁открытом	-11.6451
гну	-11.6452
резать	-11.6452
▁партий	-11.6453
▁замечание	-11.6454
▁буфет	-11.6454
▁тренер	-11.6455
▁пацан	-11.6456
ерн	-11.6457
ёж	-11.6457
человек	-11.6461
▁использует	-11.6461
▁Белый	-11.6462
▁несли	-11.6462
▁ездил	-11.6463
▁университете	-11.6464
▁разбил	-11.6466
▁Вольф	-11.6467
▁Марка	-11.6468
▁Против	-11.647
▁Андреевич	-11.647
▁недовольство	-11.6471
▁мести	-11.6472
▁взамен	-11.6472
▁выдох	-11.6473
▁накопи	-11.6474
лететь	-11.6475
▁замедлил	-11.6475
▁нужный	-11.6475
ьном	-11.6476
▁командовал	-11.6476
▁внутренним	-11.6477
▁крыло	-11.6477
евского	-11.6477
▁сцена	-11.6482
▁обыск	-11.6483
▁удалился	-11.6484
▁настиг	-11.6484
вари	-11.6485
▁мес	-11.6486
▁послушать	-11.6487
▁предан	-11.6489
▁улыбаться	-11.6489
▁разным	-11.6489
▁позволял	-11.649
▁полночь	-11.6491
▁основательно	-11.6491
▁Игра	-11.6491
тыка	-11.6492
▁потеряв	-11.6492
▁счастливым	-11.6492
▁обычная	-11.6493
▁блондин	-11.6493
▁хрусталь	-11.6496
ist	-11.6496
нами	-11.6496
▁волка	-11.6497
▁забывал	-11.6497
Са	-11.6497
▁военным	-11.6498
▁скул	-11.6499
▁искусстве	-11.6499
АТ	-11.65
вра	-11.6501
▁смеялся	-11.6502
▁правительственн	-11.6503
едем	-11.6503
▁проспект	-11.6504
▁еда	-11.6504
▁сыграть	-11.6505
▁боле	-11.6505
▁организаций	-11.6505
▁Бах	-11.6506
▁бле	-11.6507
ушек	-11.6507
▁пещере	-11.6508
инд	-11.6509
▁рассматривая	-11.651
▁принципы	-11.651
стре	-11.6513
▁ванную	-11.6514
▁прощание	-11.6516
▁Фри	-11.6516
▁Каждая	-11.6517
▁семейства	-11.6518
▁оборвал	-11.6519
▁долине	-11.6521
▁Дур	-11.6522
казан	-11.6523
нику	-11.6523
▁проявить	-11.6524
▁безопасно	-11.6525
несла	-11.6526
▁добрых	-11.6526
▁суммы	-11.6526
▁полагается	-11.6527
▁Блэк	-11.6528
▁монарх	-11.6528
▁истинно	-11.653
▁смеялись	-11.653
▁счел	-11.6531
▁грамот	-11.6532
▁Имя	-11.6532
▁рассвет	-11.6533
▁ловушку	-11.6533
▁велик	-11.6534
▁согласились	-11.6534
сси	-11.6535
▁выпад	-11.6536
▁улов	-11.6536
ложи	-11.6536
▁персонал	-11.6537
▁уныло	-11.654
▁гл	-11.654
▁охрану	-11.654
▁исчезает	-11.6541
▁уснул	-11.6542
▁перешла	-11.6542
▁запахом	-11.6543
▁улыбнувшись	-11.6543
▁сжимая	-11.6543
хлеб	-11.6543
авшего	-11.6545
пат	-11.6545
▁мягкий	-11.6548
нц	-11.6548
рел	-11.6548
▁сойти	-11.6549
▁Советской	-11.655
▁зашла	-11.655
▁исполнилось	-11.6551
▁обеспечения	-11.6552
восток	-11.6552
▁выполнял	-11.6554
гора	-11.6556
▁битва	-11.6558
пись	-11.6558
▁перемены	-11.6559
▁прогноз	-11.6559
▁добился	-11.656
цкий	-11.656
ig	-11.656
▁сплошь	-11.6561
▁тяжесть	-11.6562
▁очков	-11.6563
▁крово	-11.6565
▁прислушиваясь	-11.6565
▁беду	-11.6565
▁седло	-11.6565
пуст	-11.6565
шо	-11.6565
▁выдержала	-11.6566
▁чёрт	-11.6566
фан	-11.6567
▁Знал	-11.6567
▁напрямую	-11.6567
ившие	-11.6569
носят	-11.6569
▁номере	-11.6569
глян	-11.657
▁событиях	-11.657
▁естественным	-11.657
▁азарт	-11.6571
▁произошел	-11.6572
▁позе	-11.6573
нэ	-11.6574
▁швейцар	-11.6579
▁дочка	-11.6579
брал	-11.6581
▁двинулась	-11.6581
▁дивана	-11.6585
стин	-11.6585
▁поделиться	-11.6586
▁Альфред	-11.6586
▁Следует	-11.6588
▁крыша	-11.6592
▁сменить	-11.6593
уди	-11.6593
▁режима	-11.6593
▁частиц	-11.6594
▁дурно	-11.6594
▁занялся	-11.6594
▁зданий	-11.6595
▁Петя	-11.6595
▁элемент	-11.6595
ot	-11.6595
▁Угу	-11.6596
▁возражал	-11.6596
▁деревня	-11.6597
▁участь	-11.6598
бух	-11.6599
▁произносит	-11.6601
▁доброе	-11.6602
ольд	-11.6603
▁краской	-11.6603
даются	-11.6604
▁аэродром	-11.6604
▁тюрем	-11.6604
▁отсек	-11.6605
▁кандидат	-11.6605
▁великие	-11.6605
▁девчонки	-11.6606
▁научной	-11.6607
▁гриб	-11.6609
▁практику	-11.661
▁меру	-11.6611
▁бледно	-11.6612
▁убийц	-11.6613
▁гордостью	-11.6614
▁Валя	-11.6615
▁прежние	-11.6616
▁надобно	-11.6616
▁подавля	-11.6617
▁известные	-11.6617
▁пригласить	-11.6617
▁занимаются	-11.6618
▁Эдди	-11.662
▁социальных	-11.6621
ственные	-11.6621
▁гражданской	-11.6621
▁Игоря	-11.6621
дит	-11.6621
▁применение	-11.6621
селя	-11.6622
▁древнего	-11.6623
▁определенных	-11.6624
▁кадр	-11.6624
▁залу	-11.6624
▁убежать	-11.6625
▁противоположной	-11.6625
▁вариантов	-11.6626
▁зрел	-11.6626
▁сейф	-11.6626
▁открытую	-11.6626
▁потерян	-11.6627
▁Рассказ	-11.6627
▁куртки	-11.6627
▁Луч	-11.6628
▁ушло	-11.6628
▁лечение	-11.6629
▁вопль	-11.663
▁лозунг	-11.663
нера	-11.6633
▁соседи	-11.6633
способ	-11.6633
вина	-11.6633
▁накинул	-11.6633
▁границей	-11.6636
▁теряя	-11.6636
▁кобыл	-11.6636
▁науч	-11.6637
[2	-11.6637
91	-11.6638
▁значительной	-11.6638
▁Вечер	-11.6641
▁блага	-11.6641
вую	-11.6641
▁глубокие	-11.6642
▁оборудование	-11.6644
▁поеду	-11.6644
▁войн	-11.6644
▁Кинг	-11.6645
▁потратил	-11.6645
▁нарушения	-11.6645
▁Церковь	-11.6646
▁Царь	-11.6646
▁исполнить	-11.6647
▁устраивать	-11.6647
▁банку	-11.6651
▁ров	-11.6653
▁улыба	-11.6653
андер	-11.6654
▁делаем	-11.6654
▁доля	-11.6654
▁Ок	-11.6654
ированный	-11.6654
▁повар	-11.6657
▁округе	-11.6657
▁уловил	-11.6658
▁лжи	-11.666
▁Мишка	-11.666
▁сотню	-11.6661
ити	-11.6662
▁имущества	-11.6662
▁ищу	-11.6662
▁французской	-11.6662
▁плачет	-11.6664
▁принципиально	-11.6665
▁Коб	-11.6666
▁подготовил	-11.6666
▁непросто	-11.6667
▁усадил	-11.6668
▁просили	-11.6668
▁работаю	-11.6668
▁чудес	-11.667
▁классов	-11.6671
▁сложности	-11.6673
▁крив	-11.6673
▁превратить	-11.6674
▁жидкость	-11.6674
▁августе	-11.6674
▁возразить	-11.6675
▁потрясен	-11.6676
▁практика	-11.6676
▁Парижа	-11.6678
▁богатых	-11.6678
▁мул	-11.6679
▁кругов	-11.668
▁Бэ	-11.6681
▁участка	-11.6681
▁полков	-11.6681
▁миниатюр	-11.6681
унд	-11.6683
▁тяжелая	-11.6684
▁надписью	-11.6684
▁седла	-11.6685
▁покончить	-11.6688
▁указала	-11.669
▁Глаз	-11.669
Йорке	-11.6692
▁углов	-11.6694
▁прикосновение	-11.6698
английски	-11.6698
▁долгого	-11.6698
▁столовую	-11.6698
▁боком	-11.6699
▁продал	-11.6701
▁Алек	-11.6701
ap	-11.6701
▁множеством	-11.6701
учи	-11.6703
Кто	-11.6704
▁стат	-11.6704
▁заботиться	-11.6705
69	-11.6705
▁воспитание	-11.6705
▁перевернул	-11.6707
▁денеж	-11.6709
▁готовность	-11.6709
▁старое	-11.6709
▁тепла	-11.671
la	-11.671
▁8.	-11.6711
▁серой	-11.6711
▁кабины	-11.6714
▁Яков	-11.6715
▁спускаться	-11.6715
▁присела	-11.6716
▁последовательно	-11.6716
8.	-11.6717
▁обряд	-11.6717
несли	-11.6718
▁программе	-11.6718
▁корень	-11.6718
▁любопытства	-11.672
кру	-11.6721
▁центральной	-11.6721
▁приступил	-11.6721
НА	-11.6722
▁сложил	-11.6723
▁залп	-11.6723
есса	-11.6726
▁куплен	-11.6727
89	-11.6728
▁подскочил	-11.673
йский	-11.673
уда	-11.673
▁кусочки	-11.673
▁окинул	-11.673
▁кричала	-11.673
▁совету	-11.6731
▁племя	-11.6732
▁условии	-11.6733
▁создали	-11.6734
▁Стой	-11.6738
▁длинная	-11.6742
▁верила	-11.6744
▁сходство	-11.6746
▁отъезда	-11.6746
▁курил	-11.6747
▁брали	-11.675
▁застыв	-11.6751
▁простая	-11.6751
ните	-11.6751
льф	-11.6752
▁побледнел	-11.6753
▁внутренние	-11.6753
▁позволяют	-11.6753
▁имелось	-11.6753
▁мак	-11.6754
▁просьбе	-11.6754
▁убеждения	-11.6754
▁проходила	-11.6757
ственный	-11.6757
▁гордости	-11.6758
▁Гуров	-11.6758
▁мероприятия	-11.6758
▁коньяк	-11.6763
▁пробурчал	-11.6764
▁целого	-11.6765
▁скажут	-11.6766
▁Федорович	-11.6766
▁превращается	-11.6766
▁формул	-11.6767
чества	-11.6767
▁газа	-11.6768
▁принесет	-11.6768
▁Далеко	-11.677
▁посмел	-11.677
▁корзин	-11.6774
▁страшная	-11.6774
▁угод	-11.6775
▁выступ	-11.6778
иваю	-11.6778
▁Поли	-11.6779
чной	-11.6779
▁Джимми	-11.678
▁сестер	-11.6783
мит	-11.6784
Ан	-11.6785
▁погружен	-11.6785
▁повернуть	-11.6786
ep	-11.6786
▁дождаться	-11.6788
▁Цель	-11.6788
чук	-11.6789
овка	-11.679
▁богом	-11.6793
стань	-11.6793
▁Стол	-11.6793
▁угас	-11.6795
▁толпой	-11.6796
▁собственность	-11.6797
▁Гил	-11.6797
ировав	-11.6798
ущий	-11.6798
▁красотой	-11.6799
▁мягким	-11.6803
▁Чарльз	-11.6804
▁55	-11.6805
▁копье	-11.6806
▁действиях	-11.6806
▁Востоке	-11.6806
▁рисовал	-11.6806
губ	-11.6807
Па	-11.6807
шил	-11.6808
▁волнуйся	-11.6809
сюда	-11.6809
щение	-11.6809
работать	-11.6809
▁Главный	-11.681
▁волной	-11.681
▁Подо	-11.6811
▁Наде	-11.6812
▁поста	-11.6812
▁предупреждал	-11.6813
▁разглядывал	-11.6814
▁мгновения	-11.6814
▁будущей	-11.6818
▁собираетесь	-11.6818
▁лестницу	-11.6818
▁результатом	-11.6819
нцев	-11.6819
▁дереву	-11.6821
▁сегодняшний	-11.6821
держав	-11.6821
ектор	-11.6822
▁каменные	-11.6822
шкин	-11.6822
▁жрец	-11.6822
этаж	-11.6822
▁сокровища	-11.6822
Ро	-11.6823
▁хозяева	-11.6823
▁произведений	-11.6823
▁Наиболее	-11.6824
буд	-11.6825
ine	-11.6827
▁советы	-11.6828
▁Хол	-11.6828
▁командованием	-11.6829
▁греха	-11.683
▁корточки	-11.683
▁Зал	-11.6832
дина	-11.6833
▁фермер	-11.6833
▁Запада	-11.6834
▁инстинктивно	-11.6835
Ку	-11.6836
▁левый	-11.6837
▁хищн	-11.6837
▁круп	-11.6837
▁подождал	-11.6839
▁схватился	-11.6841
▁толков	-11.6841
▁прилип	-11.6842
плав	-11.6842
сим	-11.6843
▁Ивановна	-11.6843
▁фонарик	-11.6844
▁врасплох	-11.6846
▁улица	-11.6847
▁качеств	-11.6847
▁любимая	-11.6848
▁возврат	-11.6849
▁противостоять	-11.685
ЕН	-11.685
▁культура	-11.6851
▁трат	-11.6853
▁расп	-11.6853
▁клянусь	-11.6853
▁переводе	-11.6854
▁Встреча	-11.6854
хотя	-11.6854
хорош	-11.6854
▁гигант	-11.6855
▁хором	-11.6855
▁умерли	-11.6855
нрав	-11.6856
▁перевал	-11.6856
шер	-11.6856
▁прекраща	-11.6856
▁занималась	-11.6857
▁крыльцо	-11.6857
▁Известно	-11.6857
▁эм	-11.6858
▁ля	-11.6861
▁инвалид	-11.6861
▁росли	-11.6862
▁ящика	-11.6863
▁приключений	-11.6864
▁отличаются	-11.6864
▁чувствовали	-11.6865
▁республики	-11.6865
▁Идем	-11.6865
▁космос	-11.6866
▁хрип	-11.6867
▁прекрасные	-11.6869
▁печи	-11.687
Бр	-11.687
▁Удивительно	-11.6871
▁свободного	-11.6871
оты	-11.6872
▁сыщик	-11.6872
▁конструкции	-11.6872
▁тумане	-11.6872
овская	-11.6873
▁нашёл	-11.6873
▁человеч	-11.6874
▁источника	-11.6874
▁ночного	-11.6875
▁дескать	-11.6875
▁явилась	-11.6876
▁держась	-11.6876
▁взаимно	-11.6878
овки	-11.6878
▁Западе	-11.6878
▁убьет	-11.6878
▁каково	-11.6879
▁встречался	-11.6882
стол	-11.6883
▁походил	-11.6883
▁лететь	-11.6883
▁перво	-11.6885
.)]	-11.6885
▁фактов	-11.6885
сол	-11.6886
▁разбираться	-11.6886
▁пустоту	-11.6886
▁стимул	-11.6887
▁останутся	-11.6887
▁небольшом	-11.6887
онный	-11.6887
▁герб	-11.6888
▁куп	-11.6888
▁примитив	-11.6889
▁Рит	-11.6889
▁народного	-11.6889
дора	-11.689
▁зверей	-11.689
▁темп	-11.6891
▁внук	-11.6892
▁яд	-11.6892
▁духу	-11.6893
вилл	-11.6893
▁Таких	-11.6893
дача	-11.6894
рана	-11.6895
▁лицах	-11.6896
▁составляли	-11.6896
ающим	-11.6898
▁настоящую	-11.6899
▁площадки	-11.6899
▁трюм	-11.69
▁являлись	-11.69
▁кал	-11.69
слу	-11.6901
▁зеленой	-11.6902
▁Внизу	-11.6903
▁нарезать	-11.6904
▁выбрала	-11.6907
▁гнус	-11.6908
▁Грей	-11.691
▁устойчив	-11.691
▁поднимались	-11.691
▁договориться	-11.6911
▁повышен	-11.6913
▁ягод	-11.6914
▁мосту	-11.6915
▁Кли	-11.6916
▁Лас	-11.6916
▁члена	-11.6918
▁приведен	-11.6918
▁бульон	-11.6919
ньем	-11.6919
▁поменьше	-11.6919
▁нужные	-11.692
▁троп	-11.6921
▁джинсы	-11.6922
▁взволнован	-11.6925
▁торгов	-11.6926
▁рассыпа	-11.6926
▁усилен	-11.6926
▁буд	-11.6927
▁оркестр	-11.6929
▁используется	-11.6929
рубил	-11.6929
КИ	-11.693
▁прекрасное	-11.693
▁завал	-11.6931
▁вызывать	-11.6932
▁Англию	-11.6933
▁огонек	-11.6933
▁Лос	-11.6933
▁побережья	-11.6935
▁шкафа	-11.6936
▁рубашка	-11.6936
вшемся	-11.6937
▁уходят	-11.6937
▁главные	-11.6938
▁багаж	-11.6938
твоему	-11.6938
▁ловить	-11.6939
▁сыновья	-11.6939
▁безжалостно	-11.6939
▁продавать	-11.6942
▁действуют	-11.6942
▁лезть	-11.6942
шн	-11.6942
▁ярким	-11.6943
▁прежнего	-11.6945
▁слушаю	-11.6946
▁довольны	-11.6947
res	-11.6949
▁всхлип	-11.6953
ложу	-11.6954
▁ме	-11.6955
▁прилично	-11.6955
говорить	-11.6956
▁Гали	-11.6957
▁привычки	-11.6957
▁Важно	-11.6958
▁подушки	-11.6961
▁назначение	-11.6961
щейся	-11.6962
▁грехи	-11.6962
▁худо	-11.6963
сос	-11.6964
▁марте	-11.6964
▁проверки	-11.6964
▁Юн	-11.6967
▁счастливо	-11.6968
▁восход	-11.6969
дадут	-11.697
73	-11.697
▁подбежал	-11.697
▁постараюсь	-11.697
▁хр	-11.6971
▁мудрости	-11.6972
▁городских	-11.6972
▁сенатор	-11.6972
▁спи	-11.6973
▁выступает	-11.6974
▁признавал	-11.6974
▁законом	-11.6976
▁терза	-11.6976
нулись	-11.6976
▁гарнизон	-11.6977
▁бывшей	-11.6977
▁Бул	-11.6978
луча	-11.6978
▁учесть	-11.698
▁причал	-11.6981
▁интриг	-11.6982
▁путей	-11.6983
Петербург	-11.6985
▁Труд	-11.6985
▁молодежи	-11.6985
▁расы	-11.6986
▁позиций	-11.6986
▁дров	-11.6987
▁представляешь	-11.6987
рубить	-11.6988
▁персон	-11.6988
▁требовали	-11.699
▁астроном	-11.6991
▁смеется	-11.6994
▁подойдет	-11.6994
▁купа	-11.6995
82	-11.6995
▁волей	-11.6995
▁Бок	-11.6995
▁напомнила	-11.6995
▁Сибири	-11.6995
▁дорожке	-11.6995
▁Мэй	-11.6999
▁лучшему	-11.6999
▁молния	-11.6999
▁процессов	-11.7
▁кошки	-11.7001
▁газетах	-11.7002
▁наступает	-11.7002
▁способностей	-11.7003
▁парке	-11.7003
никами	-11.7004
▁полом	-11.7006
▁ведущей	-11.7007
▁легкое	-11.7007
▁невеста	-11.701
▁обязанностей	-11.7011
▁напоминали	-11.7011
▁рукоять	-11.7011
▁посыл	-11.7011
▁носят	-11.7012
▁выдвинул	-11.7012
▁выжил	-11.7013
▁попадает	-11.7013
▁вызывали	-11.7013
▁зловеще	-11.7015
▁поверь	-11.7016
▁замерли	-11.7016
льц	-11.7017
▁невыносимо	-11.7018
рук	-11.7019
▁ураган	-11.7019
▁удач	-11.7019
▁выступал	-11.702
▁альтернатив	-11.7021
▁вылетел	-11.7021
▁Глав	-11.7022
▁оставляет	-11.7023
▁посуду	-11.7023
▁нравятся	-11.7023
▁здании	-11.7023
▁уступ	-11.7023
унов	-11.7024
▁камне	-11.7025
▁лют	-11.7026
Ми	-11.7028
▁почесал	-11.7028
▁моложе	-11.7029
ливает	-11.7029
▁Маль	-11.703
йского	-11.703
▁должное	-11.7032
▁травм	-11.7033
▁веревку	-11.7034
очная	-11.7034
▁комендант	-11.7034
катился	-11.7034
атели	-11.7034
▁воспользовался	-11.7034
▁удерживал	-11.7035
▁чтение	-11.7035
▁Джека	-11.7035
▁52	-11.7035
▁Русь	-11.7036
нном	-11.7037
▁узнают	-11.7037
▁начинала	-11.7038
▁крышей	-11.7039
▁Хам	-11.7039
▁распоряжения	-11.704
охран	-11.7041
▁нравилась	-11.7041
▁Легко	-11.7042
▁забавно	-11.7042
шедших	-11.7042
▁51	-11.7042
▁колесо	-11.7042
ell	-11.7043
▁Госпожа	-11.7044
▁безразлично	-11.7046
▁физик	-11.7046
▁Атлант	-11.7048
▁re	-11.705
▁плакал	-11.7052
▁ручки	-11.7052
▁интересного	-11.7052
инской	-11.7054
▁свят	-11.7054
ыр	-11.7056
▁Советский	-11.7056
▁морду	-11.7056
ходящих	-11.7056
мотал	-11.7056
▁выполнен	-11.7057
▁наследство	-11.7057
лот	-11.7057
▁шкафу	-11.7058
▁обошлось	-11.7059
▁приготовить	-11.7059
шуюся	-11.7059
имый	-11.7061
▁(1	-11.7061
▁горлу	-11.7061
разному	-11.7062
▁древности	-11.7062
▁базар	-11.7063
▁захватили	-11.7064
▁нести	-11.7065
▁подвале	-11.7065
▁деловито	-11.7066
▁кухонн	-11.7068
ходит	-11.707
тил	-11.7071
льно	-11.7072
▁гнал	-11.7072
▁объектов	-11.7072
▁учили	-11.7073
рыж	-11.7073
▁культур	-11.7073
▁испытать	-11.7073
▁пятьсот	-11.7074
▁Того	-11.7075
▁растерялся	-11.7076
вержен	-11.7076
▁сдержанно	-11.7076
▁сотрудник	-11.7077
▁поедем	-11.7078
▁ученого	-11.7078
коль	-11.7078
▁мелочь	-11.7079
▁понес	-11.7079
иях	-11.708
для	-11.708
▁отход	-11.708
чест	-11.7083
▁итог	-11.7083
▁Нового	-11.7084
▁связыва	-11.7084
▁машиной	-11.7084
▁мастерской	-11.7085
▁обладают	-11.7085
▁Раб	-11.7086
спар	-11.7086
▁живота	-11.709
овцев	-11.7091
▁факел	-11.7092
▁стой	-11.7093
▁каст	-11.7093
▁лесной	-11.7093
▁подсказал	-11.7093
▁руководителей	-11.7093
▁Ничто	-11.7094
▁пункта	-11.7094
▁Нэнси	-11.7096
ленных	-11.7097
▁копья	-11.7099
▁носили	-11.7099
тики	-11.71
▁требую	-11.7101
▁присоединиться	-11.7101
▁Рев	-11.7102
▁Скотт	-11.7104
▁оглянулась	-11.7104
▁тигр	-11.7105
▁высокими	-11.7105
▁поведал	-11.7106
▁Рат	-11.7106
▁обитателей	-11.7107
▁Должен	-11.7107
каза	-11.7107
▁собственная	-11.7107
▁вспыхнул	-11.7109
▁старшим	-11.7109
▁лучшей	-11.7109
▁Юноша	-11.7109
▁среднем	-11.711
▁слушай	-11.7111
▁ученики	-11.7111
▁Бель	-11.7113
▁грави	-11.7113
▁доводилось	-11.7113
▁лесом	-11.7113
▁шелк	-11.7114
анский	-11.7114
▁темными	-11.7115
▁появляться	-11.7115
▁пожилой	-11.7115
сем	-11.7116
торы	-11.7116
▁нетрудно	-11.7116
▁вызывал	-11.7117
ow	-11.7117
Ба	-11.7118
ЕМ	-11.7119
[...]
