<unk>	0
<s>	0
</s>	0
<|n|>	0
,	-2.63583
.	-3.00406
▁и	-3.87291
▁в	-4.10367
▁не	-4.39972
▁—	-4.44531
▁на	-4.53791
а	-4.71219
▁с	-4.79717
▁что	-4.91071
▁	-4.94325
-	-4.97018
и	-5.01189
е	-5.14053
?	-5.20628
▁–	-5.20781
▁-	-5.26827
!	-5.32487
▁я	-5.34125
▁по	-5.41896
▁за	-5.49239
▁он	-5.50624
:	-5.53522
▁как	-5.54271
...	-5.5562
▁то	-5.55844
▁к	-5.57243
м	-5.69126
у	-5.71036
▁у	-5.73043
▁его	-5.73478
▁а	-5.75289
▁из	-5.76885
▁от	-5.78781
▁«	-5.82146
▁И	-5.83033
ы	-5.84256
▁Я	-5.86389
▁А	-5.88387
▁это	-5.90102
▁все	-6.00095
▁В	-6.01372
▁о	-6.06972
о	-6.07434
▁но	-6.10343
▁же	-6.10847
ом	-6.13773
▁вы	-6.18478
й	-6.21977
▁так	-6.22531
я	-6.22774
▁было	-6.29556
ов	-6.2975
▁(	-6.31621
▁она	-6.35264
▁меня	-6.35515
▁бы	-6.36939
▁Но	-6.38391
▁Он	-6.39964
х	-6.44436
▁до	-6.44735
ся	-6.44908
▁ты	-6.46677
▁мне	-6.493
▁ее	-6.53011
▁под	-6.53332
▁для	-6.55521
▁был	-6.55838
▁только	-6.57559
ю	-6.63433
▁мы	-6.64229
▁Не	-6.66536
▁при	-6.6706
▁еще	-6.6909
▁их	-6.69709
▁они	-6.70197
▁когда	-6.7081
▁раз	-6.71293
»	-6.71476
▁уже	-6.71988
ой	-6.75643
▁или	-6.76697
▁С	-6.76758
▁"	-6.78118
▁На	-6.80371
▁чтобы	-6.81486
ми	-6.82309
;	-6.82594
ка	-6.8877
ный	-6.91571
▁ни	-6.92633
▁со	-6.934
▁У	-6.96222
▁сказал	-6.96553
▁ему	-6.97153
▁Да	-6.97343
▁Это	-6.98063
ами	-6.98247
▁про	-6.98811
▁если	-7.01994
ные	-7.02995
ной	-7.05194
ки	-7.06485
с	-7.06751
▁ли	-7.08171
в	-7.09299
го	-7.09884
т	-7.10562
▁чем	-7.12323
)	-7.13181
▁него	-7.1323
ли	-7.13638
ет	-7.13672
▁даже	-7.1394
▁была	-7.1411
▁себя	-7.14888
▁По	-7.16516
л	-7.17016
ных	-7.17191
▁время	-7.179
▁Что	-7.17918
▁во	-7.19637
▁быть	-7.2124
▁где	-7.23087
▁Как	-7.23358
▁Она	-7.23881
▁об	-7.24246
▁есть	-7.2534
».	-7.25546
▁может	-7.25738
▁нас	-7.25815
ная	-7.25974
▁были	-7.26809
▁очень	-7.27549
ть	-7.27637
▁Ты	-7.27677
▁без	-7.2791
▁нет	-7.2802
ая	-7.28157
▁Ну	-7.31623
▁будет	-7.32035
▁кто	-7.32317
ку	-7.32378
▁Вы	-7.33359
▁вот	-7.34204
ного	-7.35896
▁*	-7.36209
▁тебя	-7.36502
▁там	-7.38067
▁да	-7.38113
▁этого	-7.38222
▁того	-7.38369
▁О	-7.41418
▁себе	-7.41677
ый	-7.42706
▁За	-7.44693
ным	-7.4481
▁этом	-7.46711
ла	-7.47223
▁них	-7.48989
▁Мы	-7.50493
ах	-7.50784
▁ничего	-7.50929
но	-7.50956
▁вас	-7.51301
▁можно	-7.51808
▁К	-7.51875
▁Вот	-7.52333
▁Так	-7.53669
▁этот	-7.54611
▁тут	-7.54663
p	-7.55237
▁тебе	-7.55276
ную	-7.55334
).	-7.55364
▁больше	-7.55778
ь	-7.56869
▁Если	-7.57358
▁один	-7.59308
▁том	-7.59357
▁Все	-7.59589
"	-7.60362
ые	-7.60858
▁просто	-7.61717
▁потом	-7.61866
»,	-7.6286
▁здесь	-7.63122
▁г	-7.63882
▁теперь	-7.63979
▁тоже	-7.64379
ых	-7.64759
на	-7.64809
▁над	-7.64956
▁пере	-7.65242
ей	-7.6562
▁который	-7.6578
▁вам	-7.66503
▁человек	-7.66597
▁надо	-7.68204
▁лет	-7.6892
▁которые	-7.6929
i	-7.69723
▁через	-7.70256
ъ	-7.70392
▁ним	-7.70441
ем	-7.70603
▁ей	-7.7079
▁глаза	-7.71221
к	-7.719
▁всех	-7.72307
▁после	-7.72343
▁Они	-7.72354
ого	-7.72926
▁тем	-7.73412
н	-7.74144
▁Когда	-7.74848
▁Нет	-7.75363
▁перед	-7.75404
▁жизни	-7.76231
ым	-7.7749
▁сейчас	-7.78007
▁нибудь	-7.78054
ное	-7.79778
▁сам	-7.79924
▁ней	-7.80075
ую	-7.80171
▁нам	-7.80615
▁всего	-7.81856
▁день	-7.82121
▁своей	-7.82662
▁несколько	-7.84361
▁более	-7.8499
▁При	-7.85637
ам	-7.87516
ок	-7.87801
▁всегда	-7.87823
▁потому	-7.87876
ке	-7.88642
▁лишь	-7.88767
▁тот	-7.90141
ют	-7.90555
▁пока	-7.90614
лись	-7.90684
▁снова	-7.91336
▁свою	-7.91656
▁мог	-7.92312
ий	-7.92389
▁им	-7.93009
▁ведь	-7.93379
▁1	-7.94072
▁этой	-7.94171
▁много	-7.94501
▁тогда	-7.95686
▁эти	-7.96073
▁два	-7.98423
▁руки	-7.98549
▁такой	-7.98973
ется	-7.99073
му	-7.99691
▁чего	-8.00395
▁жизнь	-8.00584
лся	-8.01719
▁мой	-8.02547
сти	-8.02614
▁спросил	-8.02885
▁дело	-8.03372
▁всё	-8.04056
▁совсем	-8.04166
▁От	-8.0465
▁вдруг	-8.04872
▁стал	-8.05331
▁какой	-8.06149
▁знаю	-8.07128
▁сказала	-8.0746
▁Мне	-8.07696
лась	-8.08033
▁людей	-8.08348
ить	-8.08757
▁никогда	-8.09072
ись	-8.10386
▁почти	-8.10633
ться	-8.11198
ло	-8.11295
кой	-8.11323
▁люди	-8.11508
▁2	-8.11521
ном	-8.11828
▁уж	-8.12029
▁М	-8.1387
▁человека	-8.14207
▁свои	-8.14854
ны	-8.14978
▁между	-8.15222
ными	-8.15424
▁ко	-8.17382
▁нее	-8.1752
те	-8.1766
▁хорошо	-8.17672
▁сразу	-8.17685
▁нужно	-8.18036
▁три	-8.18162
▁собой	-8.18284
▁голову	-8.18822
▁будто	-8.19142
▁времени	-8.19166
▁сказать	-8.19236
▁своего	-8.19524
ит	-8.19772
–	-8.19976
▁хотя	-8.20143
▁почему	-8.20482
▁друг	-8.20501
▁её	-8.2054
▁своих	-8.21008
ен	-8.21037
▁словно	-8.21968
▁свой	-8.2395
▁Из	-8.24105
ое	-8.24235
".	-8.25756
▁т	-8.25976
▁руку	-8.26193
▁другой	-8.26851
▁года	-8.26976
▁говорит	-8.27027
▁лучше	-8.27508
▁слова	-8.27764
▁всем	-8.29502
д	-8.30011
▁Только	-8.30042
▁дома	-8.30914
▁вместе	-8.30973
▁куда	-8.31117
▁конечно	-8.31968
сть	-8.32117
▁Его	-8.32164
▁те	-8.32564
▁такое	-8.341
▁лицо	-8.3428
▁быстро	-8.34307
▁эту	-8.34445
▁должен	-8.34832
▁которой	-8.35027
▁ответил	-8.35768
▁тех	-8.36064
),	-8.36538
▁могу	-8.36837
▁назад	-8.37079
▁дверь	-8.37207
▁которая	-8.37244
не	-8.37249
ась	-8.38073
им	-8.38082
!..	-8.38098
▁голос	-8.38613
▁До	-8.38826
▁ж	-8.39943
▁рас	-8.40142
ский	-8.41394
▁именно	-8.41551
▁3	-8.41853
г	-8.41875
▁Про	-8.42012
ни	-8.42151
▁Кто	-8.42346
▁ещё	-8.42645
▁п	-8.42854
▁рядом	-8.42974
▁П	-8.42999
ской	-8.44135
▁чуть	-8.44919
▁мир	-8.45066
▁свое	-8.45408
▁Теперь	-8.45831
▁также	-8.45996
▁этих	-8.46241
▁своим	-8.46517
ются	-8.46813
▁место	-8.46922
ясь	-8.47175
▁То	-8.47204
▁одной	-8.47442
▁мной	-8.47696
та	-8.47705
▁знал	-8.47725
▁делать	-8.47838
▁эта	-8.48052
▁свет	-8.48542
.)	-8.48619
▁прямо	-8.48986
▁которых	-8.49422
▁слишком	-8.49588
▁никто	-8.49731
▁опять	-8.49868
▁Потом	-8.50201
▁сторону	-8.50496
▁пор	-8.51618
▁тому	-8.52193
▁Может	-8.52592
ят	-8.526
▁немного	-8.53372
▁долго	-8.53639
ил	-8.53722
ось	-8.53793
▁этим	-8.54056
▁Под	-8.54234
сь	-8.54335
ского	-8.55354
▁одно	-8.55387
▁видел	-8.55746
ков	-8.56029
▁хотел	-8.5603
ко	-8.56236
▁Г	-8.56993
▁сделать	-8.57136
▁которого	-8.57187
▁Для	-8.57464
р	-8.57619
▁одна	-8.58061
▁дом	-8.58093
ин	-8.58214
▁оно	-8.58278
",	-8.58345
▁самом	-8.58548
▁сегодня	-8.58699
▁хоть	-8.59271
!»	-8.5943
▁совершенно	-8.59665
▁головой	-8.59922
▁5	-8.60207
▁весь	-8.6027
▁одного	-8.60287
▁вообще	-8.60338
▁Во	-8.6037
лось	-8.60703
▁стороны	-8.60782
▁случае	-8.60894
▁Б	-8.60966
▁кого	-8.61054
▁всю	-8.61169
▁та	-8.61328
▁минут	-8.61338
ну	-8.6174
з	-8.63019
▁стало	-8.63027
▁затем	-8.631
▁моя	-8.6317
▁вокруг	-8.63338
▁нем	-8.63409
▁ноги	-8.64551
▁моей	-8.64751
▁Однако	-8.64868
▁каждый	-8.64876
▁наконец	-8.65028
▁говорил	-8.65287
▁две	-8.65574
ешь	-8.65704
▁точно	-8.65825
▁пол	-8.65892
п	-8.65994
▁понял	-8.66796
▁двух	-8.66885
▁давно	-8.67051
▁увидел	-8.67118
▁стоит	-8.67481
▁начал	-8.67855
▁значит	-8.67873
▁хочу	-8.68067
▁Тогда	-8.68186
▁других	-8.68307
ыми	-8.68767
ва	-8.69045
▁б	-8.6938
ш	-8.69421
▁Там	-8.69732
▁После	-8.6989
▁Почему	-8.70185
▁таки	-8.70518
▁какие	-8.70803
▁должны	-8.70855
▁против	-8.71352
▁равно	-8.71471
▁нему	-8.71601
e	-8.71797
ец	-8.71863
▁дальше	-8.72655
▁деле	-8.72899
▁кажется	-8.72972
▁взгляд	-8.73524
ком	-8.73603
▁дня	-8.74048
▁такие	-8.74103
▁ними	-8.74122
▁нельзя	-8.74233
▁год	-8.74249
▁могут	-8.74377
▁4	-8.74695
▁которую	-8.74923
▁месте	-8.75298
▁либо	-8.75305
▁образом	-8.75827
▁действительно	-8.76023
▁самого	-8.76382
▁стали	-8.76535
ками	-8.76788
ния	-8.76916
▁мои	-8.76917
▁--	-8.77083
▁мало	-8.77181
▁Т	-8.77374
▁сердце	-8.77495
▁Д	-8.78054
▁сюда	-8.78127
ж	-8.78152
▁Ведь	-8.78284
ч	-8.78542
▁Где	-8.78615
▁ну	-8.79227
?!	-8.79354
▁буду	-8.79594
ние	-8.79817
▁ночь	-8.79844
▁Со	-8.80067
▁момент	-8.80461
▁домой	-8.80758
▁знает	-8.80901
▁таким	-8.81296
▁будут	-8.81563
▁д	-8.82042
ать	-8.82162
ля	-8.82267
▁глаз	-8.82292
▁среди	-8.82422
▁конце	-8.82648
▁часто	-8.83096
▁туда	-8.83618
a	-8.83698
▁вопрос	-8.83705
он	-8.83731
▁воды	-8.83765
▁Ни	-8.83978
▁тихо	-8.84021
▁медленно	-8.84296
▁сколько	-8.84512
ному	-8.84567
▁которое	-8.84567
▁рукой	-8.84706
▁глазами	-8.84987
▁говорить	-8.85032
▁Раз	-8.85428
их	-8.85445
или	-8.85489
▁полу	-8.8579
▁друга	-8.85875
▁первый	-8.86101
ша	-8.86446
▁Н	-8.86642
▁подумал	-8.86968
▁мысли	-8.8699
▁сама	-8.87454
▁году	-8.87525
б	-8.8772
ских	-8.87941
▁Конечно	-8.88003
▁отец	-8.88166
▁жить	-8.88379
▁ту	-8.88607
▁стоял	-8.88902
▁сделал	-8.89109
▁другие	-8.89145
ность	-8.89485
да	-8.89567
▁тобой	-8.89578
цы	-8.89834
▁ответ	-8.89967
▁Или	-8.89981
▁ка	-8.90244
▁тело	-8.90318
?..	-8.90318
▁пять	-8.90595
за	-8.90956
▁наш	-8.91037
▁з	-8.91049
▁слово	-8.91228
▁H	-8.91313
▁двери	-8.91618
▁женщина	-8.91808
▁той	-8.91952
▁казалось	-8.92355
▁прежде	-8.92399
▁могла	-8.92462
▁стала	-8.92475
ник	-8.92796
вер	-8.93065
▁вперед	-8.93521
ился	-8.93708
▁решил	-8.93791
▁деньги	-8.93961
▁большой	-8.94038
ская	-8.94536
▁дела	-8.9492
▁могли	-8.95
ик	-8.95187
▁заметил	-8.95331
▁Еще	-8.95409
ня	-8.95641
▁город	-8.95788
▁думал	-8.9579
▁одну	-8.95793
▁кроме	-8.95816
▁руками	-8.95844
▁такого	-8.95991
ц	-8.9617
▁часть	-8.96399
ские	-8.96415
▁раньше	-8.96439
▁места	-8.96651
ф	-8.97254
нее	-8.97734
▁вниз	-8.97748
ал	-8.98249
▁Тут	-8.98397
▁Здесь	-8.98534
▁час	-8.98688
...»	-8.98901
▁таких	-8.99
ле	-8.99025
га	-8.99129
▁нашей	-8.99245
▁поэтому	-8.99278
▁правда	-8.99592
ль	-8.99619
▁едва	-8.9984
са	-9.00224
▁самое	-9.00912
▁особенно	-9.01343
▁стол	-9.01428
▁взял	-9.0163
▁л	-9.01941
▁такая	-9.0222
▁сами	-9.02304
▁10	-9.02348
▁какая	-9.02375
овой	-9.02407
▁мама	-9.02587
▁Даже	-9.02667
o	-9.02781
▁смерти	-9.03132
▁этому	-9.0315
▁вид	-9.03461
▁посмотрел	-9.03465
ение	-9.03815
▁своем	-9.03906
▁работы	-9.03941
ится	-9.03942
▁лица	-9.0398
ности	-9.04042
▁котором	-9.04056
▁Сейчас	-9.04141
▁мать	-9.04407
ина	-9.04413
▁моего	-9.04518
ер	-9.04601
▁должно	-9.04815
▁руках	-9.04883
▁знаешь	-9.04895
ца	-9.05232
▁наши	-9.05377
▁самый	-9.05758
▁н	-9.05904
▁легко	-9.05949
▁имя	-9.06003
▁вновь	-9.06036
▁р	-9.06333
▁скоро	-9.06438
▁самой	-9.06664
▁сил	-9.06693
ения	-9.06739
▁достаточно	-9.06842
▁следует	-9.06856
▁спросила	-9.07019
/	-9.07095
▁идет	-9.07408
▁хотелось	-9.07491
▁знать	-9.0809
▁довольно	-9.08156
▁де	-9.08249
▁часов	-9.08433
▁Ф	-9.08447
▁далеко	-9.08601
▁части	-9.08856
▁пути	-9.09004
▁дней	-9.09337
▁должна	-9.09391
▁какое	-9.0974
▁мое	-9.09767
▁вышел	-9.09772
▁Затем	-9.09831
▁смотрел	-9.09846
ова	-9.09933
▁имеет	-9.10054
▁Об	-9.10172
▁начала	-9.10173
▁всей	-9.10578
▁путь	-9.10586
▁Через	-9.10593
ней	-9.10724
ти	-9.10749
▁землю	-9.10972
▁мира	-9.11168
илась	-9.11471
▁является	-9.11774
ство	-9.11904
▁однако	-9.11917
▁менее	-9.11926
▁Э	-9.1196
▁вполне	-9.12583
▁сквозь	-9.12653
▁Л	-9.13213
▁Ничего	-9.13256
y	-9.13275
▁около	-9.13446
▁сидел	-9.13482
▁детей	-9.1349
[	-9.1349
—	-9.13571
▁земле	-9.13731
ст	-9.13914
ском	-9.14033
ту	-9.14041
▁второй	-9.14086
▁комнату	-9.14171
ра	-9.14178
▁пред	-9.14226
▁15	-9.14279
(	-9.14413
▁Поэтому	-9.14507
▁понять	-9.14685
▁зачем	-9.14747
▁думаю	-9.14968
▁своими	-9.15064
▁Надо	-9.15158
?»	-9.15191
▁работу	-9.15496
▁найти	-9.15541
то	-9.1582
▁девушка	-9.15934
▁четыре	-9.16044
ились	-9.16152
▁видно	-9.16488
▁иногда	-9.16554
▁сильно	-9.17132
▁6	-9.17204
▁само	-9.17497
▁“	-9.17616
ье	-9.18512
ому	-9.18731
▁пусть	-9.18885
ри	-9.18886
▁любви	-9.18892
▁Р	-9.18927
▁мире	-9.19029
иться	-9.19477
ги	-9.19639
▁разве	-9.1981
▁чтоб	-9.20189
▁лес	-9.20209
▁пришлось	-9.20363
юсь	-9.20531
▁силы	-9.20726
▁мою	-9.20749
▁города	-9.20807
▁десять	-9.20975
▁Хорошо	-9.21078
ши	-9.21097
▁например	-9.21225
▁рот	-9.2129
]	-9.21427
▁каким	-9.21679
▁пошел	-9.21705
▁вроде	-9.21928
мер	-9.21945
ты	-9.22042
▁спокойно	-9.22117
▁возможно	-9.22326
ила	-9.22727
▁которым	-9.22899
▁Ш	-9.23267
ает	-9.23714
▁Ах	-9.23869
▁20	-9.23943
▁своему	-9.24
▁меньше	-9.24318
ите	-9.24374
▁голове	-9.24522
▁говорю	-9.24749
▁откуда	-9.24763
▁мимо	-9.24894
▁мере	-9.2499
▁слов	-9.25195
▁нами	-9.25221
▁нашего	-9.25272
▁доме	-9.25304
тся	-9.25492
▁хочет	-9.25549
▁Ему	-9.25625
▁З	-9.25747
стью	-9.25828
ру	-9.25847
▁хочешь	-9.25909
▁глазах	-9.26033
▁души	-9.26123
▁[	-9.26507
▁Один	-9.26535
▁любовь	-9.2654
ья	-9.26541
ость	-9.26569
▁Значит	-9.26595
▁воз	-9.26634
▁внимание	-9.26676
▁двадцать	-9.26744
▁воду	-9.26746
▁p	-9.26769
▁свете	-9.2678
▁пришел	-9.2679
али	-9.26977
▁Пока	-9.26977
▁кому	-9.26983
ут	-9.27035
от	-9.27188
▁виде	-9.27213
▁вверх	-9.27335
▁выше	-9.27481
▁I	-9.27607
▁произнес	-9.27866
▁случилось	-9.27877
▁земли	-9.27939
▁комнате	-9.28085
▁Меня	-9.28317
кин	-9.28361
▁солнце	-9.2837
ства	-9.28376
▁конца	-9.28376
чи	-9.28435
'	-9.28499
▁па	-9.28523
▁вечер	-9.28555
▁Бог	-9.28662
▁сын	-9.2868
▁вовсе	-9.28883
▁удалось	-9.28938
по	-9.28949
▁Пусть	-9.29055
▁Хотя	-9.2911
▁столь	-9.29283
▁обычно	-9.29522
ках	-9.29556
▁брат	-9.29585
▁будем	-9.29632
▁мысль	-9.29667
▁матери	-9.29848
▁тела	-9.29884
ча	-9.30022
▁нос	-9.30028
ишь	-9.30067
▁дети	-9.30162
▁наших	-9.30257
▁Ее	-9.3027
▁трудно	-9.3068
▁Этот	-9.30766
▁иначе	-9.30823
▁Чтобы	-9.31146
▁Иван	-9.31311
ское	-9.31436
▁видеть	-9.31598
▁идти	-9.31639
▁никак	-9.31696
▁женщины	-9.31703
ью	-9.31752
▁минуту	-9.32355
▁отца	-9.32537
▁говорят	-9.32675
▁моих	-9.32734
вы	-9.3295
▁России	-9.33011
▁Зачем	-9.33246
▁столько	-9.33313
▁вся	-9.33608
▁7	-9.33659
▁виду	-9.33679
▁одном	-9.33865
йте	-9.33934
▁обратно	-9.34023
▁волосы	-9.34252
▁i	-9.34283
▁небо	-9.34296
▁ночи	-9.34385
▁продолжал	-9.34468
▁скорее	-9.34484
▁Тем	-9.34713
▁истории	-9.34755
▁Есть	-9.34868
▁оказался	-9.35103
из	-9.35258
су	-9.35303
▁вместо	-9.35402
▁плохо	-9.35415
▁годы	-9.3545
▁одним	-9.3568
▁Пере	-9.3579
▁другом	-9.35836
▁стать	-9.35839
▁народ	-9.36105
▁жена	-9.36141
▁наверное	-9.36393
скую	-9.36442
овые	-9.36542
вин	-9.36766
ше	-9.36777
▁знаете	-9.36803
ду	-9.36811
▁гор	-9.36951
овых	-9.37029
▁кое	-9.37082
▁море	-9.37108
▁вещи	-9.37111
ель	-9.37216
▁говоря	-9.37224
ющий	-9.37327
▁рук	-9.37397
▁17	-9.37399
▁готов	-9.37471
▁воздух	-9.37481
▁войны	-9.37624
▁резко	-9.37813
▁успел	-9.37826
▁вами	-9.3804
▁твой	-9.38066
▁жил	-9.38139
▁ясно	-9.38171
▁весьма	-9.38269
▁ночью	-9.3829
▁понимаю	-9.38512
▁последний	-9.38692
▁ст	-9.38863
▁Наконец	-9.38873
▁возле	-9.39106
▁э	-9.39229
ости	-9.39379
▁завтра	-9.39406
▁кивнул	-9.39414
нуть	-9.39445
▁цвет	-9.39506
▁глядя	-9.39752
▁ради	-9.39823
▁поднял	-9.39972
▁8	-9.40071
▁Потому	-9.40152
▁другого	-9.40209
▁известно	-9.4025
▁голосом	-9.40254
▁груди	-9.40277
▁тысяч	-9.40341
▁трех	-9.40365
▁обо	-9.40537
▁Очень	-9.41012
▁бывает	-9.41186
▁сел	-9.41332
ман	-9.41394
▁шел	-9.41411
▁Их	-9.41453
▁невозможно	-9.41478
ре	-9.41502
тер	-9.41576
▁головы	-9.4159
▁окна	-9.41871
шка	-9.42104
▁течение	-9.42195
▁Разве	-9.42203
▁Х	-9.4228
▁вижу	-9.42353
▁Без	-9.42379
▁прав	-9.42495
▁Просто	-9.4262
▁вернулся	-9.42775
▁мол	-9.42834
▁улице	-9.42981
▁какую	-9.42996
ща	-9.43064
ист	-9.43138
▁машины	-9.43146
▁ибо	-9.43172
▁разговор	-9.43179
дер	-9.43225
▁сначала	-9.43337
ским	-9.43511
▁мистер	-9.43778
лы	-9.43873
▁30	-9.43909
цев	-9.44017
▁книги	-9.44026
▁пре	-9.44124
че	-9.44143
▁Тот	-9.44147
▁Впрочем	-9.44188
▁самым	-9.44277
ница	-9.44445
▁Е	-9.44549
▁сто	-9.44551
▁внутри	-9.44794
ющие	-9.44846
▁поскольку	-9.4488
▁происходит	-9.45067
ан	-9.45102
▁взглядом	-9.4526
▁ре	-9.45414
▁другим	-9.45465
ди	-9.4551
ою	-9.45592
▁Та	-9.45748
▁ветер	-9.45757
▁часа	-9.45911
▁поле	-9.45972
▁кем	-9.46166
▁случай	-9.46241
▁слегка	-9.46466
▁утром	-9.46475
▁сон	-9.46575
▁слышал	-9.46684
▁мужчина	-9.46797
▁Вам	-9.46874
▁работа	-9.46954
▁другое	-9.46969
s	-9.47059
чу	-9.47069
▁неожиданно	-9.4708
▁Правда	-9.47181
▁молча	-9.47411
▁ответила	-9.47649
▁улыбнулся	-9.47734
▁придется	-9.47738
▁думать	-9.47764
ек	-9.47811
▁молодой	-9.47964
▁никого	-9.48127
нов	-9.48517
▁ног	-9.48583
▁концов	-9.48633
▁стены	-9.48653
▁дни	-9.48684
мен	-9.48787
▁денег	-9.48886
▁Можно	-9.48919
▁окно	-9.49297
ний	-9.49479
▁подошел	-9.49676
▁самых	-9.49679
▁Сам	-9.4971
▁язык	-9.49806
вид	-9.49841
▁лице	-9.49865
▁мальчик	-9.49881
▁No	-9.49899
ятся	-9.50167
нии	-9.50503
▁Ю	-9.50513
ха	-9.50557
▁взять	-9.50912
▁необходимо	-9.51014
▁утра	-9.51103
тон	-9.51286
▁имени	-9.51379
▁дать	-9.51391
ают	-9.51514
▁смотреть	-9.51541
овать	-9.51704
лю	-9.51706
▁Эта	-9.51915
вшись	-9.51932
▁папа	-9.51951
▁удар	-9.51992
нет	-9.52097
▁губы	-9.52342
▁многие	-9.52383
▁бес	-9.52439
емся	-9.52444
очка	-9.52517
▁люблю	-9.52521
▁18	-9.52552
▁ч	-9.5259
▁кровь	-9.52604
ший	-9.5266
▁дал	-9.52676
▁станет	-9.527
▁осталось	-9.52717
▁света	-9.52809
▁встал	-9.52878
▁ваш	-9.52881
▁смерть	-9.52974
▁возможность	-9.53034
би	-9.53215
▁моему	-9.53216
▁постоянно	-9.53272
▁ума	-9.53288
▁никаких	-9.53333
▁внимания	-9.53358
▁Ли	-9.5342
ски	-9.53461
ировать	-9.53508
▁душе	-9.5366
во	-9.53811
▁полностью	-9.5384
▁право	-9.53996
▁дороге	-9.54348
▁вечером	-9.54352
▁голова	-9.54502
▁помощью	-9.54538
▁лицом	-9.54543
▁руке	-9.54563
▁сих	-9.54743
!"	-9.54815
▁новый	-9.54986
▁произошло	-9.55262
ста	-9.55322
▁пару	-9.55349
ус	-9.55406
де	-9.5584
▁хотела	-9.55873
▁старик	-9.55891
▁знала	-9.56004
шей	-9.56005
▁шум	-9.56077
▁явно	-9.56099
▁Эти	-9.56105
▁дорогу	-9.56144
▁века	-9.56224
▁Мой	-9.56428
▁человеком	-9.56479
▁первых	-9.56603
▁водой	-9.56687
▁16	-9.56735
▁осторожно	-9.56748
▁громко	-9.56911
ба	-9.56987
▁новые	-9.57023
▁помочь	-9.5749
▁крови	-9.57695
▁капитан	-9.5783
▁Те	-9.57833
гу	-9.57884
▁стояла	-9.58073
чик	-9.5816
ович	-9.5828
▁12	-9.58321
▁всему	-9.58356
▁такую	-9.58614
▁вода	-9.58677
▁говорили	-9.58741
ющих	-9.58752
лен	-9.58781
▁спиной	-9.58852
▁ум	-9.59001
▁доктор	-9.59148
▁работать	-9.59161
▁увидеть	-9.59219
ры	-9.59219
лин	-9.59252
▁шаг	-9.59272
▁будешь	-9.59277
▁спать	-9.59346
▁чему	-9.59425
▁самые	-9.59456
▁настолько	-9.59485
▁Рас	-9.59542
▁получил	-9.59617
▁страшно	-9.59617
▁смотрит	-9.59722
▁Эй	-9.60063
▁го	-9.60072
▁неё	-9.60107
▁конец	-9.60161
▁Ладно	-9.60199
▁почувствовал	-9.60318
▁можете	-9.60338
же	-9.60439
▁огонь	-9.60584
об	-9.6067
▁становится	-9.60777
▁комнаты	-9.6086
▁открыл	-9.60988
▁остановился	-9.61279
▁парень	-9.61366
▁Уже	-9.61383
▁пар	-9.61735
▁Тебе	-9.61976
▁Человек	-9.62006
▁ш	-9.62297
▁внезапно	-9.62381
жи	-9.62538
▁Ко	-9.62617
▁можешь	-9.62712
▁любой	-9.62874
▁муж	-9.63027
▁речь	-9.63239
▁чувство	-9.63291
вал	-9.63494
лей	-9.63576
▁Чего	-9.63629
▁боль	-9.63694
▁хочется	-9.6372
▁каждого	-9.63799
сон	-9.6381
▁однажды	-9.63812
ика	-9.64031
▁людям	-9.64108
ѣ	-9.64325
▁никакого	-9.64392
щий	-9.64535
▁хотите	-9.64563
▁вчера	-9.64577
▁Нам	-9.64833
▁берегу	-9.64843
▁стола	-9.6488
▁какого	-9.64972
▁гораздо	-9.6516
▁впервые	-9.65262
▁вспомнил	-9.65328
▁девочка	-9.65399
▁умер	-9.65438
▁наша	-9.65478
▁делает	-9.65496
▁тяжело	-9.65536
▁часы	-9.65569
▁первой	-9.65594
▁каких	-9.65597
ск	-9.65634
▁Сегодня	-9.6564
енный	-9.65732
▁уверен	-9.6575
▁утро	-9.65835
▁номер	-9.65847
▁Куда	-9.65858
▁9	-9.65865
ала	-9.65925
▁оказалось	-9.6597
▁шесть	-9.66015
йся	-9.66026
▁другую	-9.66067
▁нашел	-9.66249
▁маленький	-9.66253
▁цвета	-9.66324
▁некоторые	-9.66458
▁запах	-9.66483
▁услышал	-9.66494
▁первого	-9.6654
▁ждать	-9.66663
▁городе	-9.66774
▁многих	-9.66805
▁Перед	-9.6685
▁узнать	-9.66891
▁плечами	-9.66938
▁остался	-9.67021
▁миг	-9.67044
▁Кроме	-9.67171
▁обязательно	-9.6748
▁машину	-9.67587
▁стояли	-9.67672
ды	-9.677
▁солдат	-9.67714
ее	-9.67724
вший	-9.67762
э	-9.6778
▁нечто	-9.67849
▁Бога	-9.67912
▁одновременно	-9.67924
▁Александр	-9.68088
▁пришла	-9.68142
▁показалось	-9.6816
▁хуже	-9.68177
ро	-9.68286
▁иметь	-9.68309
вар	-9.6839
▁связи	-9.68413
▁Всё	-9.68426
▁телефон	-9.6845
▁Сколько	-9.68495
▁помню	-9.68522
▁Неужели	-9.68542
ос	-9.68656
▁внимательно	-9.68673
▁ногами	-9.6869
▁смог	-9.68731
▁силу	-9.68733
▁душа	-9.68756
▁отсюда	-9.68836
▁крикнул	-9.6885
▁узнал	-9.68952
▁Возможно	-9.68982
▁порядке	-9.69008
▁говорила	-9.6902
па	-9.69053
▁Какой	-9.69063
▁смысл	-9.69079
▁поднялся	-9.69105
▁таком	-9.69135
▁могло	-9.69141
жа	-9.69317
▁власти	-9.69579
до	-9.69585
▁письмо	-9.69619
▁вздохнул	-9.69777
мы	-9.69994
▁Три	-9.70029
▁Ре	-9.70033
ешься	-9.70087
ового	-9.701
▁оба	-9.70143
▁чувствовал	-9.70189
▁всеми	-9.70297
▁верно	-9.703
▁главное	-9.70302
▁трудом	-9.70415
це	-9.70529
▁Ж	-9.70904
▁имел	-9.70916
▁общем	-9.70984
род	-9.70996
▁черт	-9.71149
▁Спасибо	-9.71196
▁Ха	-9.71203
кая	-9.71204
▁сэр	-9.71399
шь	-9.71434
▁дым	-9.71479
▁Андрей	-9.71505
▁дороги	-9.71555
▁можем	-9.71578
▁месяц	-9.71898
▁бросил	-9.72054
ед	-9.72148
▁C	-9.72348
цу	-9.72369
▁другу	-9.72441
▁Именно	-9.72515
▁старый	-9.72586
▁характер	-9.72589
▁14	-9.72762
▁очередь	-9.72764
▁ближе	-9.72778
▁находится	-9.72792
▁двор	-9.72842
▁пора	-9.72911
▁мгновение	-9.72922
▁любил	-9.73009
▁душу	-9.73064
▁господин	-9.7324
ню	-9.73347
▁пяти	-9.73351
▁шли	-9.73356
▁звук	-9.73426
▁S	-9.7353
▁сына	-9.7354
▁права	-9.73737
овым	-9.73785
▁правильно	-9.73916
▁Сергей	-9.73958
тель	-9.7399
шие	-9.74109
ившись	-9.74274
▁Мама	-9.74449
▁поздно	-9.74498
▁лежал	-9.74517
▁состоянии	-9.74657
”	-9.74754
▁последние	-9.74933
▁работе	-9.75153
▁Чем	-9.7524
▁пошли	-9.75279
ска	-9.75313
нул	-9.75373
ар	-9.75425
▁движения	-9.75459
▁неделю	-9.75467
▁странно	-9.75506
▁страх	-9.75564
▁важно	-9.75592
▁грудь	-9.75604
▁корабль	-9.75611
▁стене	-9.7562
▁нравится	-9.75655
▁Никто	-9.75724
▁Вдруг	-9.75766
▁человеку	-9.75926
▁рука	-9.75934
нут	-9.76007
лет	-9.76129
▁помощь	-9.76148
▁чай	-9.76326
нув	-9.76333
шки	-9.76447
▁ма	-9.76698
▁цели	-9.76708
▁Вер	-9.76718
▁следующий	-9.76798
▁образ	-9.76842
▁пожалуйста	-9.76854
▁людьми	-9.77044
▁ад	-9.77053
▁ха	-9.77176
зи	-9.77294
▁дел	-9.77503
▁протянул	-9.77517
▁Итак	-9.77622
▁Давай	-9.77726
ников	-9.77727
▁ваше	-9.7778
▁моим	-9.77796
▁качестве	-9.77835
▁лесу	-9.7793
▁бур	-9.77945
▁воде	-9.78063
▁словами	-9.78064
▁знали	-9.78065
▁вдоль	-9.78152
ями	-9.78291
▁пальцы	-9.78305
нос	-9.78536
▁Было	-9.78556
▁Пол	-9.78584
▁план	-9.78702
▁вз	-9.78722
▁воскликнул	-9.78748
очки	-9.78816
▁Ч	-9.78826
▁снег	-9.79046
▁крепко	-9.79159
▁разных	-9.79169
.]	-9.79187
▁сердца	-9.792
▁прежнему	-9.79317
▁возможности	-9.79324
▁прекрасно	-9.79385
▁ваши	-9.79421
▁труд	-9.79431
▁начали	-9.79432
▁женщин	-9.79459
▁весело	-9.79471
▁дочь	-9.79502
▁вопросы	-9.79626
ики	-9.79701
▁искать	-9.7972
енные	-9.79745
▁вашей	-9.79757
▁Кон	-9.79923
▁помощи	-9.79939
бу	-9.79951
▁которому	-9.79952
▁вышла	-9.79973
▁13	-9.80022
ете	-9.80094
▁Над	-9.80158
▁памяти	-9.80173
щие	-9.80217
▁забыл	-9.80242
▁начинает	-9.80262
▁твоя	-9.80561
▁живет	-9.80658
▁видела	-9.80713
▁боли	-9.80735
▁положение	-9.80822
лу	-9.80877
▁рассказ	-9.80941
▁воздухе	-9.80979
▁любит	-9.80996
ницы	-9.81003
▁двумя	-9.81025
▁мед	-9.81121
▁закон	-9.81127
▁вскоре	-9.81167
вод	-9.81176
▁Ка	-9.81203
▁чувства	-9.81368
▁пытался	-9.81505
▁крайней	-9.81569
▁Ле	-9.81608
▁сидит	-9.81708
▁временем	-9.81728
▁похоже	-9.81756
▁никому	-9.81774
▁ушел	-9.81792
▁наше	-9.81862
▁первым	-9.82047
▁Вас	-9.82103
▁плечи	-9.82121
▁высоко	-9.82212
вшийся	-9.82291
нь	-9.82326
▁рад	-9.82353
▁видели	-9.82541
▁минуты	-9.82744
ника	-9.82761
▁11	-9.82867
▁отношения	-9.82878
▁дух	-9.82973
▁постепенно	-9.83155
▁случайно	-9.83197
▁Отец	-9.83241
▁1.	-9.83243
▁Люди	-9.8328
▁повернулся	-9.83362
▁страны	-9.83413
▁Глава	-9.83416
▁раза	-9.83433
▁разные	-9.8348
▁2.	-9.83572
▁Мар	-9.83612
▁глубоко	-9.83711
▁25	-9.83763
▁въ	-9.83785
▁угодно	-9.83872
▁машина	-9.8396
▁ребенка	-9.83967
ении	-9.8401
▁кофе	-9.84032
▁плечо	-9.84043
▁земля	-9.84181
▁счет	-9.84407
▁нужен	-9.84588
ющей	-9.84738
▁история	-9.84801
ё	-9.8499
▁нескольких	-9.85011
▁рис	-9.85139
щих	-9.85158
▁видимо	-9.85193
▁рода	-9.85253
▁книгу	-9.85282
ники	-9.85305
▁улицу	-9.85307
▁тени	-9.8535
ющего	-9.85639
кам	-9.85667
▁ў	-9.8587
▁секунд	-9.8588
▁поняла	-9.85908
▁нового	-9.86041
▁силой	-9.86127
пер	-9.86196
ел	-9.86205
нию	-9.86235
▁бог	-9.86286
▁лист	-9.86339
▁появился	-9.8636
▁100	-9.86386
▁Мир	-9.86503
▁роль	-9.86556
▁самому	-9.8659
▁A	-9.86675
▁пошла	-9.86733
▁Ей	-9.86886
▁немедленно	-9.86921
▁спину	-9.8697
▁получить	-9.87058
▁упал	-9.87086
▁кровати	-9.87156
▁Каждый	-9.87194
▁впереди	-9.87227
▁способ	-9.87232
▁угол	-9.87243
▁каждой	-9.87282
▁благо	-9.87321
▁двое	-9.87345
▁видит	-9.87388
▁хлеб	-9.87432
▁класс	-9.87439
щей	-9.8754
▁семь	-9.87592
▁род	-9.87667
▁ребята	-9.87771
▁моря	-9.87816
щая	-9.87842
▁оказалась	-9.87846
▁пришли	-9.87862
▁ногу	-9.8787
▁вошел	-9.87882
йтесь	-9.87891
▁твои	-9.88033
▁друзья	-9.88048
▁практически	-9.8805
▁вон	-9.88054
▁выход	-9.88113
▁нечего	-9.88142
▁зовут	-9.88175
▁платье	-9.88179
▁существует	-9.88258
▁новой	-9.88324
▁несмотря	-9.88498
▁движение	-9.8858
▁поля	-9.8864
тели	-9.88641
▁согласился	-9.88701
▁Однажды	-9.88852
шего	-9.88933
▁Иногда	-9.88958
▁тридцать	-9.89041
шу	-9.89075
▁колени	-9.89308
▁скажу	-9.89379
оз	-9.8943
▁счастье	-9.89463
овая	-9.89467
▁кор	-9.89683
▁Мак	-9.89689
▁Сначала	-9.898
▁зубы	-9.89859
▁сорок	-9.89885
чка	-9.90065
▁кур	-9.90091
▁сторон	-9.90098
er	-9.90106
▁берег	-9.9011
ич	-9.90184
щ	-9.90234
▁всякий	-9.90266
ў	-9.90309
▁вернуться	-9.90326
▁посмотреть	-9.90329
▁системы	-9.90445
▁сильнее	-9.90447
со	-9.90519
▁Свет	-9.90549
▁недавно	-9.90589
▁ждал	-9.90688
▁оттуда	-9.90747
▁ход	-9.90799
▁трубку	-9.909
ические	-9.9094
▁Бо	-9.90969
ели	-9.91025
▁стороне	-9.91062
▁Оно	-9.91128
▁лежит	-9.91131
▁Наверное	-9.91176
про	-9.91215
▁писал	-9.91295
▁дому	-9.91394
▁увидела	-9.91449
▁пить	-9.91595
▁гости	-9.9164
▁одному	-9.91655
▁близко	-9.91676
▁шла	-9.91737
ием	-9.91761
▁зло	-9.91766
ическая	-9.91778
▁вслед	-9.91855
А	-9.91912
▁смысле	-9.91945
▁память	-9.92103
▁теле	-9.92172
▁желание	-9.92226
ющим	-9.92279
▁поэт	-9.9235
▁крест	-9.92467
▁ста	-9.92557
▁50	-9.926
▁волос	-9.92608
▁твоей	-9.92746
▁мужа	-9.92747
бо	-9.92788
і	-9.92851
▁вкус	-9.9289
▁углу	-9.9308
▁действия	-9.93144
ству	-9.93196
▁столом	-9.93257
▁использовать	-9.93323
мор	-9.93364
▁большие	-9.93493
▁сверху	-9.93624
▁большим	-9.93672
▁Петр	-9.93731
▁ниже	-9.93784
ще	-9.93991
бер	-9.93995
▁чаще	-9.94007
▁период	-9.94019
▁лоб	-9.94097
▁девушки	-9.94108
▁звезд	-9.94122
ических	-9.94184
ших	-9.94206
▁камень	-9.94219
▁зато	-9.94248
▁Какая	-9.94303
▁положил	-9.94318
▁меч	-9.94407
▁достал	-9.94449
▁зрения	-9.94555
▁мужчины	-9.94591
▁новых	-9.94679
▁Ма	-9.94814
▁представить	-9.94816
▁понимал	-9.94888
▁пытаясь	-9.94893
▁широко	-9.95005
▁добавил	-9.95155
▁дыхание	-9.95163
▁пожал	-9.9519
▁стар	-9.95275
▁Николай	-9.95286
▁слезы	-9.95341
лад	-9.95352
▁пе	-9.95418
▁горы	-9.95432
▁нужна	-9.95454
▁предложил	-9.95498
▁времена	-9.95542
▁темно	-9.95544
▁больно	-9.95608
образ	-9.95634
▁страха	-9.95657
ян	-9.95752
ор	-9.95839
кий	-9.95847
▁Гор	-9.95856
ической	-9.95933
▁точки	-9.95957
ило	-9.95963
▁читать	-9.9597
▁стакан	-9.95978
твор	-9.95992
пол	-9.96072
c	-9.96115
▁историю	-9.96122
рен	-9.96132
▁the	-9.96279
▁большая	-9.96345
▁вашего	-9.96369
▁народа	-9.96409
▁посмотрела	-9.96441
1	-9.96579
▁дает	-9.96603
овый	-9.96642
▁радио	-9.96838
▁взглянул	-9.96898
▁голоса	-9.96922
▁Дело	-9.96949
бор	-9.97213
▁спустя	-9.97215
▁Кар	-9.97293
▁ужас	-9.97318
▁лестнице	-9.9739
▁сне	-9.97421
вших	-9.9747
▁автор	-9.97492
▁леса	-9.97552
▁состояние	-9.97581
очек	-9.97588
▁Анна	-9.97588
▁принять	-9.97722
▁напротив	-9.97746
▁друзей	-9.97786
▁солнца	-9.9783
ению	-9.97883
▁наиболее	-9.97902
▁хозяин	-9.97951
щего	-9.97989
▁никакой	-9.98229
▁кино	-9.98283
ден	-9.98339
ину	-9.98421
чер	-9.98422
▁оружие	-9.98437
▁см	-9.98464
▁смотрела	-9.9857
▁количество	-9.98609
▁остальные	-9.98643
▁миссис	-9.98679
▁нашу	-9.98701
▁сила	-9.98748
▁решение	-9.98752
мет	-9.98818
▁большую	-9.98831
▁думала	-9.98861
ров	-9.98893
▁кон	-9.98896
▁понятно	-9.98919
▁некоторое	-9.98929
раз	-9.98946
▁Господи	-9.9897
▁сад	-9.98976
▁ладно	-9.9898
▁нож	-9.99061
▁третий	-9.99071
▁приходилось	-9.99079
▁пальцами	-9.9909
▁мин	-9.99099
▁тысячи	-9.99189
щим	-9.99191
прав	-9.99192
▁писать	-9.99251
▁области	-9.99337
ический	-9.99396
▁прошел	-9.99402
f	-9.99417
▁M	-9.99503
▁сидели	-9.99522
?"	-9.99539
она	-9.99603
▁жив	-9.99603
▁месяца	-9.9961
▁остается	-9.99617
▁делал	-9.99635
▁секрет	-9.99675
▁вероятно	-9.99712
▁пожалуй	-9.9978
стер	-9.99832
▁Откуда	-9.99872
ём	-9.9989
▁строго	-9.99944
▁стр	-9.99969
▁навсегда	-10.0004
▁небольшой	-10.0011
▁столе	-10.0019
стро	-10.002
тор	-10.0021
стве	-10.0029
▁уйти	-10.0032
ющая	-10.0034
▁давай	-10.0042
▁корабля	-10.0047
▁улыбнулась	-10.0052
вшие	-10.0054
▁нужны	-10.0058
▁типа	-10.0058
▁целый	-10.0059
▁недели	-10.007
стей	-10.0075
при	-10.0078
чат	-10.0082
нный	-10.0084
ическое	-10.0089
▁нашли	-10.0095
ць	-10.0095
▁ваша	-10.0096
▁оказались	-10.0096
▁3.	-10.0096
▁рано	-10.0104
▁самая	-10.0115
▁форме	-10.0128
u	-10.0141
кал	-10.0143
▁которыми	-10.0149
▁окончательно	-10.015
▁крик	-10.0156
▁знают	-10.0158
▁Иванович	-10.0159
▁факт	-10.0163
▁степени	-10.0173
▁Пер	-10.0178
▁бумаги	-10.018
▁Па	-10.0181
▁редко	-10.0182
▁a	-10.0188
▁товарищ	-10.0191
▁множество	-10.02
▁Боже	-10.0204
▁Хо	-10.0212
▁хватит	-10.0224
ге	-10.0226
▁Су	-10.0233
▁закричал	-10.0237
ева	-10.0244
▁секунду	-10.0244
▁Ц	-10.0244
▁абсолютно	-10.0248
▁исчез	-10.0254
▁Виктор	-10.0259
▁Пре	-10.0262
▁результате	-10.0264
▁начале	-10.0272
В	-10.0273
▁тщательно	-10.0274
▁примерно	-10.0275
▁губ	-10.0279
▁благодаря	-10.0279
▁решили	-10.0304
чки	-10.0321
▁показал	-10.0322
бы	-10.0322
▁моем	-10.0331
▁Уж	-10.0337
▁чувств	-10.034
..."	-10.0354
▁сказали	-10.0355
▁недо	-10.0359
▁объяснить	-10.0363
▁вести	-10.0371
▁спрашивает	-10.0377
▁пальцем	-10.0379
▁40	-10.0381
▁дорогой	-10.0381
К	-10.0387
▁нашем	-10.0389
▁первую	-10.0404
нер	-10.0406
▁реки	-10.0408
том	-10.041
▁стране	-10.0427
▁тепло	-10.0431
▁наверняка	-10.0433
▁генерал	-10.0433
М	-10.0451
▁проблемы	-10.0454
год	-10.0458
▁насколько	-10.0463
▁Ага	-10.0463
▁позже	-10.047
▁Лучше	-10.0472
▁считать	-10.0475
▁быстрее	-10.0479
енных	-10.0479
▁цель	-10.0481
▁выходит	-10.0483
▁играть	-10.0486
дар	-10.0488
▁первые	-10.0489
▁роман	-10.0498
▁Пред	-10.0502
▁дядя	-10.0509
▁состав	-10.0511
▁Моя	-10.0522
▁сможет	-10.0546
енная	-10.0546
▁принялся	-10.0554
▁ярко	-10.0557
▁одни	-10.0558
▁честь	-10.0558
▁Ой	-10.0561
▁восемь	-10.0567
илось	-10.0569
его	-10.0572
жу	-10.0573
▁Мор	-10.0585
▁вышли	-10.0601
▁общества	-10.0601
▁будете	-10.0604
▁навстречу	-10.0604
▁Джон	-10.0606
▁удивился	-10.0606
▁Ла	-10.0616
▁интересно	-10.0624
▁ключ	-10.0625
очку	-10.0625
шая	-10.0626
▁профессор	-10.0639
▁работал	-10.064
кова	-10.0642
!!!	-10.0644
▁работает	-10.0648
▁Между	-10.0653
▁числе	-10.0655
▁постели	-10.0678
▁дворе	-10.068
▁легче	-10.068
▁Два	-10.0687
▁сидела	-10.0691
▁Девушка	-10.0692
▁будь	-10.0694
▁другому	-10.0699
ического	-10.0702
ации	-10.0702
r	-10.071
▁ба	-10.0731
▁спас	-10.0742
чин	-10.0747
▁карман	-10.0749
▁радостно	-10.0761
▁улыбкой	-10.0768
▁развития	-10.0769
▁каком	-10.0769
▁хвост	-10.0772
▁мисс	-10.0779
▁разу	-10.0788
ун	-10.0789
▁вечера	-10.0791
▁процесс	-10.0799
▁опыт	-10.0815
▁сознание	-10.0819
▁остались	-10.0823
▁Джо	-10.0825
овую	-10.0831
▁проговорил	-10.0831
▁шею	-10.0831
▁горе	-10.084
▁думаешь	-10.0841
ях	-10.0849
▁Ми	-10.085
кон	-10.0852
▁попал	-10.0853
ёт	-10.0861
лов	-10.0863
▁полной	-10.0865
▁попытался	-10.087
▁бабушка	-10.0871
▁начало	-10.0884
▁соль	-10.0885
▁туман	-10.0886
t	-10.0886
▁Дон	-10.0889
лив	-10.0891
▁последнее	-10.0903
▁шар	-10.0906
▁прошло	-10.0908
Д	-10.0909
▁честно	-10.0913
кие	-10.0913
▁Ан	-10.0918
▁раздался	-10.0918
▁пара	-10.0921
▁Первый	-10.0927
▁зал	-10.0928
етесь	-10.0936
▁s	-10.0939
▁ходить	-10.094
n	-10.0952
▁власть	-10.0955
▁этими	-10.0957
▁край	-10.0961
▁Кстати	-10.0972
▁очевидно	-10.0975
▁Время	-10.098
▁небе	-10.0984
▁оставалось	-10.0989
вшего	-10.099
▁подумала	-10.0995
▁Например	-10.0995
▁Ту	-10.0999
▁Лишь	-10.1003
▁взяла	-10.1009
▁схватил	-10.1021
▁ждет	-10.1026
▁повторил	-10.1039
▁знак	-10.1043
▁стен	-10.1045
▁попросил	-10.1048
▁жизнью	-10.1052
▁серьезно	-10.1063
▁решительно	-10.1066
▁некоторых	-10.1066
▁дождь	-10.1067
лить	-10.1068
▁Больше	-10.1072
цов	-10.1078
▁смотрели	-10.1079
▁ребенок	-10.1082
▁Владимир	-10.1087
ыч	-10.1089
▁радости	-10.1098
▁компании	-10.111
▁заявил	-10.1112
изм	-10.1114
▁рассказать	-10.1114
▁брата	-10.1116
▁другими	-10.1116
скому	-10.1123
▁касается	-10.1124
вшиеся	-10.1136
▁сделала	-10.1142
▁времен	-10.1145
▁радость	-10.1149
▁Лев	-10.115
дел	-10.1153
сы	-10.1154
▁понимаешь	-10.116
▁собственной	-10.1162
ировал	-10.1168
▁труда	-10.1174
▁сделали	-10.1174
▁мною	-10.1175
▁Таким	-10.1182
шим	-10.1189
▁наоборот	-10.1191
▁приятно	-10.1191
▁другая	-10.1195
▁Им	-10.1202
▁белый	-10.1202
▁метров	-10.1203
▁появилась	-10.1207
ица	-10.1208
чит	-10.1211
енко	-10.1213
▁приходится	-10.1217
лом	-10.1222
▁вечно	-10.1229
щи	-10.1229
▁жили	-10.1233
▁кабинет	-10.1243
▁прочь	-10.1243
▁ряд	-10.1249
▁имеют	-10.1253
▁выйти	-10.1255
▁черный	-10.1256
▁мм	-10.1259
▁решила	-10.1265
▁рассказал	-10.1268
чен	-10.1278
2	-10.129
овал	-10.1291
▁называется	-10.1297
▁поверхности	-10.13
▁днем	-10.1304
▁Ар	-10.1306
▁Доктор	-10.1315
▁читал	-10.1315
аз	-10.1322
ван	-10.1325
▁добавить	-10.1326
▁видом	-10.1331
▁пыль	-10.1343
▁армии	-10.1343
▁(«	-10.1354
▁изо	-10.1357
▁новую	-10.1363
▁пер	-10.1365
▁школе	-10.1367
▁стихи	-10.1368
той	-10.1372
дав	-10.1386
▁жены	-10.1397
▁хотели	-10.14
▁потерял	-10.1407
▁написал	-10.1417
вен	-10.1418
▁книг	-10.1424
▁лицу	-10.1425
▁разумеется	-10.1432
▁хватает	-10.1434
▁внизу	-10.1435
▁Опять	-10.1437
ины	-10.144
▁новое	-10.1446
▁отвечал	-10.1451
щу	-10.1454
▁Ман	-10.1454
▁естественно	-10.1455
жен	-10.1459
▁21	-10.1464
▁темноте	-10.1467
▁оставил	-10.1471
▁лично	-10.1481
▁принес	-10.1496
▁письма	-10.1503
нье	-10.1511
▁Был	-10.1512
▁подумать	-10.1514
▁Са	-10.1516
▁дар	-10.153
▁интерес	-10.1532
ана	-10.154
▁Несколько	-10.1542
▁c	-10.1542
▁группы	-10.1552
▁значение	-10.1556
нные	-10.1571
▁знаем	-10.1574
зы	-10.1581
▁круг	-10.1589
▁придет	-10.1599
▁поводу	-10.1603
▁планеты	-10.1604
▁звезды	-10.1606
стр	-10.1611
▁белые	-10.1612
ющее	-10.162
▁природы	-10.1627
▁разум	-10.1627
▁игра	-10.1638
▁дали	-10.1641
ас	-10.1643
▁Старик	-10.1648
▁десяти	-10.1651
▁V	-10.1652
▁каждом	-10.1652
▁речи	-10.1657
▁причем	-10.1658
▁ком	-10.166
▁бой	-10.167
▁мужчин	-10.1675
▁вина	-10.1677
▁Саша	-10.1681
▁живот	-10.1685
▁II	-10.1686
▁видишь	-10.1694
▁Ди	-10.1702
эн	-10.1704
▁мо	-10.1713
нем	-10.1715
l	-10.1717
став	-10.1719
▁впечатление	-10.1734
▁собака	-10.1746
▁деревьев	-10.1747
▁отвечает	-10.1747
▁Земли	-10.1748
▁22	-10.1749
▁усмехнулся	-10.1756
▁четырех	-10.1761
▁война	-10.1761
пад	-10.1772
▁неба	-10.1774
▁тень	-10.1775
▁живут	-10.1789
▁школы	-10.1798
вшихся	-10.1803
ним	-10.1805
ант	-10.1809
▁оставить	-10.1816
▁вне	-10.1824
▁зале	-10.1825
▁Много	-10.1834
гор	-10.1841
Н	-10.1844
▁имею	-10.1849
▁думает	-10.1858
▁отправился	-10.1864
▁убить	-10.1872
▁формы	-10.1874
▁Ра	-10.1878
▁месяцев	-10.1883
▁кот	-10.1887
▁ладони	-10.1887
▁словом	-10.189
▁Зато	-10.1896
▁тотчас	-10.1896
▁зная	-10.1897
▁обе	-10.1901
пис	-10.1904
▁суд	-10.1921
▁счастья	-10.1922
▁поставил	-10.1932
▁машин	-10.1934
▁Никогда	-10.1934
▁Глаза	-10.1946
пе	-10.195
рин	-10.1952
▁семьи	-10.1954
▁принял	-10.1957
▁уши	-10.1958
▁впрочем	-10.1962
▁приказал	-10.1967
ющихся	-10.1968
аться	-10.1969
▁пистолет	-10.1971
шку	-10.1977
▁Чтоб	-10.1978
▁улицы	-10.1986
▁название	-10.1993
▁большое	-10.1994
▁мозг	-10.2005
▁Ай	-10.2007
▁Ба	-10.2013
▁правду	-10.2017
▁бар	-10.2022
Г	-10.2024
▁Мать	-10.2026
▁такими	-10.2033
сов	-10.2036
▁приходит	-10.2037
▁Какие	-10.2039
▁масла	-10.2042
щую	-10.2042
▁бросился	-10.2045
▁слез	-10.2047
▁столу	-10.2047
▁пробормотал	-10.2052
▁след	-10.2057
▁рождения	-10.2058
▁пример	-10.2059
▁стараясь	-10.2063
▁звуки	-10.2063
▁краю	-10.2067
▁Мо	-10.2074
▁Москве	-10.2075
▁прошу	-10.2079
ря	-10.2086
ган	-10.2088
▁Земле	-10.2095
▁што	-10.2096
бе	-10.2098
▁осталась	-10.2098
▁еле	-10.2107
▁языке	-10.2112
▁ль	-10.2113
шек	-10.2114
▁Петрович	-10.2115
▁Кор	-10.2117
▁обнаружил	-10.2128
▁ветра	-10.2134
сто	-10.2138
d	-10.2143
▁поговорить	-10.2143
▁масло	-10.2144
рос	-10.2146
▁делают	-10.2147
▁ворот	-10.2148
▁воздуха	-10.2157
▁Кажется	-10.2161
▁хороший	-10.2162
итесь	-10.2162
ление	-10.2172
▁Олег	-10.2172
▁Ох	-10.2177
▁желания	-10.2181
▁буквально	-10.2185
▁внутрь	-10.219
▁покачал	-10.2205
▁король	-10.2217
лан	-10.2217
▁специально	-10.2221
▁настоящий	-10.2222
нья	-10.2226
▁Черт	-10.2232
▁сидеть	-10.2248
▁заметила	-10.2255
▁деревья	-10.2255
▁ровно	-10.2262
енной	-10.2269
▁отлично	-10.2275
▁др	-10.2282
▁правило	-10.2282
ера	-10.2282
▁ею	-10.2283
▁машине	-10.2283
ими	-10.2285
▁черные	-10.2288
▁Нужно	-10.2301
▁погиб	-10.2307
▁душ	-10.2312
▁вес	-10.2312
▁спине	-10.2315
▁анти	-10.2323
▁сестра	-10.2323
▁существо	-10.2326
▁Вскоре	-10.2329
▁привык	-10.2329
▁всяком	-10.2331
▁спал	-10.2334
▁Одна	-10.2338
▁дам	-10.234
▁N	-10.2347
▁пойти	-10.2347
дра	-10.2351
мол	-10.2352
▁далее	-10.2352
▁тишина	-10.2355
▁связь	-10.2359
▁ходу	-10.2375
▁СССР	-10.2379
▁Папа	-10.2393
▁мягко	-10.2397
ид	-10.2405
▁сзади	-10.2413
▁делом	-10.2416
▁предмет	-10.2422
▁24	-10.243
▁деятельности	-10.2432
▁запас	-10.2433
▁задумчиво	-10.2437
▁кол	-10.2445
▁означает	-10.2446
▁судьба	-10.2457
▁девушку	-10.247
▁снял	-10.247
▁мгновенно	-10.2477
▁Га	-10.2484
ён	-10.2486
▁отдал	-10.2494
ож	-10.2499
▁Солнце	-10.25
▁местах	-10.2504
▁***	-10.2505
ушка	-10.2521
▁система	-10.2532
▁цветы	-10.2534
▁дед	-10.2537
▁ответа	-10.2538
▁хотят	-10.2548
▁23	-10.255
▁книга	-10.2557
▁лейтенант	-10.2566
▁твое	-10.2567
▁стран	-10.257
▁порядок	-10.2575
зна	-10.2576
▁ел	-10.2577
▁компьютер	-10.2583
▁писатель	-10.2589
▁кресло	-10.2592
мат	-10.2592
▁прошлом	-10.2595
▁позади	-10.2598
▁Нас	-10.2611
▁держал	-10.2613
▁забыть	-10.2627
▁школу	-10.2627
лит	-10.263
▁огня	-10.2631
▁энергии	-10.2639
▁срок	-10.2643
▁маленькая	-10.2651
▁праздник	-10.2656
▁ситуации	-10.2666
атор	-10.2668
▁жену	-10.2672
▁идут	-10.2672
▁Хоть	-10.2672
▁США	-10.268
▁19	-10.268
▁ушла	-10.2681
▁выражение	-10.2691
▁игры	-10.2695
иль	-10.2696
▁Кот	-10.2704
▁церкви	-10.2705
▁дерева	-10.2705
▁f	-10.2706
▁животных	-10.2709
▁начальник	-10.2709
▁/	-10.2712
▁противника	-10.2717
▁пишет	-10.2717
▁считал	-10.2723
▁Мол	-10.2725
_	-10.2727
▁первое	-10.2728
▁ответить	-10.2728
▁события	-10.2731
рон	-10.2736
▁являются	-10.2741
аль	-10.2742
▁зря	-10.2747
▁женщину	-10.2751
▁самую	-10.2753
▁Том	-10.2756
▁появились	-10.2757
▁ваших	-10.2762
▁идея	-10.2763
▁мальчика	-10.2764
▁условиях	-10.2774
▁квартиру	-10.2776
овое	-10.2782
ско	-10.2782
▁горло	-10.2788
▁Пан	-10.2791
m	-10.2793
▁центре	-10.28
ует	-10.2805
▁трое	-10.2805
▁бежать	-10.2806
▁вида	-10.2812
▁прием	-10.2814
▁первая	-10.2814
▁коридор	-10.2818
▁родители	-10.2821
▁кстати	-10.2822
▁стул	-10.2827
▁век	-10.2835
▁Сан	-10.2837
▁4.	-10.2842
▁находился	-10.2843
▁Мистер	-10.2844
дон	-10.2848
▁пятьдесят	-10.2849
▁Антон	-10.2851
ция	-10.2852
итель	-10.2856
▁Голос	-10.2859
▁Алексей	-10.2863
▁правой	-10.2863
▁показать	-10.2867
▁живой	-10.2878
▁жаль	-10.2879
▁остаться	-10.2881
▁лук	-10.2883
▁выбор	-10.2886
▁чём	-10.2892
▁каждым	-10.2902
дов	-10.2902
ющиеся	-10.2902
▁начать	-10.2904
▁левой	-10.2905
▁Думаю	-10.291
мир	-10.2912
▁полно	-10.2912
▁носом	-10.2914
▁ужасно	-10.2918
▁Жизнь	-10.2919
▁управления	-10.2924
▁села	-10.2928
ток	-10.2931
пи	-10.2934
▁дверью	-10.2943
▁холодно	-10.2949
▁направился	-10.2952
вес	-10.2964
вит	-10.2968
▁ощущение	-10.2969
щее	-10.2982
▁обед	-10.2986
▁сожалению	-10.2991
▁оказывается	-10.2994
▁нашим	-10.2995
▁пойду	-10.2995
▁Ки	-10.2996
▁Особенно	-10.3001
▁сознания	-10.3011
нная	-10.3012
▁существа	-10.3022
▁кармана	-10.3027
ким	-10.3031
▁Михаил	-10.3032
▁уходит	-10.3033
чет	-10.3035
▁Стар	-10.3036
▁неизвестно	-10.305
▁стену	-10.3053
▁ф	-10.3054
▁встреча	-10.3055
▁Борис	-10.3057
Е	-10.3068
иков	-10.307
▁отдел	-10.3073
»?	-10.3082
▁пользу	-10.3083
▁Женщина	-10.3084
▁лежала	-10.3087
▁собирался	-10.309
▁приехал	-10.3092
ена	-10.3103
▁плен	-10.3104
▁Василий	-10.3118
ез	-10.3119
▁хлеба	-10.3121
▁берега	-10.3124
вшегося	-10.3127
▁вещь	-10.3131
▁остров	-10.3137
▁больших	-10.3138
▁подходит	-10.3152
▁дерево	-10.3152
▁центр	-10.3158
▁чувствую	-10.3158
вать	-10.3168
▁Второй	-10.3169
▁Мария	-10.3171
▁портрет	-10.3172
▁рассказывал	-10.3174
вшая	-10.3174
цем	-10.3177
▁Богу	-10.3182
▁ходил	-10.3183
▁пространство	-10.3187
енную	-10.319
од	-10.3191
us	-10.3194
▁закрыл	-10.3196
▁края	-10.3197
▁покой	-10.32
▁держать	-10.3203
▁смех	-10.3204
▁замуж	-10.321
▁поставить	-10.3214
вшим	-10.3218
▁форму	-10.322
ющийся	-10.3222
С	-10.3223
оп	-10.3231
▁сообщил	-10.3232
чок	-10.3236
▁съ	-10.3237
▁вряд	-10.3239
▁обернулся	-10.3245
▁обратился	-10.3247
▁вещей	-10.3248
▁вскочил	-10.3251
▁приказ	-10.3253
▁слушать	-10.3254
▁прошептал	-10.3254
▁пьян	-10.3254
▁кусок	-10.3255
бил	-10.3257
енным	-10.3263
▁назвать	-10.3269
▁Джек	-10.327
▁мороз	-10.3271
нес	-10.3275
▁скажи	-10.3293
▁Капитан	-10.3294
▁останется	-10.3297
▁получилось	-10.3298
▁шагов	-10.3302
ёр	-10.3307
▁Мари	-10.3307
▁твоего	-10.3309
▁скажет	-10.3313
▁пан	-10.3316
▁боюсь	-10.332
▁немало	-10.3323
▁твердо	-10.3323
▁поход	-10.3324
▁офицер	-10.3324
▁ухо	-10.3324
▁дорога	-10.3326
▁случаях	-10.3326
▁Казалось	-10.3326
еть	-10.333
▁подошла	-10.3331
ак	-10.3333
▁книге	-10.3333
рад	-10.3334
▁птицы	-10.3338
▁бок	-10.3344
▁Сер	-10.3346
воз	-10.3347
▁первом	-10.335
▁жалко	-10.3354
▁станции	-10.3363
▁долларов	-10.3364
▁будущее	-10.3377
зе	-10.3384
▁купить	-10.3386
▁Какое	-10.3387
▁маг	-10.339
▁кухню	-10.3391
▁Разумеется	-10.3394
▁мужик	-10.3395
▁Мои	-10.3396
фа	-10.3406
▁сахар	-10.341
▁сигнал	-10.3413
▁собаки	-10.3414
▁Де	-10.3415
▁сотни	-10.3417
▁пал	-10.3423
▁ящик	-10.3423
▁сосед	-10.343
▁граф	-10.3435
▁второго	-10.344
▁единственный	-10.3445
▁Земля	-10.3447
П	-10.3448
▁склад	-10.3449
ху	-10.3452
кер	-10.3459
▁трав	-10.346
▁спросить	-10.3461
▁чисто	-10.3462
▁каждую	-10.3463
▁200	-10.3463
▁маленькие	-10.3464
▁Скоро	-10.3481
▁поезд	-10.3484
▁большого	-10.3486
▁языка	-10.3488
▁получается	-10.349
▁прошла	-10.3499
▁меж	-10.3512
▁спор	-10.3518
▁слышно	-10.3522
▁коп	-10.3526
▁всякого	-10.3535
▁Среди	-10.3536
тов	-10.3539
▁ударил	-10.3548
▁Дай	-10.3553
▁заметно	-10.3555
люб	-10.356
▁глубине	-10.3562
▁берет	-10.357
лев	-10.3579
▁кухне	-10.3586
лер	-10.3586
дум	-10.3589
▁говоришь	-10.359
▁похож	-10.3591
рь	-10.3591
▁старого	-10.3592
▁Пи	-10.3593
▁Маша	-10.3596
рей	-10.3598
▁пи	-10.3601
▁пожар	-10.3602
▁огромный	-10.3604
▁отношение	-10.3621
▁спасибо	-10.3622
▁цен	-10.3623
▁вино	-10.3627
▁русской	-10.3628
▁искусства	-10.363
▁командир	-10.3639
▁Игорь	-10.364
▁кровью	-10.3642
▁палец	-10.3646
▁квартире	-10.3653
▁Би	-10.3657
▁Бор	-10.3661
▁белой	-10.3662
▁старика	-10.3667
▁пришло	-10.3675
▁шести	-10.3679
ницу	-10.368
▁Бер	-10.368
▁пра	-10.3681
▁твою	-10.3682
ул	-10.3687
▁электро	-10.369
Б	-10.3695
▁прос	-10.3697
▁черной	-10.3701
▁средства	-10.3705
▁видите	-10.3706
дей	-10.3707
дан	-10.3708
▁ложки	-10.3711
es	-10.3711
▁смогу	-10.3712
▁тип	-10.3712
▁сна	-10.3713
▁Ван	-10.3718
▁замок	-10.372
ed	-10.3721
рик	-10.3728
▁сомнения	-10.3733
▁песни	-10.3736
▁молод	-10.3739
▁пройти	-10.3739
▁прочим	-10.3743
▁пост	-10.3743
▁различных	-10.3746
▁информации	-10.3748
ран	-10.3749
▁рост	-10.3754
ания	-10.3755
▁Дом	-10.3759
▁полный	-10.3762
▁ничем	-10.3765
▁листья	-10.3772
▁ничто	-10.3776
▁делу	-10.3778
ическую	-10.3778
▁бывало	-10.3779
гла	-10.3779
▁клуб	-10.3779
▁мая	-10.3779
▁болезни	-10.3783
▁домов	-10.379
▁завод	-10.3792
рет	-10.3792
ления	-10.3796
▁заговорил	-10.38
▁никуда	-10.3802
▁пойдет	-10.3803
еб	-10.3804
▁вред	-10.3805
зу	-10.3808
инг	-10.3815
Я	-10.3817
▁граждан	-10.3817
▁верить	-10.3821
▁своё	-10.3824
ход	-10.3827
ьте	-10.3828
▁семья	-10.3828
вшейся	-10.3829
▁тон	-10.3831
▁мест	-10.3832
▁Давайте	-10.3833
▁заранее	-10.3836
бой	-10.3841
▁ла	-10.3841
▁автомат	-10.3843
зов	-10.385
▁высокий	-10.3851
▁встречи	-10.3858
▁Си	-10.3859
▁большинство	-10.3867
▁Интересно	-10.3871
▁аккуратно	-10.3876
▁число	-10.3879
▁ц	-10.3885
сен	-10.3886
▁линии	-10.3887
▁русский	-10.3887
ишься	-10.3892
▁Пар	-10.3894
▁Господь	-10.3896
▁написано	-10.3899
▁полковник	-10.3911
▁Эх	-10.3915
▁основном	-10.3917
▁слушал	-10.3917
▁Марк	-10.3917
▁Мальчик	-10.3923
▁кровать	-10.3927
▁родителей	-10.3927
▁Бел	-10.3927
▁Вообще	-10.3929
);	-10.3934
▁увидели	-10.3936
телей	-10.3938
зд	-10.3939
▁самолет	-10.3939
▁врач	-10.3943
▁кругом	-10.3944
мон	-10.3947
▁Бур	-10.3947
▁крайне	-10.3949
▁настоящее	-10.3953
▁Тебя	-10.3955
▁хватало	-10.3956
▁Павел	-10.396
нием	-10.3964
▁вод	-10.3968
▁подобно	-10.3969
▁мл	-10.3971
вшей	-10.3977
▁кафе	-10.3981
▁ру	-10.3986
Т	-10.3986
▁Иди	-10.3987
▁музыка	-10.3989
▁исключительно	-10.399
▁Род	-10.3992
▁Некоторые	-10.3993
▁насчет	-10.3995
▁of	-10.4004
▁спит	-10.4008
▁ногой	-10.4009
▁Катя	-10.4011
en	-10.4014
▁кожи	-10.4015
щем	-10.4021
▁мастер	-10.4026
стра	-10.4027
▁старался	-10.4028
▁провел	-10.4029
▁знаком	-10.403
▁Лу	-10.4032
▁Рис	-10.4032
▁состоит	-10.4034
▁скорость	-10.4036
▁Похоже	-10.404
▁гроз	-10.4048
лиз	-10.405
▁Лицо	-10.4052
▁звон	-10.4057
ация	-10.4061
ред	-10.4063
▁целью	-10.4067
альный	-10.4068
▁поможет	-10.4075
▁Мало	-10.4077
▁стоят	-10.4078
▁Макс	-10.4078
▁непременно	-10.4085
▁Ме	-10.4085
▁Ти	-10.4085
▁волны	-10.4086
▁удовольствием	-10.4087
▁труп	-10.4095
ела	-10.4099
гар	-10.4106
▁День	-10.4109
▁Весь	-10.411
▁силах	-10.4114
брос	-10.4115
▁следовало	-10.4121
▁член	-10.4123
▁последней	-10.4124
▁холод	-10.4125
▁Кур	-10.4132
работ	-10.4137
ент	-10.4145
▁значительно	-10.4145
▁сторонам	-10.4149
телем	-10.415
скими	-10.4155
▁жар	-10.4157
жд	-10.416
▁борт	-10.4162
▁мясо	-10.4168
рис	-10.417
▁пятнадцать	-10.4172
▁женой	-10.4174
▁лошадь	-10.4175
плат	-10.4176
▁Прежде	-10.418
теля	-10.4181
▁ногах	-10.4184
I	-10.4185
▁ехать	-10.4189
▁следы	-10.4189
▁ро	-10.4194
шую	-10.4195
▁Эр	-10.4195
▁Знаешь	-10.4196
аем	-10.4198
▁телом	-10.4198
▁светом	-10.4202
▁путем	-10.4203
▁понимаете	-10.4207
▁проблем	-10.4208
▁ра	-10.421
▁диск	-10.4212
вой	-10.4214
▁площади	-10.4217
▁невольно	-10.4219
▁цветов	-10.4225
▁дай	-10.4228
▁T	-10.423
▁твоих	-10.4235
▁любить	-10.4236
▁открыть	-10.4237
▁пил	-10.4239
▁Нельзя	-10.4248
3	-10.4251
▁Ор	-10.4252
▁Нью	-10.4258
▁Бен	-10.4259
▁мелко	-10.426
▁уровне	-10.4261
▁Одно	-10.4263
▁событий	-10.4264
▁объяснил	-10.427
сте	-10.4278
▁вернулась	-10.4285
▁собственно	-10.4286
▁безопасности	-10.4297
▁существ	-10.4299
▁Кол	-10.4299
▁сей	-10.43
▁кар	-10.4305
▁26	-10.431
изма	-10.4313
ается	-10.4315
▁понимать	-10.4318
▁боялся	-10.4318
▁государства	-10.4318
▁опустил	-10.432
▁вспомнить	-10.432
▁результат	-10.4321
▁вашу	-10.4322
▁старой	-10.4324
альная	-10.4324
▁заниматься	-10.4325
▁Карл	-10.4326
▁магазин	-10.4336
▁Ник	-10.4341
▁порой	-10.4342
▁решения	-10.4342
▁вел	-10.4345
▁прошлого	-10.4346
▁пят	-10.4346
▁увидев	-10.4347
▁лег	-10.4355
5	-10.4359
▁стоя	-10.436
▁убил	-10.4369
▁полчаса	-10.4382
▁кричит	-10.4383
▁Максим	-10.4383
▁способен	-10.4398
▁двадцати	-10.4401
▁маленькой	-10.4408
▁грустно	-10.4411
▁Вон	-10.4412
сад	-10.4413
▁окон	-10.4416
):	-10.442
▁понимает	-10.4427
зем	-10.4427
▁побежал	-10.4433
▁Люб	-10.4434
▁наружу	-10.4441
кина	-10.4446
▁строй	-10.4454
▁совет	-10.4459
▁говорите	-10.446
▁называют	-10.4463
вато	-10.4464
▁стоило	-10.4465
▁чудо	-10.4468
айте	-10.4468
▁молчал	-10.4471
▁эффект	-10.4474
▁причин	-10.4475
▁деревне	-10.4478
нных	-10.4478
▁яйца	-10.4479
“	-10.4484
овский	-10.449
▁обоих	-10.4491
▁зависит	-10.4491
уль	-10.4491
▁русских	-10.4494
ar	-10.4498
▁Вар	-10.4498
▁приготовления	-10.45
▁здорово	-10.45
▁самим	-10.4503
▁дочери	-10.4504
вшую	-10.4507
▁занят	-10.4508
▁курс	-10.451
▁Се	-10.4515
el	-10.452
▁отличие	-10.4521
▁кг	-10.4524
▁Гар	-10.4525
▁камни	-10.4527
▁направлении	-10.4533
▁царь	-10.4542
▁бутылку	-10.4547
вяз	-10.4547
▁Смотри	-10.4547
▁Точно	-10.455
▁Ответ	-10.4572
▁бога	-10.4572
▁Наш	-10.4573
▁порт	-10.4582
пит	-10.4587
рез	-10.4592
▁голод	-10.4594
▁Гер	-10.4594
▁каждое	-10.4604
▁Ку	-10.4604
▁прошли	-10.4607
S	-10.4608
▁дав	-10.4617
кую	-10.4622
▁короля	-10.4624
▁автора	-10.4625
▁Завтра	-10.4625
▁положении	-10.4626
▁Скажи	-10.4626
▁мнение	-10.463
▁относительно	-10.463
аешь	-10.4632
▁Бар	-10.4634
▁улыбка	-10.4635
▁новая	-10.4651
▁Такой	-10.4656
▁думаете	-10.4659
▁рублей	-10.4664
▁Слушай	-10.4667
▁многое	-10.4667
▁нормально	-10.467
стоя	-10.4674
▁парня	-10.4675
▁текст	-10.4681
▁посреди	-10.4681
▁годов	-10.4682
▁лошади	-10.4683
▁ран	-10.4686
▁Лес	-10.469
▁рассказывать	-10.4694
▁длинные	-10.4695
вел	-10.4696
▁полном	-10.4699
▁старые	-10.47
▁вздохнула	-10.47
▁27	-10.4702
▁Снова	-10.4703
▁последнего	-10.4703
▁пес	-10.4706
▁голосе	-10.4706
▁сме	-10.4709
ющую	-10.471
▁остальных	-10.4712
хват	-10.4714
▁хозяина	-10.4716
▁красный	-10.4717
▁ду	-10.4725
▁отчего	-10.4731
▁бал	-10.4732
▁верю	-10.4737
▁Тор	-10.474
▁лето	-10.4742
▁имели	-10.4743
▁проблема	-10.4743
▁готовы	-10.4747
▁театр	-10.4748
▁Рядом	-10.4755
▁собою	-10.4758
▁проще	-10.4759
▁картины	-10.4767
▁Вера	-10.4769
▁ребят	-10.4775
▁учитель	-10.4776
▁девочки	-10.4781
▁попасть	-10.4782
▁проект	-10.4784
▁наверно	-10.4791
▁удовольствие	-10.4793
▁вариант	-10.4794
▁Эл	-10.4798
▁адрес	-10.4804
▁вывод	-10.4809
▁уме	-10.4812
▁рыб	-10.4813
▁смысла	-10.4816
▁ведет	-10.4817
фер	-10.4831
цион	-10.4832
▁ныне	-10.4839
▁кожа	-10.485
▁кожу	-10.4851
▁вслух	-10.4851
овна	-10.4852
▁живых	-10.4861
▁счастью	-10.4862
мин	-10.4863
▁семье	-10.487
▁последних	-10.4871
аж	-10.4871
И	-10.4875
▁Джордж	-10.4877
▁представляет	-10.4878
▁пальцев	-10.488
▁встретил	-10.4885
▁одежду	-10.4889
▁будущем	-10.4895
кра	-10.4899
▁пад	-10.4903
▁окном	-10.4908
▁постель	-10.4914
▁главным	-10.4915
форм	-10.4921
▁нём	-10.4923
▁газ	-10.4931
пор	-10.4934
▁поток	-10.4938
▁саду	-10.4949
ало	-10.4951
▁Многие	-10.4952
▁взяли	-10.4957
тка	-10.4961
▁класса	-10.4962
▁Мал	-10.4963
▁вытащил	-10.4968
▁любого	-10.497
▁везде	-10.4973
▁фото	-10.498
▁действие	-10.4985
▁скажем	-10.4985
▁костюм	-10.4986
▁гостей	-10.4987
тан	-10.499
ять	-10.4991
▁in	-10.4993
ень	-10.4994
▁пальто	-10.4996
▁положить	-10.4998
▁Любовь	-10.4999
▁стоять	-10.5003
имся	-10.5013
le	-10.5023
ват	-10.5023
ены	-10.5024
▁ладонь	-10.5027
▁позволяет	-10.5029
▁очередной	-10.503
нула	-10.5031
▁белых	-10.5032
▁роли	-10.5032
дель	-10.5033
ёл	-10.5033
ата	-10.5035
▁любят	-10.5035
шке	-10.5036
О	-10.5037
▁Привет	-10.5038
▁кричал	-10.5044
▁возьми	-10.5047
▁частью	-10.505
▁0,	-10.5055
▁Гарри	-10.5056
▁газеты	-10.5058
жив	-10.5062
▁черно	-10.5063
▁Почти	-10.5067
▁шт	-10.5068
▁Ру	-10.5069
ниц	-10.507
цен	-10.5071
▁кивнула	-10.5076
▁оп	-10.5082
▁нежно	-10.5091
вали	-10.5092
▁момента	-10.5094
▁зла	-10.5094
▁велел	-10.5094
▁мер	-10.5094
▁наряд	-10.5094
▁держа	-10.5101
З	-10.5102
ительно	-10.5115
эй	-10.5116
▁крестьян	-10.5116
▁Че	-10.5118
▁принимать	-10.512
▁мыслей	-10.5121
▁аромат	-10.5121
▁стекло	-10.5125
▁опер	-10.5131
▁Питер	-10.5132
▁требует	-10.5137
▁вторых	-10.5141
▁возразил	-10.5145
лич	-10.5149
▁некогда	-10.5156
▁ло	-10.5159
▁28	-10.5159
▁отношении	-10.5165
▁Ум	-10.5167
▁произнесла	-10.5173
▁неподвижно	-10.5181
▁отозвался	-10.5185
▁колен	-10.5189
Р	-10.5193
▁возраста	-10.5194
▁Конан	-10.5194
тол	-10.5195
▁русского	-10.52
▁Гал	-10.5202
▁аппарат	-10.5206
коп	-10.5208
▁настоящему	-10.5209
▁километров	-10.5214
▁продолжала	-10.5216
▁значения	-10.5217
▁девять	-10.5222
кор	-10.5226
▁взрыв	-10.5233
▁скрип	-10.5234
▁нарезать	-10.5242
▁шаги	-10.5245
▁понятия	-10.5251
▁замер	-10.5252
▁бо	-10.5253
▁роз	-10.5256
▁кресле	-10.5263
▁мотор	-10.5267
▁любом	-10.5269
стан	-10.5274
▁лежали	-10.5277
▁рыба	-10.528
щик	-10.5281
▁здоровье	-10.5284
▁Мер	-10.5287
▁высокой	-10.5289
▁грех	-10.5289
ступ	-10.5291
▁любовью	-10.5294
▁вошли	-10.5296
бра	-10.5297
▁простой	-10.5306
▁группа	-10.5311
▁светло	-10.5314
▁действий	-10.5314
▁вынужден	-10.5316
▁ворота	-10.5317
▁звали	-10.532
▁полез	-10.532
▁воли	-10.5323
▁главный	-10.5323
▁иди	-10.5324
зо	-10.533
▁коня	-10.5334
▁продолжил	-10.5341
▁Роман	-10.5342
▁провести	-10.5344
▁сидя	-10.5347
▁пола	-10.5349
▁птица	-10.5352
▁возник	-10.5357
▁собак	-10.5358
▁ужаса	-10.5363
▁брать	-10.5365
▁основе	-10.5374
ался	-10.5379
енного	-10.5391
▁ожидал	-10.5397
▁Долго	-10.5397
▁низ	-10.5398
▁Ге	-10.54
▁согласно	-10.5403
няя	-10.5407
▁сказано	-10.5413
▁Пожалуйста	-10.5415
▁мат	-10.5416
▁Дверь	-10.5419
▁Мин	-10.5422
▁жест	-10.5423
▁Совсем	-10.5425
▁форм	-10.5429
▁всяких	-10.5432
▁войну	-10.5434
▁начинается	-10.5435
▁волн	-10.5437
▁вовремя	-10.5439
▁Вместо	-10.544
▁Егор	-10.5442
▁ласково	-10.5445
▁кости	-10.5447
▁Ольга	-10.5453
▁мрачно	-10.5455
▁Коля	-10.5456
▁незаметно	-10.5456
▁рос	-10.5461
ений	-10.5464
зор	-10.5472
▁раздел	-10.5474
▁отряд	-10.5475
▁Ро	-10.5479
▁культуры	-10.5486
▁поверхность	-10.5486
▁знания	-10.5487
ств	-10.5488
▁видим	-10.5491
▁иду	-10.5494
▁вопросов	-10.5495
▁Словно	-10.55
▁необходимости	-10.5506
уд	-10.5506
▁взгляда	-10.5507
ностью	-10.5509
▁жила	-10.551
фи	-10.5513
кур	-10.5516
▁друж	-10.5517
▁ходит	-10.5518
▁III	-10.5519
▁коротко	-10.5524
7	-10.5525
▁беда	-10.5527
▁суть	-10.5528
ирует	-10.5529
▁чрезвычайно	-10.5529
▁Роберт	-10.5531
▁фоне	-10.5532
▁духа	-10.5541
▁Мил	-10.5543
ад	-10.5545
▁целом	-10.5549
сом	-10.5553
ание	-10.5555
уч	-10.5557
▁дверей	-10.5559
▁огне	-10.556
▁судьбы	-10.5562
▁герой	-10.5563
▁проходит	-10.5567
▁Вся	-10.5568
дом	-10.5568
▁делали	-10.5573
▁детства	-10.5575
▁груз	-10.5575
▁Боб	-10.5578
▁перец	-10.5578
▁видимому	-10.558
▁удастся	-10.5586
тро	-10.5587
▁Чи	-10.559
▁родился	-10.5593
▁молодых	-10.5599
▁успела	-10.5599
очке	-10.5603
▁входит	-10.5604
▁подальше	-10.5608
▁пояс	-10.561
чке	-10.5613
▁упала	-10.5614
▁гром	-10.5619
▁ушли	-10.5622
▁to	-10.5625
ящий	-10.5627
▁опасности	-10.5629
цами	-10.5632
сел	-10.5639
вор	-10.564
ланд	-10.564
4	-10.5646
▁Ев	-10.5647
тур	-10.5648
▁каждому	-10.5651
▁директор	-10.5652
▁океан	-10.5653
бин	-10.5653
▁Город	-10.5655
▁прийти	-10.5658
▁поняли	-10.5658
ющими	-10.5668
▁малыш	-10.5668
▁квартиры	-10.5674
▁появляется	-10.5675
▁умереть	-10.5678
▁Воз	-10.5679
очкой	-10.5681
ош	-10.5682
▁художник	-10.5684
▁любила	-10.5689
▁личности	-10.569
▁лед	-10.5693
▁Фа	-10.5694
▁исход	-10.5697
лый	-10.5697
▁пыли	-10.57
▁ча	-10.5702
▁лиц	-10.5702
ключ	-10.5704
▁зап	-10.5704
▁виноват	-10.5705
6	-10.5706
истов	-10.5706
тин	-10.5712
▁дне	-10.5713
▁господа	-10.5715
▁гад	-10.5715
▁живу	-10.5717
▁средств	-10.5721
▁наверх	-10.5725
енок	-10.5727
▁долг	-10.5733
▁настроение	-10.574
▁скал	-10.5741
▁суп	-10.5741
▁нашла	-10.5742
▁песок	-10.5742
▁целую	-10.5743
ing	-10.5748
▁остановилась	-10.5756
▁языком	-10.5758
▁повезло	-10.5758
▁5.	-10.576
▁искренне	-10.576
чку	-10.5763
▁войне	-10.5767
▁пр	-10.5768
▁запад	-10.5769
▁богу	-10.5769
▁экран	-10.5773
▁суда	-10.5775
мах	-10.5775
▁стремительно	-10.578
▁подняла	-10.5785
нки	-10.5785
▁встала	-10.5787
вая	-10.5796
▁будущего	-10.5797
▁философ	-10.58
▁мнению	-10.5807
▁отдать	-10.5808
ких	-10.5815
тай	-10.5818
чный	-10.5819
▁непосредственно	-10.5819
▁просил	-10.5822
▁Надеюсь	-10.5824
▁тему	-10.5824
al	-10.5827
▁идеи	-10.583
▁выглядит	-10.583
альные	-10.5831
▁шанс	-10.5832
▁науки	-10.5834
▁старая	-10.5839
▁баб	-10.5841
▁воин	-10.5841
▁подарок	-10.5842
▁Несмотря	-10.5842
▁следующее	-10.5844
▁транспорт	-10.5845
▁снять	-10.585
▁перестал	-10.5853
▁пакет	-10.5854
Ы	-10.5855
▁глупо	-10.5857
▁перемен	-10.5859
▁миру	-10.5866
▁переход	-10.5869
▁сумел	-10.587
▁бор	-10.587
гер	-10.5874
▁врага	-10.5876
▁майор	-10.5876
▁картина	-10.5877
▁фигура	-10.5892
▁поверить	-10.5903
▁сверх	-10.5904
вет	-10.5905
▁Дик	-10.5916
▁молодого	-10.5916
▁пас	-10.592
▁спасти	-10.5921
▁Ал	-10.5924
▁причине	-10.5925
▁Прошу	-10.5926
гин	-10.5928
пы	-10.5932
▁Жан	-10.5936
▁мечта	-10.5936
▁проснулся	-10.5939
▁доктора	-10.5941
▁Ду	-10.5942
▁кресла	-10.5943
▁поклон	-10.5943
ur	-10.5947
A	-10.5949
▁Тре	-10.595
▁Само	-10.5951
иной	-10.5953
▁особо	-10.5954
енье	-10.5954
▁і	-10.5956
▁планете	-10.5958
▁Фе	-10.596
▁организм	-10.5961
остью	-10.5966
вели	-10.597
▁условия	-10.5972
▁старший	-10.5975
▁следом	-10.5975
▁назвал	-10.5976
▁плот	-10.5978
▁зуб	-10.5978
емый	-10.5989
▁билет	-10.5991
еж	-10.5991
▁очки	-10.5992
тен	-10.5995
▁великий	-10.6001
▁як	-10.6002
ряд	-10.6003
▁открыла	-10.6007
▁бывают	-10.601
▁удивительно	-10.601
▁играет	-10.6013
▁ман	-10.6015
▁Николаевич	-10.6016
▁слабо	-10.6016
▁ждали	-10.6018
▁середине	-10.6018
▁получится	-10.6019
▁оставаться	-10.6021
▁стекла	-10.6022
▁действовать	-10.6029
▁веков	-10.6029
▁губами	-10.6031
▁Федор	-10.6031
▁милый	-10.6033
▁примеру	-10.6039
ьев	-10.6039
▁поднялась	-10.6041
▁предложение	-10.6041
▁человечества	-10.6041
город	-10.6042
▁дурак	-10.6042
▁дают	-10.6043
▁капли	-10.6045
▁этаж	-10.6046
лес	-10.6046
▁определить	-10.6047
▁стук	-10.6047
▁зверь	-10.6049
▁Скорее	-10.6055
▁Кал	-10.6055
▁улыбаясь	-10.6057
ицы	-10.6058
▁d	-10.6059
▁Алекс	-10.6063
пар	-10.6065
▁рта	-10.6069
цию	-10.6071
▁травы	-10.6072
▁партии	-10.6075
▁вышло	-10.608
▁реке	-10.6081
▁торопливо	-10.6082
▁стакана	-10.6085
▁луч	-10.6086
олог	-10.609
▁написать	-10.6092
ген	-10.6092
▁бред	-10.6095
▁создать	-10.6099
бл	-10.6103
лек	-10.6104
▁слышать	-10.6104
▁шее	-10.611
▁зеркало	-10.6111
▁писателя	-10.6113
▁справа	-10.6118
▁священник	-10.6122
эр	-10.6124
ались	-10.6131
▁Ши	-10.6133
▁сунул	-10.6133
▁заметить	-10.6136
▁двенадцать	-10.6144
▁готова	-10.6146
▁гроб	-10.6148
еля	-10.6151
▁вошла	-10.6153
▁удобно	-10.6156
▁Москва	-10.6165
▁Нина	-10.6166
▁29	-10.6166
▁Такие	-10.6167
▁корм	-10.6168
▁произведения	-10.617
▁ос	-10.6174
КА	-10.6175
▁60	-10.6177
▁ша	-10.618
▁участие	-10.618
it	-10.6186
слав	-10.6187
▁поспешно	-10.6188
▁состояния	-10.619
h	-10.6191
нку	-10.6192
▁службы	-10.6193
ическом	-10.6194
▁картину	-10.6196
▁пры	-10.6198
▁считает	-10.6201
овали	-10.6204
▁словам	-10.6206
▁территории	-10.6207
▁прервал	-10.6208
▁Совет	-10.6213
▁Москву	-10.6214
▁окну	-10.6215
▁отчаянно	-10.6215
▁слышала	-10.6217
▁царя	-10.6219
▁молчание	-10.6223
вшаяся	-10.6229
▁Будь	-10.623
▁надежды	-10.6233
▁идиот	-10.6235
k	-10.624
▁оружия	-10.6244
нин	-10.6249
шее	-10.6254
▁отцу	-10.6254
▁здания	-10.6261
▁чужой	-10.6263
нную	-10.6264
▁информацию	-10.6267
▁сбор	-10.6273
▁указал	-10.6277
▁положения	-10.6283
▁свободно	-10.6284
▁гг	-10.6286
аев	-10.6288
▁Хар	-10.6289
▁отцом	-10.6294
▁старых	-10.6296
▁плотно	-10.6296
шит	-10.6298
▁оказаться	-10.6299
▁автомобиль	-10.6301
▁семи	-10.6301
▁собственного	-10.6308
▁товар	-10.6309
▁хорошего	-10.631
▁очереди	-10.6312
▁b	-10.6313
▁жене	-10.6315
▁Холмс	-10.6315
▁боя	-10.6316
▁уровень	-10.6316
▁Простите	-10.6317
фе	-10.6319
▁организации	-10.632
чить	-10.6322
▁Ин	-10.6323
▁еду	-10.6325
▁общество	-10.633
▁изменения	-10.6335
нев	-10.6336
овыми	-10.6339
▁выйдет	-10.6342
▁Россия	-10.6346
▁рев	-10.6347
▁показывает	-10.6348
▁тоном	-10.6349
▁захотелось	-10.6349
▁подобного	-10.6351
▁леди	-10.6355
▁слева	-10.6359
▁успели	-10.6359
вшуюся	-10.636
▁отдыха	-10.6362
▁плащ	-10.6364
▁Утром	-10.6365
▁кара	-10.6368
▁НА	-10.6369
▁заказ	-10.637
▁обществе	-10.6371
▁сильный	-10.6375
▁брови	-10.6376
▁руб	-10.6378
»)	-10.6384
▁Сто	-10.6393
▁уровня	-10.6393
▁нашему	-10.6395
▁пристально	-10.6395
▁Мужчина	-10.6401
▁какими	-10.6407
ску	-10.6408
▁перевод	-10.6409
един	-10.641
готов	-10.6413
▁зубами	-10.6415
воль	-10.6418
▁прошлое	-10.6419
▁почувствовала	-10.6419
спе	-10.6419
чай	-10.6419
▁1)	-10.642
▁Внезапно	-10.6422
▁птиц	-10.6425
▁всякой	-10.643
▁низко	-10.6442
▁играл	-10.6447
▁диван	-10.645
▁купил	-10.6453
▁слышу	-10.6455
▁стану	-10.6455
▁искал	-10.6458
▁объявил	-10.6459
▁Более	-10.6468
▁пытается	-10.6469
▁добрый	-10.6469
▁привести	-10.647
жать	-10.6474
▁вели	-10.6475
лага	-10.6478
стях	-10.6479
след	-10.6482
▁систему	-10.6482
▁даст	-10.6495
▁Таня	-10.6498
▁вторая	-10.6499
▁Прямо	-10.6503
▁помог	-10.6504
▁ловко	-10.6504
▁подобных	-10.6506
▁обман	-10.6507
b	-10.6508
кат	-10.6509
▁человеческого	-10.651
гляд	-10.6512
▁удара	-10.6513
▁задумался	-10.6514
▁Вася	-10.6516
ол	-10.6521
▁добро	-10.6522
▁умел	-10.6522
▁Обычно	-10.6522
▁Христа	-10.6523
дор	-10.6525
▁Пал	-10.6525
▁ди	-10.6526
▁родной	-10.653
▁чемодан	-10.653
▁пустой	-10.6531
▁Главное	-10.6536
сты	-10.6536
куп	-10.654
тая	-10.6546
▁летом	-10.6549
▁Фил	-10.655
▁огнем	-10.6552
▁телевизор	-10.656
▁поп	-10.656
▁форма	-10.6561
▁дев	-10.6562
in	-10.6571
or	-10.6574
▁Фу	-10.6579
▁новым	-10.658
▁вернулись	-10.6581
▁изменить	-10.6583
▁удивленно	-10.6583
▁природе	-10.6588
▁Знаю	-10.6591
▁Сэм	-10.6593
кар	-10.6594
▁построен	-10.66
▁Ри	-10.6602
рка	-10.6604
▁облака	-10.6605
M	-10.6605
ари	-10.6607
▁помнил	-10.6607
▁воспоминания	-10.6609
▁испуганно	-10.661
▁Миша	-10.661
▁литературы	-10.6615
▁холодной	-10.662
▁2)	-10.6623
▁воскликнула	-10.6624
▁выхода	-10.6625
▁стыдно	-10.6625
▁хо	-10.6625
▁мысленно	-10.6626
▁пот	-10.6627
мар	-10.664
▁дала	-10.6643
ливо	-10.6644
▁говори	-10.6645
ида	-10.6646
▁and	-10.6647
▁нигде	-10.6649
▁неплохо	-10.6649
▁Пушкин	-10.665
”.	-10.6655
▁мозга	-10.6657
нька	-10.6664
▁фон	-10.6667
▁толку	-10.6667
▁обеда	-10.6674
▁имела	-10.6675
▁смогла	-10.6676
▁крылья	-10.6679
лег	-10.6681
▁одежды	-10.6685
▁роста	-10.6685
▁половину	-10.6686
▁вер	-10.6687
▁церковь	-10.6688
▁Сердце	-10.6688
▁m	-10.6689
▁хлоп	-10.6695
▁материал	-10.6699
▁оставив	-10.6708
▁би	-10.6713
лем	-10.6714
▁огромные	-10.6716
джи	-10.6717
▁засмеялся	-10.6718
▁заставил	-10.6721
▁борьбы	-10.6723
шен	-10.6726
▁Оба	-10.6727
тельный	-10.6727
▁плат	-10.6734
▁соли	-10.6735
▁искр	-10.6736
дж	-10.6736
▁проверить	-10.6738
▁крас	-10.6739
▁человеческой	-10.6743
▁исчезла	-10.6745
▁красные	-10.6748
▁Всего	-10.675
▁Ещё	-10.676
раж	-10.6761
чная	-10.6761
ивая	-10.6763
▁выпить	-10.6763
руб	-10.6766
▁маслом	-10.6766
▁входа	-10.6775
леп	-10.678
▁правила	-10.6783
▁весел	-10.6786
ляр	-10.6788
▁обещал	-10.6788
уют	-10.6792
▁счастлив	-10.6793
▁принято	-10.6794
▁Ваш	-10.6796
▁договор	-10.6796
▁анализ	-10.68
▁опасность	-10.6801
▁повод	-10.6802
▁ждала	-10.6806
▁0	-10.681
ьный	-10.6811
▁телефону	-10.6813
▁отсутствие	-10.6823
▁войска	-10.6824
▁император	-10.6825
▁Ги	-10.6834
▁Ветер	-10.6836
▁Две	-10.6836
▁князь	-10.6838
нич	-10.6839
▁Король	-10.6839
▁волю	-10.684
ову	-10.684
▁каждая	-10.6841
▁устал	-10.6841
шись	-10.6842
гра	-10.6844
▁бежал	-10.6844
▁четко	-10.6851
▁простор	-10.6854
an	-10.6861
▁ры	-10.6863
нд	-10.6864
▁ворон	-10.6866
▁взор	-10.6869
▁влюблен	-10.687
▁лежа	-10.6872
▁получили	-10.6872
▁общего	-10.6877
вала	-10.6878
енное	-10.688
▁заставить	-10.6881
▁детстве	-10.6881
▁покоя	-10.6881
▁задача	-10.6882
▁войск	-10.6884
▁инженер	-10.6884
▁Пауза	-10.6887
▁капитана	-10.6887
▁Елена	-10.6889
эль	-10.6891
▁рту	-10.6891
▁подтвердил	-10.6892
▁чувствовала	-10.6894
▁вкусу	-10.6895
▁уверенно	-10.6898
▁Фи	-10.6899
▁умеет	-10.6909
▁самостоятельно	-10.6914
▁потряс	-10.6917
пла	-10.6921
▁ля	-10.6923
▁озера	-10.6924
▁Костя	-10.6925
▁исследования	-10.6925
▁большей	-10.6927
▁успех	-10.6928
▁ле	-10.6928
▁сведения	-10.693
Л	-10.6932
▁раствор	-10.6934
▁передать	-10.6939
▁Новый	-10.6941
▁кошмар	-10.6942
▁начинают	-10.6942
▁символ	-10.6943
▁слава	-10.695
▁помогает	-10.6952
▁кирпич	-10.6952
C	-10.6952
▁недель	-10.6953
▁кле	-10.6958
▁карты	-10.6961
▁разговора	-10.6969
▁будучи	-10.6972
▁Мэри	-10.6972
▁звонок	-10.6977
▁слух	-10.6977
▁нервно	-10.698
▁пороге	-10.6981
нец	-10.6982
рус	-10.6987
▁представлял	-10.6987
▁скажешь	-10.6988
▁поинтересовался	-10.6988
▁словах	-10.6991
▁Сар	-10.6993
▁разом	-10.6993
▁августа	-10.6994
▁Сын	-10.6994
▁зала	-10.6994
▁гул	-10.7001
▁странное	-10.7003
▁район	-10.701
▁говорится	-10.701
▁числа	-10.7011
Ф	-10.7011
▁черты	-10.7012
▁вернуть	-10.7013
▁худ	-10.7014
▁ужин	-10.7015
уз	-10.7015
▁выглядел	-10.7015
▁Говорят	-10.7015
▁направлен	-10.7016
▁рыбы	-10.7016
▁смешно	-10.7022
▁Вокруг	-10.7023
▁работ	-10.7024
▁махнул	-10.7025
▁белого	-10.7025
лён	-10.7027
зер	-10.703
▁de	-10.7037
▁детям	-10.7046
▁автобус	-10.7048
▁Быть	-10.7049
▁именем	-10.705
▁Видимо	-10.7054
▁острова	-10.7065
▁миллионов	-10.7065
▁Готов	-10.7068
▁объем	-10.7068
▁газет	-10.7069
▁причина	-10.7069
ющейся	-10.7072
▁длинный	-10.7075
вис	-10.7077
▁воле	-10.7081
дели	-10.7089
▁Кому	-10.7091
▁движением	-10.7092
тра	-10.7093
пел	-10.7094
▁прошептала	-10.7097
▁хватило	-10.7103
▁Вз	-10.7103
▁наблюдал	-10.7105
▁смотри	-10.7105
лик	-10.711
▁концу	-10.7111
▁обязан	-10.7111
доб	-10.7115
кос	-10.7116
лон	-10.7118
▁Иначе	-10.7119
▁повернул	-10.712
▁оттого	-10.7128
ницей	-10.7128
▁грубо	-10.7128
син	-10.7135
▁принадлежит	-10.7141
раст	-10.7141
▁ракет	-10.7142
▁намного	-10.715
▁упор	-10.7151
▁войти	-10.7151
▁щит	-10.7151
▁метод	-10.7153
▁поближе	-10.7158
▁здоров	-10.7174
▁называли	-10.718
▁Москвы	-10.718
▁цел	-10.7181
ra	-10.7181
▁мешок	-10.7182
▁Действительно	-10.7183
▁золотой	-10.7184
рат	-10.7187
▁золото	-10.7188
▁Тай	-10.7192
нной	-10.7194
*	-10.7197
▁молоко	-10.7199
▁Бу	-10.7202
чей	-10.7202
▁Гу	-10.7202
▁поэта	-10.7205
▁оборот	-10.7205
▁деревни	-10.7206
▁вашему	-10.7207
▁гнев	-10.7211
▁недалеко	-10.7214
▁Ваше	-10.7215
▁бра	-10.7215
енький	-10.7216
рия	-10.7216
▁революции	-10.7216
шат	-10.7217
▁Прости	-10.722
▁молодые	-10.7221
чек	-10.7226
▁Дед	-10.7229
▁коленях	-10.7231
▁Генри	-10.7236
▁остро	-10.7237
▁вашим	-10.7237
▁гол	-10.7238
▁причины	-10.7239
▁надел	-10.7245
▁чист	-10.7246
▁знакомый	-10.7246
эл	-10.7248
▁ждут	-10.7258
▁поднять	-10.726
▁поисках	-10.7262
▁данном	-10.7264
цца	-10.7267
▁Дети	-10.7269
T	-10.727
▁Дома	-10.7274
▁Ибо	-10.7274
▁предназначен	-10.7277
▁остановил	-10.728
▁мяса	-10.728
▁желая	-10.7286
▁уставился	-10.7287
нным	-10.7287
▁сухо	-10.7288
▁Франции	-10.7289
▁непри	-10.7289
▁включил	-10.729
▁имена	-10.7293
▁Жена	-10.7296
▁орган	-10.7299
чные	-10.7304
тянут	-10.7304
ань	-10.7305
чив	-10.7306
▁маленьких	-10.7311
▁голов	-10.7312
▁Мон	-10.7314
▁искусство	-10.7314
▁народу	-10.7315
▁выс	-10.7323
▁чьи	-10.7326
ивает	-10.7337
▁свободу	-10.7347
▁миром	-10.735
▁склон	-10.7351
▁представления	-10.7352
▁Такое	-10.7355
▁пен	-10.7356
▁повел	-10.7356
НА	-10.7357
▁гость	-10.7358
▁лап	-10.7359
▁несомненно	-10.7361
▁Кара	-10.7362
▁дождя	-10.7369
▁недостаточно	-10.737
▁траве	-10.7374
▁дракон	-10.7375
▁началось	-10.7379
▁сп	-10.7379
▁тихонько	-10.7383
▁точку	-10.739
▁воскрес	-10.7391
▁казался	-10.7398
▁лад	-10.7405
▁еды	-10.7411
▁небес	-10.7418
▁кабинете	-10.7419
▁35	-10.742
▁80	-10.7421
▁принцип	-10.7422
▁груд	-10.7425
▁здание	-10.7425
тия	-10.7425
▁источник	-10.7429
▁женщине	-10.7431
лі	-10.7432
▁Кир	-10.7433
▁вор	-10.7438
▁Прошло	-10.7438
▁топор	-10.7439
кол	-10.7441
тив	-10.7448
▁любую	-10.7452
▁заглянул	-10.7452
▁жир	-10.7454
жим	-10.7454
▁умерла	-10.7455
▁Брат	-10.7457
▁происходило	-10.7462
▁авто	-10.7464
▁красиво	-10.7467
▁идеал	-10.7469
▁хор	-10.747
▁услышать	-10.747
▁Едва	-10.7481
▁смертью	-10.7483
▁l	-10.7485
▁мост	-10.7486
мут	-10.7488
▁русские	-10.749
бр	-10.749
▁толпа	-10.7493
говор	-10.7495
▁чувствовать	-10.7495
▁остальное	-10.7499
▁га	-10.7504
▁духов	-10.7505
▁надеюсь	-10.7508
рит	-10.751
▁Наши	-10.751
▁детьми	-10.7513
нка	-10.7521
▁Пошли	-10.7523
▁учителя	-10.7523
гад	-10.7525
▁возникает	-10.7526
▁столик	-10.7528
▁страна	-10.753
▁зеленый	-10.753
кан	-10.753
▁муки	-10.7533
▁Вчера	-10.7537
▁населения	-10.7537
▁недолго	-10.7541
тельные	-10.7542
▁качества	-10.7544
▁Лен	-10.7549
▁Слава	-10.7552
▁Тур	-10.7553
чика	-10.7556
▁Филипп	-10.7556
▁мировой	-10.756
ьем	-10.756
ающий	-10.7563
▁встать	-10.7564
▁сер	-10.7564
▁Народ	-10.7566
▁6.	-10.7567
▁черных	-10.7569
▁смотрят	-10.7574
▁w	-10.7574
▁маленькую	-10.7577
маз	-10.7577
нице	-10.7581
▁Этого	-10.7581
▁сложно	-10.7582
щими	-10.7586
▁месту	-10.7588
▁Способ	-10.7591
▁полное	-10.7592
▁Мартин	-10.7594
▁свод	-10.7595
мент	-10.7596
▁разговаривать	-10.7599
дь	-10.7599
▁колес	-10.76
▁мусор	-10.7601
три	-10.7602
рам	-10.7603
▁способность	-10.7606
▁старуха	-10.7611
▁Господа	-10.7617
▁ангел	-10.7618
▁Хочешь	-10.762
▁сущности	-10.7623
▁веру	-10.7625
▁бег	-10.7625
мина	-10.7626
▁лишен	-10.7632
▁металл	-10.7635
▁торжественно	-10.7637
ическим	-10.7639
▁телу	-10.7641
▁Поскольку	-10.7642
▁Вместе	-10.7645
▁развитие	-10.7646
чал	-10.7648
▁рыбу	-10.7649
▁смогли	-10.765
▁Лиза	-10.765
▁принц	-10.7651
▁ощущения	-10.7653
▁лбу	-10.7657
▁Понятно	-10.7663
▁подобные	-10.7663
ировали	-10.7663
▁рез	-10.7664
лия	-10.7664
▁Але	-10.7665
▁ранее	-10.7667
▁солдаты	-10.7667
▁существование	-10.7667
рыв	-10.7668
▁Пожалуй	-10.7669
▁продолжает	-10.7676
▁рассмеялся	-10.7678
▁служить	-10.7679
▁двора	-10.7691
У	-10.7692
▁Марина	-10.7694
рас	-10.7694
▁Мел	-10.7701
▁Дальше	-10.7702
▁чет	-10.7705
▁кольцо	-10.7705
▁сестры	-10.7706
▁журнал	-10.7707
▁последнюю	-10.7707
▁судя	-10.7709
ций	-10.771
▁сахара	-10.7711
сп	-10.7712
▁звери	-10.7714
▁Кирилл	-10.7715
▁пик	-10.7722
▁Вид	-10.7725
▁женщиной	-10.7726
▁Скажите	-10.7726
ически	-10.7727
▁относится	-10.7728
цвет	-10.7731
▁началась	-10.7732
is	-10.7733
гон	-10.7735
▁слышали	-10.7737
реш	-10.7737
▁Адам	-10.7739
▁барабан	-10.7742
▁вызывает	-10.7743
вил	-10.7743
▁контроль	-10.7748
▁комплекс	-10.7748
эт	-10.7749
▁дважды	-10.7751
▁просит	-10.7754
▁сыр	-10.7755
▁музыку	-10.7755
чина	-10.7757
▁Чер	-10.7757
▁Автор	-10.7758
лок	-10.7761
▁немножко	-10.7764
▁приступ	-10.7764
▁тесно	-10.7769
▁встреч	-10.7769
▁районе	-10.777
▁волосами	-10.7772
▁ген	-10.7774
▁жутко	-10.7778
ложить	-10.7779
▁сердито	-10.7779
▁Вадим	-10.7779
▁считают	-10.778
▁способности	-10.7783
▁юноша	-10.7785
▁штаб	-10.7791
▁двигаться	-10.7793
.].	-10.7794
▁сохранить	-10.7795
▁уехал	-10.7796
▁вздрогнул	-10.7799
▁Александра	-10.78
▁скучно	-10.7804
▁послышался	-10.7808
▁траву	-10.7809
▁Ясно	-10.7809
ора	-10.781
▁кошка	-10.7812
▁Кра	-10.7817
▁удовольствия	-10.7818
рд	-10.7818
рав	-10.782
▁рай	-10.7821
▁танков	-10.7821
ro	-10.7823
▁подобное	-10.7824
▁Кре	-10.7827
▁зависимости	-10.7827
▁Господин	-10.7829
тик	-10.7832
▁свободы	-10.7832
▁прекрасный	-10.7834
▁сути	-10.7836
▁ручку	-10.7842
▁череп	-10.7843
▁закончил	-10.7847
▁клад	-10.7848
▁Тро	-10.7848
ыш	-10.7849
▁давайте	-10.7852
▁Будет	-10.7852
▁подняться	-10.7856
▁горько	-10.7861
▁НЕ	-10.7862
▁ритм	-10.7863
▁третьего	-10.7865
▁замка	-10.7867
▁послал	-10.7868
▁скорости	-10.7869
▁Лена	-10.7871
▁Ло	-10.7871
▁плав	-10.7871
▁сок	-10.7873
▁корабли	-10.7873
ицу	-10.7874
▁Жив	-10.7874
▁старше	-10.7875
▁Го	-10.7876
▁странный	-10.7877
рк	-10.788
▁пространства	-10.7881
▁сентября	-10.7881
ёк	-10.7883
бран	-10.7884
дин	-10.7885
▁Пора	-10.7886
ище	-10.789
▁провал	-10.789
▁рок	-10.789
▁горд	-10.7894
▁игру	-10.7894
▁Хозяин	-10.7902
▁пойдем	-10.7904
▁хорошая	-10.7904
▁забор	-10.7908
▁дорогая	-10.7908
▁Му	-10.7909
▁сутки	-10.7911
▁печально	-10.7911
▁сделает	-10.7912
▁представление	-10.7912
▁31	-10.7917
▁пыталась	-10.792
▁состоя	-10.792
плыв	-10.7924
▁создания	-10.7925
▁возрасте	-10.7927
овского	-10.793
▁институт	-10.7932
▁всякие	-10.7937
▁топ	-10.7937
▁экране	-10.7939
▁расскажу	-10.794
аре	-10.794
▁2-	-10.7941
▁июля	-10.7944
▁фотографии	-10.7944
оф	-10.7945
▁июня	-10.7947
гре	-10.795
▁Такая	-10.7951
ut	-10.7953
движ	-10.7953
лые	-10.7953
▁проход	-10.7955
нг	-10.7956
▁организма	-10.7957
▁визит	-10.7963
▁черного	-10.7966
иш	-10.7966
▁дно	-10.7968
▁комната	-10.7968
▁река	-10.7969
▁толпы	-10.797
▁остановились	-10.7973
▁этаже	-10.7974
▁появилось	-10.7974
▁главе	-10.7978
▁услышала	-10.7979
▁коллектив	-10.798
▁оставался	-10.7982
▁волк	-10.7982
▁самолета	-10.7984
зн	-10.7986
▁проник	-10.7987
▁раб	-10.799
еш	-10.7991
жил	-10.7991
▁нажал	-10.7995
▁сержант	-10.7997
▁мил	-10.7997
вшее	-10.7998
▁вашем	-10.7999
w	-10.7999
▁контакт	-10.8002
▁рассказа	-10.8004
▁хорошие	-10.8009
▁Лет	-10.8013
▁ходили	-10.8016
▁молодая	-10.8017
▁повернулась	-10.8018
▁различные	-10.8018
▁дур	-10.8019
▁давать	-10.8019
▁пространстве	-10.802
▁неловко	-10.8027
▁потер	-10.8028
▁Иисус	-10.8029
▁расстоянии	-10.803
шив	-10.8032
▁болезнь	-10.8032
▁пламя	-10.8033
▁понимая	-10.8034
енька	-10.8035
▁сердцем	-10.8036
пу	-10.8036
▁отношению	-10.8037
▁пытались	-10.8039
▁добраться	-10.8042
▁хорошее	-10.8043
um	-10.8047
▁Германии	-10.8049
▁потеря	-10.805
▁Ребята	-10.8052
▁создал	-10.8053
▁добра	-10.8053
▁Кам	-10.8055
▁Иванов	-10.8059
▁данные	-10.8061
шем	-10.8061
▁жителей	-10.8065
▁героя	-10.8065
▁сжал	-10.8068
▁врагов	-10.8071
▁огромной	-10.8072
цией	-10.8072
▁экипаж	-10.8075
▁пору	-10.8076
пон	-10.8079
щен	-10.808
пут	-10.8085
ур	-10.8086
▁срочно	-10.8093
▁правил	-10.8093
▁Вопрос	-10.8094
▁белом	-10.8095
▁христиан	-10.8102
▁Ча	-10.8103
▁смотрю	-10.8104
▁Степан	-10.8105
пил	-10.8105
▁лучи	-10.8107
▁верил	-10.8107
▁собирается	-10.8111
▁явился	-10.8112
▁фи	-10.8115
кус	-10.8118
▁Володя	-10.8118
▁луна	-10.8118
▁Миссис	-10.8125
▁фигуры	-10.8125
▁стандарт	-10.813
▁лож	-10.8132
▁чувствуя	-10.8133
чы	-10.8134
▁мяч	-10.814
▁остановить	-10.814
▁Сама	-10.8144
▁Странно	-10.8146
ци	-10.8149
▁мистера	-10.8155
▁команды	-10.8156
вед	-10.8156
▁заметили	-10.8157
▁Мое	-10.8158
▁находились	-10.8159
▁Рай	-10.8159
▁чувствует	-10.8161
▁шкаф	-10.8162
ющегося	-10.8165
еев	-10.8169
▁дверях	-10.8169
▁способны	-10.8172
▁ме	-10.818
▁взят	-10.8181
▁труб	-10.8183
▁лошадей	-10.8184
ции	-10.8185
▁давал	-10.8187
▁полет	-10.8188
▁дама	-10.8189
▁неприятно	-10.8191
▁Бес	-10.8196
бить	-10.8196
▁шагом	-10.8197
▁белая	-10.8203
▁связан	-10.8203
ИН	-10.8204
ением	-10.8212
▁пароход	-10.8213
▁жарко	-10.8216
▁Раньше	-10.8218
▁Чу	-10.822
▁рукав	-10.8222
▁лип	-10.8222
ступал	-10.8225
on	-10.8228
▁становилось	-10.8234
▁45	-10.8234
мой	-10.8236
▁дьявол	-10.8237
▁храм	-10.8237
вест	-10.8238
!)	-10.8241
▁документы	-10.8241
▁конверт	-10.8244
▁полиции	-10.8245
дыха	-10.8248
нять	-10.8249
▁названием	-10.8252
▁отнюдь	-10.8253
▁проч	-10.8254
▁Кап	-10.8257
▁пле	-10.8259
лли	-10.8262
▁проводить	-10.8263
▁снизу	-10.8266
лил	-10.8268
РИ	-10.827
▁требуется	-10.8271
▁теории	-10.8271
▁тайны	-10.8275
сту	-10.828
▁север	-10.8282
▁печаль	-10.8283
▁считаю	-10.8288
▁падает	-10.8289
▁надежда	-10.8289
▁чей	-10.8289
▁шлем	-10.8289
▁судьбу	-10.829
▁ти	-10.8291
▁прибыл	-10.8292
гран	-10.8293
▁существования	-10.8294
▁тридцати	-10.8296
лог	-10.8298
фт	-10.8302
▁братья	-10.8306
▁танк	-10.8309
ЕТ	-10.8312
▁ствол	-10.8313
ывал	-10.8314
▁покое	-10.8314
▁конь	-10.8314
▁Петров	-10.8315
▁свист	-10.832
▁снега	-10.8321
очный	-10.8322
▁Пу	-10.8322
▁кат	-10.8324
▁приводит	-10.8326
▁оглянулся	-10.8327
▁Илья	-10.8329
▁солнцем	-10.833
▁избавиться	-10.833
»...	-10.8332
▁сопровожда	-10.8333
▁окажется	-10.8338
▁фа	-10.8339
▁снаружи	-10.834
▁май	-10.834
▁маленького	-10.8342
▁Сен	-10.8348
▁секунды	-10.8348
▁бизнес	-10.8349
ума	-10.835
▁поведение	-10.835
▁успешно	-10.8351
▁масс	-10.8353
▁достиг	-10.8353
▁темные	-10.8354
стями	-10.8356
▁раст	-10.8357
▁городу	-10.836
▁шло	-10.8361
▁отказался	-10.8364
▁Наташа	-10.8365
▁землей	-10.8367
▁страсти	-10.8371
▁заряд	-10.8372
▁Девочка	-10.8375
▁ладонью	-10.8376
▁сделаю	-10.8379
▁страну	-10.8379
▁Дже	-10.8382
▁квадрат	-10.8382
▁гре	-10.8382
рев	-10.8384
▁выдержал	-10.8385
▁Гра	-10.8387
▁красоты	-10.8388
ством	-10.839
▁Сталин	-10.8392
▁ночной	-10.8397
▁кулак	-10.8397
▁большими	-10.84
дзе	-10.8402
▁ищет	-10.8402
▁частности	-10.8402
▁похожи	-10.8403
▁1-	-10.8405
▁студент	-10.8406
▁корпус	-10.8407
▁Землю	-10.8407
▁Артур	-10.8408
▁узнала	-10.8411
▁приходил	-10.8413
фу	-10.8413
ною	-10.8413
оль	-10.8414
▁двинулся	-10.8419
ствовал	-10.8426
ОВ	-10.843
▁шепотом	-10.843
▁вежливо	-10.8431
▁бу	-10.8431
▁марта	-10.8432
▁деятельность	-10.8433
▁думали	-10.8435
ьер	-10.8435
▁брак	-10.8436
▁бед	-10.8439
лл	-10.8442
▁молока	-10.8444
▁забыла	-10.8445
▁штат	-10.8445
▁Закон	-10.8446
енс	-10.8446
▁актив	-10.8448
▁Верно	-10.8448
▁Иль	-10.8451
▁голода	-10.8451
▁Слова	-10.8456
ража	-10.8458
▁становятся	-10.8459
усь	-10.8462
▁блок	-10.8462
▁мальчишка	-10.8462
▁Шар	-10.8462
▁успеха	-10.8463
▁называть	-10.8463
тесь	-10.8464
нт	-10.8469
▁Хочу	-10.847
стой	-10.8471
▁Мур	-10.8471
▁Ангел	-10.8474
▁порог	-10.8482
▁спрашиваю	-10.8483
▁Дмитрий	-10.8483
гал	-10.8486
емые	-10.8487
▁отвечать	-10.8489
▁выходу	-10.8492
▁друзьями	-10.8494
▁операции	-10.8497
▁скоростью	-10.85
▁фильм	-10.85
▁огромное	-10.85
▁Эд	-10.8501
▁занятия	-10.8501
▁вызвать	-10.8505
▁крики	-10.8507
▁боится	-10.8508
ывать	-10.8509
рост	-10.851
▁читает	-10.8512
▁казалась	-10.8513
▁руга	-10.8522
емых	-10.8523
изации	-10.8524
▁кармане	-10.8524
▁подробно	-10.8524
▁опасно	-10.8525
▁коло	-10.8526
▁способом	-10.8529
▁тур	-10.853
вай	-10.8531
альных	-10.8532
▁верх	-10.8536
▁непонятно	-10.8538
▁кос	-10.8538
▁Работа	-10.8539
▁Муж	-10.8541
ающие	-10.8541
▁полтора	-10.8544
▁особ	-10.8544
▁Бе	-10.8547
▁белым	-10.8548
▁пел	-10.8549
▁отчетливо	-10.8549
▁романа	-10.855
▁Рим	-10.8552
▁кров	-10.8556
▁напрасно	-10.8557
▁встрече	-10.8557
▁бесконечно	-10.8558
▁фр	-10.856
▁одинаково	-10.8561
▁эконом	-10.8563
▁душой	-10.8564
тис	-10.8566
▁Ше	-10.857
быт	-10.8571
▁высоты	-10.8572
▁Европе	-10.8572
▁Ст	-10.8573
▁вынул	-10.8575
▁возвращается	-10.8576
▁слав	-10.8577
▁Вероятно	-10.8579
▁Чуть	-10.858
▁Могу	-10.8581
▁коридоре	-10.8583
пере	-10.8586
▁помнишь	-10.8594
▁вернее	-10.8597
▁учиться	-10.8603
▁радостью	-10.8607
▁кнопку	-10.8608
игра	-10.861
▁статьи	-10.8611
▁враг	-10.8611
ог	-10.8614
рек	-10.8618
двига	-10.8621
аў	-10.8622
ушки	-10.8623
▁звука	-10.8623
▁вперёд	-10.8625
▁забыли	-10.8626
▁Большой	-10.8628
енно	-10.8629
▁делается	-10.8629
щему	-10.8629
▁разница	-10.863
▁опустился	-10.8633
▁уходить	-10.8636
▁Профессор	-10.8637
▁пу	-10.8639
▁полную	-10.8641
зин	-10.8641
евич	-10.8645
▁тер	-10.8645
▁точнее	-10.8646
▁тел	-10.8646
▁Константин	-10.8647
▁милая	-10.8647
ард	-10.8648
оч	-10.8651
▁глядел	-10.8653
чных	-10.8654
▁нынче	-10.8655
▁лучших	-10.8655
ывая	-10.8658
носит	-10.8659
▁ощутил	-10.8663
▁песню	-10.8666
▁производства	-10.8667
▁ограничен	-10.8668
ура	-10.8669
ивший	-10.867
▁набор	-10.8672
▁термин	-10.8676
▁слаб	-10.8683
▁призрак	-10.8684
▁Всю	-10.8685
▁пищи	-10.869
ост	-10.8692
суд	-10.8693
▁мадам	-10.8693
душ	-10.8694
▁совершен	-10.8695
▁The	-10.8695
▁Аль	-10.8696
веден	-10.8699
▁любое	-10.8699
▁поверх	-10.8701
▁забот	-10.8706
▁вернется	-10.8707
▁собаку	-10.8707
▁каб	-10.8708
▁делаешь	-10.8711
▁находятся	-10.8712
▁отношений	-10.8715
▁пах	-10.8715
▁вход	-10.8722
▁президент	-10.8723
лых	-10.8724
▁черная	-10.8724
▁домик	-10.8726
▁нежели	-10.8727
▁прост	-10.8727
▁прим	-10.8731
▁жители	-10.8737
▁IV	-10.8738
▁площадь	-10.8738
▁узнали	-10.8739
шин	-10.874
▁Смерть	-10.8741
▁демон	-10.8744
пр	-10.8744
▁спрашивал	-10.8744
▁дер	-10.8745
▁красивая	-10.875
▁продолжать	-10.875
слов	-10.8754
▁Причем	-10.8754
▁пилот	-10.8754
ОР	-10.8755
ющимся	-10.8758
▁зимой	-10.8759
▁Кер	-10.8761
▁Париж	-10.8762
▁влияние	-10.8762
▁плод	-10.8764
исты	-10.8765
▁совершил	-10.8769
as	-10.877
▁вторую	-10.8772
▁взгляды	-10.8773
▁подруга	-10.8773
▁сва	-10.8773
▁Семен	-10.8775
▁масса	-10.8776
▁Руки	-10.8777
▁выстрел	-10.8777
▁взглянуть	-10.8779
▁получила	-10.8783
▁растения	-10.8785
▁бояться	-10.8787
▁Тар	-10.8789
▁ремонт	-10.8792
▁остатки	-10.8793
▁300	-10.8793
▁красной	-10.8794
▁октября	-10.8794
фор	-10.8796
▁Май	-10.8798
Ю	-10.8801
▁рус	-10.8802
▁глуп	-10.8804
▁вызвал	-10.8805
▁Слишком	-10.8806
▁позвонил	-10.8806
▁уверена	-10.8806
▁пута	-10.8806
▁лав	-10.8807
▁работой	-10.8808
ствовать	-10.8818
▁великого	-10.8821
▁фронт	-10.8822
пан	-10.8826
▁станут	-10.8827
▁особенности	-10.8827
тащил	-10.8832
▁существу	-10.8833
▁просить	-10.8834
▁держит	-10.8835
▁примет	-10.8838
▁ус	-10.8838
▁Была	-10.8841
пал	-10.8848
▁народов	-10.8849
▁Англии	-10.8851
▁Эль	-10.8852
свет	-10.8854
▁расстояние	-10.8855
▁плечу	-10.8855
мест	-10.8857
фон	-10.8857
▁рабочих	-10.886
▁меры	-10.8864
▁виски	-10.8864
▁густо	-10.8866
▁лучший	-10.8866
▁ПО	-10.8867
▁втором	-10.8867
дз	-10.8868
▁концерт	-10.8869
▁собрались	-10.8869
▁наблюдать	-10.8874
▁Видишь	-10.8875
▁решить	-10.8875
▁единственным	-10.8876
ища	-10.8878
▁апреля	-10.8879
▁повсюду	-10.8879
▁итоге	-10.8881
▁Ивана	-10.8881
▁пусто	-10.8882
▁стих	-10.8882
▁шоссе	-10.8883
▁сперва	-10.8884
ясн	-10.8884
▁молот	-10.8887
▁крут	-10.8888
▁пятна	-10.8888
▁показался	-10.8889
▁разглядеть	-10.8889
▁служит	-10.8891
▁провод	-10.8894
▁Ша	-10.8895
шев	-10.8897
▁выскочил	-10.8898
ad	-10.8899
▁системе	-10.89
▁свин	-10.8901
▁ожидая	-10.8902
▁попытки	-10.8902
ься	-10.8903
▁бокал	-10.8905
▁взрыва	-10.8906
Ч	-10.8908
▁салат	-10.8911
зва	-10.8912
▁защиты	-10.8913
▁компания	-10.8914
дал	-10.8915
▁лом	-10.8915
▁перво	-10.892
▁лапы	-10.892
▁столб	-10.892
▁обратил	-10.892
бежал	-10.8921
▁Ленин	-10.8923
▁прости	-10.8923
▁хозяйка	-10.8924
▁Твой	-10.8924
▁позор	-10.8925
▁порядка	-10.8925
▁странным	-10.8926
разум	-10.8928
▁бел	-10.8929
▁красно	-10.893
▁Всегда	-10.8931
▁камня	-10.8933
чики	-10.8935
мысл	-10.8936
▁установлен	-10.8942
▁отдела	-10.8947
▁твоим	-10.8951
▁целиком	-10.8953
H	-10.8953
истый	-10.8954
▁настоящего	-10.8954
▁Алиса	-10.8956
▁Север	-10.8958
▁корпуса	-10.8958
▁веществ	-10.8958
енными	-10.8958
еры	-10.896
▁глазам	-10.8961
▁реальности	-10.8962
▁мотив	-10.8967
▁скалы	-10.8968
▁Кого	-10.8968
▁повтор	-10.8971
▁ситуацию	-10.8971
▁монет	-10.8972
▁гордо	-10.8972
гой	-10.8972
▁Ад	-10.8974
▁протянула	-10.8976
▁оставили	-10.8979
тр	-10.898
▁дыма	-10.8981
ТА	-10.8981
▁пошло	-10.8982
вшимся	-10.8982
ование	-10.8984
▁вдали	-10.8985
▁плоти	-10.8986
▁спи	-10.8986
▁восьми	-10.8988
▁поехал	-10.8989
▁t	-10.8989
кнул	-10.899
▁звучит	-10.899
▁кро	-10.8991
лип	-10.8991
▁имеется	-10.8992
▁листьев	-10.8996
▁деревню	-10.9
▁тряс	-10.9005
АН	-10.9006
▁соответствии	-10.9008
▁500	-10.9011
▁Мед	-10.9012
▁Вечером	-10.9013
пре	-10.9013
ch	-10.9015
▁января	-10.9016
▁морской	-10.9016
▁Всем	-10.9018
▁закат	-10.9019
▁семью	-10.9019
▁мечты	-10.9021
ита	-10.9022
▁рассказывает	-10.9022
▁основания	-10.9025
альной	-10.9026
▁дитя	-10.9028
▁ночам	-10.9029
▁планы	-10.9029
▁неправильно	-10.9029
кры	-10.903
▁исчезли	-10.9032
▁камней	-10.9035
сц	-10.9039
инка	-10.904
▁ранен	-10.904
▁магазина	-10.9042
ьян	-10.9043
уха	-10.9045
▁шоколад	-10.9046
рю	-10.9047
▁основан	-10.9049
▁Ян	-10.905
▁баба	-10.9051
▁кал	-10.9052
▁веры	-10.9052
▁законы	-10.9055
чем	-10.9057
▁щеки	-10.9058
▁бежит	-10.9059
▁задачи	-10.9059
il	-10.906
▁поворот	-10.9061
▁Голова	-10.9063
▁озеро	-10.9064
▁подряд	-10.9071
▁собственных	-10.9072
▁См	-10.9072
▁мал	-10.9076
бит	-10.9076
▁Тихо	-10.9077
▁150	-10.9078
ада	-10.9079
▁че	-10.9084
вол	-10.9084
ія	-10.9084
▁сказки	-10.9086
▁принимал	-10.9087
▁люб	-10.9087
▁бросить	-10.9091
▁сесть	-10.9092
ri	-10.9093
▁видя	-10.9094
▁Дев	-10.9094
▁Дар	-10.91
▁Юрий	-10.91
низ	-10.9101
губ	-10.9104
▁3)	-10.9106
▁сумку	-10.9106
▁присел	-10.9106
лё	-10.9109
▁трава	-10.9111
▁передо	-10.9116
▁опыта	-10.9116
▁вал	-10.9117
▁наверху	-10.9117
очные	-10.9119
▁Давно	-10.9122
▁чу	-10.9122
рак	-10.9122
енья	-10.9124
▁служил	-10.9124
▁правую	-10.9124
бри	-10.9127
▁членов	-10.9128
▁канал	-10.9128
▁буквы	-10.9131
▁дышать	-10.9132
▁Джим	-10.9134
▁поры	-10.9134
▁дура	-10.9138
▁небу	-10.9142
▁средство	-10.9143
▁миф	-10.9145
▁сум	-10.9145
▁профессора	-10.9147
▁урод	-10.9149
тар	-10.9151
▁испугался	-10.9159
▁приговор	-10.916
▁Богом	-10.9161
▁Её	-10.9161
▁Дор	-10.9161
▁идёт	-10.9164
▁робот	-10.9164
▁шагнул	-10.9166
▁такси	-10.9166
▁сцене	-10.9167
▁откровенно	-10.9171
вёл	-10.9171
шему	-10.9171
▁главного	-10.9172
▁сети	-10.9176
▁идей	-10.9176
▁Жаль	-10.9177
▁групп	-10.9178
▁тишине	-10.9178
▁пройдет	-10.918
▁потолок	-10.918
▁службу	-10.9183
▁Юр	-10.9184
▁маме	-10.9186
▁Извините	-10.9192
▁Знаете	-10.9194
▁декабря	-10.9198
▁товарищи	-10.9203
▁трус	-10.9203
нят	-10.9203
▁Запад	-10.9206
слу	-10.9209
▁разобраться	-10.9209
▁Билл	-10.9209
онов	-10.921
▁куски	-10.9212
▁догадался	-10.9212
вшему	-10.9214
▁незнаком	-10.9215
▁мод	-10.9215
▁этап	-10.9218
▁холодный	-10.9219
руш	-10.9219
бег	-10.9221
▁Ос	-10.9224
▁глухо	-10.9226
▁коль	-10.9233
▁создан	-10.9234
▁Вселенной	-10.9234
▁бело	-10.9236
▁закричала	-10.9238
▁реклам	-10.924
бал	-10.9241
▁Сав	-10.9245
▁возвращаться	-10.9248
▁Ричард	-10.9253
льд	-10.9257
▁талант	-10.9258
▁самих	-10.9258
▁возраст	-10.9258
▁скорей	-10.9258
▁цивилизации	-10.9259
ьная	-10.9259
▁усилия	-10.9262
▁девушке	-10.9263
▁добиться	-10.9264
▁борьбе	-10.9265
▁предметы	-10.9265
▁красным	-10.9266
▁сообщение	-10.9272
▁вспоминал	-10.9275
телю	-10.9275
ложив	-10.9276
▁проклят	-10.9278
▁высокого	-10.9279
▁думая	-10.928
▁зеленые	-10.9281
▁дедушка	-10.9285
▁бутылки	-10.9286
▁тысячу	-10.9287
▁упражнения	-10.9287
▁суток	-10.9288
бен	-10.9291
▁программы	-10.9292
▁направление	-10.9293
НИ	-10.9293
▁пород	-10.9295
▁Мат	-10.93
▁убийство	-10.9302
▁звезда	-10.9302
▁заключается	-10.9303
▁рюкзак	-10.9303
▁узнает	-10.9304
▁жадно	-10.9305
фо	-10.9305
алась	-10.9307
▁пошёл	-10.9308
▁детали	-10.9309
▁собираюсь	-10.931
▁Коль	-10.9311
▁союз	-10.9313
▁мышцы	-10.9313
▁дабы	-10.9317
▁гостиной	-10.932
ирование	-10.9321
▁очистить	-10.9322
▁Ран	-10.9324
▁памятник	-10.9324
рки	-10.9326
▁животное	-10.9326
▁сия	-10.9327
▁Пойдем	-10.9328
▁возврат	-10.9329
▁7.	-10.933
инки	-10.9333
▁стыд	-10.9334
▁массив	-10.9335
▁Молодой	-10.9336
▁протяжении	-10.9337
▁гал	-10.9337
▁техники	-10.9337
▁Благо	-10.9337
▁процессе	-10.9337
▁теми	-10.9338
▁землян	-10.934
▁признать	-10.934
▁Гол	-10.9342
▁избежать	-10.9344
▁бывал	-10.9347
▁придумал	-10.9348
еет	-10.9352
▁собственные	-10.9352
нар	-10.9353
▁Старый	-10.9354
ЛА	-10.9355
рок	-10.9356
▁любим	-10.9357
▁Мастер	-10.9358
▁водки	-10.9358
цом	-10.9359
▁Ивановна	-10.9362
▁башни	-10.9364
▁бетон	-10.9365
▁природа	-10.9366
▁твоему	-10.9367
▁ор	-10.9367
▁пива	-10.9368
▁прямой	-10.937
▁зверя	-10.9371
▁Син	-10.9372
▁Год	-10.9377
▁чувством	-10.9378
▁Первая	-10.9379
▁положено	-10.9379
▁жду	-10.9386
▁ветром	-10.9387
▁Васильевич	-10.9389
▁домом	-10.939
▁назван	-10.9391
аясь	-10.9391
▁человечество	-10.9391
оне	-10.9391
ике	-10.9392
▁наук	-10.9393
▁знакомых	-10.9393
▁правы	-10.9394
▁комнат	-10.9394
▁револьвер	-10.9395
▁пили	-10.9398
▁улыбается	-10.9399
ику	-10.9399
ово	-10.9399
▁подал	-10.94
▁начинаю	-10.9401
зар	-10.9401
▁доказать	-10.9403
пущен	-10.9404
шко	-10.9406
▁пейзаж	-10.9408
десят	-10.9411
лина	-10.9413
▁Машина	-10.9413
▁жу	-10.9416
голов	-10.9417
▁маму	-10.9421
ечка	-10.9422
▁осмотрел	-10.9423
▁помещение	-10.9424
мира	-10.9426
▁волна	-10.9428
▁устало	-10.9428
▁мертв	-10.943
▁перебил	-10.943
▁тре	-10.9432
▁отдохнуть	-10.9433
водит	-10.9438
▁случая	-10.9439
ьные	-10.9439
нат	-10.944
▁крем	-10.9444
▁включая	-10.9446
▁приятель	-10.9446
▁черном	-10.9448
яться	-10.945
▁флот	-10.9451
▁ред	-10.9452
▁Маг	-10.9452
▁позволить	-10.9453
▁Здравствуйте	-10.9459
▁объект	-10.946
▁Стоит	-10.9461
▁Бат	-10.9463
▁Тоже	-10.9465
▁выполнять	-10.9466
▁газету	-10.9468
сер	-10.9468
▁неподалеку	-10.9468
▁казались	-10.9469
▁90	-10.947
▁Должно	-10.9471
хар	-10.9477
уса	-10.9478
▁стула	-10.9481
топ	-10.9483
▁погреб	-10.9488
▁художника	-10.9489
▁делаю	-10.9489
▁мелкие	-10.9492
▁Генерал	-10.9492
▁сюжет	-10.9494
дет	-10.95
▁матерью	-10.95
▁настоящим	-10.9501
▁//	-10.9505
▁характера	-10.9505
▁устав	-10.9507
▁двести	-10.9508
▁костра	-10.9508
жение	-10.951
ОЙ	-10.9511
енка	-10.9512
▁получает	-10.9513
▁вопроса	-10.9514
вез	-10.9514
▁спины	-10.9514
▁позвал	-10.9515
▁кабинета	-10.9516
били	-10.9517
нное	-10.9518
▁вылез	-10.9519
▁положила	-10.952
▁занимался	-10.9522
▁бросила	-10.9524
▁массу	-10.9532
▁Великий	-10.9533
▁отчет	-10.9534
▁хи	-10.9534
▁бумагу	-10.9534
▁Правильно	-10.9535
▁отправились	-10.9537
▁своя	-10.954
▁доклад	-10.954
▁Гри	-10.9541
▁играли	-10.9543
▁густой	-10.9546
▁боевой	-10.9547
▁Пят	-10.9547
▁убили	-10.955
▁неудач	-10.955
▁мор	-10.9552
▁пользоваться	-10.9555
▁наука	-10.9555
▁История	-10.9556
▁бре	-10.9556
ования	-10.9559
▁общей	-10.956
▁сторож	-10.956
▁прохлад	-10.9561
▁громче	-10.9564
ирования	-10.9565
▁рассказы	-10.9566
мъ	-10.9566
▁люк	-10.9566
▁впоследствии	-10.9567
▁яйцо	-10.9568
бира	-10.9572
▁Эн	-10.9572
▁мамы	-10.9572
▁песня	-10.9573
▁сорока	-10.9574
▁усы	-10.9578
ыр	-10.9578
▁пункт	-10.9581
нда	-10.9581
▁посвящен	-10.9583
▁Майк	-10.9583
▁пулемет	-10.9584
чник	-10.9585
стрел	-10.9585
▁Гре	-10.9586
▁нравилось	-10.9589
сла	-10.9592
▁Петра	-10.9596
▁обмен	-10.9596
▁проводил	-10.9596
▁мут	-10.96
▁слезами	-10.9602
ьных	-10.9608
▁еврей	-10.9609
▁рва	-10.9611
▁Сразу	-10.9611
▁важное	-10.9612
▁данных	-10.9616
▁коров	-10.9618
▁согласилась	-10.9618
▁Артем	-10.962
▁увидишь	-10.9629
яд	-10.963
▁работали	-10.9632
▁авторитет	-10.9633
▁настоящая	-10.9634
▁Ком	-10.9636
ара	-10.9637
▁скандал	-10.964
▁половина	-10.9641
▁научно	-10.9641
▁напряженно	-10.9641
▁удавалось	-10.9641
▁позднее	-10.9642
▁моё	-10.9644
▁Зо	-10.9644
▁уз	-10.9645
▁Дядя	-10.9645
▁лат	-10.9647
▁расчет	-10.9647
▁Ген	-10.9648
▁открыв	-10.965
▁здоровья	-10.965
▁Влад	-10.965
рес	-10.9652
▁начальника	-10.9652
▁шеф	-10.9653
▁поведения	-10.9653
дол	-10.9653
▁сравнению	-10.9655
▁разговоры	-10.9656
▁список	-10.9659
▁араб	-10.966
▁глубины	-10.966
▁сцены	-10.9663
▁заорал	-10.9664
▁Бабушка	-10.9666
▁большом	-10.9666
▁доступ	-10.9666
▁богов	-10.9668
▁ноября	-10.9669
▁ситуация	-10.967
▁тяжелый	-10.967
▁крикнула	-10.9671
▁лов	-10.9673
▁мрамор	-10.9674
▁Петербург	-10.9674
▁Рад	-10.9674
▁выпил	-10.968
▁пиво	-10.9687
▁вдвоем	-10.9687
▁бросилась	-10.9688
ительный	-10.9689
▁мар	-10.969
▁врача	-10.9691
▁отцов	-10.9692
▁судить	-10.9694
▁сует	-10.9695
▁слышит	-10.9695
▁подошли	-10.9696
▁креп	-10.9697
ьную	-10.97
▁изнутри	-10.9701
▁Цар	-10.9701
▁известный	-10.9703
▁результаты	-10.9703
▁заговор	-10.9705
▁выяснить	-10.9707
▁Бело	-10.9708
▁кусты	-10.9708
▁полным	-10.971
ело	-10.9716
▁отдельно	-10.9717
▁плакать	-10.9718
▁Мишка	-10.9719
▁пря	-10.9721
▁пота	-10.9721
▁артист	-10.9722
вшими	-10.9723
▁32	-10.9726
▁бегу	-10.973
▁Аб	-10.973
▁выбрал	-10.9731
▁планет	-10.9733
сып	-10.9736
▁трубы	-10.9738
▁встретиться	-10.9739
роч	-10.9743
▁платок	-10.9745
▁Гон	-10.9745
▁случится	-10.9745
кину	-10.9746
оте	-10.975
нор	-10.9751
▁поцеловал	-10.9752
▁запрет	-10.9753
▁мет	-10.9754
▁улицам	-10.9754
▁кончик	-10.9754
▁новом	-10.9756
дите	-10.9756
▁Пас	-10.9756
▁взялся	-10.9757
нного	-10.976
▁веке	-10.9762
ЕН	-10.9763
▁какому	-10.9764
есь	-10.9766
▁последняя	-10.9766
▁сего	-10.9766
думал	-10.9767
▁неизбежно	-10.9768
▁туалет	-10.9771
▁тетя	-10.9771
▁находилась	-10.9772
▁удивлением	-10.9772
▁систем	-10.9775
▁мышц	-10.9776
▁последним	-10.978
▁начнет	-10.9781
▁ложка	-10.9782
▁Джеймс	-10.9786
гнал	-10.9788
▁явления	-10.9788
▁модель	-10.9789
▁страдания	-10.979
▁хотим	-10.979
▁принялась	-10.9791
▁Смит	-10.9796
▁X	-10.9797
▁границы	-10.9804
▁Послушай	-10.9805
▁сможете	-10.9806
▁фирмы	-10.9807
▁голубой	-10.981
▁двоих	-10.9814
▁привет	-10.9814
▁поверил	-10.9817
▁спустился	-10.9818
▁Другой	-10.9821
g	-10.9822
▁показалась	-10.9822
▁парк	-10.9822
▁Пе	-10.9825
▁огород	-10.9826
▁атом	-10.9826
▁высокие	-10.9828
▁приехали	-10.9829
▁вздох	-10.9829
▁псих	-10.9829
▁театра	-10.9829
жит	-10.9832
▁снегу	-10.9832
зр	-10.9834
ником	-10.9839
▁грохот	-10.9839
▁скажите	-10.984
▁получив	-10.984
▁боги	-10.984
▁Ради	-10.9843
▁сидят	-10.9844
ушек	-10.9847
▁процентов	-10.9849
▁70	-10.985
анс	-10.985
▁попробовать	-10.9851
▁инспектор	-10.9852
▁бою	-10.9855
▁принимает	-10.9855
▁лодки	-10.9858
▁Тра	-10.9858
▁понимала	-10.986
▁облик	-10.9866
сса	-10.9867
▁попробовал	-10.987
ялся	-10.987
▁девочку	-10.9871
берт	-10.9873
▁пояснил	-10.9873
кле	-10.9874
▁завтрак	-10.9875
▁плоть	-10.9877
▁ак	-10.988
▁красного	-10.9883
действительности	-10.9885
ходим	-10.9886
▁акт	-10.9887
анье	-10.9889
▁согласен	-10.9889
▁надолго	-10.989
▁представил	-10.9893
▁петь	-10.9895
▁стан	-10.9895
re	-10.9896
▁духом	-10.9897
кі	-10.9899
▁существуют	-10.9901
▁глубже	-10.9902
▁сделан	-10.9905
▁строить	-10.9907
Ш	-10.991
▁notes	-10.9913
▁пишу	-10.9915
▁странные	-10.9916
”,	-10.9916
бол	-10.9918
▁полная	-10.9918
▁обладает	-10.9919
▁остановиться	-10.9921
▁ощущал	-10.9922
▁любишь	-10.9923
▁взглянула	-10.9925
▁набрал	-10.9925
клад	-10.9925
▁кораблей	-10.9928
▁рухнул	-10.9931
▁ежедневно	-10.9931
▁приняли	-10.9933
▁повыше	-10.9937
▁начинал	-10.9937
▁подвод	-10.9941
под	-10.9942
▁путешествие	-10.9943
▁глянул	-10.9943
Х	-10.9943
at	-10.9945
▁высоких	-10.9945
▁собственный	-10.9945
ач	-10.9945
ливая	-10.9951
▁полного	-10.9952
▁понравилось	-10.9953
веч	-10.9956
▁Самое	-10.9956
▁кухни	-10.9957
▁Суд	-10.9961
▁носил	-10.9963
▁иной	-10.9966
▁карт	-10.9967
чё	-10.9967
▁тайну	-10.9967
ленный	-10.9969
▁встречу	-10.9971
▁грязи	-10.9975
кою	-10.9976
▁чая	-10.9979
▁замолчал	-10.9982
▁точка	-10.9982
нис	-10.9982
▁образования	-10.9983
▁n	-10.9983
▁механизм	-10.9984
хот	-10.9984
▁порыв	-10.9984
▁горя	-10.9985
▁Лит	-10.9985
▁исключением	-10.9987
▁убивать	-10.9987
▁реку	-10.9991
▁чин	-10.9993
▁Сергеевич	-10.9995
8	-10.9996
▁кап	-10.9996
▁Ворон	-10.9998
▁отказаться	-10.9998
▁людях	-11.0003
дают	-11.0004
звуч	-11.0006
▁полета	-11.0006
▁терпеть	-11.0008
▁кучу	-11.0008
▁работают	-11.0009
▁обрадовался	-11.001
Ь	-11.0012
▁своём	-11.0016
▁вспомнила	-11.0017
▁Мисс	-11.0017
▁литературе	-11.002
▁сход	-11.0021
▁заняться	-11.0021
лез	-11.0021
тре	-11.0024
сия	-11.0024
иан	-11.0024
▁взяв	-11.0026
▁близ	-11.0026
порт	-11.0032
▁y	-11.0033
▁ресторан	-11.0033
▁приду	-11.0034
▁зашел	-11.0037
▁черта	-11.0038
▁военных	-11.004
▁убор	-11.004
▁наклон	-11.0041
▁режим	-11.0043
▁галстук	-11.0043
▁носу	-11.0045
атив	-11.0045
▁дворец	-11.0047
▁детектив	-11.0049
▁подход	-11.0049
▁бывший	-11.005
▁зараз	-11.0052
▁сцену	-11.0053
▁невероятно	-11.0054
▁h	-11.0054
▁охотно	-11.0055
▁сообщить	-11.0056
▁единого	-11.0057
того	-11.0059
▁жертву	-11.0059
▁совести	-11.0061
▁предварительно	-11.0061
▁асфальт	-11.0062
крас	-11.0063
▁Фар	-11.0065
▁названия	-11.0066
Ц	-11.0067
▁поступил	-11.0068
▁Лис	-11.0069
жал	-11.007
ливый	-11.0072
▁видят	-11.0073
нке	-11.0073
▁сапоги	-11.0074
▁угла	-11.0075
▁университет	-11.0077
▁тайна	-11.008
▁двигатель	-11.0081
▁уничтожить	-11.0082
▁варвар	-11.0082
бегает	-11.0084
▁Пес	-11.0084
▁достать	-11.0085
▁'	-11.0088
▁прибор	-11.0088
▁раскрыт	-11.0089
▁Хор	-11.0092
▁Мен	-11.0092
▁отпуск	-11.0095
▁ошибки	-11.0095
▁личность	-11.0097
пп	-11.0098
▁Дух	-11.01
тес	-11.0103
▁древних	-11.0104
шкой	-11.0106
▁действует	-11.0107
▁закона	-11.0107
мена	-11.011
ЕЙ	-11.0113
овом	-11.0113
▁привел	-11.0116
▁метро	-11.0116
▁собрался	-11.0117
▁преступления	-11.0117
йд	-11.0121
▁позиции	-11.0122
▁мешает	-11.0122
▁следов	-11.0123
ею	-11.0123
▁тро	-11.0124
фин	-11.0125
вшееся	-11.0125
▁Тан	-11.0127
▁бороться	-11.0127
▁Вал	-11.0127
▁жестоко	-11.0127
▁кладбище	-11.0128
▁затих	-11.0129
▁мастера	-11.013
▁дольше	-11.0131
шир	-11.0133
цам	-11.0134
▁ru	-11.0135
▁Наша	-11.0135
▁покажу	-11.0136
НО	-11.0137
▁предстоит	-11.0137
▁наклонился	-11.0138
▁этажа	-11.0138
рош	-11.0141
▁хорош	-11.0141
▁прочих	-11.0142
хов	-11.0143
▁гар	-11.0144
▁составляет	-11.0146
▁убежден	-11.0146
▁коз	-11.0147
▁вечеру	-11.0147
▁Ночь	-11.0149
▁эпохи	-11.015
▁частей	-11.0154
▁урок	-11.0156
▁содержание	-11.0156
▁мужем	-11.0156
▁делала	-11.0158
чувств	-11.0161
чкой	-11.0165
▁див	-11.0166
вела	-11.0168
▁Чарли	-11.017
▁весной	-11.0173
▁опубликован	-11.0174
рож	-11.0174
▁отправиться	-11.0174
▁клетки	-11.0175
▁Первым	-11.0175
▁ряда	-11.0176
▁брал	-11.0177
пом	-11.0178
▁минимум	-11.0178
пек	-11.018
▁Хватит	-11.018
▁Совершенно	-11.0181
▁половины	-11.0185
дем	-11.0185
▁изображение	-11.0189
вери	-11.0189
▁живо	-11.019
▁стенах	-11.0191
аны	-11.0191
альным	-11.0193
пев	-11.0193
▁умею	-11.0195
▁разума	-11.0197
▁миль	-11.0197
▁ножом	-11.0199
▁реп	-11.0206
▁получен	-11.0207
▁документ	-11.0211
▁Очевидно	-11.0212
▁гр	-11.0212
▁банки	-11.0213
▁вызван	-11.0215
▁лев	-11.0216
▁покор	-11.0216
нок	-11.0217
▁молчит	-11.0217
льная	-11.0219
▁силами	-11.022
▁кристалл	-11.0221
▁плачет	-11.0222
▁святой	-11.0223
грыз	-11.0226
▁истины	-11.0228
▁расп	-11.0232
▁лаборатории	-11.0233
нешь	-11.0236
▁носа	-11.0237
▁гон	-11.0237
▁якобы	-11.0237
▁хорошенько	-11.0237
▁единственное	-11.0238
тки	-11.0239
мот	-11.0242
▁удивлен	-11.0244
▁считали	-11.0245
▁зад	-11.0245
▁команду	-11.0246
▁страда	-11.0248
пле	-11.025
▁платья	-11.0252
▁направо	-11.0253
▁ён	-11.0253
▁холма	-11.0254
▁расположен	-11.0254
▁нередко	-11.0255
несли	-11.0258
▁выпуск	-11.0262
▁цикл	-11.0263
▁одеяло	-11.0264
▁став	-11.0264
▁ох	-11.0265
▁сан	-11.0265
▁коридору	-11.0266
et	-11.0268
▁похожа	-11.0269
▁Денис	-11.027
▁пары	-11.027
▁собрать	-11.0272
анный	-11.0273
▁вещества	-11.0273
▁земной	-11.0273
▁смело	-11.0274
▁код	-11.0274
иц	-11.0276
▁передал	-11.0276
▁Слово	-11.0278
▁уст	-11.0284
хин	-11.0284
▁фразу	-11.0285
▁достижения	-11.0286
▁чуд	-11.0286
ОЛ	-11.0286
▁неужели	-11.0287
▁видны	-11.0294
▁соблазн	-11.0295
▁надеялся	-11.0297
▁пыл	-11.0297
▁мудр	-11.03
▁данный	-11.0302
▁Лиз	-11.0303
спо	-11.0303
▁дуб	-11.0307
опыт	-11.0308
▁Рассказ	-11.031
ывает	-11.031
▁дико	-11.031
▁попали	-11.0311
▁000	-11.0318
ивать	-11.0319
▁кис	-11.0322
▁бархат	-11.0322
▁Томас	-11.0325
▁лучшие	-11.0327
ОН	-11.0327
▁чистой	-11.0328
▁левую	-11.0328
▁братьев	-11.0328
ируя	-11.0328
▁ходят	-11.0329
жат	-11.0331
▁буркнул	-11.0331
▁заключен	-11.0334
▁пешком	-11.0335
▁рассматривал	-11.0339
▁помнить	-11.034
▁борту	-11.034
несла	-11.0341
▁удивилась	-11.0342
▁болта	-11.0344
▁пух	-11.0344
очной	-11.0344
▁кулаком	-11.0352
▁потребовал	-11.0354
▁крыши	-11.0354
бан	-11.0356
▁Примечания	-11.0356
кать	-11.0358
▁Ста	-11.0359
▁Добро	-11.036
льный	-11.036
▁некуда	-11.0361
мышлен	-11.0363
верен	-11.0365
рот	-11.0367
▁игр	-11.0369
▁такому	-11.0369
▁установить	-11.037
▁особого	-11.0375
▁попросила	-11.0375
▁растерянно	-11.0377
▁красивый	-11.0377
ir	-11.038
лис	-11.038
▁соч	-11.0384
▁человеческих	-11.0386
▁помогать	-11.0386
▁предан	-11.039
днев	-11.0392
аются	-11.0393
▁Мик	-11.0395
▁слеп	-11.0399
▁замечательно	-11.0401
▁энергию	-11.0404
▁шага	-11.0404
▁улыбался	-11.0405
▁громад	-11.0409
▁g	-11.0412
▁поэзии	-11.0412
▁Христос	-11.0417
▁гибели	-11.0418
▁риск	-11.0419
▁делах	-11.042
▁Бас	-11.0421
оди	-11.0422
▁велосипед	-11.0425
оваться	-11.0425
▁постучал	-11.0428
▁разряд	-11.0428
▁второе	-11.043
эм	-11.0431
▁Мам	-11.0431
▁любили	-11.0433
▁шофер	-11.0433
сси	-11.0434
▁ар	-11.0434
ром	-11.0435
▁грязь	-11.0441
▁ан	-11.0442
▁глава	-11.0443
над	-11.0445
▁тихий	-11.0446
▁февраля	-11.0446
▁записи	-11.0447
▁сделано	-11.0448
▁мужчину	-11.0449
▁носить	-11.045
мур	-11.0451
▁Тим	-11.0452
▁маршрут	-11.0452
▁Перевод	-11.0452
▁одних	-11.0453
▁пальца	-11.0454
▁страшный	-11.0454
▁боже	-11.0457
▁получал	-11.046
▁гряд	-11.0462
▁повторял	-11.0465
ящих	-11.0465
▁слон	-11.0466
▁Были	-11.0467
▁карандаш	-11.0468
ящие	-11.0472
хан	-11.0472
▁гору	-11.0472
▁прах	-11.0475
▁пищу	-11.0475
▁эксперимент	-11.0479
▁команда	-11.0479
▁Будто	-11.048
▁бак	-11.0482
▁Пришлось	-11.0482
▁открылась	-11.0482
▁Волк	-11.0486
вый	-11.0488
▁классе	-11.0488
▁ужасом	-11.049
▁штаны	-11.049
резать	-11.0491
ька	-11.0496
▁кредит	-11.0499
аты	-11.0501
▁предупредил	-11.0501
▁половине	-11.0502
▁подбородок	-11.0502
▁Сквозь	-11.0504
▁треск	-11.0505
▁округ	-11.0508
▁сухой	-11.0509
▁тобою	-11.0509
▁болот	-11.0511
нувшись	-11.0512
▁партнер	-11.0512
▁начиная	-11.0512
▁сладко	-11.0515
▁корабле	-11.0515
▁живым	-11.0516
▁назначен	-11.0517
▁Быстро	-11.0519
▁чужие	-11.0519
▁Петя	-11.0521
шими	-11.0521
▁ткани	-11.0524
▁встретить	-11.0524
▁поймал	-11.0524
▁сине	-11.0526
▁страсть	-11.0535
▁1/	-11.0535
дам	-11.0537
вернут	-11.0537
▁сели	-11.0539
▁собеседник	-11.054
▁стрелять	-11.054
▁прочитал	-11.0541
▁полка	-11.0541
▁больной	-11.0542
▁шляпу	-11.0543
▁повесил	-11.0544
уп	-11.0544
▁похожий	-11.0545
▁парни	-11.0546
▁обнял	-11.0547
▁Дан	-11.0551
▁Лин	-11.0553
▁нету	-11.0555
▁официант	-11.0557
▁Ус	-11.0561
▁прыгнул	-11.0562
▁пове	-11.0562
▁думают	-11.0562
▁сигарету	-11.0563
▁изъ	-11.0567
фф	-11.0568
евой	-11.0568
▁колдун	-11.0568
▁сильным	-11.0569
▁залить	-11.0571
▁всюду	-11.0575
▁принести	-11.0576
▁подхватил	-11.0577
▁девушек	-11.0579
▁буд	-11.058
▁транс	-11.0581
▁сердцу	-11.0584
▁гу	-11.0584
▁34	-11.0585
ителей	-11.0586
▁дыша	-11.0587
▁глазом	-11.0591
▁Увы	-11.0591
▁поиски	-11.0592
▁ведут	-11.0592
▁придумать	-11.0596
▁кусочек	-11.0596
стон	-11.0601
ице	-11.0601
▁Глеб	-11.0603
▁Сон	-11.0606
▁реальность	-11.0606
▁имея	-11.0608
▁бас	-11.061
лой	-11.061
▁Короче	-11.0611
▁Хи	-11.0612
▁справиться	-11.0614
▁Обо	-11.0614
жива	-11.0614
▁выходить	-11.0614
▁налево	-11.0615
рем	-11.0615
▁тяжелые	-11.0616
▁зелень	-11.0616
ируют	-11.062
▁хвостом	-11.0621
▁продукты	-11.0623
▁кругу	-11.0625
N	-11.0627
▁собирались	-11.0627
▁штука	-11.0627
▁стоп	-11.0628
▁Впервые	-11.0628
емой	-11.0628
▁редактор	-11.0628
▁внутренней	-11.0629
▁кричать	-11.0629
▁страстно	-11.0631
▁Оста	-11.0633
вести	-11.0633
▁психолог	-11.0639
▁приготовлен	-11.0639
▁фамилия	-11.0642
▁Уч	-11.0643
▁упорно	-11.0648
▁Шу	-11.0648
▁бить	-11.0649
▁отношениях	-11.065
▁пестр	-11.065
▁легкий	-11.0651
▁капель	-11.0652
бре	-11.0653
▁черным	-11.0653
▁замерз	-11.0656
▁цветами	-11.0656
▁давали	-11.0657
▁Понял	-11.0661
▁подвиг	-11.0662
акт	-11.0662
▁отнес	-11.0666
▁задание	-11.0666
▁Увидев	-11.0667
▁стена	-11.0668
тых	-11.067
ичный	-11.0672
▁внешне	-11.0674
▁берез	-11.0674
▁ошибка	-11.0676
▁побольше	-11.0677
▁Хан	-11.0677
▁платить	-11.0678
▁вдох	-11.0679
▁пуст	-11.0681
кладывать	-11.0683
▁Вода	-11.0684
онос	-11.0687
лая	-11.0691
▁смеша	-11.0693
▁обеих	-11.0695
▁золота	-11.0697
▁видов	-11.0698
▁четверо	-11.0701
▁убийства	-11.0701
иста	-11.0702
▁попыталась	-11.0702
▁небрежно	-11.0705
▁ЗА	-11.0708
▁цветок	-11.0708
▁несет	-11.0712
▁Судя	-11.0713
▁подняв	-11.0714
▁автоматически	-11.0714
АР	-11.0718
▁лестницы	-11.0719
▁враща	-11.0719
▁тонкие	-11.0722
▁причиной	-11.0722
▁Парень	-11.0724
▁чести	-11.0726
▁Женя	-11.0726
▁сыном	-11.0726
▁Немного	-11.0726
пят	-11.0727
чий	-11.0728
▁темной	-11.0729
▁планета	-11.073
▁помолчал	-11.0734
▁Сказал	-11.0735
▁парад	-11.0735
▁ожидании	-11.0736
▁Бра	-11.074
лай	-11.0741
тил	-11.0742
▁смеяться	-11.0742
▁ходе	-11.0742
тал	-11.0742
▁испытывал	-11.0743
▁предлагает	-11.0745
▁государство	-11.0746
▁утоп	-11.0747
▁массы	-11.0749
▁современной	-11.0749
бери	-11.075
▁шпион	-11.075
▁царство	-11.0752
▁Сара	-11.0756
▁чудес	-11.0756
▁номера	-11.0756
ившийся	-11.0757
▁устройство	-11.0758
▁вопросом	-11.0758
▁Входит	-11.076
тек	-11.0761
▁океана	-11.0761
▁хмыкнул	-11.0761
▁огромная	-11.0762
▁Последний	-11.0763
▁Вроде	-11.0766
▁фе	-11.0766
▁выбрать	-11.0767
▁обход	-11.0769
▁Цел	-11.0771
бур	-11.0773
▁Рей	-11.0775
▁Около	-11.0776
див	-11.0776
▁освещен	-11.0778
▁длинными	-11.0778
▁последствия	-11.0781
▁процесса	-11.0781
оў	-11.0782
▁занавес	-11.0783
▁холода	-11.0783
▁рога	-11.0784
▁жертв	-11.0784
▁отметил	-11.0784
▁решился	-11.0787
▁Видно	-11.0788
▁крупные	-11.0789
▁сном	-11.079
▁черными	-11.0791
ЕР	-11.0792
▁случаев	-11.0792
▁ничуть	-11.0793
▁поднялись	-11.0793
▁летит	-11.0794
▁Европы	-11.0796
сона	-11.0797
▁ответственность	-11.0798
▁герои	-11.0802
▁веки	-11.0804
лета	-11.0805
ent	-11.0806
▁ветру	-11.0807
▁ученые	-11.0808
▁дневник	-11.0809
чев	-11.0811
дру	-11.0812
▁одежда	-11.0816
▁отвар	-11.0816
▁дву	-11.0819
▁неуверенно	-11.0826
▁привез	-11.0827
чиков	-11.0829
▁центра	-11.083
▁Михайлович	-11.083
▁мило	-11.0831
▁пришёл	-11.0835
ест	-11.0837
▁Хотел	-11.0841
▁свойства	-11.0842
▁магнит	-11.0843
кали	-11.0844
▁долю	-11.0844
▁Российской	-11.0844
▁успев	-11.0844
▁действ	-11.0845
очных	-11.0848
ающих	-11.0852
▁рада	-11.0853
▁блеск	-11.0855
▁завет	-11.0857
▁садится	-11.0858
▁сада	-11.0859
▁изменилось	-11.0859
▁Каким	-11.0861
▁маленьким	-11.0865
▁неизменно	-11.0868
▁вернусь	-11.0869
▁боялась	-11.087
▁посмотрим	-11.087
▁встретились	-11.0874
▁крыше	-11.0875
▁Луна	-11.0879
▁скот	-11.0879
ске	-11.088
вую	-11.0881
▁яростно	-11.0884
рэ	-11.0885
▁убрал	-11.0889
▁Ваша	-11.0889
▁планету	-11.0889
▁подвал	-11.0892
▁горах	-11.0894
мок	-11.0896
хал	-11.0896
▁Боюсь	-11.0897
▁отлича	-11.0897
▁широкой	-11.0898
▁задач	-11.0902
▁оружием	-11.0902
верг	-11.0912
▁мораль	-11.0912
▁смеется	-11.0914
▁Пра	-11.0915
мана	-11.0917
▁создание	-11.0917
▁ребенком	-11.0921
▁ожидать	-11.0924
▁Крис	-11.0924
▁попала	-11.0924
▁увидит	-11.0924
▁био	-11.0925
▁выяснилось	-11.0925
▁черту	-11.0925
▁напоминает	-11.0926
▁пропал	-11.0929
▁блюдо	-11.0932
▁пир	-11.0932
▁носит	-11.0932
▁Другие	-11.0933
▁запомнил	-11.0937
▁покинул	-11.0941
▁открыто	-11.0942
▁уходил	-11.0945
жав	-11.095
▁Ке	-11.095
инский	-11.0951
▁сможешь	-11.0952
кси	-11.0956
▁Бал	-11.0958
глаз	-11.0958
очками	-11.096
▁плюс	-11.096
▁поражен	-11.0961
▁культур	-11.0962
▁городов	-11.0962
▁понятие	-11.0963
▁верхней	-11.0966
▁Трудно	-11.0968
▁интересом	-11.097
тельная	-11.097
▁Тер	-11.097
▁воспользоваться	-11.0974
▁греш	-11.0974
▁стеной	-11.0974
▁ост	-11.0977
▁десятки	-11.098
▁Пит	-11.0983
▁спеша	-11.0983
▁охотник	-11.0983
▁Пос	-11.0983
▁___	-11.0984
ia	-11.0984
▁прожил	-11.0985
▁бомб	-11.0986
▁превратился	-11.0986
▁сыну	-11.0988
▁Пушкина	-11.0989
▁Дела	-11.0992
▁адвокат	-11.0992
▁люд	-11.0994
▁отдых	-11.0996
▁признался	-11.0996
▁наполовину	-11.0999
▁дорог	-11.1004
▁Чай	-11.1004
▁девчонка	-11.1008
▁острове	-11.1008
▁посоветовал	-11.1009
▁белыми	-11.1011
▁дорого	-11.1012
▁Лю	-11.1012
▁страницы	-11.1016
▁сомнений	-11.1016
бле	-11.1021
▁Ху	-11.1021
▁Голуб	-11.1022
▁министр	-11.1023
▁Первое	-11.1023
зон	-11.1025
▁Никаких	-11.1026
▁плеч	-11.1028
▁поспешил	-11.1033
▁считается	-11.1034
▁уха	-11.1037
▁гриб	-11.1038
▁нога	-11.1043
▁Кос	-11.1044
▁Видите	-11.1044
▁Ля	-11.1046
▁забыв	-11.1047
▁развернул	-11.1047
▁плавно	-11.1049
линг	-11.1049
▁Россию	-11.1052
▁вправо	-11.1053
▁Боль	-11.1054
▁сообразил	-11.1058
▁негромко	-11.106
▁Джа	-11.106
▁уверены	-11.1061
▁малейшего	-11.1062
уг	-11.1062
▁рассказала	-11.1063
▁писателей	-11.1063
▁Пять	-11.1064
▁поколения	-11.1065
▁лежать	-11.1065
нулась	-11.1068
▁мел	-11.1068
▁чудеса	-11.1069
▁доход	-11.107
▁карту	-11.1071
▁объяснял	-11.1072
▁мечтал	-11.1073
ченко	-11.1077
▁бытия	-11.1078
▁подъем	-11.108
▁Смотрите	-11.1081
▁принесла	-11.1082
ители	-11.1082
▁робко	-11.1083
▁плане	-11.1083
▁Помню	-11.1083
▁жа	-11.1084
нцев	-11.1084
▁путешествия	-11.1085
▁паспорт	-11.1088
▁Дима	-11.1089
▁улыбку	-11.1089
нял	-11.1093
▁следить	-11.1094
▁уселся	-11.1096
хожу	-11.1097
▁Марс	-11.1099
▁кинжал	-11.11
▁лодка	-11.1102
▁серые	-11.1102
▁заставляет	-11.1103
▁умолк	-11.1103
os	-11.1104
▁куб	-11.1105
▁выгод	-11.1105
▁Бол	-11.1105
знач	-11.1107
▁пахнет	-11.111
▁почита	-11.111
ныя	-11.1111
▁добавила	-11.1112
чко	-11.1114
▁героев	-11.1116
▁халат	-11.1116
нский	-11.1116
▁захотел	-11.1117
▁использовал	-11.1117
ального	-11.1118
▁тремя	-11.1119
▁сложил	-11.112
▁поднимается	-11.112
▁помните	-11.112
ивают	-11.1121
▁эпизод	-11.1122
▁господина	-11.1124
▁темноты	-11.1124
▁человеке	-11.1125
еро	-11.1127
▁обращаясь	-11.1133
▁раскрыл	-11.1133
▁обрыв	-11.1134
ично	-11.1135
▁влево	-11.1138
▁допрос	-11.1139
▁побед	-11.114
▁традиции	-11.114
▁читатель	-11.1142
обра	-11.1143
ета	-11.1143
▁1941	-11.1144
▁цар	-11.1144
▁призыв	-11.1144
▁материала	-11.1146
▁спец	-11.1149
▁горит	-11.1149
▁проговорила	-11.115
▁лорд	-11.1152
овской	-11.1153
▁свидания	-11.1154
▁фигур	-11.1154
▁жал	-11.1155
▁стон	-11.1156
▁Спустя	-11.1157
▁подобрал	-11.1157
▁Дю	-11.1161
▁случалось	-11.1161
▁ученый	-11.1162
▁случиться	-11.1162
▁картофель	-11.1163
▁беседу	-11.1165
тельных	-11.1168
стен	-11.117
▁колено	-11.1171
▁высоте	-11.1173
▁увы	-11.1174
▁Ленинград	-11.1175
▁область	-11.1175
▁Валентин	-11.1176
оны	-11.1177
писал	-11.1178
▁букет	-11.1181
▁изображен	-11.1181
▁Света	-11.1182
▁лечения	-11.1187
▁лета	-11.1193
▁изредка	-11.1194
▁круто	-11.1195
▁одиночестве	-11.1195
▁растений	-11.1196
дела	-11.1196
▁Дет	-11.1197
▁Четыре	-11.1197
▁вере	-11.1197
▁смел	-11.12
▁благополучно	-11.1202
▁полгода	-11.1205
▁помощник	-11.1206
▁мыслями	-11.1209
▁растет	-11.121
пуст	-11.121
ота	-11.1211
иком	-11.1213
▁Петровна	-11.1213
▁Лук	-11.1214
te	-11.1215
инов	-11.1217
▁вела	-11.1219
▁колеса	-11.1219
▁огни	-11.1221
ющееся	-11.1221
▁объяснять	-11.1224
▁развод	-11.1225
▁звуков	-11.1226
ируем	-11.1226
▁вооружен	-11.1226
шедший	-11.1227
▁вызов	-11.1227
▁8.	-11.1228
▁раны	-11.1229
▁клиент	-11.1235
подоб	-11.1236
чную	-11.1237
док	-11.1239
▁возвраща	-11.1242
пл	-11.1243
▁присутствие	-11.1247
носил	-11.1248
▁повести	-11.1252
▁бедра	-11.1252
▁гибель	-11.1253
▁подать	-11.1253
▁серый	-11.1256
//	-11.1258
ально	-11.1258
▁отража	-11.1258
водить	-11.1261
▁удивление	-11.1262
▁прозвучал	-11.1264
чие	-11.1266
▁волнения	-11.1267
ter	-11.1267
▁Неожиданно	-11.1268
▁делам	-11.1268
▁Леон	-11.127
▁убит	-11.127
чение	-11.1276
емая	-11.1277
ектор	-11.128
▁забав	-11.128
▁странах	-11.128
▁усилий	-11.128
▁следующие	-11.1281
рог	-11.1282
▁активно	-11.1285
▁злой	-11.1289
▁встает	-11.1289
▁находиться	-11.129
▁толпе	-11.1291
▁столовой	-11.1291
луч	-11.1292
▁всерьез	-11.1294
▁Малыш	-11.1294
▁впрямь	-11.1296
▁позволил	-11.1296
▁пригласил	-11.1299
сек	-11.13
▁вступил	-11.13
▁ложь	-11.1304
▁Ваня	-11.1306
дур	-11.1307
▁лодку	-11.1308
▁прижал	-11.1309
▁готово	-11.131
▁ткнул	-11.131
бежав	-11.131
▁испытания	-11.1311
▁Леонид	-11.1312
гнать	-11.1315
▁правительство	-11.1316
▁пламени	-11.132
▁милость	-11.132
▁шеи	-11.1322
▁заяв	-11.1322
▁тучи	-11.1322
▁молодости	-11.1325
▁сынок	-11.1326
▁покинуть	-11.1327
▁золотые	-11.133
▁ще	-11.133
▁мрак	-11.1338
▁жених	-11.1339
▁единственная	-11.134
▁гостя	-11.1342
▁Центр	-11.1343
тый	-11.1344
айн	-11.1344
▁модели	-11.1346
▁хорошим	-11.1348
▁обладал	-11.1349
▁письме	-11.1349
▁непро	-11.135
▁терять	-11.135
▁продолжали	-11.1352
▁ведро	-11.1352
▁33	-11.1354
▁особой	-11.1355
▁отражение	-11.1356
▁воля	-11.1356
▁признаться	-11.136
▁ветки	-11.136
▁закрыть	-11.1363
▁работала	-11.1364
нули	-11.1365
бар	-11.1367
▁выбраться	-11.137
▁строк	-11.1373
▁выполнен	-11.1373
▁Рус	-11.1374
▁смеха	-11.1376
▁потянулся	-11.1377
ему	-11.1377
▁независимо	-11.1377
вые	-11.1378
нными	-11.1378
▁расс	-11.1378
▁оставались	-11.1379
▁Вес	-11.1379
▁ветви	-11.1379
▁тонко	-11.138
▁закрыла	-11.138
▁поза	-11.1381
рал	-11.1382
▁князя	-11.1382
жки	-11.1383
нуться	-11.1385
▁видео	-11.1387
люд	-11.1387
▁обстоятельства	-11.1389
талкива	-11.1389
▁флаг	-11.1389
▁следовательно	-11.1391
▁непрерывно	-11.1392
▁живое	-11.1393
плыл	-11.1394
▁парт	-11.1395
▁занима	-11.1395
▁бессмысленно	-11.1397
▁целая	-11.1398
▁достоинства	-11.1398
▁костер	-11.1399
▁отвернулся	-11.1407
▁дыр	-11.1407
▁лука	-11.1408
рой	-11.1408
▁сиденье	-11.1411
▁Отлично	-11.1411
▁устроить	-11.1412
▁един	-11.1415
ведет	-11.1415
▁красота	-11.1418
▁миров	-11.1418
▁спирт	-11.1418
▁поезда	-11.1422
▁смесь	-11.1423
тона	-11.1424
▁Твоя	-11.1424
▁выражения	-11.1426
▁Далее	-11.143
▁напомнил	-11.1431
нил	-11.1433
▁имело	-11.1433
▁связано	-11.1433
▁королев	-11.1433
▁судьбе	-11.1436
▁уста	-11.1436
▁Париже	-11.1437
▁сошел	-11.1437
▁выполнить	-11.1437
▁собственную	-11.1437
▁шёл	-11.1438
сме	-11.1439
▁моими	-11.144
▁легкие	-11.1446
▁Одним	-11.1449
мит	-11.1451
V	-11.1454
▁терял	-11.1454
▁крупных	-11.1454
▁перевел	-11.1454
▁грузовик	-11.1455
▁золотом	-11.1455
▁заняты	-11.1456
▁наполнен	-11.1456
вых	-11.1456
▁дамы	-11.1459
▁зна	-11.146
лёт	-11.146
▁Ирина	-11.1461
▁свар	-11.1465
клон	-11.1466
▁участок	-11.1466
прос	-11.1467
▁Вит	-11.1472
▁настоящей	-11.1472
▁губам	-11.1475
АЛ	-11.1475
скор	-11.1476
▁желает	-11.1481
ёшь	-11.1481
ицей	-11.1482
▁называл	-11.1486
▁бойся	-11.1486
▁потерять	-11.1491
▁целых	-11.1492
▁надпись	-11.1492
льно	-11.1495
▁немцы	-11.1495
▁управлять	-11.1497
▁автомобиля	-11.1498
▁идеально	-11.1499
тые	-11.1501
сло	-11.1502
▁Киев	-11.1503
▁жертвы	-11.1504
▁слуга	-11.1505
▁подозрительно	-11.1506
▁устроен	-11.1506
▁37	-11.1509
▁предложить	-11.1511
жка	-11.1513
енькие	-11.1513
▁сурово	-11.1514
▁постоял	-11.1515
бирает	-11.1516
▁змеи	-11.1518
▁Ваши	-11.1519
▁даль	-11.1521
бат	-11.1521
▁едет	-11.1522
▁выпив	-11.1522
▁поймать	-11.1523
▁Остальные	-11.1524
▁появления	-11.1524
пив	-11.1524
▁квартира	-11.1525
▁картин	-11.1526
▁песка	-11.1528
▁пыта	-11.1531
юр	-11.1531
▁Вечер	-11.1533
▁Прав	-11.1535
▁правительства	-11.1535
▁отдельных	-11.1535
▁Дэвид	-11.1536
крыв	-11.1537
▁гнева	-11.1537
юк	-11.1538
▁генерала	-11.154
чков	-11.1541
верт	-11.1542
▁мамой	-11.1542
▁намек	-11.1543
▁даром	-11.1543
▁украин	-11.1544
▁победы	-11.1544
очная	-11.1545
▁Толстой	-11.1546
▁поднос	-11.1547
▁вера	-11.1547
▁принципе	-11.1547
▁спорить	-11.1547
▁сборник	-11.1548
▁застал	-11.1548
▁желаю	-11.1548
▁плет	-11.1549
▁одет	-11.1549
▁бесполезно	-11.155
▁поставили	-11.1551
▁пиджак	-11.1551
▁решать	-11.1552
▁лежат	-11.1553
ап	-11.1555
рут	-11.1557
▁удаля	-11.1557
ании	-11.1559
▁товарищей	-11.156
▁колхоз	-11.156
дай	-11.1561
▁смут	-11.1564
▁дежур	-11.1565
▁отличается	-11.1565
▁инструмент	-11.1567
кажет	-11.1567
жда	-11.1567
▁открывает	-11.1568
▁живого	-11.1571
▁трон	-11.1572
▁зрелище	-11.1574
▁убедиться	-11.1575
▁сны	-11.1576
вист	-11.1576
▁обнаружили	-11.1577
▁музыки	-11.1578
▁полагаю	-11.1578
▁толпу	-11.1578
шеств	-11.1578
▁вправду	-11.1581
йдя	-11.1581
▁длинной	-11.1582
▁скрыть	-11.1582
▁Сил	-11.1582
▁спала	-11.1582
▁бабушки	-11.1586
am	-11.1586
▁общий	-11.1589
▁верст	-11.159
▁рецепт	-11.1591
▁пятно	-11.1593
▁шут	-11.1593
▁ели	-11.1593
▁деньгами	-11.1593
▁грибы	-11.1594
▁Ночью	-11.1596
▁любые	-11.1598
реч	-11.16
].	-11.1602
ol	-11.1603
▁чья	-11.1605
▁резин	-11.1606
▁комиссар	-11.1607
▁небольшую	-11.1608
▁голубые	-11.161
▁("	-11.161
гов	-11.161
▁подойти	-11.1611
▁целей	-11.1612
уш	-11.1612
▁нужда	-11.1614
▁36	-11.1615
▁разрушен	-11.1616
▁красивые	-11.1616
рач	-11.1619
▁демократ	-11.162
▁шутку	-11.1621
▁ярости	-11.1621
▁Александрович	-11.1624
▁некий	-11.1625
▁миллион	-11.1627
▁становился	-11.1629
▁программ	-11.163
льные	-11.1632
ющаяся	-11.1632
греб	-11.1634
▁мужу	-11.1635
▁лагеря	-11.1636
▁Хе	-11.1636
▁экспедиции	-11.1637
▁ушах	-11.1638
▁бара	-11.1641
ающая	-11.1641
альную	-11.1642
▁находит	-11.1643
▁ново	-11.1643
▁возьму	-11.1643
еров	-11.1645
▁явля	-11.1646
▁полоса	-11.1647
▁нрав	-11.1647
▁продуктов	-11.1648
▁появится	-11.1649
▁пересек	-11.165
▁свету	-11.165
▁ягод	-11.165
веду	-11.1651
▁размеров	-11.1653
▁осмотр	-11.1655
▁распа	-11.1657
▁нарочно	-11.1657
▁погас	-11.1659
▁оста	-11.166
▁сорвал	-11.1662
▁удачно	-11.1662
▁архив	-11.1664
жир	-11.1665
▁Слав	-11.1665
▁толкнул	-11.1665
▁попытка	-11.1668
▁воскресенье	-11.1669
▁пополам	-11.167
▁главной	-11.1671
мене	-11.1671
▁отправил	-11.1671
▁понимают	-11.1677
▁армия	-11.168
▁задачу	-11.1681
▁любопытством	-11.1683
▁марш	-11.1684
▁_	-11.1685
▁Али	-11.1687
ОС	-11.1688
▁вырос	-11.1688
▁белье	-11.1689
▁эфир	-11.1692
▁Наверно	-11.1693
▁издалека	-11.1694
▁Кле	-11.1696
▁ногам	-11.1698
▁молодым	-11.1701
▁листок	-11.1702
▁считая	-11.1704
▁получать	-11.1706
▁найден	-11.1706
ящей	-11.1708
▁вагон	-11.171
▁нею	-11.1712
ётся	-11.1714
▁Вол	-11.1714
▁крыльями	-11.1715
▁необходимость	-11.1716
ОК	-11.1719
▁лучшее	-11.1721
▁пушки	-11.1722
▁новости	-11.1724
▁Мороз	-11.1725
▁добрые	-11.1727
▁командира	-11.1728
▁страхом	-11.1729
▁огромным	-11.1729
▁чашку	-11.173
▁петрушки	-11.1731
▁надеяться	-11.1731
»[	-11.1731
▁узнав	-11.1731
▁шестьдесят	-11.1733
ue	-11.1734
▁тест	-11.1735
▁лениво	-11.1737
▁Пет	-11.1738
▁кота	-11.1738
▁муч	-11.174
▁шнур	-11.1741
▁шорох	-11.1741
▁бросились	-11.1741
▁созда	-11.1742
ведения	-11.1742
▁жениться	-11.1746
Э	-11.1746
нулся	-11.1746
▁Руси	-11.1749
▁собран	-11.175
атель	-11.1751
▁украшен	-11.1755
тельно	-11.1756
авших	-11.1757
▁хорошей	-11.1757
▁тесто	-11.1757
▁ши	-11.1758
▁коже	-11.1758
▁мнения	-11.1758
▁прибавил	-11.1759
▁Пара	-11.1759
▁информация	-11.1759
▁00	-11.176
▁Уходит	-11.176
▁нервы	-11.1761
▁онъ	-11.1761
▁руч	-11.1763
▁обид	-11.1764
оде	-11.1764
▁троп	-11.1765
▁вис	-11.1766
яет	-11.1767
▁славу	-11.1767
▁явление	-11.1768
▁ул	-11.1768
бель	-11.177
▁книжку	-11.177
▁Шел	-11.1772
▁культ	-11.1773
▁журналист	-11.1773
▁лун	-11.1774
▁Минут	-11.1774
▁товарища	-11.1774
пас	-11.1774
▁совесть	-11.1774
▁живые	-11.1775
чной	-11.1776
▁Игра	-11.1776
▁местных	-11.1778
▁клин	-11.1779
▁крив	-11.178
▁кошки	-11.178
ющему	-11.1782
▁заодно	-11.1783
▁отдельные	-11.1783
▁группу	-11.1786
▁разрешения	-11.1788
▁накануне	-11.1789
▁открытие	-11.1791
дает	-11.1793
▁фонтан	-11.1794
▁нетерпеливо	-11.1794
▁тупо	-11.1794
▁знакомые	-11.1799
▁помимо	-11.1801
▁сколь	-11.1803
▁костюме	-11.1803
ведя	-11.1804
▁высокая	-11.1804
▁белое	-11.1806
▁фигуру	-11.1807
▁Одни	-11.1809
▁затвор	-11.1813
▁водитель	-11.1813
▁ге	-11.1815
▁сознании	-11.1815
▁равнодушно	-11.1816
0	-11.1816
▁члены	-11.1821
хлеб	-11.1822
▁скуч	-11.1823
▁Генрих	-11.1824
кла	-11.1824
▁понадобится	-11.1825
▁пап	-11.1825
▁тревожно	-11.1825
▁прочие	-11.1825
▁принялись	-11.1825
▁возвращался	-11.1826
▁эксперт	-11.1827
▁общения	-11.1832
▁хруст	-11.1832
▁зов	-11.1833
▁поскорее	-11.1835
▁короткий	-11.1838
▁коли	-11.1838
»).	-11.1839
дать	-11.1839
▁крышу	-11.1841
ацию	-11.1842
ителя	-11.1842
▁Естественно	-11.1842
▁позна	-11.1843
лян	-11.1844
▁основной	-11.1844
▁Стало	-11.1844
▁Царь	-11.1844
▁дрожь	-11.1845
▁38	-11.1846
▁журнала	-11.1848
▁сможем	-11.1853
▁инстинкт	-11.1854
▁кувшин	-11.1856
▁органов	-11.186
водят	-11.186
КИ	-11.1861
▁атаку	-11.1861
▁цепи	-11.1863
тул	-11.1863
▁боевых	-11.1864
▁увлека	-11.1865
▁брюки	-11.1865
▁всякое	-11.1865
ительные	-11.1866
▁возникла	-11.1866
дается	-11.1867
кинув	-11.1868
▁проворчал	-11.1872
▁лагерь	-11.1876
смотр	-11.1877
▁Этим	-11.1878
анов	-11.1878
▁уверенность	-11.188
ология	-11.188
▁бледно	-11.188
▁рассматривать	-11.1881
мед	-11.1884
▁начался	-11.1884
▁тянет	-11.1884
ору	-11.1885
▁контр	-11.1885
▁приходят	-11.1885
▁почет	-11.1886
▁спальню	-11.1886
▁высоким	-11.1887
▁богат	-11.1887
▁Цвет	-11.1887
▁партий	-11.1888
кала	-11.1888
▁старательно	-11.1888
▁фантаст	-11.1892
зан	-11.1893
▁пионер	-11.1894
▁3-	-11.1895
▁Сал	-11.1896
▁Прим	-11.1898
▁коробку	-11.19
▁Рок	-11.19
етта	-11.1901
▁супер	-11.1902
▁тормоз	-11.1902
▁статья	-11.1903
истые	-11.1904
▁принесли	-11.1905
роб	-11.1907
▁выглядела	-11.1908
▁слуг	-11.1909
▁обычный	-11.1909
▁железной	-11.191
анная	-11.191
▁великой	-11.1912
пь	-11.1912
▁чужих	-11.1913
▁верит	-11.1914
▁готовить	-11.1915
▁Лар	-11.1916
▁доволен	-11.1917
▁строя	-11.192
▁настойчиво	-11.192
▁Митя	-11.1921
▁расход	-11.1925
▁Сме	-11.1926
сим	-11.1926
▁надеясь	-11.1927
нца	-11.1932
▁приближа	-11.1933
▁Люси	-11.1933
▁настоящие	-11.1933
▁сундук	-11.1934
▁одежде	-11.1935
▁Пап	-11.1936
опо	-11.1937
▁плакала	-11.1937
▁темноту	-11.1938
▁углом	-11.1938
▁ставит	-11.1938
▁сумму	-11.194
▁третьем	-11.1941
ie	-11.1943
ающего	-11.1943
▁XIX	-11.1943
ДА	-11.1945
▁делая	-11.1945
▁пресс	-11.1947
ливать	-11.1948
▁ударом	-11.1948
▁осень	-11.195
▁послан	-11.195
▁дна	-11.1951
▁Друг	-11.1951
▁секс	-11.1953
▁помещения	-11.1953
▁философии	-11.1954
▁научиться	-11.1955
альное	-11.1956
▁ученых	-11.1958
▁борьба	-11.1958
▁предложения	-11.196
▁факты	-11.1961
щет	-11.1964
▁Ура	-11.1964
▁поиск	-11.1964
▁следующей	-11.1965
▁луны	-11.1966
▁славян	-11.1968
▁противо	-11.197
▁соединя	-11.1971
▁привязан	-11.1971
▁ружье	-11.1973
▁любимый	-11.1974
▁осенью	-11.1974
▁избран	-11.1975
▁Ры	-11.1976
▁ненависть	-11.1981
▁безусловно	-11.1984
▁продолжая	-11.1985
▁смотря	-11.1986
▁заметив	-11.1986
▁Впереди	-11.1987
▁завел	-11.1988
ЕМ	-11.1989
▁песчан	-11.1991
▁показывал	-11.1991
▁темы	-11.1992
ящего	-11.1992
▁свернул	-11.1994
▁восторг	-11.1996
▁сук	-11.1997
▁мя	-11.1997
▁черед	-11.1997
▁знание	-11.1998
▁потихоньку	-11.1999
▁идем	-11.2
▁Выходит	-11.2
▁металла	-11.2004
▁собственное	-11.2007
▁авиа	-11.2007
▁заме	-11.2008
стор	-11.2008
▁льда	-11.2009
ні	-11.201
гнул	-11.2013
▁начинать	-11.2014
▁Также	-11.2014
▁судеб	-11.2015
▁Стас	-11.2016
▁сделав	-11.2016
дев	-11.2018
▁наблюдения	-11.2019
▁ци	-11.2019
▁печали	-11.202
▁волшебник	-11.202
▁страшного	-11.2022
▁указ	-11.2022
▁преступление	-11.2022
▁чудовище	-11.2022
▁спрятал	-11.2025
▁образование	-11.2025
▁Прос	-11.2025
▁нисколько	-11.2025
▁нахмурился	-11.2026
шийся	-11.2026
▁жестом	-11.2026
▁председатель	-11.2027
ворот	-11.2027
▁ванной	-11.2028
▁поглядел	-11.2029
▁черную	-11.2031
лька	-11.2032
▁глубокий	-11.2034
▁Небо	-11.2035
▁лог	-11.2036
дре	-11.2036
▁змея	-11.2039
знаком	-11.2041
▁напряжения	-11.2041
▁правде	-11.2042
кладывал	-11.2044
▁глубокой	-11.2044
теле	-11.2047
▁интересует	-11.2048
▁качество	-11.2049
▁называет	-11.2049
▁туч	-11.2049
▁банк	-11.205
▁коне	-11.2051
▁слышишь	-11.2054
▁свечи	-11.2056
▁прибыли	-11.206
▁собиралась	-11.2061
ленные	-11.2064
▁военной	-11.2064
▁стер	-11.2064
▁мирно	-11.2065
▁пуга	-11.2068
▁мотоцикл	-11.2068
фри	-11.2071
▁жен	-11.2071
гиба	-11.2073
▁перемешать	-11.2076
▁Рука	-11.2077
▁защит	-11.2079
▁Дж	-11.2079
▁Товарищ	-11.2083
»!	-11.2084
▁новому	-11.2087
▁направил	-11.209
▁Стро	-11.209
▁покачала	-11.2092
чил	-11.2093
▁ступ	-11.2093
▁нелепо	-11.2094
▁знаний	-11.2095
ссе	-11.2095
▁энергия	-11.2096
▁Сол	-11.2096
ающей	-11.2099
елей	-11.2099
жига	-11.21
емого	-11.21
▁застыв	-11.2101
▁образова	-11.2102
▁приподнял	-11.2102
нц	-11.2105
▁смехом	-11.2105
пс	-11.2109
▁духе	-11.211
▁диване	-11.2111
▁прицел	-11.2115
▁насквозь	-11.2117
▁узор	-11.2119
▁ожидания	-11.2122
▁букв	-11.2125
▁выходил	-11.2126
▁рассмотреть	-11.2126
▁отступил	-11.2127
тым	-11.2127
▁Отсюда	-11.2127
▁поблизости	-11.2127
▁следующего	-11.2128
▁подготовлен	-11.2128
▁стиле	-11.2129
▁ехал	-11.2131
щиков	-11.2131
▁изучал	-11.2132
▁схватила	-11.2132
▁удержать	-11.2134
▁давая	-11.2134
▁десяток	-11.2134
▁курил	-11.2134
▁сапог	-11.2134
▁удары	-11.2135
▁оставалась	-11.2136
рив	-11.2136
▁греб	-11.2138
яз	-11.2139
▁вначале	-11.2139
▁выбора	-11.2139
▁костей	-11.2141
оза	-11.2143
ограф	-11.2145
▁вспоминать	-11.2147
уди	-11.2147
▁Татьяна	-11.2148
▁побежала	-11.2151
▁Федерации	-11.2151
▁текста	-11.2151
▁перешел	-11.2154
▁обернулась	-11.2154
▁Вод	-11.2154
▁Лей	-11.2155
▁разглядывал	-11.2157
▁недовольно	-11.2162
▁вытянул	-11.2164
▁площадке	-11.2164
▁уходят	-11.2165
▁окнами	-11.2168
▁население	-11.217
▁рубашку	-11.217
▁плоды	-11.2171
▁цилиндр	-11.2174
▁ржа	-11.2174
плет	-11.2174
▁футбол	-11.2177
чения	-11.2178
▁судорожно	-11.2179
▁нашими	-11.218
▁банку	-11.2181
▁количестве	-11.2181
нского	-11.2182
▁обращен	-11.2184
▁обстоятельствах	-11.2189
▁крышку	-11.2189
▁проб	-11.2192
няк	-11.2193
▁Кат	-11.2194
▁Будем	-11.2194
▁ужасе	-11.2195
▁скромно	-11.2195
▁безум	-11.2195
▁снегом	-11.2198
▁отверстие	-11.2198
утся	-11.2199
»:	-11.2203
▁высшей	-11.2203
▁общее	-11.2208
▁связаны	-11.2208
ывают	-11.2208
▁дальнейшем	-11.2209
▁газете	-11.2212
▁Толстого	-11.2212
▁сигарет	-11.2213
▁Понимаешь	-11.2214
▁потери	-11.2215
▁Гур	-11.2215
▁обезьян	-11.2217
▁Америке	-11.2217
▁бил	-11.2218
▁показала	-11.2219
▁вскинул	-11.222
▁Дер	-11.2221
пет	-11.2222
▁питания	-11.2224
▁вплоть	-11.2225
▁отвечала	-11.2226
гля	-11.2228
▁футов	-11.223
существ	-11.2232
▁закрыты	-11.2232
▁велико	-11.2233
▁холм	-11.2234
▁заново	-11.2235
▁задал	-11.2236
▁дипломат	-11.2236
▁замечает	-11.2237
▁держаться	-11.2239
▁четверть	-11.224
имо	-11.224
▁совершить	-11.2241
▁капитал	-11.2241
▁замечал	-11.2241
▁соответственно	-11.2242
li	-11.2242
▁Всех	-11.2244
▁Хай	-11.2248
▁морковь	-11.2248
▁занятий	-11.2248
▁двигателя	-11.2249
▁следил	-11.2249
▁Ред	-11.2252
▁выложить	-11.2252
▁слабость	-11.2253
▁Черно	-11.2254
▁преступн	-11.2254
▁коридора	-11.2255
▁оси	-11.2256
реж	-11.2256
ящим	-11.2256
▁танка	-11.2257
▁Круг	-11.2258
▁половиной	-11.2262
▁последовал	-11.2264
▁Здравствуй	-11.2264
▁прощения	-11.2267
вещ	-11.2271
шни	-11.2272
ТИ	-11.2273
▁лимон	-11.2275
▁хлопот	-11.2275
▁Принц	-11.2276
▁некоторым	-11.228
лам	-11.228
▁основа	-11.228
▁Дей	-11.2283
▁дрожа	-11.2285
▁толк	-11.2285
шками	-11.2285
▁ртом	-11.2288
▁занимается	-11.2289
▁мерца	-11.2289
гни	-11.229
▁вскричал	-11.2291
жить	-11.2293
▁напряжение	-11.2293
▁Давид	-11.2293
горел	-11.2294
▁учебник	-11.2297
▁свят	-11.2299
▁зеленой	-11.2299
▁собирать	-11.2301
▁лю	-11.2301
▁ушей	-11.2305
▁швырнул	-11.2306
▁легким	-11.2307
▁полз	-11.2309
▁Учитель	-11.2309
▁привычно	-11.231
▁обречен	-11.2311
▁оригинал	-11.2311
▁городской	-11.2315
▁Лили	-11.2315
▁ключи	-11.2315
▁годами	-11.2316
▁убийца	-11.2317
▁предположить	-11.2319
▁городом	-11.232
цел	-11.2321
авшись	-11.2323
▁Уильям	-11.2323
▁данной	-11.2324
▁рабочий	-11.2325
▁Шум	-11.2325
▁Ск	-11.2327
▁произведений	-11.2331
▁смогут	-11.2332
лении	-11.2332
▁терпеливо	-11.2337
▁Порт	-11.2338
ическими	-11.2338
▁бросал	-11.2338
▁небольшая	-11.2339
▁команд	-11.2339
▁появляются	-11.234
ющем	-11.2343
▁смотрите	-11.2344
▁стремление	-11.2345
▁произойдет	-11.2348
▁мучительно	-11.2348
▁показывая	-11.2348
ителем	-11.2349
▁Оказалось	-11.235
▁грамот	-11.2352
▁убедить	-11.2352
▁закончен	-11.2357
▁подробности	-11.2359
▁крыс	-11.236
▁справедливо	-11.2362
▁наступил	-11.2362
ливает	-11.2363
▁посмотри	-11.2364
▁Пат	-11.2365
▁захочет	-11.2367
▁поправил	-11.237
▁необычайно	-11.2372
▁мелких	-11.2375
▁обязанности	-11.2375
▁огляделся	-11.238
исто	-11.238
▁падал	-11.2382
іе	-11.2382
▁пахло	-11.2384
▁вос	-11.2384
▁скрылся	-11.2384
▁неважно	-11.2384
▁стояло	-11.2385
▁тонкой	-11.2386
▁непод	-11.2389
▁весна	-11.2389
▁регулярно	-11.2392
▁беспомощно	-11.2392
▁посыл	-11.2392
▁идею	-11.2394
▁обратиться	-11.2399
▁желал	-11.2399
▁бежали	-11.24
сил	-11.24
▁кост	-11.24
▁Рыб	-11.2401
▁музей	-11.2403
▁контракт	-11.2404
▁распространен	-11.2404
▁расти	-11.2407
▁живем	-11.2407
▁сильные	-11.2409
мал	-11.2411
▁виден	-11.2411
▁Союза	-11.2412
▁Эту	-11.2414
▁дернул	-11.2414
▁оркестр	-11.2419
▁отказ	-11.242
▁опустив	-11.242
▁цепь	-11.242
▁Дайте	-11.2423
ани	-11.2425
▁джентльмен	-11.2425
полз	-11.2426
▁выдал	-11.2428
▁проходил	-11.2428
▁Стив	-11.2428
▁степ	-11.2428
▁слой	-11.2429
▁Внутри	-11.243
▁больнице	-11.2432
▁пятидесяти	-11.2433
арь	-11.2434
▁единственной	-11.2435
▁окружен	-11.2436
▁Вен	-11.2437
▁Послушайте	-11.2437
льную	-11.2437
▁слабый	-11.2439
▁благ	-11.2439
▁старую	-11.2439
▁произведение	-11.2439
▁удается	-11.2442
▁квартир	-11.2442
▁добрался	-11.2442
▁приносит	-11.2442
▁английский	-11.2442
▁девушкой	-11.2444
▁Часто	-11.2446
▁чудовищ	-11.2448
▁фразы	-11.2449
ньем	-11.2449
шкин	-11.245
▁спешил	-11.2451
▁юн	-11.2452
носить	-11.2452
тика	-11.2453
конча	-11.2455
кса	-11.2455
▁Валя	-11.2458
▁печ	-11.2459
▁Часть	-11.2461
▁дра	-11.2461
▁готовности	-11.2463
▁отваж	-11.2463
▁Жен	-11.2465
▁размышлял	-11.2467
▁деда	-11.2467
▁Маленький	-11.2467
▁шарик	-11.2468
▁соседей	-11.2472
овки	-11.2472
▁собственным	-11.2472
▁спутник	-11.2473
▁осознал	-11.2474
▁привыкли	-11.2474
▁Большинство	-11.2476
▁представляю	-11.2477
▁Аня	-11.2477
▁отошел	-11.2478
шёл	-11.2478
▁представитель	-11.2478
тир	-11.2479
логи	-11.248
▁горизонт	-11.2481
▁сталь	-11.2482
▁зашагал	-11.2484
▁занял	-11.2485
▁стихов	-11.2485
битый	-11.2486
▁помнит	-11.2488
▁несу	-11.2488
▁неторопливо	-11.2488
ити	-11.2489
▁окончания	-11.2489
▁объяснение	-11.2491
▁головами	-11.2492
▁дано	-11.2493
▁познакомиться	-11.2494
▁хрипло	-11.2494
▁броне	-11.2494
▁империи	-11.2496
▁бро	-11.2498
лежа	-11.2498
▁Крест	-11.25
▁видать	-11.2501
▁тонкий	-11.2502
▁легких	-11.2502
▁творчества	-11.2502
▁возьмет	-11.2502
▁Стал	-11.2503
▁Лай	-11.2505
▁Павлович	-11.2506
▁старости	-11.2506
▁засмеялась	-11.2506
▁вывел	-11.2507
▁Бах	-11.2509
везли	-11.2509
чного	-11.251
▁Баб	-11.251
▁отыскать	-11.2511
▁Вед	-11.2512
▁леп	-11.2512
▁окне	-11.2513
▁Третий	-11.2514
ущий	-11.2515
▁шутка	-11.2515
▁великолепно	-11.2517
▁долгие	-11.2518
▁Книга	-11.2518
▁ставить	-11.2524
▁рванул	-11.2525
ьё	-11.2525
▁полк	-11.2526
▁гэта	-11.2526
▁Джейн	-11.2528
▁потеряла	-11.2528
▁животные	-11.253
▁имеем	-11.2532
тельным	-11.2533
▁достичь	-11.2533
▁твоем	-11.2534
охран	-11.2535
сторон	-11.2536
рил	-11.2538
▁пропасть	-11.2541
▁Крас	-11.2542
▁красавица	-11.2543
▁дворца	-11.2544
зь	-11.2546
▁дороже	-11.2548
вались	-11.2549
▁извлек	-11.2549
▁агент	-11.255
▁юности	-11.2551
▁космос	-11.2553
th	-11.2553
рии	-11.2553
плот	-11.2553
фр	-11.2554
▁повар	-11.2557
▁спали	-11.2558
▁отметить	-11.256
▁пасть	-11.2561
▁горячей	-11.2561
▁Кен	-11.2562
▁Кло	-11.2564
▁злобно	-11.2565
▁тарелку	-11.2566
▁какъ	-11.2566
▁заснул	-11.2566
▁доски	-11.2568
▁Ира	-11.2569
▁балкон	-11.2569
▁противник	-11.2572
беж	-11.2574
▁be	-11.2578
▁силе	-11.2581
▁глубину	-11.2581
▁мужчиной	-11.2584
▁страшное	-11.2587
▁племени	-11.2588
▁толком	-11.2588
мель	-11.2588
▁поставила	-11.2588
▁делами	-11.2589
▁огромную	-11.2589
▁попросту	-11.2589
▁найдет	-11.259
ведение	-11.2592
енькая	-11.2593
▁http	-11.2594
форд	-11.2594
▁просвет	-11.2597
▁9.	-11.2597
▁целое	-11.2599
▁Джонни	-11.2601
ающим	-11.2605
ительная	-11.2607
▁аб	-11.2608
▁едино	-11.2609
▁Тело	-11.2612
▁постиг	-11.2613
▁шепот	-11.2614
▁Благодарю	-11.2615
▁молитвы	-11.2616
▁офицеров	-11.2617
▁дешев	-11.262
▁относятся	-11.262
▁воинов	-11.2621
ере	-11.2626
▁зеркала	-11.2626
▁приют	-11.2627
▁плит	-11.2628
▁устройства	-11.2628
▁совета	-11.2632
▁старушка	-11.2632
▁Собственно	-11.2634
▁фамилии	-11.2634
пра	-11.2636
сан	-11.2637
▁волч	-11.2637
▁перестали	-11.2637
▁Благодаря	-11.2639
▁Ден	-11.264
▁отпустил	-11.2641
▁огромного	-11.2643
шил	-11.2643
▁разбудил	-11.2644
▁аж	-11.2644
▁умрет	-11.2647
▁услышав	-11.2647
▁сюрприз	-11.265
▁сквер	-11.265
▁страдал	-11.2651
▁храма	-11.2652
▁переспросил	-11.2654
▁плакал	-11.2654
▁XX	-11.2655
▁окруж	-11.2656
▁арест	-11.2656
»;	-11.2657
▁Бре	-11.2657
▁Мя	-11.2659
▁актер	-11.2661
▁третьей	-11.2662
▁снят	-11.2662
▁компанию	-11.2662
▁пустыне	-11.2664
▁звать	-11.2664
▁подозревал	-11.2664
бок	-11.2665
▁краски	-11.267
▁стрел	-11.267
▁худо	-11.267
шков	-11.2672
▁Отчего	-11.2672
▁ходила	-11.2673
чан	-11.2674
▁Шер	-11.2677
авший	-11.268
▁4)	-11.2682
кро	-11.2683
▁плеча	-11.2683
стям	-11.2684
▁com	-11.2684
дали	-11.2686
▁дз	-11.2687
▁святого	-11.2688
▁толстый	-11.2689
▁Буду	-11.269
▁чересчур	-11.2692
▁боясь	-11.2695
▁кричали	-11.2697
▁выдох	-11.2697
▁проводник	-11.2699
▁годах	-11.2699
ленд	-11.2699
чным	-11.2701
▁листа	-11.2703
la	-11.2707
▁предстояло	-11.2707
▁летать	-11.2709
строил	-11.2709
▁Пен	-11.2711
▁поехали	-11.2711
▁Дракон	-11.2712
алист	-11.2712
▁Насколько	-11.2713
▁пляж	-11.2714
")	-11.2715
▁безнадежно	-11.2716
▁прошлой	-11.2716
▁строки	-11.2721
▁единственно	-11.2722
▁спинку	-11.2722
▁существовать	-11.2722
▁Альберт	-11.2722
▁манер	-11.2724
овала	-11.2726
▁Посмотри	-11.2726
ушку	-11.2727
▁оставила	-11.2731
ложите	-11.2733
▁виды	-11.2733
ологии	-11.2735
▁Кук	-11.2738
▁десятка	-11.2738
нди	-11.2738
▁шип	-11.274
▁появление	-11.2741
▁темных	-11.2741
▁буй	-11.2744
▁Николая	-11.2744
▁спрашивать	-11.2745
▁удивления	-11.2746
▁Эк	-11.2747
ивается	-11.2747
▁собрал	-11.2747
▁обычной	-11.2748
▁обнажен	-11.2748
лейте	-11.275
лился	-11.2751
▁теплой	-11.2752
▁режиссер	-11.2752
▁каприз	-11.2755
вязан	-11.2755
▁прочел	-11.2755
гр	-11.2758
▁перестала	-11.276
▁уехать	-11.276
▁жестко	-11.2763
ставить	-11.2763
▁трёх	-11.2764
▁мальчишки	-11.2764
▁Сад	-11.2765
▁Полу	-11.2766
▁бесшумно	-11.2766
▁правды	-11.2766
▁молчали	-11.2767
▁затылок	-11.2767
▁попросить	-11.2767
▁180	-11.2767
▁чел	-11.2767
▁событие	-11.2768
▁рак	-11.2768
иса	-11.2769
▁магазине	-11.277
▁великим	-11.277
▁фронта	-11.2773
крыл	-11.2777
▁Первые	-11.2777
▁собрание	-11.2777
▁испытал	-11.2779
ывали	-11.2779
▁больницу	-11.278
▁Спас	-11.2781
▁истери	-11.2781
▁уйдет	-11.2782
▁сеть	-11.2783
▁побывал	-11.2786
уж	-11.2786
ющуюся	-11.2789
▁протест	-11.2789
ёв	-11.2791
▁перейти	-11.2793
▁Евгений	-11.2793
▁зиму	-11.2794
▁хмур	-11.2794
▁определил	-11.2796
▁давление	-11.2796
сет	-11.2796
▁око	-11.2798
▁Фин	-11.2798
▁Вин	-11.2799
▁образован	-11.2802
▁судья	-11.2802
▁записку	-11.2804
▁особенного	-11.2804
▁Диа	-11.2805
▁играют	-11.2806
жек	-11.2807
учи	-11.2808
▁медведь	-11.2808
▁Юра	-11.2809
▁слухи	-11.281
льник	-11.281
▁глубин	-11.2811
кот	-11.2812
▁блин	-11.2813
монт	-11.2814
▁встречал	-11.2814
тянуть	-11.2814
▁Оказывается	-11.2815
▁важным	-11.2815
▁требовал	-11.2815
▁директора	-11.2818
▁живопис	-11.282
▁Союз	-11.2821
▁боку	-11.2822
▁составе	-11.2822
▁кожей	-11.2822
▁Красно	-11.2823
▁занятие	-11.2823
▁способна	-11.2824
▁лучшего	-11.2824
▁усталость	-11.2824
▁финансов	-11.2825
брав	-11.2827
▁продать	-11.2828
ностей	-11.2829
▁изображения	-11.283
▁выстрелил	-11.2831
▁кольца	-11.2831
▁тварь	-11.2832
ЛО	-11.2837
▁производство	-11.2838
▁кури	-11.2839
▁института	-11.2841
▁самыми	-11.2841
▁вертолет	-11.2843
бел	-11.2843
▁присутствии	-11.2843
▁Эрик	-11.2844
пен	-11.2845
лист	-11.2845
▁Сим	-11.2845
▁сыщик	-11.2845
▁Счастлив	-11.2847
▁морю	-11.2848
▁Погоди	-11.285
▁жаре	-11.2852
асс	-11.2853
▁поступить	-11.2853
бав	-11.2856
ИНА	-11.2856
▁1942	-11.2858
▁Майкл	-11.2858
▁оглядел	-11.2858
▁сыт	-11.2861
▁ПРО	-11.2861
▁начнут	-11.2861
▁оставляя	-11.2864
▁объектив	-11.2867
▁учился	-11.2868
тянув	-11.2868
▁маленькое	-11.2869
▁ше	-11.2869
овича	-11.2869
▁судно	-11.287
▁земель	-11.2871
▁полагал	-11.2873
▁университета	-11.2873
они	-11.2874
▁существенно	-11.2875
▁мыши	-11.2876
точ	-11.2877
▁религии	-11.2878
▁телефона	-11.2879
▁издали	-11.2882
▁пределы	-11.2883
▁старым	-11.2883
чо	-11.2886
▁красными	-11.2886
id	-11.2888
▁запись	-11.2889
▁созна	-11.289
▁полки	-11.289
ори	-11.2891
ic	-11.2892
▁случается	-11.2893
тельную	-11.2894
▁темный	-11.2896
▁осени	-11.2896
даются	-11.2899
▁слушает	-11.2901
есс	-11.2901
▁дружно	-11.2901
▁открытия	-11.2902
▁зеленого	-11.2902
▁госпожа	-11.2904
▁перспектив	-11.2905
▁становились	-11.2905
▁Луч	-11.2906
▁красных	-11.2906
▁окружающих	-11.2906
▁проведен	-11.2907
берг	-11.2912
▁надеждой	-11.2913
▁послушно	-11.2913
▁роде	-11.2914
валился	-11.2915
▁лома	-11.2916
чество	-11.2916
▁фальшив	-11.2917
▁объяснения	-11.2919
▁деревня	-11.2921
▁кинулся	-11.2922
▁многим	-11.2923
▁близких	-11.2924
вшимися	-11.2924
чится	-11.2925
▁успокоил	-11.2926
▁му	-11.2927
рид	-11.2927
иров	-11.2932
▁вечность	-11.2932
▁Петька	-11.2933
▁Зло	-11.2934
▁обряд	-11.2935
▁завода	-11.2936
▁Граф	-11.2938
пат	-11.294
▁синие	-11.294
▁купа	-11.2944
крашен	-11.2945
▁скелет	-11.2945
▁триста	-11.2945
▁баран	-11.2947
тей	-11.2947
▁основных	-11.2948
▁легкой	-11.2949
▁предложила	-11.2949
▁барон	-11.295
авшие	-11.295
▁милиционер	-11.2951
▁поднимает	-11.2951
▁пита	-11.2952
▁Настя	-11.2956
▁целые	-11.2957
▁позвонить	-11.2957
КО	-11.2957
▁программу	-11.2958
▁делаете	-11.2958
▁зима	-11.296
▁висел	-11.2962
▁горел	-11.2963
▁закончить	-11.2963
▁структур	-11.2967
▁морщин	-11.2967
▁спуска	-11.2967
▁школа	-11.2971
бив	-11.2971
▁щеке	-11.2972
▁обращая	-11.2974
ватый	-11.2974
кли	-11.2975
чар	-11.2975
▁завопил	-11.2979
▁Вторая	-11.298
▁следующим	-11.2982
▁Двое	-11.2982
▁посуду	-11.2983
ино	-11.2983
▁белую	-11.2985
ВА	-11.299
▁защиту	-11.299
▁Небес	-11.2992
▁факел	-11.2993
▁Взгляд	-11.2994
▁ху	-11.2995
▁линия	-11.2995
▁успехом	-11.2998
▁глядит	-11.3001
▁желез	-11.3001
▁Кое	-11.3001
▁желто	-11.3002
▁Никак	-11.3002
шить	-11.3004
ящая	-11.3004
тиф	-11.3005
▁советской	-11.3006
▁жалоб	-11.3006
▁основании	-11.3008
▁рассказывала	-11.3009
▁небольшие	-11.3011
▁стукнул	-11.3011
▁человеческий	-11.3014
торг	-11.3014
щики	-11.3016
▁Браун	-11.3016
лилась	-11.3018
▁описание	-11.3022
дорож	-11.3024
катился	-11.3026
▁курсе	-11.3027
бивать	-11.3029
▁пишут	-11.303
▁интереса	-11.3032
▁болит	-11.3032
▁победу	-11.3032
▁Деньги	-11.3033
▁любимой	-11.3036
▁группе	-11.304
▁скрыт	-11.3041
▁хан	-11.3041
▁мам	-11.3042
▁советник	-11.3045
▁нелегко	-11.3046
▁ботинки	-11.3047
чих	-11.3047
▁практике	-11.3047
▁тьма	-11.3049
▁чаю	-11.305
▁используют	-11.305
ходят	-11.3055
евые	-11.3055
бравшись	-11.3055
▁Оля	-11.3057
▁многом	-11.3057
▁сущность	-11.3057
▁Довольно	-11.3059
▁Наталья	-11.3063
▁уголь	-11.3065
▁шумно	-11.3067
▁остаются	-11.307
▁тра	-11.307
▁подошёл	-11.307
ухи	-11.3072
▁гуля	-11.3073
▁пояса	-11.3074
▁Стр	-11.3074
ТО	-11.3074
▁цыган	-11.3075
▁преступник	-11.3076
▁соседней	-11.3077
тел	-11.3078
▁среднего	-11.3079
▁вирус	-11.3079
▁чайник	-11.3081
▁ошибку	-11.3084
▁представляют	-11.3084
▁горяч	-11.3084
▁больного	-11.3086
▁проблему	-11.3086
▁всячески	-11.3094
сот	-11.3095
▁10.	-11.3096
нит	-11.3097
▁границу	-11.3097
джа	-11.3097
шняя	-11.3097
▁линию	-11.3098
ведите	-11.3098
▁Прекрасно	-11.3099
▁столетия	-11.31
▁Иваныч	-11.3101
▁миллионы	-11.3101
▁1943	-11.3101
▁взрослых	-11.3103
гли	-11.3103
▁верхом	-11.3104
▁надоело	-11.3105
▁знакомы	-11.3105
▁выражением	-11.3106
▁залив	-11.3107
▁сока	-11.3108
груз	-11.311
▁Двадцать	-11.3113
▁горячо	-11.3113
▁проекта	-11.3116
▁пульт	-11.3116
▁чтение	-11.3117
лена	-11.312
▁куп	-11.3121
гул	-11.3121
▁приняла	-11.3124
▁доброго	-11.3124
▁глупости	-11.3126
▁обычного	-11.313
▁разно	-11.3131
▁супруга	-11.3134
▁1944	-11.3136
▁ракеты	-11.3138
▁официально	-11.3139
▁рычаг	-11.3141
лав	-11.3143
▁Кан	-11.3144
▁банка	-11.3144
▁фашист	-11.3144
▁спасение	-11.3145
▁пище	-11.3145
▁мужики	-11.3146
▁известных	-11.3148
▁юг	-11.315
▁рам	-11.315
▁цифр	-11.3151
▁смерт	-11.3153
▁открывал	-11.3154
▁француз	-11.3154
▁применения	-11.3155
кладывает	-11.3157
▁заключил	-11.3157
▁умный	-11.3159
▁грунт	-11.316
▁мебель	-11.3161
▁выполнения	-11.3161
▁большинства	-11.3164
▁ненадолго	-11.3164
▁пещеры	-11.3165
▁количества	-11.3165
▁учил	-11.3166
▁дяди	-11.3168
▁реакции	-11.3169
▁Лорд	-11.3169
▁свобода	-11.317
▁утверждает	-11.3171
фир	-11.3171
гг	-11.3171
▁зубов	-11.3172
st	-11.3172
ложен	-11.3174
▁Стрел	-11.3175
▁Герман	-11.3176
▁холодным	-11.3177
▁флота	-11.3177
тёр	-11.3179
▁принцесса	-11.3182
▁цену	-11.3182
▁знаки	-11.3185
▁Дин	-11.3186
мудр	-11.319
▁400	-11.3191
▁Ново	-11.3192
▁торгов	-11.3192
▁корни	-11.3192
▁произнёс	-11.3194
▁Соня	-11.3195
▁дверцу	-11.3195
▁обстоятельств	-11.3196
▁конкретно	-11.3196
▁эмоции	-11.3196
▁умеют	-11.3196
▁поцелуй	-11.3197
▁Против	-11.3197
▁ошибся	-11.3197
▁полон	-11.3199
▁приходили	-11.3199
▁похожие	-11.3201
▁чистый	-11.3201
▁отодвинул	-11.3202
щика	-11.3203
▁показаться	-11.3203
▁пульс	-11.3205
▁серии	-11.3207
▁наблюдая	-11.3208
▁горячим	-11.321
▁офицера	-11.3212
▁писем	-11.3212
нулись	-11.3213
▁круга	-11.3214
▁десант	-11.3215
▁сбросил	-11.3215
▁средней	-11.3215
▁понимание	-11.3215
▁кра	-11.3216
▁бан	-11.3217
▁службе	-11.322
кля	-11.3221
▁животе	-11.3222
▁отрицательно	-11.3222
▁надежно	-11.3223
чать	-11.3223
▁выглядеть	-11.3224
ква	-11.3224
▁42	-11.3225
иха	-11.3226
▁Сэр	-11.3226
▁интеллигент	-11.3227
▁покорно	-11.3228
▁промолчал	-11.3228
▁уроки	-11.3229
▁погода	-11.3231
ирован	-11.3232
▁временно	-11.3233
▁широкий	-11.3233
▁варить	-11.3233
▁волну	-11.3234
"?	-11.3237
▁аккурат	-11.3239
град	-11.324
вое	-11.3244
ўся	-11.3244
АМ	-11.3246
▁замке	-11.3247
люсь	-11.3248
▁12.	-11.325
▁Извини	-11.325
▁Баба	-11.3253
вей	-11.3255
▁подождать	-11.3256
▁гулять	-11.3259
▁Хэ	-11.3259
▁сообщения	-11.326
тические	-11.326
нен	-11.3261
гло	-11.3261
▁приехала	-11.3261
лас	-11.3263
▁дет	-11.3264
▁подлинно	-11.3264
▁Стой	-11.3268
▁икон	-11.3268
▁Лондон	-11.327
▁знач	-11.3272
оби	-11.3277
▁коем	-11.3278
▁Коп	-11.3278
▁ритуал	-11.328
▁Америки	-11.328
ведом	-11.3282
▁падали	-11.3282
рах	-11.3282
бек	-11.3283
▁младший	-11.3284
▁движений	-11.3284
▁пустые	-11.3285
▁решив	-11.3286
▁проявил	-11.3287
▁Жил	-11.329
рма	-11.3291
счет	-11.3291
▁мертвых	-11.3291
рку	-11.3292
▁пса	-11.3293
фан	-11.3294
▁программа	-11.3295
▁счастливо	-11.3296
▁Свят	-11.3299
▁советских	-11.33
стать	-11.3302
▁рассвет	-11.3303
▁водя	-11.3304
▁Ход	-11.3304
нно	-11.3309
▁восток	-11.3309
▁повесть	-11.3309
▁хром	-11.3311
▁Андрея	-11.3312
▁Зуб	-11.3312
АС	-11.3314
АЯ	-11.3315
вшем	-11.3316
▁неудобно	-11.3319
▁исполнен	-11.3319
▁Иосиф	-11.3319
▁деревьями	-11.3321
▁некое	-11.3323
▁Твои	-11.3325
▁Сашка	-11.3327
вание	-11.3328
▁правом	-11.333
▁причинам	-11.3332
▁облако	-11.3333
▁старалась	-11.3334
▁спасения	-11.3334
▁колокол	-11.3336
▁быт	-11.3336
▁зол	-11.3339
▁Вульф	-11.3341
▁записал	-11.3342
кое	-11.3342
▁внутренний	-11.3343
▁серо	-11.3344
▁гигант	-11.3344
▁удивля	-11.3345
▁одиннадцать	-11.3345
ьей	-11.3346
▁кратко	-11.3347
▁Император	-11.3347
ары	-11.3347
▁увидите	-11.335
▁милиции	-11.3351
▁ужина	-11.3351
▁Каз	-11.3351
▁степень	-11.3353
▁аль	-11.3353
▁исчезает	-11.3355
▁третья	-11.3355
▁новость	-11.3356
▁la	-11.3357
▁смутно	-11.3357
▁выражен	-11.3357
▁горле	-11.3358
▁шелест	-11.3358
▁похвал	-11.3359
▁камеру	-11.336
ступив	-11.336
▁намерения	-11.3361
▁Добрый	-11.3362
▁бодр	-11.3364
▁роб	-11.3366
▁размером	-11.3366
▁орудия	-11.337
▁re	-11.337
▁потеряли	-11.3372
▁250	-11.3372
ul	-11.3373
▁игре	-11.3375
поль	-11.3375
▁запел	-11.3376
каз	-11.338
▁крепости	-11.338
ером	-11.3383
силь	-11.3383
▁элемент	-11.3384
▁застыл	-11.3384
▁Григорий	-11.3385
▁представлен	-11.3387
▁2000	-11.3387
▁рассказов	-11.339
▁запер	-11.3391
▁фл	-11.3392
▁управление	-11.3393
▁выпустил	-11.3394
▁прекрасная	-11.3395
▁пассажир	-11.3396
▁сознательно	-11.3398
ложение	-11.3398
ываю	-11.3398
ыва	-11.3399
▁мышь	-11.3399
▁кустов	-11.3404
СК	-11.3405
▁Энн	-11.3405
▁рек	-11.3405
▁военно	-11.3406
▁грозно	-11.3407
▁обидно	-11.3407
▁найдется	-11.3407
▁Добр	-11.3408
▁Помните	-11.3408
▁Вряд	-11.3409
▁уютно	-11.341
▁сестру	-11.3411
▁Андре	-11.3411
▁лихо	-11.3412
▁гостиную	-11.3412
▁держала	-11.3412
▁гнал	-11.3413
носят	-11.3414
чками	-11.3414
▁сказав	-11.3415
сар	-11.3417
▁тронул	-11.3417
▁воображение	-11.3418
▁дошло	-11.3418
пустив	-11.3421
меш	-11.3421
▁коллег	-11.3422
▁Йорк	-11.3422
▁вернул	-11.3424
▁Согласно	-11.3424
▁евреев	-11.3424
шиб	-11.3425
▁тьме	-11.3425
▁пьет	-11.3427
▁армию	-11.3428
пущу	-11.3429
▁красивой	-11.343
▁выбросил	-11.343
▁камеры	-11.3433
▁угрюмо	-11.3433
▁пропустил	-11.3433
▁книж	-11.3435
оты	-11.3436
▁любопытство	-11.3436
▁отчасти	-11.3437
▁Вели	-11.3438
▁отсек	-11.3439
рова	-11.344
▁семьдесят	-11.3441
сор	-11.3443
▁истинно	-11.3443
луша	-11.3443
▁Лё	-11.3443
▁собор	-11.3445
▁найду	-11.3447
▁Хм	-11.3447
▁фактор	-11.3449
▁подъезд	-11.3449
етт	-11.345
▁Большая	-11.345
▁забрать	-11.3451
▁защитить	-11.3452
▁Кри	-11.3453
▁предметов	-11.3454
▁намерен	-11.3456
▁красная	-11.3456
▁Речь	-11.3457
▁мозгу	-11.3458
▁микро	-11.3459
зя	-11.3459
▁голосов	-11.346
▁дракона	-11.346
▁формул	-11.3461
▁свеч	-11.3462
аш	-11.3462
▁закрыв	-11.3463
▁рейс	-11.3464
ходишь	-11.3465
▁легла	-11.3465
▁пораз	-11.3466
▁ездил	-11.3466
▁проходили	-11.3466
▁нужды	-11.3467
▁дочка	-11.3469
плю	-11.3471
▁предполагал	-11.3473
▁Теле	-11.3474
▁карте	-11.3475
▁Позвольте	-11.3476
▁привлек	-11.3477
▁Св	-11.3477
▁яму	-11.3477
▁самолетов	-11.3477
▁привели	-11.3478
блюд	-11.3478
▁страниц	-11.3478
▁колесо	-11.348
▁Ган	-11.3481
шел	-11.3482
строить	-11.3482
▁холодильник	-11.3482
▁Путь	-11.3483
▁старшего	-11.3484
▁восторга	-11.3484
▁понимали	-11.3486
▁Помнишь	-11.3486
тру	-11.3487
▁участник	-11.3487
▁беседы	-11.3488
▁напряжен	-11.3488
▁научился	-11.3488
▁ударов	-11.3488
аст	-11.3489
▁несчастный	-11.3491
▁рабочие	-11.3492
▁Кин	-11.3493
▁мужской	-11.3494
лова	-11.3494
▁Оп	-11.3497
▁приложил	-11.3499
▁пообещал	-11.3499
▁нечист	-11.35
▁грани	-11.3502
▁мист	-11.3502
▁ящика	-11.3503
▁кусочки	-11.3503
▁Кэ	-11.3503
▁11.	-11.3503
▁v	-11.3504
живает	-11.3504
▁Гуд	-11.3506
▁подруги	-11.3506
▁стуле	-11.3508
▁пробежал	-11.3508
▁поначалу	-11.3508
▁шал	-11.3508
стру	-11.3509
▁штук	-11.351
▁вампир	-11.3515
▁пожалел	-11.3516
▁простым	-11.3518
▁драма	-11.3518
лива	-11.3518
жная	-11.3519
▁Возле	-11.3519
андр	-11.352
▁Подожди	-11.3522
▁Дим	-11.3522
▁упражнение	-11.3524
роп	-11.3525
чест	-11.3526
▁происхождения	-11.3526
ага	-11.3526
▁продолжение	-11.3528
▁брошен	-11.3528
▁эм	-11.3529
▁Снег	-11.353
▁шрам	-11.3534
▁фактически	-11.3535
▁синий	-11.3536
▁русском	-11.3538
▁получше	-11.354
▁умение	-11.3541
юще	-11.3541
▁местности	-11.3541
▁конфет	-11.3542
▁полезно	-11.3543
аков	-11.3544
глядел	-11.3544
▁фокус	-11.3545
▁картон	-11.3545
▁критик	-11.3546
▁умирает	-11.3546
▁гражданин	-11.3547
▁криком	-11.3548
▁Сюда	-11.3548
▁мета	-11.3548
даст	-11.3549
голь	-11.3552
▁грудью	-11.3553
▁гора	-11.3553
▁зверей	-11.3554
▁великих	-11.3554
▁отряда	-11.3554
▁правилам	-11.3554
ады	-11.3555
▁проверил	-11.3557
тина	-11.3558
тягивал	-11.3558
▁Душа	-11.3561
▁чье	-11.3561
▁импульс	-11.3561
▁герцог	-11.3561
щиеся	-11.3562
▁разными	-11.3562
▁политики	-11.3564
пыт	-11.3564
ОД	-11.3565
▁ростом	-11.3565
оса	-11.3565
▁градусов	-11.3566
▁реже	-11.3569
сель	-11.357
▁лют	-11.3571
▁ткань	-11.3571
▁историк	-11.3571
▁Иоанн	-11.3572
▁Удар	-11.3573
▁надежде	-11.3573
▁тюрьме	-11.3573
▁корень	-11.3579
▁санитар	-11.3579
▁лифт	-11.3581
▁красоту	-11.3585
▁тяжелым	-11.3585
▁щелкнул	-11.3586
▁господ	-11.3587
▁зовет	-11.3588
▁Ух	-11.3589
▁женился	-11.3591
▁тоска	-11.3592
▁сохрани	-11.3593
арев	-11.3593
▁направления	-11.3594
▁долгое	-11.3594
▁вплотную	-11.3595
▁Дра	-11.3596
тыка	-11.3599
▁продукт	-11.3599
ложения	-11.36
▁заявила	-11.36
▁щедро	-11.3601
▁трудов	-11.3604
ГА	-11.3604
om	-11.3606
▁Начальник	-11.3606
▁сказ	-11.3609
▁боятся	-11.3609
▁туфли	-11.3609
▁потянул	-11.3609
тический	-11.3611
анные	-11.3611
правлять	-11.3611
▁сомневался	-11.3611
▁вследствие	-11.3614
▁дышит	-11.3615
рина	-11.3616
▁услов	-11.3616
▁пехот	-11.3617
▁заявление	-11.3617
▁возвращения	-11.3617
▁открывать	-11.3618
арх	-11.362
▁провели	-11.362
▁лик	-11.362
▁кормить	-11.3621
▁наедине	-11.3621
▁Солнца	-11.3624
▁свежий	-11.3626
▁Жар	-11.3626
мак	-11.3627
▁побежали	-11.3627
▁экзамен	-11.3627
▁заболевания	-11.3628
▁Симон	-11.3629
▁шептал	-11.363
▁возникло	-11.363
▁осад	-11.3631
▁Кровь	-11.3632
▁беды	-11.3633
▁голуб	-11.3634
билась	-11.3635
▁отвлек	-11.3635
▁Рам	-11.3635
пала	-11.3635
▁кача	-11.3636
▁сударь	-11.3637
крад	-11.3638
послуш	-11.3638
казывать	-11.3638
▁мешка	-11.3638
▁ката	-11.3639
▁огромных	-11.364
▁звучал	-11.364
▁Гром	-11.3641
▁получалось	-11.3642
▁провела	-11.3642
▁бесед	-11.3644
▁посредством	-11.3646
▁Грин	-11.3646
РУ	-11.3647
▁направля	-11.365
▁прилично	-11.3651
▁небом	-11.3651
▁достойно	-11.3652
хор	-11.3654
▁лыс	-11.3654
▁услышали	-11.3658
▁Сережа	-11.3659
▁подходил	-11.3659
▁Взял	-11.366
▁пересел	-11.366
▁приход	-11.366
▁воротник	-11.366
▁внутреннего	-11.366
▁враги	-11.3661
▁ды	-11.3661
▁случаи	-11.3662
чёт	-11.3663
▁корзин	-11.3664
▁выступил	-11.3667
▁должность	-11.3667
▁четвертый	-11.3668
▁подушку	-11.3669
▁ненавидел	-11.367
▁погружа	-11.3671
▁температура	-11.3671
▁Никита	-11.3673
спор	-11.3675
▁Страх	-11.3677
▁братом	-11.3679
▁сирот	-11.368
▁заглянуть	-11.3681
▁Скотт	-11.3683
▁косы	-11.3684
▁нашёл	-11.3684
▁тюрьму	-11.3684
▁диалог	-11.3685
▁дворян	-11.3685
▁основные	-11.3685
▁прекрасной	-11.3688
▁пели	-11.369
них	-11.369
▁Пад	-11.369
ьного	-11.3691
▁бормотал	-11.3691
▁ущерб	-11.3691
▁Идет	-11.3693
▁дыхания	-11.3694
пуск	-11.3695
▁стиль	-11.3695
▁град	-11.3697
▁неприятности	-11.3697
▁простите	-11.3697
▁Полковник	-11.3698
▁вертел	-11.37
▁обеими	-11.37
▁солнечный	-11.3703
▁Туда	-11.3703
▁орден	-11.3704
▁плечах	-11.371
▁Лан	-11.3711
нике	-11.3711
▁мускул	-11.3712
▁снимать	-11.3712
▁улицах	-11.3713
▁повторить	-11.3713
▁масле	-11.3714
▁Рик	-11.3717
ласт	-11.3719
▁бывшего	-11.372
▁тяжелой	-11.3721
евский	-11.3721
ати	-11.3724
▁необыкновенно	-11.3726
тку	-11.3726
▁предков	-11.3727
▁Ци	-11.3727
▁показывать	-11.3727
▁силуэт	-11.3728
▁девяти	-11.3728
▁довести	-11.373
▁Пис	-11.373
ant	-11.373
чно	-11.3731
▁мудрец	-11.3731
▁шире	-11.3735
▁перо	-11.3736
дея	-11.3736
▁ручей	-11.3736
ступая	-11.3737
сыпал	-11.3737
гром	-11.3738
рн	-11.3739
▁Созда	-11.3739
▁функции	-11.3741
▁Лад	-11.3742
▁греха	-11.3742
▁испан	-11.3744
способ	-11.3744
▁кричала	-11.3744
▁умом	-11.3745
▁маневр	-11.3746
▁соседи	-11.3748
▁обнаружить	-11.3748
▁занять	-11.375
▁наказание	-11.3752
цер	-11.3753
▁жалобно	-11.3753
▁полночь	-11.3754
▁визг	-11.3755
▁Рак	-11.3756
фиц	-11.3757
▁славы	-11.3757
жут	-11.3758
▁масштаб	-11.3765
зуб	-11.3766
▁дон	-11.3766
▁Право	-11.3766
▁глухой	-11.3766
▁пчел	-11.3766
▁мостик	-11.3767
▁вершины	-11.3767
▁кип	-11.3767
ющимися	-11.3769
▁блокнот	-11.3769
▁презрительно	-11.3769
▁известны	-11.3771
тяж	-11.3771
▁яго	-11.3771
▁колокольчик	-11.3772
▁природу	-11.3772
▁описан	-11.3773
▁Степ	-11.3774
▁вылетел	-11.3776
▁Достаточно	-11.3776
▁вынес	-11.3776
▁приблизился	-11.3776
▁журнале	-11.3777
▁глупость	-11.3778
▁рассыпа	-11.3779
▁Бед	-11.378
жж	-11.3783
▁машинально	-11.3784
▁превратилась	-11.3784
▁подмигнул	-11.3784
тики	-11.3785
▁молоком	-11.3786
▁Хр	-11.379
▁Особ	-11.379
истая	-11.379
читан	-11.379
▁тигр	-11.3792
▁Президент	-11.3794
пишите	-11.3794
▁военные	-11.3797
▁дадут	-11.3797
▁рассмеялась	-11.3797
▁ученик	-11.3797
▁рожда	-11.3797
▁порога	-11.3799
▁вершине	-11.3799
▁будьте	-11.3801
▁Ана	-11.3801
лка	-11.3801
меня	-11.3802
▁придётся	-11.3802
▁случаю	-11.3802
▁умы	-11.3803
▁использования	-11.3803
▁Оле	-11.3803
летает	-11.3804
шт	-11.3804
▁небольшое	-11.3807
▁пластик	-11.3809
▁театре	-11.3809
▁печи	-11.3811
▁полицейский	-11.3812
волок	-11.3813
▁мыслью	-11.3814
рубил	-11.3814
врат	-11.3817
▁военного	-11.3818
▁нижней	-11.3818
▁верхов	-11.382
▁двум	-11.3821
▁болью	-11.3821
▁детской	-11.3824
▁Ильич	-11.3825
▁признан	-11.3828
▁1945	-11.3829
водил	-11.3829
ано	-11.3829
▁Марта	-11.383
▁признак	-11.3831
▁ест	-11.3832
▁Др	-11.3833
▁Друзья	-11.3835
▁тишину	-11.3836
▁выража	-11.3836
▁британ	-11.3836
▁Марии	-11.3839
▁открыт	-11.3839
▁почувствовать	-11.3839
▁бульон	-11.384
▁литература	-11.3841
мел	-11.3842
▁получит	-11.3843
овод	-11.3843
▁несчастье	-11.3843
▁открытым	-11.3846
вра	-11.3847
▁живёт	-11.3849
▁читателя	-11.3849
▁Пускай	-11.3851
▁отделение	-11.3852
▁Час	-11.3854
▁учить	-11.3855
▁позволит	-11.3855
▁Фор	-11.3856
▁умирать	-11.3857
▁крепость	-11.3858
and	-11.386
ившиеся	-11.386
▁печат	-11.386
▁мозги	-11.3861
▁серой	-11.3861
▁очертания	-11.3863
ЧЕ	-11.3864
▁самолёт	-11.3864
вик	-11.3865
▁следа	-11.3866
▁профессионально	-11.3866
▁бандит	-11.3867
▁Можешь	-11.3867
▁древней	-11.3867
▁Тэ	-11.3868
▁шест	-11.3868
ическому	-11.3869
▁сменил	-11.3869
▁попада	-11.387
▁татар	-11.3871
▁странная	-11.3872
▁талантлив	-11.3874
▁закурил	-11.3874
▁Мертв	-11.3875
▁равновесие	-11.3875
▁бер	-11.3876
▁Элизабет	-11.3877
▁цена	-11.3878
кл	-11.3878
ИТ	-11.3878
▁Дз	-11.3879
▁весть	-11.3879
▁Белый	-11.388
▁сильней	-11.388
▁подскочил	-11.3881
▁сказка	-11.3881
▁Надя	-11.3883
▁Пле	-11.3883
▁выступ	-11.3885
▁Хотите	-11.3886
▁незнакомец	-11.3886
▁лагере	-11.3887
▁приятеля	-11.3887
▁статью	-11.3887
очную	-11.3892
▁фу	-11.3894
▁Сами	-11.3894
опа	-11.3895
оре	-11.3895
ечки	-11.3896
▁черное	-11.3899
▁казаться	-11.3899
▁дальней	-11.3901
▁усилива	-11.3902
нику	-11.3902
▁Сп	-11.3902
▁сочета	-11.3903
▁встали	-11.3905
▁подняли	-11.3905
▁водо	-11.3907
▁отправля	-11.3908
▁Поэт	-11.391
▁поднимая	-11.391
▁цирк	-11.3911
▁39	-11.3911
▁мент	-11.3911
▁фиг	-11.3911
тических	-11.3913
лоб	-11.3914
▁светлые	-11.3915
▁упрямо	-11.3917
дит	-11.3917
▁построить	-11.3917
▁простые	-11.3919
▁обращаться	-11.3919
▁знаменитый	-11.392
▁уснул	-11.392
▁размышления	-11.392
▁часами	-11.3921
▁рисунок	-11.3922
▁зайти	-11.3923
▁залез	-11.3924
▁святых	-11.3925
▁сцена	-11.3926
▁следовать	-11.3927
треп	-11.3927
нимая	-11.3928
▁указывает	-11.3928
этаж	-11.393
▁страхов	-11.3932
▁конструкции	-11.3932
▁зеленью	-11.3933
▁обще	-11.3934
▁вытер	-11.3935
иваю	-11.3935
▁заставлял	-11.3935
▁тюрьмы	-11.3936
▁понимания	-11.3937
▁труднее	-11.3941
▁тускло	-11.3943
▁трепет	-11.3944
▁мечом	-11.3944
▁зев	-11.3945
▁крот	-11.3945
▁клиента	-11.3947
оро	-11.3947
▁неделе	-11.3949
▁ненависти	-11.3949
▁Женщины	-11.3949
▁Самый	-11.3953
▁статье	-11.3953
▁искали	-11.3954
▁действовал	-11.3955
▁установки	-11.3956
кого	-11.3958
иска	-11.3959
▁военный	-11.3959
сей	-11.3959
▁k	-11.3959
▁приготовить	-11.396
▁элементов	-11.3965
ложил	-11.3966
▁крыльцо	-11.3966
льных	-11.3967
▁табурет	-11.3967
▁кружев	-11.3968
▁останавливается	-11.3968
рист	-11.3969
даю	-11.3969
морожен	-11.397
▁меньшей	-11.397
▁получения	-11.3971
строен	-11.3972
▁принимают	-11.3972
▁старались	-11.3977
▁поставлен	-11.3977
ложу	-11.3978
▁Билли	-11.398
▁стороной	-11.398
нимал	-11.398
▁суждено	-11.3981
▁Кро	-11.3982
▁внутренних	-11.3982
▁партизан	-11.3982
гонять	-11.3985
▁Франц	-11.3985
▁тема	-11.3985
▁сотрудников	-11.399
▁воров	-11.3991
▁газов	-11.3992
▁разглядел	-11.3993
▁очаровательн	-11.3993
сход	-11.3996
▁песен	-11.3996
▁личной	-11.3997
ившихся	-11.3997
▁потолка	-11.3998
▁собира	-11.3998
ИЙ	-11.4
▁змей	-11.4
▁женский	-11.4001
▁Дем	-11.4002
зра	-11.4003
буд	-11.4003
▁рассеянно	-11.4003
ці	-11.4003
най	-11.4004
▁перенес	-11.4004
▁щель	-11.4005
▁знат	-11.4005
▁Медленно	-11.4005
▁ехали	-11.4005
▁Говорит	-11.4006
▁органы	-11.4007
▁буфет	-11.4007
▁молодец	-11.4008
▁Обе	-11.4008
▁отправить	-11.401
▁желтые	-11.401
▁оборвал	-11.401
▁профессиональны	-11.401
▁Макар	-11.4011
летел	-11.4012
▁достала	-11.4013
креп	-11.4013
▁парней	-11.4014
▁вселенной	-11.4014
▁висели	-11.4015
▁неожиданности	-11.4016
работал	-11.4016
▁экипажа	-11.4017
▁надежду	-11.4019
ивал	-11.402
шне	-11.402
▁шелк	-11.4021
▁менять	-11.4022
▁шуб	-11.4024
▁больных	-11.4025
▁подъезда	-11.4027
коле	-11.4027
▁Церкви	-11.4029
▁файл	-11.403
▁открытой	-11.403
▁ответы	-11.4031
эк	-11.4031
▁политической	-11.4032
▁Образ	-11.4033
нина	-11.4033
▁Вовка	-11.4033
тера	-11.4034
▁выдохнул	-11.4036
аб	-11.4037
▁слову	-11.4041
▁человеческие	-11.4042
▁шок	-11.4043
▁Князь	-11.4048
▁плохой	-11.4049
ce	-11.405
▁плече	-11.4051
дил	-11.4052
▁шутки	-11.4052
▁разговаривал	-11.4054
▁реакция	-11.4056
▁сотен	-11.4057
▁алмаз	-11.4057
▁Иисуса	-11.4058
▁фонарь	-11.4058
▁повторять	-11.4059
▁заброшен	-11.406
▁зеркале	-11.4061
▁губу	-11.4061
▁опустилась	-11.4062
▁пожелал	-11.4063
▁барин	-11.4064
▁занимает	-11.4064
▁денеж	-11.4064
пали	-11.4066
▁пределах	-11.4066
▁замкнут	-11.4066
▁сопротивление	-11.4067
▁королева	-11.4067
▁Пир	-11.4068
▁5-	-11.4071
▁нарушил	-11.4071
▁древние	-11.4073
▁современных	-11.4073
▁сосуд	-11.4073
▁блюда	-11.4076
▁чёрт	-11.4078
▁аналоги	-11.4079
▁двенадцати	-11.408
▁вымыть	-11.408
▁рабочего	-11.408
▁эпоху	-11.4081
▁проникнуть	-11.4083
▁Жак	-11.4084
▁безумно	-11.4084
▁встречались	-11.4086
▁фунтов	-11.4087
▁климат	-11.4088
▁смеялись	-11.4088
▁смеялся	-11.4088
▁обер	-11.4088
ичным	-11.4089
▁схватить	-11.409
▁соп	-11.4092
▁опор	-11.4092
▁парус	-11.4092
▁повторила	-11.4093
▁Конец	-11.4093
▁необходимые	-11.4095
▁поднима	-11.4095
▁Словом	-11.4095
веща	-11.4096
▁заставила	-11.4096
▁тьму	-11.4097
кинуть	-11.4098
▁Командир	-11.4099
учить	-11.41
▁Вполне	-11.4102
▁высоту	-11.4103
▁вставил	-11.4104
▁максимально	-11.4104
НЫЙ	-11.4106
▁тонн	-11.4107
▁мух	-11.4107
▁возможностей	-11.4108
▁имеете	-11.4109
ЛИ	-11.4111
▁хрусталь	-11.4112
ИС	-11.4112
глот	-11.4113
▁Рос	-11.4113
ленных	-11.4115
▁начались	-11.4115
▁Кай	-11.4117
тим	-11.412
▁воспоминаний	-11.4121
▁соглас	-11.4121
работать	-11.4123
▁образа	-11.4123
▁дайте	-11.4123
▁законов	-11.4125
▁хлопнул	-11.4126
дро	-11.4126
▁большинстве	-11.4128
▁друзьям	-11.4129
▁потрясен	-11.4133
▁горизонта	-11.4133
▁фраза	-11.4134
▁ma	-11.4134
▁Ир	-11.4135
▁задумал	-11.4136
▁показания	-11.4138
▁побег	-11.4138
▁берегов	-11.4139
▁Рэ	-11.4141
мести	-11.4141
▁короче	-11.4142
▁специалист	-11.4142
▁положив	-11.4142
ощ	-11.4144
▁фильма	-11.4145
▁жажду	-11.4145
▁r	-11.4146
▁условий	-11.4147
▁забыт	-11.4149
▁направилась	-11.4151
▁Бэ	-11.4152
числен	-11.4152
▁учение	-11.4152
▁точности	-11.4154
▁обрел	-11.4155
▁облегчением	-11.4155
▁мышления	-11.4157
▁насмешливо	-11.416
▁наличие	-11.4161
▁плана	-11.4161
ода	-11.4162
▁Дэн	-11.4163
▁допустим	-11.4163
▁лент	-11.4164
▁поклонился	-11.4165
▁показали	-11.4165
глав	-11.4167
одол	-11.4167
▁материалы	-11.4167
▁дышал	-11.4167
▁животного	-11.4168
▁механик	-11.4171
▁предположил	-11.4171
▁лампы	-11.4174
вари	-11.4174
▁Эс	-11.4174
▁тихим	-11.4175
▁глас	-11.4177
▁еже	-11.4177
▁образы	-11.4177
▁маленькими	-11.4177
▁русски	-11.4178
▁Постепенно	-11.4179
говаривал	-11.4179
сок	-11.418
▁впечатления	-11.4182
▁любовник	-11.4182
▁повис	-11.4182
ставим	-11.4182
▁Ноги	-11.4183
гора	-11.4183
▁Возьми	-11.4183
▁75	-11.4186
▁охота	-11.4186
▁сторона	-11.4186
очного	-11.4189
▁you	-11.419
анд	-11.4191
▁читателей	-11.4192
▁дереве	-11.4192
▁следующую	-11.4192
тит	-11.4193
▁Гро	-11.4193
▁полдень	-11.4194
бегая	-11.4196
▁карта	-11.4198
кид	-11.4201
▁заходил	-11.4202
▁слове	-11.4203
▁Леди	-11.4203
▁моста	-11.4203
телен	-11.4204
▁экс	-11.4205
▁несколькими	-11.4206
бух	-11.4207
уча	-11.4207
▁печь	-11.4209
▁брату	-11.4211
▁плю	-11.4211
10	-11.4212
стран	-11.4215
▁лучшим	-11.4215
▁Витя	-11.4216
▁пастух	-11.4216
▁чистым	-11.4216
▁конструктор	-11.4216
▁ложе	-11.4218
лению	-11.4218
▁книжки	-11.4219
▁сеньор	-11.4221
▁разобрал	-11.4221
▁хитро	-11.4221
▁цепля	-11.4221
▁чудом	-11.4221
бот	-11.4222
▁казни	-11.4222
▁движении	-11.4223
▁сбежал	-11.4224
▁Вижу	-11.4224
зой	-11.4224
▁новыми	-11.4225
▁потащил	-11.4226
▁выбирать	-11.4227
эд	-11.4227
▁послать	-11.4229
▁ряды	-11.423
▁сестре	-11.4231
▁фамилию	-11.4232
▁отыскал	-11.4232
▁болезненно	-11.4235
▁хе	-11.4238
▁Бек	-11.4239
▁настаивал	-11.424
▁яблоки	-11.424
▁весны	-11.424
▁Двор	-11.4241
▁кандидат	-11.4241
▁немцев	-11.4242
▁короткие	-11.4243
рублен	-11.4243
▁яркий	-11.4244
▁лопат	-11.4247
▁перца	-11.4249
▁Прощай	-11.4249
▁соответствует	-11.425
▁извини	-11.4253
▁наступила	-11.4255
рывается	-11.4255
▁тише	-11.4257
▁давала	-11.4257
▁захлопнул	-11.4258
ндо	-11.4258
▁ладонями	-11.4258
▁науке	-11.426
▁пацан	-11.4263
»),	-11.4264
▁молнии	-11.4267
▁туго	-11.4267
▁причину	-11.4268
▁Свобод	-11.4269
▁похорон	-11.4269
▁заменить	-11.427
▁спокойствие	-11.427
зда	-11.4271
▁всякую	-11.4271
▁рявкнул	-11.4273
▁полиция	-11.4273
▁сломан	-11.4275
▁Газ	-11.4275
щихся	-11.4277
нская	-11.4279
▁брит	-11.4281
▁отчаянии	-11.4282
▁бьет	-11.4282
▁эльф	-11.4282
▁статус	-11.4283
▁Сергея	-11.4284
деля	-11.4284
▁последнем	-11.4287
▁пожала	-11.4287
▁Пуаро	-11.4288
▁окошко	-11.4289
ствует	-11.4291
нн	-11.4291
▁бедный	-11.4294
▁ДЖ	-11.4294
▁дурно	-11.4294
▁ласка	-11.4298
▁проснулась	-11.4299
▁включен	-11.43
▁Начал	-11.4301
▁пыш	-11.4302
▁куст	-11.4302
вернувшись	-11.4303
сыпать	-11.4303
▁потребуется	-11.4303
▁улыбки	-11.4304
▁скажете	-11.4304
▁сижу	-11.4306
▁Стан	-11.4306
▁купе	-11.4306
▁перенос	-11.4307
▁учения	-11.4311
▁Можете	-11.4314
ича	-11.4315
▁видал	-11.4317
▁щеку	-11.4317
▁пласт	-11.4317
▁плохого	-11.4318
▁вблизи	-11.4318
▁Йо	-11.4319
мас	-11.4319
▁наполнил	-11.432
▁Тол	-11.432
очник	-11.4321
▁ежели	-11.4322
ёнок	-11.4322
▁пациент	-11.4322
▁сильное	-11.4323
▁приземл	-11.4324
▁приз	-11.4324
▁производил	-11.4324
▁учеников	-11.4324
▁подарил	-11.4324
теш	-11.4325
труд	-11.4328
▁выходят	-11.4329
нѣ	-11.4329
▁Гитлер	-11.433
▁гладко	-11.4331
▁кулаки	-11.4332
▁тепла	-11.4332
▁тратить	-11.4335
ЕЛ	-11.4335
▁понят	-11.4335
▁богатство	-11.4336
▁человеческое	-11.4337
вернуть	-11.4337
▁ставил	-11.4337
олом	-11.4338
▁прерыва	-11.4338
▁передачи	-11.434
▁разрыв	-11.4342
ньки	-11.4342
▁вопреки	-11.4342
▁регион	-11.4343
▁хранил	-11.4344
▁семей	-11.4344
▁молчать	-11.4344
▁дрова	-11.4346
▁терпение	-11.4347
▁означало	-11.4349
▁Эдвард	-11.4349
▁44	-11.435
▁написан	-11.4353
шн	-11.4354
▁плодов	-11.4354
▁трещин	-11.4355
▁побледнел	-11.4356
▁Ари	-11.4357
ly	-11.4359
▁любезно	-11.4359
im	-11.4359
чая	-11.436
▁выводу	-11.4361
▁читала	-11.4361
▁Бой	-11.4362
▁подоконник	-11.4367
битые	-11.4367
▁золотых	-11.437
фил	-11.4372
▁периода	-11.4374
▁коснулся	-11.4376
▁ядер	-11.4376
рожден	-11.4377
▁простых	-11.4378
ненько	-11.4378
▁теория	-11.4378
▁отход	-11.4378
▁растут	-11.4381
▁борьбу	-11.4381
▁мучитель	-11.4383
▁ствола	-11.4385
▁предприятия	-11.4389
▁горели	-11.439
▁придут	-11.439
▁подниматься	-11.4393
писать	-11.4393
▁коробки	-11.4393
оле	-11.4393
▁альбом	-11.4398
▁Десять	-11.4398
▁высказал	-11.4398
▁тракт	-11.4399
▁располага	-11.44
▁посту	-11.4401
▁десятков	-11.4402
▁43	-11.4402
▁открыли	-11.4403
нести	-11.4404
▁ложку	-11.4405
▁взглянув	-11.4405
▁признал	-11.4406
▁Роз	-11.4409
▁пачку	-11.441
▁определенно	-11.4411
▁родителям	-11.4412
▁кончилось	-11.4413
▁частично	-11.4413
▁бросает	-11.4414
лях	-11.4415
▁бе	-11.4416
▁кончил	-11.4416
▁епископ	-11.4416
▁великое	-11.4417
▁парке	-11.4417
▁аспект	-11.4418
СЯ	-11.4418
▁погибли	-11.4419
▁матрос	-11.4419
▁заключа	-11.442
▁рынке	-11.442
▁великан	-11.442
▁особый	-11.4421
▁защища	-11.4422
▁английского	-11.4422
▁поговорим	-11.4423
▁матер	-11.4423
▁развед	-11.4423
АТ	-11.4425
▁среды	-11.4425
▁дорогие	-11.4428
ните	-11.4428
илл	-11.4429
▁кончится	-11.443
▁рассчитывал	-11.443
▁прочесть	-11.4431
авшего	-11.4432
▁двига	-11.4432
дия	-11.4432
▁отъ	-11.4433
▁улов	-11.4434
▁тянул	-11.4436
▁понравился	-11.4436
▁императора	-11.4437
ировала	-11.4438
руга	-11.4439
▁ссор	-11.4442
▁выразить	-11.4447
▁пауза	-11.4447
▁верный	-11.4447
яли	-11.4448
▁клетку	-11.4449
▁французский	-11.4449
▁хирург	-11.445
▁цифры	-11.4451
▁кризис	-11.4452
▁базар	-11.4453
чь	-11.4453
▁Вор	-11.4454
▁взрослые	-11.4454
▁подле	-11.4455
▁Феликс	-11.4456
зия	-11.4456
льной	-11.4458
▁Кавказ	-11.4459
▁рыцарь	-11.446
▁местные	-11.4461
▁дружески	-11.4462
волю	-11.4462
▁раскачива	-11.4465
резал	-11.4465
▁исследований	-11.4468
▁микрофон	-11.4469
▁пруд	-11.4471
▁корон	-11.4473
▁отделения	-11.4474
▁подарки	-11.4476
▁тарелки	-11.4476
▁издания	-11.4477
кр	-11.4479
▁облач	-11.448
▁эмоций	-11.4481
▁вяло	-11.4481
▁катер	-11.4481
▁попало	-11.4482
▁указывая	-11.4485
▁камнем	-11.4486
▁лидер	-11.4486
▁Федя	-11.4486
чел	-11.4487
▁пирог	-11.4487
ношен	-11.4488
▁Рон	-11.4488
уется	-11.4491
▁Видел	-11.4492
▁укор	-11.4492
▁моменты	-11.4493
▁сломал	-11.4493
un	-11.4496
▁тревоги	-11.4496
рт	-11.4496
▁терза	-11.4497
▁пули	-11.4497
▁смущенно	-11.4497
▁поддержал	-11.4502
овка	-11.4502
ставлял	-11.4503
▁доверие	-11.4504
рук	-11.4504
▁поддерживать	-11.4504
▁дождем	-11.4506
▁увеличива	-11.4506
▁живая	-11.4509
▁Од	-11.451
▁прогресс	-11.451
▁добрым	-11.4513
▁восход	-11.4514
ительным	-11.4516
▁познания	-11.4516
▁желтый	-11.4517
▁попытаться	-11.4518
▁расширя	-11.4519
сли	-11.4519
вшемуся	-11.452
▁узел	-11.452
▁писа	-11.452
▁странной	-11.4521
▁аппарата	-11.4521
нской	-11.4523
▁отправилась	-11.4525
▁щекам	-11.4528
▁висит	-11.4529
▁команде	-11.4532
▁Шаг	-11.4533
▁Ок	-11.4535
▁берут	-11.4536
▁интервью	-11.4537
▁Последние	-11.4537
▁просила	-11.4539
▁окончил	-11.454
▁Будьте	-11.4542
▁реально	-11.4544
▁строитель	-11.4544
▁крупно	-11.4548
▁лба	-11.4549
▁Фред	-11.4551
▁учит	-11.4554
▁41	-11.4555
▁полицию	-11.4556
▁фонарик	-11.4557
▁коллеги	-11.4559
▁рынок	-11.4562
▁кустарник	-11.4562
▁выполнил	-11.4562
▁Георгий	-11.4566
▁вырвал	-11.4567
▁развел	-11.457
▁веселый	-11.457
▁къ	-11.457
▁Куб	-11.457
лила	-11.4573
▁печати	-11.4573
▁взлет	-11.4574
▁позицию	-11.4575
▁горячий	-11.4575
▁бесплатно	-11.4576
▁охранник	-11.4576
▁доложил	-11.4576
▁допустить	-11.4577
▁хозяева	-11.4577
▁улица	-11.4577
▁уныло	-11.4577
▁слуги	-11.4579
нима	-11.4579
lo	-11.458
▁детский	-11.4581
ичные	-11.4583
▁ловить	-11.4583
▁перелом	-11.4584
▁слабым	-11.4584
▁спят	-11.4584
▁Вик	-11.4585
▁адмирал	-11.4585
ОМ	-11.4586
▁хмуро	-11.4586
▁перес	-11.4586
▁содержа	-11.4587
▁захватил	-11.4587
▁Картер	-11.4587
▁аппетит	-11.4588
▁распахнул	-11.4589
▁убрать	-11.4589
▁воздухом	-11.4591
▁полетел	-11.4592
▁бюджет	-11.4592
▁принят	-11.4592
▁организован	-11.4594
▁Джона	-11.4596
нга	-11.4597
▁коньяк	-11.4597
▁Великой	-11.4597
▁козл	-11.4598
▁бумаге	-11.4598
▁Труд	-11.4599
▁глоток	-11.4601
▁Кр	-11.4601
▁размера	-11.4602
▁потребность	-11.4602
▁кан	-11.4602
▁испугалась	-11.4602
▁длиной	-11.4603
▁Италии	-11.4604
ложены	-11.4604
▁крепче	-11.4606
▁зелени	-11.4606
▁грозит	-11.4606
▁объятия	-11.4608
▁Бан	-11.4609
▁песке	-11.461
▁сбил	-11.4612
▁движется	-11.4612
чны	-11.4613
▁лесной	-11.4614
▁требовалось	-11.4619
▁бат	-11.462
▁заканчива	-11.4621
▁станешь	-11.4626
▁яблоко	-11.4626
▁убежал	-11.4627
▁обвиня	-11.4627
▁отчая	-11.4631
▁беле	-11.4631
ави	-11.4632
▁бодро	-11.4633
▁сообщила	-11.4633
▁ПРИ	-11.4633
▁me	-11.4635
живать	-11.4635
▁тысяча	-11.4637
▁узнаю	-11.4637
▁скомандовал	-11.4637
▁одиноко	-11.4638
▁Некоторое	-11.464
▁качал	-11.4641
▁усталости	-11.4643
▁Звезд	-11.4643
▁смертельно	-11.4643
▁растительного	-11.4644
инь	-11.4645
ега	-11.4645
▁писали	-11.4645
▁Ленина	-11.4645
ta	-11.4646
▁Ер	-11.4646
▁президента	-11.4647
пустите	-11.4647
▁фотографию	-11.4649
▁порок	-11.465
▁бережно	-11.465
▁чер	-11.465
▁ручки	-11.4651
▁солдата	-11.4652
▁обойтись	-11.4652
▁съел	-11.4652
пля	-11.4653
▁крепост	-11.4653
жн	-11.4653
елю	-11.4654
▁истина	-11.4654
▁изменился	-11.4657
▁Роза	-11.4657
▁Америка	-11.4657
лод	-11.4657
▁обеспечить	-11.4658
▁приходить	-11.4658
▁государь	-11.4658
▁обыкновенно	-11.4659
▁семена	-11.466
▁плачу	-11.4662
ометр	-11.4664
▁круж	-11.4664
▁монах	-11.4665
▁наступит	-11.4665
гур	-11.4666
▁отвечаю	-11.4666
▁изрядно	-11.4666
▁Разум	-11.4668
▁двинулись	-11.4669
▁нырнул	-11.4669
▁собеседника	-11.4671
▁девица	-11.4671
кнуть	-11.4671
▁Георг	-11.4671
росс	-11.4674
▁мужика	-11.4678
▁мудрость	-11.4679
▁назвали	-11.468
▁съем	-11.4681
има	-11.4683
▁истину	-11.4684
▁стремится	-11.4685
шься	-11.4687
уем	-11.4687
▁ковер	-11.4687
▁палач	-11.4688
▁Став	-11.4688
▁кабины	-11.469
летний	-11.469
op	-11.469
▁Черный	-11.4694
▁создавать	-11.4694
▁представителей	-11.4696
▁паузы	-11.4696
▁Огонь	-11.4696
▁доброе	-11.4697
▁грез	-11.4698
▁привело	-11.4699
йка	-11.4699
▁надписью	-11.4701
▁хрен	-11.4703
▁простить	-11.4703
▁удал	-11.4703
▁встречаются	-11.4704
▁донос	-11.4705
▁пера	-11.4706
▁оторвал	-11.4707
▁звал	-11.4709
цкого	-11.4711
▁бабы	-11.4713
▁снаряд	-11.4714
▁создает	-11.4714
вёр	-11.4715
▁родилась	-11.4715
▁эр	-11.4716
▁тверд	-11.4717
▁погон	-11.4718
▁След	-11.4718
▁Джен	-11.4719
▁велика	-11.4719
▁представляется	-11.472
ущие	-11.472
кнув	-11.4721
▁Маль	-11.4721
▁исчезло	-11.4722
▁куртку	-11.4722
ватым	-11.4722
▁русским	-11.4722
▁Ды	-11.4727
▁кран	-11.4727
▁Робин	-11.4727
▁трактор	-11.4731
нова	-11.4732
▁особняк	-11.4732
▁плечом	-11.4732
▁вольно	-11.4733
▁испуга	-11.4733
▁Пр	-11.4734
▁родственников	-11.4737
▁исто	-11.4741
▁зеленых	-11.4741
▁поднимался	-11.4742
▁улыба	-11.4744
▁выделя	-11.4744
▁Тон	-11.4745
▁Зоя	-11.4746
сасыва	-11.4747
овался	-11.4748
▁площадку	-11.4748
▁достав	-11.4748
▁Ска	-11.4749
▁поехать	-11.4749
▁ягоды	-11.4751
▁зеленым	-11.4751
дох	-11.4751
▁челюсть	-11.4751
▁мальчики	-11.4752
▁протокол	-11.4752
▁полосы	-11.4753
▁тонкими	-11.4753
▁влез	-11.4754
▁передней	-11.4754
▁забрал	-11.4755
▁оператор	-11.4755
▁развернулся	-11.4755
▁пережил	-11.4756
▁элементы	-11.4757
▁тяжко	-11.4757
▁слом	-11.4758
▁ответственности	-11.4758
▁тьмы	-11.4758
▁охоту	-11.4758
▁овощи	-11.4759
АЙ	-11.476
▁пустил	-11.4762
▁содержит	-11.4762
овская	-11.4762
▁выхватил	-11.4763
▁искусстве	-11.4763
▁острый	-11.4764
▁ведьма	-11.4764
▁хода	-11.4765
▁законам	-11.4766
гас	-11.4768
веди	-11.4768
чился	-11.4769
▁занимались	-11.4769
▁научной	-11.4769
▁глубоким	-11.477
▁сумки	-11.4771
▁свободное	-11.4772
▁весом	-11.4773
▁любая	-11.4773
▁чар	-11.4774
кровен	-11.4774
▁длинным	-11.4776
ываешь	-11.4777
▁Берлин	-11.4778
▁процент	-11.4781
▁множества	-11.4781
▁Великого	-11.4788
▁известен	-11.4788
▁дереву	-11.479
▁Гай	-11.479
▁острые	-11.479
▁серьезным	-11.4791
ЕД	-11.4792
▁Пел	-11.4792
▁чтения	-11.4793
▁клич	-11.4794
▁побери	-11.4795
▁спуск	-11.4796
▁вырваться	-11.4796
▁девочек	-11.4797
▁находил	-11.4798
▁размер	-11.4798
▁собрания	-11.4799
▁многочисленные	-11.4799
▁спокойным	-11.4799
▁ограничива	-11.4799
▁www	-11.48
▁теряет	-11.48
▁шума	-11.48
лями	-11.4801
давая	-11.4801
тическая	-11.4802
▁Эм	-11.4805
▁держали	-11.4806
▁Далеко	-11.4808
тара	-11.4809
имый	-11.4809
▁исправ	-11.4809
▁привычка	-11.481
▁спрятан	-11.4811
▁интересы	-11.4811
▁материи	-11.4811
▁предупредить	-11.4811
▁грязно	-11.4811
▁продаж	-11.4813
▁вином	-11.4813
▁предел	-11.4813
▁метра	-11.4815
▁хороша	-11.4815
▁интернет	-11.4817
▁тумане	-11.4817
ИМ	-11.4817
▁Тип	-11.4819
▁спо	-11.4819
▁организация	-11.4821
▁пассажиров	-11.4821
еру	-11.4822
▁наступает	-11.4822
чьи	-11.4822
▁Фрэнк	-11.4823
▁вып	-11.4823
▁контроля	-11.4827
▁восстановить	-11.4828
▁разглядывая	-11.4828
▁кастрюлю	-11.4828
▁целях	-11.4829
▁обстоятельство	-11.483
▁поделаешь	-11.483
▁позе	-11.483
▁справедливости	-11.4831
▁офис	-11.4831
▁ров	-11.4833
ливается	-11.4834
▁окликнул	-11.4834
▁разорвал	-11.4836
▁устала	-11.4839
▁виноград	-11.4839
жный	-11.4839
▁зритель	-11.4839
▁видна	-11.484
▁имеешь	-11.484
▁очутился	-11.4841
▁убедился	-11.4841
▁мёртв	-11.4842
Й	-11.4844
▁базе	-11.4846
▁лабиринт	-11.4846
▁участия	-11.4847
▁Королев	-11.4849
емое	-11.4852
▁Сосед	-11.4852
нном	-11.4853
▁молчала	-11.4854
читал	-11.4854
май	-11.4855
▁уступ	-11.4855
▁рыда	-11.4857
вого	-11.4857
▁доказательства	-11.4857
▁игрушки	-11.4858
рий	-11.4858
бон	-11.486
▁Захар	-11.4861
▁маз	-11.4864
▁взлетел	-11.4864
▁ружья	-11.4864
хлоп	-11.4864
▁РФ	-11.4865
▁единиц	-11.4865
▁сезон	-11.4865
▁поражение	-11.4865
▁водку	-11.487
▁счастливым	-11.4872
▁Коз	-11.4873
зав	-11.4874
▁всём	-11.4874
▁русская	-11.4874
▁воздействия	-11.4875
▁первому	-11.4875
▁мину	-11.4876
енность	-11.4877
▁творчество	-11.4877
▁канат	-11.4879
▁палубе	-11.4879
▁увижу	-11.488
▁монитор	-11.488
▁Аркадий	-11.4883
▁шкафу	-11.4883
▁оценить	-11.4883
▁локоть	-11.4884
▁описать	-11.4884
▁разобрать	-11.4886
ій	-11.4886
▁охраны	-11.4886
▁извините	-11.4887
▁боялись	-11.4889
▁тайно	-11.4889
▁нарисован	-11.489
▁апостол	-11.489
▁труба	-11.4891
▁отбросил	-11.4892
▁секретарь	-11.4893
▁проявля	-11.4894
▁понедельник	-11.4896
▁похожее	-11.4897
▁запрос	-11.4897
НЕ	-11.4898
▁ярость	-11.4899
куша	-11.49
▁щелк	-11.49
▁выходили	-11.4901
▁обычных	-11.4901
▁известного	-11.4901
▁поет	-11.4902
▁понемногу	-11.4903
▁квартал	-11.4903
▁переглянулись	-11.4903
▁заполнен	-11.4904
▁государственной	-11.4904
▁Главный	-11.4904
▁говорим	-11.491
▁страшной	-11.491
▁Сай	-11.4911
▁эффективно	-11.4912
▁жидкость	-11.4912
▁Здорово	-11.4913
оход	-11.4913
атов	-11.4914
▁отдавал	-11.4914
▁пробовал	-11.4914
▁поднес	-11.4916
▁яркие	-11.4918
▁Вулф	-11.4918
▁контейнер	-11.4918
▁экрана	-11.4919
ителю	-11.4919
▁раздраженно	-11.4919
▁племя	-11.492
▁приема	-11.492
▁каса	-11.4921
исс	-11.4921
▁должности	-11.4925
▁морем	-11.4926
▁обязаны	-11.4928
ери	-11.493
▁Необходимо	-11.4931
▁Ант	-11.4931
сказ	-11.4932
▁ухмыльнулся	-11.4932
▁слушай	-11.4935
▁свято	-11.4935
▁Сел	-11.4936
▁спрыгнул	-11.4936
▁донесся	-11.4936
▁слив	-11.4937
▁Ром	-11.4941
▁ряду	-11.4942
валились	-11.4942
▁первыми	-11.4942
▁упасть	-11.4942
▁теплый	-11.4943
▁звонил	-11.4945
▁звонка	-11.4946
ступит	-11.4947
ползла	-11.4947
▁произносит	-11.4947
стал	-11.4948
▁ценности	-11.495
▁Зе	-11.495
▁сплю	-11.4951
пов	-11.4951
▁скор	-11.4951
▁Сперва	-11.4953
▁важный	-11.4957
▁величество	-11.4958
▁суше	-11.496
▁Красной	-11.4963
▁Рог	-11.4965
▁обиды	-11.4965
▁Алексеевич	-11.4965
▁канон	-11.4965
▁обижа	-11.4965
сков	-11.4965
▁стою	-11.497
кром	-11.4972
▁напоминал	-11.4973
▁пролетел	-11.4974
▁Спи	-11.4974
▁единой	-11.4976
▁Люба	-11.4976
▁выключил	-11.4976
▁методы	-11.4977
▁страшные	-11.4977
▁зенит	-11.4978
▁знай	-11.498
▁губах	-11.4984
уешь	-11.4984
▁ребенку	-11.4985
жку	-11.4986
▁сбоку	-11.4986
так	-11.4987
ерс	-11.4987
▁экземпляр	-11.4991
▁Святой	-11.4991
▁Дэ	-11.4991
тирать	-11.4992
▁Весел	-11.4994
▁Твое	-11.4994
▁покупать	-11.4994
▁Разговор	-11.4994
мерз	-11.4994
▁Фер	-11.4995
▁остальным	-11.4995
▁патрон	-11.4996
▁руль	-11.4997
▁ищу	-11.4998
▁Китай	-11.4998
▁завис	-11.4999
▁жива	-11.4999
▁пускай	-11.4999
▁большее	-11.5
▁восемьдесят	-11.5
▁данного	-11.5001
▁маленьком	-11.5003
▁стадо	-11.5004
▁могилу	-11.5006
▁ценность	-11.5007
▁врачи	-11.5008
▁налил	-11.5009
ЕС	-11.5009
йма	-11.501
▁вдвое	-11.501
▁механически	-11.501
▁двигался	-11.501
▁застав	-11.5011
▁Мэй	-11.5013
▁беспокойство	-11.5013
▁фантазии	-11.5013
РА	-11.5014
▁противоположно	-11.5015
очет	-11.5016
▁Й	-11.5019
хъ	-11.5019
▁успокоить	-11.502
▁редкость	-11.502
▁социально	-11.502
▁Говори	-11.5021
шиеся	-11.5022
▁главных	-11.5023
▁обращал	-11.5023
80	-11.5024
▁воины	-11.5025
▁лихорадочно	-11.5028
аюсь	-11.5028
тельной	-11.5029
▁рамках	-11.503
боле	-11.503
▁томат	-11.503
▁прекрасное	-11.5031
▁вставал	-11.5031
▁используется	-11.5032
▁Нил	-11.5032
▁кинул	-11.5032
лены	-11.5033
▁проявления	-11.5036
▁встретила	-11.5036
▁Рита	-11.5037
▁хранить	-11.5037
▁целовал	-11.5038
вле	-11.5038
▁лодке	-11.5038
▁предлагал	-11.504
кажешь	-11.504
▁требования	-11.5041
▁канав	-11.5042
▁сотрудник	-11.5042
енькой	-11.5042
▁шапку	-11.5042
▁гордость	-11.5044
ехать	-11.5047
▁разбор	-11.5047
ившего	-11.5048
▁уют	-11.5048
▁красное	-11.5048
▁поте	-11.5049
▁Глав	-11.5049
▁конфликт	-11.5049
▁шагах	-11.505
ou	-11.505
▁камин	-11.5052
▁VI	-11.5052
▁восста	-11.5052
▁высокую	-11.5054
▁швед	-11.5057
▁мужчине	-11.5057
нтар	-11.5058
▁угас	-11.5059
ико	-11.5059
▁шепчет	-11.5059
▁Вир	-11.5061
▁чеш	-11.5062
пускать	-11.5063
▁негатив	-11.5063
▁небольшого	-11.5064
▁внешней	-11.5065
▁жи	-11.5065
▁вины	-11.5067
▁общаться	-11.5067
▁Сид	-11.5067
▁обманул	-11.507
▁устроил	-11.507
▁чертов	-11.5072
▁паук	-11.5073
▁оглядываясь	-11.5073
▁Плохо	-11.5074
дри	-11.5075
▁упрям	-11.5075
▁петух	-11.5075
▁утверждал	-11.5077
▁Индии	-11.5077
▁многочисленных	-11.5077
▁старое	-11.5078
▁мусульман	-11.5079
▁книгах	-11.5081
шла	-11.5082
нюю	-11.5083
▁шляп	-11.5083
нется	-11.5084
▁трижды	-11.5084
▁небольшим	-11.5084
▁хором	-11.5085
▁сходить	-11.5085
▁собственными	-11.5085
▁золот	-11.5087
▁тщетно	-11.5087
акс	-11.5089
▁выразил	-11.5091
▁Дорога	-11.5091
▁4-	-11.5091
▁Андр	-11.5091
▁гнездо	-11.5092
▁пыла	-11.5092
▁пистолета	-11.5093
▁кисти	-11.5093
жар	-11.5095
▁Паша	-11.5097
▁мэр	-11.5097
▁пластин	-11.5098
▁ноге	-11.5099
▁свиреп	-11.51
▁пропустить	-11.5102
▁битвы	-11.5102
▁первоначально	-11.5103
жег	-11.5104
дач	-11.5108
аций	-11.511
ога	-11.5113
▁показались	-11.5114
▁Алло	-11.5115
ставлять	-11.5116
▁шара	-11.5118
▁академик	-11.5118
▁богом	-11.5119
берет	-11.5119
▁знакомым	-11.512
▁результатов	-11.512
▁взмах	-11.5121
▁клуба	-11.5121
▁языки	-11.5123
▁собралась	-11.5124
пин	-11.5125
▁солью	-11.5126
▁скажут	-11.5126
▁Поли	-11.5127
▁заставило	-11.5127
берег	-11.5127
▁добровольно	-11.5128
несло	-11.5129
лот	-11.513
▁скользнул	-11.513
▁важнее	-11.5132
▁Голов	-11.5138
▁помещении	-11.5138
!..»	-11.5139
▁медведя	-11.514
▁Надежда	-11.5141
льным	-11.5141
▁меняется	-11.5141
▁Воздух	-11.5141
бед	-11.5141
др	-11.5142
▁подбежал	-11.5143
▁рукам	-11.5143
ОТ	-11.5143
▁разговаривали	-11.5143
▁беду	-11.5145
▁План	-11.5146
сколь	-11.5147
▁широкие	-11.5148
▁разошлись	-11.5149
▁причал	-11.515
истых	-11.515
▁Эмили	-11.5151
▁Зак	-11.5151
▁прочитать	-11.5152
▁феномен	-11.5152
▁останавлива	-11.5153
▁предмета	-11.5154
▁одиночество	-11.5154
▁Какого	-11.5154
▁Раб	-11.5155
овку	-11.5155
▁господи	-11.5155
ини	-11.5155
▁молния	-11.5157
ован	-11.5158
▁произойти	-11.5158
зира	-11.5159
▁блондин	-11.516
▁настроен	-11.5161
▁дубин	-11.5161
▁Ничто	-11.5162
гружен	-11.5162
▁устойчив	-11.5163
▁Хуан	-11.5164
▁длинная	-11.5166
бежать	-11.5166
▁тоску	-11.5166
чес	-11.5167
▁толка	-11.5169
▁маску	-11.5171
▁подготовки	-11.5171
нском	-11.5171
жусь	-11.5172
▁Платон	-11.5173
изация	-11.5173
▁титул	-11.5173
ними	-11.5175
граф	-11.5176
▁Поль	-11.5179
▁обучения	-11.5179
▁Море	-11.518
риан	-11.518
▁батюшка	-11.518
▁Идите	-11.5181
▁физик	-11.5182
▁48	-11.5182
уме	-11.5183
пресс	-11.5184
▁сходил	-11.5184
▁браслет	-11.5185
▁взаимно	-11.5186
▁руководство	-11.5187
▁родитель	-11.5189
▁главная	-11.5189
ИЕ	-11.5189
АЛЬ	-11.5189
▁Такого	-11.519
▁признаки	-11.5192
▁Хам	-11.5193
▁Бук	-11.5194
▁Встреча	-11.5195
чим	-11.5195
▁дрогнул	-11.5195
▁Марья	-11.5196
▁духовной	-11.5197
▁решаю	-11.5198
▁грехи	-11.5199
▁трудности	-11.5199
▁эхо	-11.5199
▁забывать	-11.52
▁барьер	-11.5201
▁полагается	-11.5201
▁башне	-11.5203
▁хорошую	-11.5206
▁спальни	-11.5208
▁болота	-11.5209
вок	-11.5209
▁карманы	-11.5209
▁разговоров	-11.521
▁длинных	-11.5211
▁задней	-11.5211
▁таинственно	-11.5211
▁круп	-11.5213
▁помех	-11.5215
век	-11.5218
▁тупик	-11.5218
▁помер	-11.522
▁посе	-11.522
▁образу	-11.5221
▁следующем	-11.5221
▁стихотворение	-11.5221
▁двигались	-11.5222
▁папы	-11.5223
▁притвор	-11.5223
нёс	-11.5224
мешайте	-11.5224
▁Раст	-11.5224
писан	-11.5224
▁поймет	-11.5224
▁определя	-11.5226
▁Пор	-11.5227
▁клиентов	-11.5227
▁накопи	-11.5228
▁важные	-11.5228
▁гранат	-11.5228
▁безмолв	-11.5229
▁играла	-11.5229
▁покраснел	-11.5229
▁заключение	-11.523
▁исп	-11.523
▁привела	-11.523
▁пузырь	-11.5231
▁расстояния	-11.5231
▁спрос	-11.5232
раб	-11.5232
▁тумана	-11.5233
сут	-11.5233
▁курса	-11.5234
ату	-11.5235
▁драгоцен	-11.5236
▁подвижн	-11.5236
▁музея	-11.5237
▁рисовал	-11.5238
▁погружен	-11.5238
▁росли	-11.5239
▁сравнительно	-11.524
▁краской	-11.5241
▁разрыва	-11.5242
нист	-11.5243
▁взором	-11.5244
▁любых	-11.5245
▁застрял	-11.5246
▁выкрикнул	-11.5246
▁примитив	-11.5248
▁страшная	-11.5248
▁кавалер	-11.5249
анию	-11.525
▁сомневаюсь	-11.525
▁посмотрите	-11.525
▁сжимал	-11.5251
▁криво	-11.5251
▁уточнил	-11.5252
▁троих	-11.5256
▁скуп	-11.5256
▁пещеру	-11.5256
▁издал	-11.5256
▁любимого	-11.5257
▁копыт	-11.5259
анных	-11.5259
▁крыша	-11.526
▁Вернее	-11.526
▁свободе	-11.5264
цепил	-11.5264
to	-11.5264
▁освободил	-11.5264
сос	-11.5266
▁началом	-11.5267
▁бегать	-11.5269
▁особых	-11.527
▁самолеты	-11.527
▁нехорошо	-11.5271
▁Мысли	-11.5271
▁суббот	-11.5271
▁бродил	-11.5271
сво	-11.5273
▁папу	-11.5274
▁спальне	-11.5277
▁вещах	-11.5278
▁бульвар	-11.5278
▁доставить	-11.528
▁приведен	-11.528
▁состоял	-11.5281
▁Мет	-11.5281
▁долгих	-11.5281
▁ледяной	-11.5282
▁шкур	-11.5283
▁инвалид	-11.5283
▁возможным	-11.5285
▁старому	-11.5285
▁камнями	-11.5286
▁страшным	-11.5287
давил	-11.5287
▁Ужас	-11.5289
▁уродлив	-11.5289
плав	-11.529
▁Лед	-11.5291
ЕВ	-11.5291
▁небольшом	-11.5293
▁Лун	-11.5295
унов	-11.5296
▁помогут	-11.5296
▁направлению	-11.5296
нах	-11.5298
▁обычным	-11.5298
▁Уль	-11.5298
▁мерз	-11.5299
онт	-11.53
▁крокодил	-11.5301
ированный	-11.5301
▁лекарство	-11.5301
ступать	-11.5302
▁развива	-11.5302
▁добычу	-11.5303
▁стулья	-11.5303
▁цены	-11.5305
▁снимает	-11.5305
▁Внизу	-11.5305
▁содержания	-11.5306
▁Имя	-11.5306
▁Позже	-11.5306
валь	-11.5306
▁выиграл	-11.5307
▁старается	-11.5308
▁крупный	-11.5309
▁прочно	-11.5309
▁подыма	-11.5309
жела	-11.5309
▁живота	-11.5312
▁попа	-11.5312
▁рожден	-11.5313
▁ухом	-11.5314
▁шкафа	-11.5314
▁камен	-11.5315
▁стенами	-11.5315
▁Ингредиенты	-11.5315
▁нарушение	-11.5316
▁обоим	-11.5316
▁изучать	-11.5317
игр	-11.5318
▁подверга	-11.5318
▁55	-11.5319
▁глазки	-11.532
лять	-11.532
▁выстрела	-11.5321
▁Ma	-11.5321
▁содержимое	-11.5324
чива	-11.5324
▁находилось	-11.5325
▁гас	-11.5328
▁синьор	-11.5329
▁могил	-11.533
▁Вспомни	-11.5331
▁призван	-11.5331
дова	-11.5332
▁заказал	-11.5333
седа	-11.5333
▁разор	-11.5333
▁ножки	-11.5333
▁начинали	-11.5334
▁провода	-11.5335
▁мягкий	-11.5335
▁искус	-11.5337
▁преодолеть	-11.5337
▁метрах	-11.5337
▁прекрасным	-11.5338
▁техника	-11.5339
нта	-11.5339
▁счёт	-11.534
▁достает	-11.5341
▁батальон	-11.5341
сол	-11.5341
шедшего	-11.5343
иды	-11.5344
▁показывают	-11.5344
▁собственном	-11.5345
шейся	-11.5346
пада	-11.5347
ig	-11.5348
▁Мимо	-11.5349
▁хвал	-11.5349
▁загадочно	-11.5349
▁дошел	-11.535
рланд	-11.5351
▁длинную	-11.5351
09	-11.5351
ложи	-11.5352
▁графа	-11.5352
▁яд	-11.5352
дент	-11.5354
▁падения	-11.5355
считал	-11.5359
орт	-11.5361
▁прекрасные	-11.5362
▁шепнул	-11.5363
бывал	-11.5363
тического	-11.5364
▁подчинен	-11.5364
▁пытаются	-11.5366
ver	-11.5366
▁Известно	-11.5367
ставил	-11.5367
▁прикрыл	-11.5369
▁победа	-11.537
▁добрых	-11.5371
▁предо	-11.5372
▁держался	-11.5374
деж	-11.5374
▁темном	-11.5375
▁Хал	-11.5376
▁работаю	-11.5377
▁документов	-11.5377
▁отчаяния	-11.5378
▁Директор	-11.5378
▁слушала	-11.5379
▁пут	-11.5382
▁башня	-11.5384
▁Крым	-11.5384
▁странного	-11.5384
▁дум	-11.5385
луп	-11.5385
▁ошибок	-11.5385
▁звонко	-11.5386
▁Витька	-11.5386
няв	-11.5386
▁успеть	-11.5386
▁Бри	-11.5386
▁лесом	-11.5387
▁горла	-11.5388
▁деталь	-11.539
▁бьют	-11.5391
▁Хорош	-11.5391
▁замерла	-11.5391
▁поперек	-11.5392
▁Сталина	-11.5392
ряж	-11.5392
▁собираются	-11.5396
слушива	-11.5396
▁сняла	-11.5396
▁помогал	-11.5397
▁посолить	-11.5397
▁превращается	-11.5399
▁пределами	-11.5399
▁лак	-11.54
▁жалел	-11.54
▁метр	-11.5402
▁столовую	-11.5403
чили	-11.5407
▁Гриша	-11.5407
▁детство	-11.5409
▁обороны	-11.541
▁Яков	-11.5411
▁Напротив	-11.5414
▁произошла	-11.5415
▁свадьбы	-11.5415
▁Рэй	-11.5415
▁притом	-11.5415
▁Кем	-11.5416
▁лай	-11.5416
гун	-11.5416
▁добрая	-11.5417
▁висела	-11.5418
▁толст	-11.5419
▁робота	-11.542
▁Сорок	-11.542
▁отстал	-11.5421
▁проводит	-11.5421
▁бутылка	-11.5421
▁Придется	-11.5423
▁Ефим	-11.5425
▁орудий	-11.5427
▁1940	-11.5427
▁блажен	-11.5428
еда	-11.5429
▁зрел	-11.5429
▁связыва	-11.543
тягивая	-11.5431
▁согре	-11.5432
цо	-11.5433
рика	-11.5433
▁объекта	-11.5434
▁аэродром	-11.5434
▁вокзал	-11.5435
X	-11.5435
▁обычные	-11.5436
▁мн	-11.5437
катилась	-11.5437
план	-11.5437
▁уронил	-11.5437
▁выбежал	-11.5437
еву	-11.5439
▁Азии	-11.544
ine	-11.5441
▁девчонки	-11.5441
▁поту	-11.5443
овались	-11.5444
▁сейф	-11.5446
▁Поля	-11.5446
▁Светлана	-11.5447
▁тяжелых	-11.5447
учил	-11.5451
▁Луны	-11.5452
▁степи	-11.5452
верш	-11.5453
▁пират	-11.5453
доволь	-11.5453
▁мала	-11.5454
▁дорожке	-11.5456
▁слушаю	-11.5457
▁могилы	-11.5457
▁летел	-11.5458
▁беззвучно	-11.5458
▁рукава	-11.5461
кут	-11.5462
▁погоду	-11.5462
▁дожидаясь	-11.5464
▁резерв	-11.5465
▁профессионал	-11.5466
▁шу	-11.5467
▁источника	-11.5467
▁ровным	-11.5467
▁придержива	-11.5467
▁Холод	-11.5468
евая	-11.547
щут	-11.5472
истой	-11.5473
▁распространя	-11.5477
ческой	-11.5479
▁хороших	-11.5479
оген	-11.548
чут	-11.548
▁учен	-11.5481
▁съесть	-11.5482
▁имеются	-11.5482
▁дивизии	-11.5482
рубить	-11.5482
▁фургон	-11.5483
▁Бери	-11.5485
▁бухгалтер	-11.5487
▁разбил	-11.5488
▁фонаря	-11.549
▁объявлен	-11.549
▁спина	-11.5491
▁поступать	-11.5492
ивших	-11.5492
▁дров	-11.5492
▁вдаль	-11.5494
▁приступил	-11.5494
▁Брод	-11.5494
▁мон	-11.5495
▁установил	-11.5495
▁розы	-11.5495
кров	-11.5495
ДИ	-11.5497
▁точь	-11.5497
ённый	-11.5497
▁орал	-11.5498
▁понравилась	-11.5498
▁скафандр	-11.5498
ковский	-11.5498
▁продолжить	-11.5499
▁верт	-11.55
зен	-11.55
▁пустую	-11.5501
▁велик	-11.5502
шта	-11.5504
▁гуд	-11.5504
▁пирамид	-11.5504
▁частиц	-11.5504
просил	-11.5505
▁Берт	-11.5505
▁рассвете	-11.5506
▁умру	-11.5506
▁крыла	-11.5507
берите	-11.5508
▁веришь	-11.5509
▁Дур	-11.5509
ковы	-11.551
▁привезли	-11.5512
▁били	-11.5512
▁скорб	-11.5512
▁мудрости	-11.5515
▁Стивен	-11.5516
▁существовании	-11.5517
▁полей	-11.5517
▁моментально	-11.5519
▁лежало	-11.552
▁сохранил	-11.552
▁Дорогой	-11.552
▁заплатил	-11.552
▁слоем	-11.5521
▁оскал	-11.5523
▁Ярослав	-11.5523
▁базы	-11.5524
▁сумасшедший	-11.5525
▁прекраща	-11.5526
▁лететь	-11.5527
▁печать	-11.5527
▁овладел	-11.5529
▁Инди	-11.5529
▁ножа	-11.553
▁минутку	-11.553
▁личного	-11.553
▁запомина	-11.5532
оже	-11.5532
▁полные	-11.5532
▁село	-11.5534
нью	-11.5534
дина	-11.5534
▁Арм	-11.5534
▁ищут	-11.5535
▁Честно	-11.5537
двинуть	-11.5537
▁любимая	-11.5538
▁зимы	-11.5538
▁богатства	-11.5538
▁знакомства	-11.554
чивал	-11.554
стар	-11.554
▁чувствуешь	-11.5541
▁уложил	-11.5541
▁Марин	-11.5541
▁выглянул	-11.5542
▁Который	-11.5543
▁участников	-11.5543
▁музыкант	-11.5544
▁узкой	-11.5545
▁Це	-11.5545
▁Пьер	-11.5545
▁мель	-11.5545
▁заслужил	-11.5546
глас	-11.5547
▁Война	-11.5547
против	-11.555
▁арт	-11.555
▁древ	-11.5551
▁Стра	-11.5552
▁клетке	-11.5552
▁довод	-11.5553
▁слушая	-11.5554
▁родных	-11.5555
▁облаков	-11.5555
▁Единственное	-11.5556
▁гляди	-11.5556
▁признание	-11.5556
▁поистине	-11.5557
▁Понимаете	-11.5558
▁Фо	-11.5558
ствия	-11.556
▁трубу	-11.5561
▁сек	-11.5564
гри	-11.5564
▁традиция	-11.5565
инского	-11.5566
▁выбрался	-11.5567
▁среде	-11.5567
▁заговорила	-11.5567
▁коней	-11.5568
▁итог	-11.5568
▁миллиона	-11.5568
льщик	-11.5569
▁используя	-11.5569
▁слыхал	-11.5569
раг	-11.5571
час	-11.5571
▁Ева	-11.5573
▁круги	-11.5573
▁малый	-11.5574
бирать	-11.5575
▁мягкой	-11.5578
начальн	-11.5579
толкнул	-11.5579
▁Джи	-11.5579
▁фруктов	-11.558
вля	-11.5581
▁Клянусь	-11.5583
сид	-11.5584
▁полку	-11.5586
спа	-11.5586
реб	-11.5587
▁нуждается	-11.5588
▁лез	-11.5589
▁связанные	-11.5589
▁операция	-11.559
▁утрам	-11.5591
▁рынка	-11.5591
проб	-11.5591
ьной	-11.5591
▁покров	-11.5592
там	-11.5593
▁Васька	-11.5594
▁оправдыва	-11.5596
лым	-11.5596
▁Толст	-11.5597
▁напряга	-11.5597
▁Вос	-11.5599
изу	-11.56
сев	-11.56
▁участвовал	-11.5601
▁партия	-11.5604
эйн	-11.5604
▁пророк	-11.5606
▁опустила	-11.5607
▁выпуска	-11.5609
▁табак	-11.5609
▁крейсер	-11.5611
▁соус	-11.5612
лял	-11.5614
▁тягот	-11.5614
ill	-11.5614
▁разработан	-11.5614
▁фотография	-11.5614
▁танец	-11.5615
▁Николаевна	-11.5615
АВ	-11.5616
▁комп	-11.5617
▁грехов	-11.5617
▁снимал	-11.5617
ейший	-11.5618
▁пусты	-11.5618
▁Каждая	-11.5619
▁огромными	-11.562
ткой	-11.562
▁эмоционально	-11.562
▁Остров	-11.562
▁подав	-11.5623
▁танцевать	-11.5623
▁научных	-11.5623
▁Знаком	-11.5626
▁бул	-11.5626
▁помахал	-11.5629
▁теплом	-11.5629
▁шин	-11.563
▁разрешение	-11.563
вернув	-11.5633
▁вагона	-11.5636
ава	-11.5639
▁открывается	-11.5639
▁местами	-11.5639
шли	-11.564
жан	-11.5642
▁Гэ	-11.5644
▁Данил	-11.5644
▁пронз	-11.5645
▁перерыв	-11.5646
▁эстет	-11.5646
▁Мысль	-11.5647
▁Церковь	-11.5648
▁иное	-11.5648
▁запахом	-11.5649
▁смешать	-11.5649
▁прилип	-11.565
икс	-11.565
▁очков	-11.5652
хватывает	-11.5653
▁согласиться	-11.5653
▁педагог	-11.5654
▁гостинице	-11.5655
▁матушка	-11.5657
▁старом	-11.5658
▁свободной	-11.566
▁Шп	-11.5665
▁обратить	-11.5666
▁Андреевич	-11.5666
туш	-11.5667
▁Скалли	-11.5667
▁обстановке	-11.5668
▁классов	-11.5668
▁рассказывали	-11.5669
▁современного	-11.567
ni	-11.567
▁шлеп	-11.567
ходящих	-11.567
▁Последнее	-11.5671
▁разрешил	-11.5672
▁особое	-11.5674
▁румян	-11.5674
▁Павлов	-11.5675
▁пение	-11.5676
▁одева	-11.5676
▁паузу	-11.5677
▁искусственно	-11.5677
▁местом	-11.5677
▁Тир	-11.5678
▁Уверен	-11.5678
▁вернемся	-11.5678
▁аристократ	-11.568
анта	-11.568
рб	-11.568
аса	-11.5681
▁пень	-11.5682
смотреть	-11.5682
▁Совета	-11.5683
▁вздрогнула	-11.5683
▁ручья	-11.5684
▁общим	-11.5685
▁обморок	-11.5687
▁заболел	-11.5687
▁пятый	-11.5689
весил	-11.5689
▁наследник	-11.569
▁рады	-11.5691
▁некому	-11.5691
).]	-11.5695
▁посмотрели	-11.5695
▁одинок	-11.5696
▁перевести	-11.5697
▁пружин	-11.5697
▁тёмно	-11.5698
▁улыбалась	-11.5699
▁селе	-11.5701
▁обращается	-11.5701
▁тайной	-11.5702
▁Бон	-11.5704
▁гиб	-11.5705
▁лечебн	-11.5708
▁неделя	-11.5709
вѣ	-11.5709
▁субботу	-11.5709
▁вреда	-11.5712
▁магии	-11.5712
тряс	-11.5713
▁любым	-11.5714
▁беру	-11.5715
▁казн	-11.5716
▁добрались	-11.5716
▁местного	-11.5717
▁Посмотрите	-11.5718
помни	-11.5718
▁отрезал	-11.572
▁гимн	-11.5721
▁полом	-11.5722
▁азарт	-11.5727
▁график	-11.5727
▁гидро	-11.5728
▁охоты	-11.5729
▁рабы	-11.5729
▁Мира	-11.573
▁Кли	-11.5735
▁громким	-11.5736
▁противно	-11.5736
▁считала	-11.5737
эс	-11.5737
▁Петер	-11.5738
▁задать	-11.5738
▁попытку	-11.5738
▁Легко	-11.5739
▁япон	-11.5739
▁Стефан	-11.574
▁давным	-11.5741
▁поступок	-11.5741
▁попадает	-11.5741
▁лекарства	-11.5742
▁Цель	-11.5742
▁заб	-11.5743
▁дополнительно	-11.5744
▁прочее	-11.5744
▁расстроен	-11.5745
▁предложен	-11.5746
▁унес	-11.5747
цкий	-11.5747
▁стресс	-11.5748
▁читали	-11.5749
▁Тони	-11.5749
ИЯ	-11.575
▁Ел	-11.575
гл	-11.5751
овав	-11.5751
▁англ	-11.5751
▁Думал	-11.5752
▁возникают	-11.5752
▁повторяю	-11.5752
▁приходила	-11.5753
▁зрителей	-11.5753
▁прес	-11.5754
▁прибыв	-11.5755
▁меру	-11.5755
шнюю	-11.5755
шение	-11.5755
▁удел	-11.5756
▁улыбке	-11.5756
▁высоком	-11.5756
▁становилась	-11.5757
▁приблизительно	-11.5759
▁уверенности	-11.5759
▁кислород	-11.5759
анти	-11.5763
▁пробил	-11.5763
▁тыс	-11.5764
▁математик	-11.5768
нимать	-11.5768
▁родственник	-11.5769
▁применять	-11.5772
▁47	-11.5772
▁разбойник	-11.5777
20	-11.5777
▁плакат	-11.5778
▁отнести	-11.5781
▁верблюд	-11.5783
▁рацион	-11.5784
▁лестница	-11.5785
▁кухонн	-11.5786
очным	-11.5788
▁поз	-11.5789
▁52	-11.5789
▁подумав	-11.579
▁танки	-11.5791
пир	-11.5791
▁мгновений	-11.5792
▁Осторожно	-11.5792
▁свитер	-11.5794
▁Мей	-11.5795
▁штурм	-11.5796
▁крышкой	-11.5797
▁стойки	-11.5797
▁пробормотала	-11.5798
▁сугроб	-11.5798
▁милости	-11.5799
верну	-11.5801
▁морду	-11.5804
▁утратил	-11.5808
▁шир	-11.5809
▁поморщился	-11.5811
▁Пик	-11.5812
▁тяжести	-11.5813
▁хрип	-11.5815
▁встав	-11.5816
▁испортил	-11.5816
▁несут	-11.5817
▁пользы	-11.5818
тяг	-11.5818
▁XVIII	-11.5818
менял	-11.5819
бивал	-11.582
▁научил	-11.582
▁исправить	-11.5822
евым	-11.5822
▁проглотил	-11.5823
▁говорилось	-11.5823
50	-11.5824
строй	-11.5824
▁грохотом	-11.5825
истом	-11.5825
▁дошли	-11.5826
стат	-11.5827
мога	-11.5829
▁Глу	-11.5829
▁американский	-11.583
▁услуг	-11.583
▁Представьте	-11.5831
▁зелен	-11.5832
▁вскрикнул	-11.5833
▁Мит	-11.5833
▁уходили	-11.5833
▁жид	-11.5835
▁подверг	-11.5835
▁Хей	-11.5836
▁показывали	-11.5838
▁посыпать	-11.5839
зрев	-11.584
▁одиночку	-11.584
еют	-11.5841
▁Пришел	-11.5842
гонял	-11.5842
▁Иерусалим	-11.5843
▁сеанс	-11.5843
▁девяносто	-11.5844
▁Японии	-11.5844
▁укол	-11.5845
режьте	-11.5846
▁Казан	-11.5846
▁приносил	-11.5846
двор	-11.5848
▁Идем	-11.5848
▁клон	-11.5849
▁следствие	-11.5849
ожде	-11.5849
▁служба	-11.585
▁худой	-11.5851
▁Август	-11.5851
▁поделать	-11.5852
зал	-11.5853
▁живы	-11.5853
▁треп	-11.5853
▁ответили	-11.5856
чья	-11.5856
▁справедлив	-11.5859
▁машиной	-11.5859
▁волка	-11.5862
тти	-11.5863
▁положительно	-11.5863
▁цеп	-11.5863
▁защищать	-11.5864
▁Молод	-11.5864
рмо	-11.5864
▁согласны	-11.5867
пустил	-11.5867
▁чт	-11.5868
▁счастливой	-11.5868
▁Петербурге	-11.587
бры	-11.5871
▁заход	-11.5872
▁Семь	-11.5872
▁морских	-11.5872
▁сделаем	-11.5874
▁сви	-11.5875
▁небось	-11.5875
▁помчался	-11.5876
▁раскат	-11.5877
▁Стоя	-11.5877
▁предела	-11.5877
▁признаков	-11.5881
▁расположение	-11.5881
боя	-11.5883
▁пятнадцати	-11.5884
▁видение	-11.5884
▁спел	-11.5885
▁рассвета	-11.5885
▁ноль	-11.5885
▁Анне	-11.5886
▁диплом	-11.5886
▁сумеет	-11.5886
▁вопросу	-11.5886
▁путешественник	-11.5886
30	-11.5888
▁материалов	-11.5889
▁Солдат	-11.589
▁Святого	-11.5893
▁Шест	-11.5893
вшемся	-11.5894
▁водил	-11.5894
ation	-11.5895
▁любому	-11.5895
▁ярче	-11.5896
▁плоско	-11.5897
▁заплакал	-11.5898
▁тревож	-11.5899
▁ушёл	-11.59
▁Божий	-11.59
дой	-11.5901
▁бешено	-11.5902
▁закону	-11.5902
▁Стол	-11.5903
▁фермер	-11.5903
▁качеств	-11.5903
▁приехать	-11.5904
▁создавал	-11.5904
▁бросив	-11.5905
▁поколение	-11.5906
▁народом	-11.5906
▁состава	-11.5909
▁продал	-11.5909
▁вооружение	-11.591
▁железа	-11.5911
▁листов	-11.5911
▁публика	-11.5912
▁Павла	-11.5912
вка	-11.5913
▁120	-11.5913
▁мучил	-11.5914
▁кото	-11.5915
▁навис	-11.5915
▁Васильев	-11.5915
▁муку	-11.5917
▁Анатолий	-11.5917
▁главы	-11.5918
▁Лот	-11.5919
лак	-11.592
▁крепкий	-11.592
▁прежней	-11.5921
▁авторов	-11.5923
ell	-11.5926
▁фар	-11.5926
▁представители	-11.5927
▁бегут	-11.5927
▁бюро	-11.5928
▁полковника	-11.5931
▁языков	-11.5932
падать	-11.5933
▁Хол	-11.5933
джер	-11.5934
▁надеть	-11.5935
▁Мус	-11.5936
сив	-11.5936
▁дальнем	-11.5936
▁средствами	-11.5936
▁устали	-11.5937
▁менеджер	-11.5937
▁влияния	-11.5937
▁столице	-11.5937
▁путник	-11.5937
▁слушали	-11.5939
▁жара	-11.594
▁обиделся	-11.594
лася	-11.5941
▁удач	-11.5941
▁разбит	-11.5942
бирая	-11.5942
▁твари	-11.5942
▁продолжа	-11.5944
▁недоверчиво	-11.5947
▁Лео	-11.5948
▁проспект	-11.5949
▁Тин	-11.5949
ившие	-11.595
мес	-11.595
▁молодость	-11.595
лиф	-11.5951
▁осозна	-11.5951
▁вспоминает	-11.5953
говорил	-11.5953
▁относиться	-11.5954
▁вину	-11.5955
▁пьесы	-11.5956
▁космоса	-11.5956
сед	-11.5957
▁Русь	-11.5958
▁мешать	-11.5958
▁разнообраз	-11.5959
шо	-11.596
▁роду	-11.5961
▁заботы	-11.5961
▁пребывания	-11.5963
▁требуют	-11.5963
▁вкусно	-11.5964
▁прозрачно	-11.5964
▁потенциал	-11.5964
▁произнести	-11.5965
▁кустах	-11.5965
all	-11.5965
▁зим	-11.5965
▁гений	-11.5966
▁выбран	-11.5966
▁помогли	-11.5968
мели	-11.5968
▁прихожей	-11.5969
▁уважение	-11.5969
зг	-11.5971
▁данным	-11.5971
пать	-11.5971
▁атаки	-11.5972
читайте	-11.5973
▁взмахнул	-11.5974
▁влиянием	-11.5975
дд	-11.5975
▁вопль	-11.5976
▁Примерно	-11.5976
▁мае	-11.5977
ti	-11.598
▁желанием	-11.5981
▁Важно	-11.5981
▁простого	-11.5981
знай	-11.5983
▁караул	-11.5984
▁имен	-11.5986
▁вечной	-11.5986
▁смену	-11.5986
▁Алик	-11.5986
рим	-11.5987
▁---	-11.5987
шы	-11.5989
▁задания	-11.599
▁заинтересован	-11.599
▁нехотя	-11.5991
▁грави	-11.5991
▁могуществен	-11.5993
▁конечном	-11.5995
▁стихотворения	-11.5995
▁рубашки	-11.5995
сал	-11.5996
▁основу	-11.5997
▁указывал	-11.5997
▁пуля	-11.5997
▁понравится	-11.5997
ьтесь	-11.5998
▁пьяный	-11.5999
▁Ким	-11.6
▁потерян	-11.6002
▁уехала	-11.6002
▁настроения	-11.6003
ленная	-11.6003
▁гл	-11.6005
▁Чарльз	-11.6005
▁Ол	-11.6006
▁оставлять	-11.6006
▁властью	-11.6006
▁издание	-11.6007
▁вырвался	-11.6008
▁запустил	-11.6009
▁надобно	-11.601
нуло	-11.6012
▁свежим	-11.6013
▁шерсть	-11.6013
▁считаете	-11.6016
▁тяжесть	-11.6016
▁Шан	-11.6017
кладывая	-11.6018
▁пытаюсь	-11.6018
▁интересное	-11.6018
▁уменьша	-11.6021
жет	-11.6021
▁желаний	-11.6023
ительное	-11.6023
▁Рой	-11.6023
▁Валентина	-11.6024
▁кивает	-11.6024
▁сустав	-11.6024
▁Майор	-11.6028
бул	-11.6028
ола	-11.6031
▁годится	-11.6031
▁массаж	-11.6032
▁простира	-11.6033
▁периодически	-11.6033
мены	-11.6033
▁мех	-11.6034
▁задержал	-11.6034
▁натура	-11.6034
▁ступени	-11.6034
▁ураган	-11.6035
▁родину	-11.6036
▁отвел	-11.6036
▁баланс	-11.6036
▁динамик	-11.6038
▁войско	-11.6038
▁изменение	-11.6041
▁средних	-11.6041
▁Сила	-11.6041
▁бабу	-11.6041
▁послушать	-11.6042
▁монастырь	-11.6044
▁Врач	-11.6044
▁Дина	-11.6044
▁Дым	-11.6045
яна	-11.6045
▁интриг	-11.6045
▁травой	-11.6046
▁1939	-11.6046
▁тонким	-11.6048
▁скульптур	-11.6048
▁занимал	-11.6049
.)]	-11.6049
берут	-11.605
▁чугун	-11.6051
цеп	-11.6051
▁эк	-11.6052
▁валя	-11.6054
жин	-11.6055
ab	-11.6056
▁прожить	-11.6056
▁выполнял	-11.6056
▁лезвие	-11.6056
▁Письмо	-11.6056
▁лазер	-11.6057
▁тревога	-11.6058
▁двойн	-11.6058
▁очерк	-11.606
▁резкий	-11.606
▁бабка	-11.6061
Ж	-11.6062
▁супруг	-11.6062
пира	-11.6062
▁мигом	-11.6063
ивания	-11.6065
уэлл	-11.6065
▁переводе	-11.6066
▁существовало	-11.6066
▁звёзд	-11.6067
▁Яр	-11.6067
▁престол	-11.6068
▁поглядывал	-11.6069
▁куча	-11.607
▁деятель	-11.607
крыть	-11.607
▁Джин	-11.607
равн	-11.607
▁входят	-11.607
▁Мод	-11.6072
▁следователь	-11.6072
▁середины	-11.6073
▁середину	-11.6073
▁известной	-11.6073
деть	-11.6073
ственные	-11.6073
▁начальство	-11.6074
▁лучами	-11.6075
▁Бир	-11.6076
слал	-11.6076
▁форт	-11.6076
▁прилив	-11.6079
щейся	-11.6079
даль	-11.608
▁Рен	-11.6082
▁сложив	-11.6082
▁сб	-11.6083
▁хулиган	-11.6084
▁проходят	-11.6084
▁зоны	-11.6085
▁оттолкнул	-11.6086
▁северо	-11.6086
▁Старший	-11.6086
▁вулкан	-11.6087
▁опоздал	-11.6087
▁торпед	-11.6088
▁уничтожа	-11.6088
▁бороду	-11.6088
▁поплыл	-11.6088
▁шторм	-11.6088
▁купол	-11.6089
▁обещан	-11.609
▁Екатерина	-11.6091
▁оборудование	-11.6092
▁тюрем	-11.6092
▁пепел	-11.6094
▁земного	-11.6094
▁Тру	-11.6095
▁закрывал	-11.6098
метров	-11.61
▁Лок	-11.61
ёс	-11.6102
▁Варя	-11.6102
чком	-11.6103
▁Дел	-11.6103
▁тиран	-11.6103
▁Шут	-11.6104
▁сыра	-11.6104
▁Вечно	-11.6105
▁меча	-11.6105
▁необходимым	-11.6105
▁мертвым	-11.6106
▁рассчитывать	-11.6106
▁Рез	-11.6106
▁встречаться	-11.6107
▁возмутился	-11.6108
▁счастлива	-11.6108
▁полем	-11.6108
▁неоднократно	-11.6109
бес	-11.6112
брод	-11.6112
▁виновато	-11.6113
▁пляс	-11.6113
▁Рит	-11.6114
▁заработал	-11.6114
▁пропуск	-11.6114
▁вял	-11.6114
дала	-11.6114
▁пустоту	-11.6114
▁Даша	-11.6115
▁обнаружила	-11.6115
▁1917	-11.6115
▁хозяину	-11.6116
▁неверно	-11.6117
▁46	-11.6117
▁изменил	-11.6119
ишка	-11.6119
▁цвету	-11.612
▁51	-11.612
▁суров	-11.6121
▁дрожал	-11.6121
▁станцию	-11.6122
вязать	-11.6122
▁уйду	-11.6123
мос	-11.6124
▁заходит	-11.6124
▁доброй	-11.6125
▁печата	-11.6126
▁пустыни	-11.6126
чивать	-11.6128
▁бегом	-11.6129
▁Место	-11.6129
▁долгий	-11.613
▁физически	-11.613
▁соседа	-11.613
▁любопытно	-11.6131
ТР	-11.6132
▁вечерам	-11.6133
▁искажен	-11.6134
▁интересов	-11.6134
▁немец	-11.6134
НИК	-11.6135
▁графин	-11.6135
▁Музыка	-11.6136
▁полит	-11.6137
▁se	-11.6137
▁заводе	-11.6138
▁болезней	-11.6138
шедших	-11.6139
▁Кит	-11.6139
▁Бег	-11.6139
▁переходит	-11.614
▁кружку	-11.614
▁отрыв	-11.614
▁натянул	-11.6141
▁юноше	-11.6143
▁ударила	-11.6143
▁Стен	-11.6145
▁вывести	-11.6146
▁маска	-11.6147
▁благодарность	-11.6147
▁проста	-11.6149
чую	-11.6151
▁Гус	-11.6153
▁сыновья	-11.6154
▁поступки	-11.6154
▁for	-11.6155
▁породы	-11.6156
▁немецкий	-11.6157
▁настиг	-11.6157
▁изначально	-11.6157
▁Люк	-11.6158
▁лечить	-11.6159
хол	-11.6159
▁заставили	-11.6159
▁крыльев	-11.616
▁Кас	-11.6163
▁забывал	-11.6163
▁Пашка	-11.6164
▁борта	-11.6165
▁имущество	-11.6166
▁мундир	-11.6166
▁подвел	-11.6167
▁темп	-11.6167
▁длинно	-11.6168
▁городах	-11.6168
сик	-11.6169
льский	-11.6169
облач	-11.6169
▁лишний	-11.6169
пуга	-11.6169
▁Ганс	-11.617
▁днях	-11.6173
страда	-11.6173
▁района	-11.6173
истым	-11.6173
летит	-11.6174
ходящие	-11.6174
▁Друж	-11.6174
▁Каб	-11.6175
тав	-11.6175
▁кадр	-11.6176
▁Лидия	-11.6177
▁шагал	-11.6177
▁красотой	-11.6177
▁уважением	-11.6178
▁американских	-11.618
шнее	-11.618
енки	-11.6181
▁полы	-11.6181
▁коварн	-11.6182
▁предлагаю	-11.6183
нских	-11.6183
▁газета	-11.6184
▁едят	-11.6185
▁переехал	-11.6185
▁кладов	-11.6185
▁политических	-11.6187
▁чаем	-11.6188
▁узнаешь	-11.6189
снеж	-11.6189
ne	-11.619
▁Хотелось	-11.6191
▁устройств	-11.6192
pe	-11.6192
нение	-11.6192
▁Нового	-11.6193
▁вопросительно	-11.6193
▁тоски	-11.6195
▁профессии	-11.6196
▁известным	-11.6197
▁обрыва	-11.6197
дир	-11.6198
▁социальной	-11.6198
вич	-11.6201
пись	-11.6201
крой	-11.6202
▁предельно	-11.6204
▁зачастую	-11.6206
▁Кла	-11.6207
очно	-11.6208
▁процессы	-11.6208
▁соединен	-11.6209
▁St	-11.6211
▁гостиницы	-11.6211
▁мастерской	-11.6211
▁штурман	-11.6211
▁Иса	-11.6212
▁улиц	-11.6214
▁насыщен	-11.6216
▁измучен	-11.6216
▁Эли	-11.6217
▁анекдот	-11.6219
▁спокойной	-11.6221
▁очках	-11.6221
▁безумие	-11.6221
верка	-11.6222
▁ленив	-11.6222
▁школ	-11.6223
▁съезд	-11.6223
▁сомнева	-11.6224
луж	-11.6224
▁лужи	-11.6226
▁чужим	-11.6226
щийся	-11.6227
▁приобрел	-11.6228
▁третье	-11.6229
▁дивана	-11.623
лететь	-11.623
▁мыслях	-11.6231
▁небеса	-11.6232
▁пещере	-11.6233
▁услуги	-11.6236
▁боишься	-11.6237
▁общение	-11.6238
▁зловеще	-11.6239
части	-11.6239
▁успокоился	-11.624
▁вырез	-11.6241
▁отчаяние	-11.6241
▁версии	-11.6242
▁шарф	-11.6242
▁обзор	-11.6244
чиво	-11.6245
▁паровоз	-11.6245
▁обратилась	-11.6245
▁указания	-11.6246
▁очнулся	-11.6246
▁обнаружив	-11.6247
чн	-11.6247
евший	-11.6248
анное	-11.6248
кован	-11.6249
▁международн	-11.625
▁нечем	-11.625
▁хозяином	-11.625
▁грусти	-11.6252
▁Художник	-11.6252
овке	-11.6252
▁праздника	-11.6253
▁стесня	-11.6254
садил	-11.6254
▁промок	-11.6255
▁заднем	-11.6255
▁умираю	-11.6258
▁обез	-11.6258
изирован	-11.6261
▁прошлый	-11.6263
▁развал	-11.6263
▁Анти	-11.6263
▁убедительно	-11.6264
▁левом	-11.6264
▁счета	-11.6264
екс	-11.6264
▁законом	-11.6265
▁думай	-11.6265
▁захват	-11.6266
▁газетах	-11.6266
тян	-11.6266
ящее	-11.6267
▁премьер	-11.6267
ацией	-11.6268
▁усилием	-11.6268
биты	-11.6269
праздн	-11.6269
▁духу	-11.6269
▁чек	-11.627
▁ОТ	-11.6271
▁смеясь	-11.6271
▁сообщает	-11.6272
▁капусты	-11.6276
мета	-11.6277
▁ездить	-11.6279
▁вызвали	-11.6279
▁сойти	-11.6279
▁бумага	-11.628
▁оставляет	-11.6281
ающее	-11.6282
▁предстал	-11.6283
▁бежала	-11.6283
ac	-11.6285
▁волнение	-11.6285
▁струи	-11.6285
падает	-11.6285
▁годом	-11.6286
писывал	-11.6286
.).]	-11.6286
▁Следовательно	-11.6287
▁Круп	-11.6287
▁сказку	-11.6287
▁отвратительно	-11.6291
тори	-11.6292
▁марсиан	-11.6293
▁хозяйство	-11.6293
▁драться	-11.6298
▁Вначале	-11.6298
нимает	-11.6299
кими	-11.6301
жимал	-11.6301
▁иностран	-11.6302
▁прекратить	-11.6302
▁сильных	-11.6304
▁избави	-11.6305
дес	-11.6305
▁корреспондент	-11.6306
▁коммунист	-11.6306
▁формально	-11.6307
▁свыше	-11.6308
▁Понимаю	-11.6311
▁лжи	-11.6311
▁is	-11.6312
▁очищен	-11.6313
▁Мель	-11.6315
▁жаб	-11.6315
ирую	-11.6315
езд	-11.6315
▁чистая	-11.6315
▁точке	-11.6316
▁важных	-11.6316
▁космонавт	-11.6316
нцы	-11.6317
▁возвращались	-11.6317
▁огромном	-11.6318
шихся	-11.6318
▁готовый	-11.6319
йдут	-11.6319
▁Недо	-11.6319
нейший	-11.632
еле	-11.6323
▁культура	-11.6324
дат	-11.6325
▁сообща	-11.6327
броса	-11.6327
▁простая	-11.6328
▁чертеж	-11.633
▁ожидает	-11.6331
мыслов	-11.6331
▁туп	-11.6333
▁короткое	-11.6333
▁учительница	-11.6334
▁подсказал	-11.6336
глаша	-11.6336
▁победить	-11.6336
▁Твор	-11.6336
летев	-11.6338
▁познакомился	-11.6339
▁отложил	-11.6339
▁вспомнив	-11.634
▁курить	-11.6341
▁рекой	-11.6341
ево	-11.6342
▁буквами	-11.6344
дира	-11.6345
▁Рот	-11.6345
▁получают	-11.6345
уля	-11.6348
▁взгляде	-11.6349
▁выводы	-11.6349
каль	-11.6349
▁общих	-11.6351
▁пожилой	-11.6352
▁Матери	-11.6352
▁срока	-11.6352
▁территорию	-11.6354
▁сильного	-11.6354
нские	-11.6354
▁навеки	-11.6354
ступление	-11.6355
▁Состав	-11.6355
еса	-11.6358
ковым	-11.6358
ущего	-11.6359
▁фыркнул	-11.6359
▁торт	-11.636
v	-11.6361
▁Вене	-11.6361
ошёл	-11.6362
ившая	-11.6362
▁упрек	-11.6362
вилл	-11.6363
▁палку	-11.6364
▁вторым	-11.6365
▁парашют	-11.6365
▁прикрыв	-11.6366
льки	-11.6368
ообразно	-11.637
щит	-11.6372
ичная	-11.6372
▁делаем	-11.6375
▁понес	-11.6376
▁стучит	-11.6376
рч	-11.6377
крытый	-11.6378
▁равны	-11.6378
▁Мог	-11.6378
▁обняла	-11.6378
бли	-11.6381
60	-11.6381
▁офицеры	-11.6381
▁Лос	-11.6381
ОЛЬ	-11.6382
▁кашля	-11.6383
▁больницы	-11.6384
se	-11.6385
оид	-11.6385
▁позвольте	-11.6386
▁разведчик	-11.6387
▁тренер	-11.6389
лиц	-11.6391
▁зонтик	-11.6391
▁сливочного	-11.6391
▁лечь	-11.6391
чусь	-11.6392
▁любимым	-11.6392
▁счастливы	-11.6392
▁крыльца	-11.6392
ищ	-11.6393
▁рекомендуется	-11.6394
▁вздохом	-11.6394
▁практики	-11.6396
▁возбужден	-11.6396
▁внук	-11.6398
▁невеста	-11.6399
▁приклад	-11.6399
▁служа	-11.6399
▁Гляди	-11.64
▁Джерри	-11.6401
▁свидание	-11.6402
▁Лов	-11.6404
▁Эми	-11.6405
▁лейтенанта	-11.6405
▁видения	-11.6406
▁бунт	-11.6406
▁Упражнение	-11.6407
льда	-11.6408
▁Бак	-11.6408
▁Желт	-11.6409
▁сумерки	-11.641
телями	-11.641
▁Мест	-11.641
▁участи	-11.6411
▁Таких	-11.6412
▁Топ	-11.6412
▁расскажет	-11.6413
▁Руко	-11.6414
▁нужным	-11.6414
▁держав	-11.6415
▁начнется	-11.6415
хождения	-11.6415
гружа	-11.6416
▁догадаться	-11.6416
▁патриот	-11.6416
льца	-11.6417
вым	-11.6417
▁Кана	-11.6419
▁заката	-11.6419
▁попер	-11.6419
▁Кад	-11.642
▁ресторане	-11.642
кладывают	-11.6421
▁подобие	-11.6421
▁крыло	-11.6423
двинув	-11.6424
▁Глаз	-11.6425
▁далёк	-11.6426
▁комиссии	-11.6427
▁здорова	-11.6428
▁назначения	-11.643
круч	-11.643
▁Возьмите	-11.643
▁сняли	-11.6431
▁оставлял	-11.6431
▁апельсин	-11.6433
▁рядов	-11.6433
трав	-11.6433
▁заплатить	-11.6434
мі	-11.6435
▁грузов	-11.6435
▁режиме	-11.6436
▁франц	-11.6436
▁вскрикнула	-11.6436
▁появиться	-11.6437
▁жрец	-11.6437
▁Хороший	-11.6438
▁уход	-11.6439
▁бока	-11.6442
дана	-11.6442
▁забота	-11.6442
брать	-11.6444
овому	-11.6446
везти	-11.6447
▁особым	-11.6447
вину	-11.6447
▁воздействие	-11.6447
.],	-11.6447
▁приборы	-11.6448
▁Дождь	-11.6449
▁молиться	-11.6449
▁Думаешь	-11.645
▁зрение	-11.6454
▁дворце	-11.6454
▁доске	-11.6455
▁заплакала	-11.6455
▁Туман	-11.6456
▁вмешался	-11.6458
ТЕ	-11.6458
▁освобожда	-11.6462
пускают	-11.6463
▁борода	-11.6463
▁любите	-11.6463
▁четверти	-11.6463
▁закончилась	-11.6466
▁Уил	-11.6467
▁седой	-11.6467
▁упали	-11.6468
▁фонд	-11.6469
▁расста	-11.6469
▁ламп	-11.6469
▁месяцы	-11.647
▁отныне	-11.647
▁сыновей	-11.647
▁звонить	-11.647
▁шахмат	-11.6471
▁встречается	-11.6473
▁встретили	-11.6473
енном	-11.6474
дера	-11.6474
▁Цен	-11.6475
▁стая	-11.6476
▁настоя	-11.6476
▁Духа	-11.6477
▁великие	-11.6478
▁Тома	-11.6478
▁обруч	-11.6478
▁Ишь	-11.6479
дут	-11.6479
▁покрыл	-11.6479
▁отбор	-11.6479
шний	-11.6479
▁психо	-11.648
▁родов	-11.6481
▁скул	-11.6481
▁смущен	-11.6482
▁отдавать	-11.6483
▁выжить	-11.6484
▁свежей	-11.6484
▁трос	-11.6485
ляет	-11.6487
енькую	-11.6487
▁выглядели	-11.6489
▁увидал	-11.649
печ	-11.6493
▁ванную	-11.6493
▁стенки	-11.6493
гель	-11.6494
▁огонек	-11.6494
▁счастливый	-11.6494
▁хвоста	-11.6495
▁победил	-11.6497
▁пьют	-11.6497
▁холодные	-11.6498
▁прогноз	-11.6499
ходит	-11.65
ковать	-11.65
▁стара	-11.6502
▁арестован	-11.6503
▁папой	-11.6503
▁Тамара	-11.6504
▁Непо	-11.6504
▁клан	-11.6507
ложенные	-11.6507
▁открывая	-11.6508
▁палубу	-11.6508
▁закрывает	-11.6509
▁лопа	-11.651
пить	-11.651
▁приказа	-11.6515
▁правый	-11.6516
"...	-11.6516
ИЛ	-11.6516
▁отверстия	-11.6517
▁природой	-11.6517
▁психиатр	-11.6517
▁прелесть	-11.6518
▁довольны	-11.6518
▁племен	-11.6519
▁посадил	-11.6519
▁объясняет	-11.652
▁отсутствия	-11.652
▁поют	-11.6521
▁сплошь	-11.6522
▁поездки	-11.6523
▁воспоминание	-11.6524
▁стадии	-11.6526
мыл	-11.6527
глядывает	-11.6528
▁приготовил	-11.6529
▁окнах	-11.6529
▁спешит	-11.653
▁теста	-11.6531
▁называем	-11.6533
▁возмуща	-11.6533
идов	-11.6533
▁составил	-11.6534
▁газа	-11.6536
▁слёзы	-11.6536
▁папирос	-11.6537
▁штраф	-11.6538
йдет	-11.6538
▁вынуждены	-11.6539
▁очаг	-11.6539
▁Слу	-11.654
▁заснуть	-11.6541
▁позитив	-11.6542
▁боком	-11.6542
▁дядю	-11.6542
▁ветерок	-11.6542
▁направились	-11.6542
▁племянник	-11.6542
▁платком	-11.6542
тем	-11.6543
шер	-11.6544
▁серьезные	-11.6545
ступают	-11.6546
▁включает	-11.6546
тры	-11.6546
▁камере	-11.6547
▁принца	-11.6547
▁вскочила	-11.6547
вался	-11.6547
▁течет	-11.6547
▁юго	-11.6548
▁погладил	-11.6548
▁болен	-11.6548
▁крупной	-11.6548
▁объяснила	-11.655
▁напечатан	-11.6551
▁представляла	-11.6553
яков	-11.6553
▁невинно	-11.6553
▁концы	-11.6554
▁откинулся	-11.6556
ke	-11.6558
▁Древ	-11.6558
▁Самолет	-11.6558
▁Блок	-11.656
▁игрок	-11.6561
[...]
