<unk>	0
<s>	0
</s>	0
<|endoftext|>	0
<|конец|>	0
<|n|>	0
,	-2.63224
.	-3.00803
▁и	-3.87823
▁в	-4.07863
▁—	-4.32359
▁не	-4.34084
▁на	-4.52557
а	-4.69187
▁с	-4.75881
▁–	-4.8114
▁что	-4.82044
▁	-4.92273
-	-5.04628
и	-5.16874
?	-5.23176
е	-5.28063
▁по	-5.38189
▁я	-5.38219
▁он	-5.49583
▁к	-5.52809
▁за	-5.53931
▁как	-5.54161
!	-5.58115
у	-5.65805
▁его	-5.66585
▁«	-5.6689
:	-5.70794
▁из	-5.73313
...	-5.73699
▁от	-5.76259
▁у	-5.76628
м	-5.79284
▁а	-5.82272
ы	-5.87953
▁это	-5.88206
▁Я	-5.94896
то	-5.96546
▁все	-5.98116
▁но	-5.98893
▁-	-5.98978
▁о	-5.9935
▁А	-6.02092
▁И	-6.03959
▁В	-6.07171
▁же	-6.08511
о	-6.10559
ом	-6.11317
▁так	-6.21049
▁было	-6.21225
▁она	-6.24812
▁вы	-6.25529
ов	-6.27383
▁бы	-6.28745
й	-6.28749
▁меня	-6.357
▁ее	-6.36146
▁то	-6.36916
▁Но	-6.3903
▁до	-6.42595
▁Он	-6.43579
я	-6.46444
▁был	-6.49277
▁для	-6.50798
»	-6.51045
▁мне	-6.51247
ся	-6.51566
▁ты	-6.5285
▁только	-6.54655
х	-6.55447
▁еще	-6.59284
▁их	-6.6112
▁под	-6.61868
▁при	-6.62128
▁они	-6.63409
▁уже	-6.64206
▁мы	-6.65567
▁чтобы	-6.65864
▁когда	-6.67581
▁(	-6.68051
▁раз	-6.73273
▁Не	-6.77749
▁С	-6.77897
▁или	-6.78755
ой	-6.80161
ми	-6.81504
ю	-6.8746
▁со	-6.89653
▁ему	-6.91004
ка	-6.91045
▁ни	-6.92366
▁если	-6.92501
ами	-6.92552
▁На	-6.93998
ный	-6.9552
▁про	-6.99254
ной	-7.00153
го	-7.00867
▁чем	-7.02181
ные	-7.02543
▁Это	-7.02867
;	-7.02932
▁даже	-7.03441
▁У	-7.03701
▁Да	-7.04479
▁была	-7.04837
».	-7.05993
▁себя	-7.06134
▁ли	-7.0792
ли	-7.08626
▁сказал	-7.09781
▁него	-7.09931
▁время	-7.09986
▁были	-7.10792
ки	-7.11499
ных	-7.13572
▁По	-7.15541
▁Она	-7.16728
с	-7.19397
▁об	-7.20622
▁во	-7.20657
▁того	-7.22035
т	-7.25231
▁будет	-7.25259
▁очень	-7.25343
▁быть	-7.25447
▁где	-7.25902
▁может	-7.27117
▁нас	-7.27816
ет	-7.28148
▁есть	-7.28203
ная	-7.28402
▁этого	-7.29092
▁без	-7.3053
л	-7.30933
ного	-7.31395
▁кто	-7.3284
▁этом	-7.34469
▁Что	-7.35286
ть	-7.35602
▁Ты	-7.36025
▁тебя	-7.36103
)	-7.36268
ая	-7.36637
в	-7.37184
▁Как	-7.37767
▁себе	-7.38321
▁нет	-7.39063
▁там	-7.40886
ным	-7.42202
▁том	-7.42391
на	-7.43219
»,	-7.43451
▁них	-7.43851
но	-7.44747
ку	-7.45759
ла	-7.47121
▁Вы	-7.47607
▁больше	-7.48218
▁просто	-7.48444
▁вот	-7.49618
▁ничего	-7.49685
▁этот	-7.49795
▁Ну	-7.49851
▁можно	-7.49989
ый	-7.52019
▁Если	-7.52602
▁тут	-7.52924
▁тебе	-7.55121
ах	-7.55165
▁который	-7.55191
▁За	-7.55323
ную	-7.56322
▁после	-7.56351
▁К	-7.56373
▁ей	-7.56788
▁вас	-7.57031
▁которые	-7.57594
▁О	-7.57705
▁да	-7.5844
▁здесь	-7.58869
▁Так	-7.59222
▁тоже	-7.59776
▁Мы	-7.6131
▁один	-7.61359
▁потом	-7.62118
▁теперь	-7.62144
▁пере	-7.62282
▁тем	-7.63258
за	-7.6405
▁сейчас	-7.64612
ые	-7.65302
▁ним	-7.65562
▁"	-7.66603
▁через	-7.67278
▁более	-7.67382
ых	-7.68561
▁всех	-7.70143
▁Все	-7.70301
▁несколько	-7.70401
▁всего	-7.70576
▁глаза	-7.70857
▁Вот	-7.71724
▁перед	-7.71752
▁надо	-7.73534
▁человек	-7.73657
▁Они	-7.74048
▁над	-7.74815
ное	-7.75372
▁ней	-7.75845
▁г	-7.76279
ей	-7.76326
ам	-7.76812
▁лет	-7.77078
▁вам	-7.77246
▁лишь	-7.77409
ого	-7.77541
▁пока	-7.78267
▁своей	-7.78482
▁им	-7.80345
ем	-7.80817
▁нам	-7.81229
▁сам	-7.81708
▁тот	-7.82226
ым	-7.82466
нибудь	-7.82812
ую	-7.83259
▁Когда	-7.83471
▁мог	-7.83699
ь	-7.84761
▁жизни	-7.85108
ия	-7.86278
▁Нет	-7.87213
▁снова	-7.87414
к	-7.87535
▁свою	-7.88141
▁потому	-7.88526
▁этой	-7.89617
лись	-7.90886
ок	-7.90899
ке	-7.92453
н	-7.93185
▁эти	-7.93215
▁всегда	-7.9336
▁много	-7.9463
▁такой	-7.95964
му	-7.96259
▁нее	-7.968
▁тогда	-7.97099
▁При	-7.97196
ий	-7.97379
▁ведь	-7.97583
сти	-7.97802
▁почти	-7.97984
▁день	-7.98187
▁чего	-7.9958
▁дело	-8.00029
▁руки	-8.00885
▁спросил	-8.01324
лась	-8.01911
ют	-8.03159
▁людей	-8.0373
ется	-8.03835
▁между	-8.03866
▁два	-8.0416
те	-8.05606
не	-8.06018
▁стал	-8.06954
▁хотя	-8.07009
▁своих	-8.07233
▁знаю	-8.07598
ными	-8.07761
).	-8.07888
▁никогда	-8.07933
ться	-8.0806
лся	-8.08103
ись	-8.08538
▁совсем	-8.0887
ном	-8.08931
▁своего	-8.08981
▁собой	-8.08992
▁свои	-8.0904
ло	-8.09664
▁какой	-8.09697
▁сразу	-8.10455
▁нужно	-8.10479
▁*	-8.10707
▁года	-8.10894
▁жизнь	-8.11134
▁времени	-8.12
ие	-8.12398
▁Мне	-8.12927
▁сказала	-8.14062
ить	-8.14094
▁словно	-8.14546
ит	-8.15705
▁сказать	-8.15878
▁голову	-8.16051
▁уж	-8.16339
▁почему	-8.16567
▁От	-8.16963
▁люди	-8.17038
▁руку	-8.17636
▁хорошо	-8.17981
▁мой	-8.19533
▁человека	-8.19868
д	-8.2071
▁ко	-8.20711
ию	-8.20714
▁именно	-8.22132
▁вдруг	-8.22198
ны	-8.23198
▁будто	-8.23993
▁ответил	-8.24351
кой	-8.24791
▁быстро	-8.25632
▁рас	-8.25761
▁лучше	-8.25915
ни	-8.25941
▁которой	-8.26358
▁всем	-8.2683
▁вместе	-8.26896
▁тех	-8.27175
▁М	-8.27802
▁слишком	-8.27815
▁слова	-8.2796
▁куда	-8.2842
▁Его	-8.28433
▁друг	-8.29135
▁три	-8.2926
▁должен	-8.29573
▁которая	-8.29683
ской	-8.297
▁свой	-8.29769
▁всё	-8.29802
ского	-8.30548
▁конечно	-8.31155
),	-8.31834
▁те	-8.31962
▁рядом	-8.32203
ен	-8.32248
та	-8.32373
▁другой	-8.32551
▁лицо	-8.33087
ский	-8.33227
▁также	-8.33274
им	-8.33527
сть	-8.33565
ое	-8.33567
▁эту	-8.33931
▁свое	-8.34862
по	-8.35144
ась	-8.35524
▁могу	-8.35614
▁такое	-8.35635
"	-8.3598
▁тому	-8.36283
▁назад	-8.36367
▁которых	-8.36573
▁голос	-8.3671
▁место	-8.37868
▁этих	-8.37944
▁сторону	-8.38069
▁Из	-8.38211
▁своим	-8.38721
▁Только	-8.39546
ъ	-8.40103
▁этим	-8.41169
▁знал	-8.41266
▁дома	-8.41939
▁случае	-8.42824
▁стороны	-8.43238
ш	-8.43379
▁которого	-8.43926
▁Однако	-8.44118
▁вообще	-8.44238
▁немного	-8.44766
да	-8.45026
▁мной	-8.45394
▁сделать	-8.45924
▁дверь	-8.46117
▁совершенно	-8.4633
▁никто	-8.46363
▁одной	-8.46488
▁эта	-8.46745
▁До	-8.4697
▁головой	-8.47079
▁чуть	-8.47495
▁Теперь	-8.47762
▁делать	-8.47974
▁взгляд	-8.48132
▁против	-8.48702
▁её	-8.49381
▁прямо	-8.49383
▁пор	-8.50905
ось	-8.51112
ил	-8.51649
▁хотел	-8.51985
▁самом	-8.52066
С	-8.52539
▁То	-8.52877
В	-8.53563
▁одного	-8.53898
▁Может	-8.5443
▁кого	-8.54507
▁ещё	-8.54986
ются	-8.55001
▁точно	-8.55157
▁т	-8.55983
г	-8.56224
ин	-8.56379
р	-8.56496
▁хоть	-8.57241
▁видел	-8.57773
▁мир	-8.58288
▁затем	-8.58734
ясь	-8.58828
▁должны	-8.59375
▁Про	-8.59459
ят	-8.59572
ну	-8.59659
▁понял	-8.59723
ков	-8.59928
▁вопрос	-8.60605
▁других	-8.60745
▁одно	-8.60841
▁действительно	-8.60901
з	-8.61005
▁сегодня	-8.61069
▁После	-8.61362
▁стало	-8.61589
▁образом	-8.61978
▁могла	-8.62175
▁двух	-8.62259
▁деле	-8.62301
▁момент	-8.62455
▁говорил	-8.62696
лось	-8.6308
▁Во	-8.63084
ко	-8.63166
или	-8.63236
▁ними	-8.63385
▁которую	-8.63401
▁говорит	-8.64052
▁Кто	-8.64058
▁одна	-8.64117
б	-8.64175
▁наконец	-8.64257
▁долго	-8.644
▁вокруг	-8.64538
▁всю	-8.65486
ыми	-8.66
▁оно	-8.66335
таки	-8.66423
п	-8.66547
▁та	-8.66567
▁П	-8.66613
▁начал	-8.66622
▁равно	-8.6691
▁свет	-8.67435
▁Потом	-8.67459
▁моей	-8.67614
▁нему	-8.67711
▁могут	-8.68609
▁2	-8.68886
▁ж	-8.69246
▁минут	-8.69327
▁Там	-8.69722
▁дальше	-8.70068
▁месте	-8.70142
А	-8.7043
▁значит	-8.70452
ч	-8.71285
▁нем	-8.71492
▁хочу	-8.71643
▁таким	-8.71708
▁две	-8.72089
▁Тогда	-8.72257
▁могли	-8.72394
▁году	-8.72472
▁такие	-8.7272
▁самого	-8.72754
▁будут	-8.72836
!»	-8.72887
▁весь	-8.73135
▁стоит	-8.73143
▁Для	-8.73332
▁дом	-8.73381
▁опять	-8.73527
сь	-8.73839
▁Почему	-8.7437
ец	-8.74617
ля	-8.74949
▁дня	-8.75082
ских	-8.75263
▁кажется	-8.75286
▁мало	-8.75297
▁стали	-8.75323
▁которое	-8.75601
▁ноги	-8.75747
▁конце	-8.75784
▁ответ	-8.76386
▁какие	-8.76787
▁пол	-8.76863
?!	-8.769
▁1	-8.77709
▁Под	-8.77797
ком	-8.77936
ешь	-8.77956
ному	-8.7803
▁моя	-8.78048
▁нельзя	-8.78255
▁каждый	-8.78258
▁давно	-8.78721
▁среди	-8.78883
от	-8.79212
ив	-8.79845
▁сюда	-8.80008
▁сама	-8.80188
▁сделал	-8.80601
▁едва	-8.80753
▁Г	-8.80779
▁часть	-8.80832
га	-8.80935
▁увидел	-8.80963
▁мои	-8.81102
ками	-8.81164
▁решил	-8.81193
▁поэтому	-8.81591
ские	-8.81759
▁говорить	-8.81801
▁знает	-8.81826
▁Т	-8.81991
▁туда	-8.82175
▁дела	-8.82192
их	-8.82255
▁мысли	-8.8247
са	-8.82761
▁Или	-8.82771
ж	-8.82781
▁полу	-8.82785
ев	-8.82897
▁заметил	-8.83268
▁Д	-8.84066
▁Б	-8.84316
▁рукой	-8.84356
▁такого	-8.84432
вер	-8.8468
▁прежде	-8.85027
он	-8.85298
▁другие	-8.85622
▁стала	-8.85658
▁Конечно	-8.86001
▁вполне	-8.86208
▁глаз	-8.86225
ская	-8.86279
▁раньше	-8.86324
▁казалось	-8.86765
▁3	-8.8717
▁этому	-8.87465
▁Даже	-8.87803
▁той	-8.87969
▁достаточно	-8.88029
ния	-8.88116
▁буду	-8.88141
▁часто	-8.88318
▁глазами	-8.88527
e	-8.88878
▁отец	-8.88917
▁сил	-8.89041
▁друга	-8.89164
▁хотелось	-8.89224
ль	-8.89339
▁сколько	-8.89365
▁первый	-8.89396
–	-8.89558
▁тело	-8.89573
▁посмотрел	-8.8959
▁места	-8.89976
ник	-8.91048
▁тобой	-8.91062
▁вновь	-8.91396
▁медленно	-8.9158
▁год	-8.91642
▁ту	-8.91862
▁спросила	-8.91872
ность	-8.91884
ва	-8.92129
▁вперед	-8.9215
▁Ни	-8.92439
▁кроме	-8.92462
▁таких	-8.92679
▁довольно	-8.92971
▁начала	-8.93448
▁п	-8.93761
▁тихо	-8.93775
▁женщина	-8.93975
▁подумал	-8.94091
▁Еще	-8.94102
▁особенно	-8.94435
▁Со	-8.94485
▁должна	-8.94598
ф	-8.94641
▁пришлось	-8.94809
▁сердце	-8.94981
▁кивнул	-8.95093
▁стоял	-8.95384
цы	-8.95495
ер	-8.95626
▁город	-8.95937
s	-8.96081
ша	-8.9621
ма	-8.96314
▁пять	-8.96359
▁двери	-8.96644
▁однако	-8.96691
▁менее	-8.96692
▁деньги	-8.96777
▁своем	-8.96902
▁самое	-8.972
И	-8.97311
▁котором	-8.97431
▁Ведь	-8.97642
▁смерти	-8.97785
▁де	-8.98496
▁знать	-8.98524
ние	-8.98672
ты	-8.98691
▁ночь	-8.98818
▁“	-8.98883
▁Н	-8.98905
▁слово	-8.99032
▁правда	-8.99292
▁силы	-8.99309
▁вид	-8.99404
ца	-8.99811
▁лица	-9.00214
вы	-9.00389
К	-9.0076
▁одну	-9.00784
▁удалось	-9.00792
▁моего	-9.00881
▁должно	-9.01014
▁пути	-9.01015
▁части	-9.01246
▁нашей	-9.014
▁Хотя	-9.0141
▁понять	-9.01482
▁всей	-9.01766
▁девушка	-9.01919
▁думал	-9.0202
▁мере	-9.02053
▁возможно	-9.02193
▁ну	-9.02283
▁большой	-9.02524
▁произнес	-9.02525
▁имя	-9.02727
▁сильно	-9.02831
▁руками	-9.0293
▁18	-9.02952
ле	-9.02992
▁Поэтому	-9.03021
▁работы	-9.03056
ство	-9.0309
▁руках	-9.03212
ать	-9.03499
▁наши	-9.03511
▁легко	-9.03543
▁самой	-9.0365
▁следует	-9.03845
▁взял	-9.04106
▁Сейчас	-9.04119
▁войны	-9.04609
!..	-9.04859
ал	-9.04935
▁домой	-9.05041
▁найти	-9.05049
▁знаешь	-9.05231
овой	-9.05276
П	-9.05297
▁такая	-9.05445
под	-9.05487
ском	-9.05566
▁сами	-9.0561
▁второй	-9.05821
▁своими	-9.05969
▁воды	-9.06214
▁мира	-9.06447
ности	-9.06475
▁скоро	-9.07072
▁жить	-9.07212
▁какое	-9.07286
▁наш	-9.07495
▁далеко	-9.07671
▁думаю	-9.08034
Я	-9.08083
▁столь	-9.0811
▁Здесь	-9.08261
нее	-9.08453
ова	-9.08488
▁имеет	-9.08662
▁которым	-9.08934
▁Раз	-9.08935
▁дней	-9.09146
ра	-9.09273
▁часов	-9.09501
▁внимание	-9.09661
▁самый	-9.10442
".	-9.10683
▁вроде	-9.10925
де	-9.11078
▁4	-9.11172
ение	-9.11211
▁города	-9.11281
▁Где	-9.1139
▁вниз	-9.11544
▁Л	-9.11567
▁стол	-9.1159
э	-9.11662
▁явно	-9.11663
ился	-9.11675
▁д	-9.11895
ина	-9.12076
▁путь	-9.12469
▁является	-9.12501
▁смотрел	-9.12576
▁России	-9.12719
i	-9.12726
ис	-9.12748
▁мое	-9.13064
a	-9.13089
ти	-9.13096
Д	-9.1318
▁спокойно	-9.13201
ан	-9.13484
ту	-9.1356
▁придется	-9.13767
▁около	-9.14071
▁каким	-9.14151
ик	-9.1432
▁меньше	-9.14531
▁весьма	-9.14544
ди	-9.14591
ри	-9.14615
▁мать	-9.14695
▁оказался	-9.14834
▁скорее	-9.14852
▁работу	-9.15355
?»	-9.1552
▁вышел	-9.15656
▁само	-9.15679
▁Тут	-9.15775
▁какая	-9.15779
▁Ее	-9.1592
юсь	-9.16318
­	-9.16364
▁глазах	-9.16443
ится	-9.16492
М	-9.16518
▁отца	-9.16711
стью	-9.16811
▁пусть	-9.16904
▁Через	-9.17245
▁б	-9.1732
▁Пока	-9.17414
▁Тем	-9.17581
▁виду	-9.17591
▁улыбнулся	-9.17632
▁Надо	-9.17633
▁Об	-9.17661
ши	-9.17716
▁Ф	-9.17867
▁взглядом	-9.18235
ст	-9.18365
О	-9.18377
▁пред	-9.18462
ней	-9.18495
до	-9.18498
▁резко	-9.1911
▁прав	-9.19264
▁поскольку	-9.19265
▁Хорошо	-9.19382
ите	-9.19452
▁матери	-9.1946
▁землю	-9.19542
o	-9.19745
▁мире	-9.19898
ому	-9.20033
ня	-9.20373
ское	-9.2045
▁час	-9.2048
▁пре	-9.2051
▁Затем	-9.20554
▁Значит	-9.20576
▁детей	-9.20578
▁известно	-9.20787
▁воз	-9.20987
▁кое	-9.2108
▁зачем	-9.21095
У	-9.21224
ут	-9.21496
▁иначе	-9.21549
▁нами	-9.21707
▁идет	-9.21807
...»	-9.22067
ения	-9.22384
▁вовсе	-9.22518
▁комнату	-9.22598
ры	-9.22927
ман	-9.2297
ц	-9.23134
▁наших	-9.2326
▁четыре	-9.23284
иться	-9.23363
ве	-9.23384
ги	-9.23439
су	-9.23452
'	-9.2382
▁голове	-9.24116
▁десять	-9.24178
▁разговор	-9.24281
▁случилось	-9.24343
▁мысль	-9.24376
▁обычно	-9.24477
ха	-9.24498
▁ответила	-9.24704
▁откуда	-9.24851
▁5	-9.25004
ила	-9.25019
▁Ему	-9.2511
▁Ничего	-9.25163
▁мою	-9.25192
▁разве	-9.2522
▁удар	-9.25247
▁сквозь	-9.25319
▁пару	-9.25365
▁успел	-9.25432
▁хочет	-9.25642
из	-9.2566
▁тысяч	-9.25661
илась	-9.25727
▁истории	-9.25813
при	-9.25969
▁нашего	-9.26037
ились	-9.2622
▁кому	-9.26425
▁будем	-9.26446
▁понимаю	-9.26455
▁иногда	-9.2649
▁хочешь	-9.26639
▁одним	-9.26717
либо	-9.2677
тер	-9.2683
скую	-9.26862
▁видеть	-9.26968
▁волосы	-9.27176
ба	-9.27347
▁виде	-9.2741
си	-9.27471
▁столько	-9.27482
▁готов	-9.27496
▁видно	-9.27549
/	-9.2761
▁сидел	-9.27862
▁возможность	-9.27862
▁говоря	-9.27873
▁конца	-9.27994
▁знала	-9.28159
▁никак	-9.28426
▁обо	-9.2848
▁женщины	-9.28509
че	-9.28828
▁тела	-9.28836
▁глядя	-9.2907
▁Впрочем	-9.29099
▁продолжал	-9.29134
▁трудно	-9.29194
▁земли	-9.2926
▁стать	-9.29325
▁идти	-9.29336
▁полностью	-9.29417
▁рот	-9.29496
▁земле	-9.29701
ства	-9.29979
▁Этот	-9.30237
▁доме	-9.30335
▁мимо	-9.30419
▁своему	-9.30639
овых	-9.30831
нет	-9.30914
об	-9.31118
▁годы	-9.3127
▁обратно	-9.31489
▁двадцать	-9.31662
▁пришел	-9.31777
▁Один	-9.31836
▁Глава	-9.31843
▁другом	-9.31965
▁ради	-9.3215
▁брат	-9.32185
▁сын	-9.32239
▁моих	-9.32348
▁слов	-9.32437
▁ясно	-9.32463
ща	-9.32524
тся	-9.32887
▁Ш	-9.32979
мер	-9.33021
▁Р	-9.33083
▁либо	-9.33112
ским	-9.33423
▁невозможно	-9.33736
Г	-9.33811
▁одном	-9.33827
▁лице	-9.33945
лин	-9.33953
▁поднял	-9.34354
▁Просто	-9.34372
▁никаких	-9.34447
чи	-9.34622
▁Ю	-9.34658
▁самым	-9.34744
▁внимания	-9.348
▁плохо	-9.34991
▁выше	-9.35387
▁Э	-9.35388
▁хотела	-9.35793
▁вещи	-9.35812
▁настолько	-9.35921
вин	-9.3599
ья	-9.36019
▁груди	-9.36043
▁власти	-9.36102
▁плечами	-9.36126
▁трех	-9.36234
▁наверное	-9.36259
▁случай	-9.36358
ре	-9.36582
▁Та	-9.36708
ча	-9.36862
▁вместо	-9.36985
▁постоянно	-9.36993
ар	-9.37122
▁связи	-9.37153
али	-9.37219
Н	-9.37246
ишь	-9.37307
▁например	-9.3747
вшись	-9.37523
Т	-9.37524
—	-9.37623
во	-9.37897
▁пошел	-9.3793
▁произошло	-9.38142
▁комнате	-9.38364
▁последний	-9.38464
▁многие	-9.38515
Б	-9.38544
▁10	-9.38618
▁Их	-9.38624
овые	-9.38634
▁вернулся	-9.38642
▁кем	-9.38724
▁нос	-9.38886
би	-9.39045
▁Правда	-9.39133
▁внутри	-9.39273
ость	-9.39327
▁другого	-9.39428
▁бес	-9.39511
мы	-9.39574
▁Тот	-9.39802
▁происходит	-9.40052
▁помочь	-9.40088
▁думать	-9.40167
▁вверх	-9.40512
▁души	-9.4058
▁слегка	-9.40597
▁вами	-9.40666
▁Меня	-9.40811
▁минуту	-9.40899
▁получил	-9.41223
ости	-9.41466
▁народ	-9.41684
▁концов	-9.42025
▁Возможно	-9.4207
цев	-9.42253
▁головы	-9.42288
▁стены	-9.42305
▁мужчина	-9.42384
ница	-9.42422
▁взять	-9.42436
лю	-9.42578
?..	-9.42679
▁рук	-9.42809
▁всему	-9.43168
▁вечер	-9.43172
ющие	-9.43259
▁сначала	-9.4328
ющий	-9.43289
▁дать	-9.43345
▁лес	-9.4346
▁станет	-9.43482
▁сих	-9.43592
p	-9.43678
▁крови	-9.43687
про	-9.43776
▁губы	-9.43811
▁неожиданно	-9.43864
ье	-9.43895
дер	-9.4391
▁самых	-9.44027
▁армии	-9.44219
▁Потому	-9.4425
▁возле	-9.44387
▁другим	-9.44562
▁имени	-9.44626
▁какую	-9.44629
▁Наконец	-9.44649
▁спиной	-9.44692
▁ибо	-9.44738
▁уверен	-9.44928
▁осталось	-9.45078
▁оказалось	-9.45379
▁З	-9.45579
▁дал	-9.45634
шей	-9.45681
▁другое	-9.45885
ках	-9.46118
▁свете	-9.46286
▁могло	-9.46339
ру	-9.46376
▁Чтобы	-9.46414
ает	-9.46435
се	-9.46492
▁слышал	-9.46999
▁гораздо	-9.47044
▁право	-9.47129
▁Есть	-9.47313
▁вся	-9.47455
па	-9.47515
.)	-9.47516
▁голосом	-9.47732
род	-9.4775
▁поняла	-9.47829
▁любви	-9.47833
▁работа	-9.47834
▁ночью	-9.4812
ист	-9.48133
▁Бог	-9.48133
▁молча	-9.4816
▁воздух	-9.48188
▁смог	-9.48212
мен	-9.48213
▁капитан	-9.48256
▁кровь	-9.48338
▁подошел	-9.48363
▁завтра	-9.48371
пер	-9.48451
▁Разве	-9.48528
▁боль	-9.48685
нуть	-9.4885
нов	-9.48976
▁воду	-9.49309
▁Пусть	-9.49386
ший	-9.49404
”	-9.49443
▁Очень	-9.49736
ель	-9.49778
▁никого	-9.49829
▁говорят	-9.49844
▁Гарри	-9.499
▁машины	-9.49904
▁15	-9.4991
▁знаете	-9.49973
▁течение	-9.50159
",	-9.50186
мо	-9.50271
▁жил	-9.50271
▁часа	-9.50322
▁узнать	-9.50339
ировать	-9.50361
▁No	-9.50481
ста	-9.50486
▁отношения	-9.5055
гу	-9.50558
▁права	-9.50709
ью	-9.50724
▁солдат	-9.5074
▁помощь	-9.50797
▁ночи	-9.50946
со	-9.50988
▁денег	-9.51069
▁Эти	-9.51134
▁имел	-9.51382
▁Кроме	-9.51457
y	-9.51483
▁речь	-9.51637
▁Пере	-9.51699
▁похоже	-9.5181
▁м	-9.51868
ше	-9.52038
▁осторожно	-9.52333
▁некоторые	-9.52374
▁помощью	-9.5243
▁шаг	-9.52527
▁дети	-9.52548
▁лицом	-9.52617
лен	-9.52811
▁парень	-9.52867
▁необходимо	-9.52895
▁таком	-9.53033
▁одновременно	-9.53068
▁Именно	-9.531
▁вздохнул	-9.5313
▁гор	-9.53178
▁Эта	-9.53306
▁17	-9.5337
▁говорю	-9.53479
▁любой	-9.53575
▁можешь	-9.53689
▁новые	-9.53891
▁твой	-9.53932
▁море	-9.53954
▁крайней	-9.53996
▁прекрасно	-9.54063
ски	-9.54256
▁возможности	-9.54264
▁любовь	-9.5436
▁качестве	-9.54431
▁порядке	-9.54449
▁Ладно	-9.5447
▁Зачем	-9.54554
▁силу	-9.54629
▁оружие	-9.54652
▁мол	-9.54814
▁Ар	-9.54819
ви	-9.54821
▁очередь	-9.54886
▁первой	-9.55001
▁э	-9.55111
вид	-9.553
▁человеком	-9.55351
▁видела	-9.55538
▁утра	-9.55669
▁Ли	-9.55672
чу	-9.55673
▁утром	-9.55724
▁план	-9.55789
▁увидеть	-9.55824
▁работать	-9.55839
▁Ле	-9.559
▁молодой	-9.55902
▁дороге	-9.55955
▁внезапно	-9.55987
▁никакого	-9.56027
▁Сам	-9.56029
▁внимательно	-9.56042
▁встал	-9.56091
▁Можно	-9.56383
▁сел	-9.56397
ро	-9.56477
▁практически	-9.56618
ор	-9.56786
▁состоянии	-9.56786
▁дел	-9.56816
ду	-9.56952
▁самые	-9.57031
▁дни	-9.57118
▁дорогу	-9.57146
▁чтоб	-9.57219
▁трудом	-9.57298
▁смерть	-9.57454
же	-9.57494
▁ждать	-9.57517
кин	-9.57553
▁такую	-9.57637
▁общем	-9.57674
▁чувство	-9.57724
ее	-9.57778
▁смотреть	-9.5781
йте	-9.57853
▁многих	-9.58045
▁вижу	-9.58048
ек	-9.58222
▁Без	-9.58309
▁6	-9.58316
лу	-9.58324
.]	-9.58352
▁впервые	-9.58547
▁говорили	-9.58654
▁чему	-9.58674
▁руке	-9.58844
▁огонь	-9.58871
ала	-9.58873
▁книги	-9.58904
овать	-9.59146
сон	-9.59191
Л	-9.59354
прежнему	-9.59388
▁находится	-9.59435
▁мгновение	-9.59485
▁вопросы	-9.59594
▁бросил	-9.59642
▁тяжело	-9.59673
▁первого	-9.59679
▁P	-9.59722
▁новый	-9.59755
▁несмотря	-9.59968
▁Вер	-9.59999
▁20	-9.60091
▁язык	-9.60155
▁роль	-9.60229
▁последние	-9.60292
▁СССР	-9.60443
▁бывает	-9.60444
▁оказалась	-9.60592
▁Иван	-9.60595
▁стояла	-9.60684
▁страны	-9.60824
▁поле	-9.60834
ников	-9.60983
ды	-9.61
▁показалось	-9.61104
▁жена	-9.61144
ятся	-9.6117
▁улыбнулась	-9.61324
▁пытался	-9.61334
▁I	-9.61357
▁иметь	-9.61425
▁каких	-9.61445
▁можем	-9.6154
▁узнал	-9.61608
▁почувствовал	-9.61647
▁генерал	-9.61805
▁мама	-9.61853
▁Е	-9.61873
емся	-9.62039
что	-9.62195
▁Неужели	-9.62302
лы	-9.62375
▁Эй	-9.625
лов	-9.62646
прав	-9.62686
щий	-9.62797
▁комнаты	-9.62968
▁вечером	-9.62981
ющих	-9.63078
раз	-9.63179
▁16	-9.63262
▁начали	-9.63269
▁цели	-9.63481
▁отсюда	-9.6349
▁нечто	-9.63542
3	-9.63615
▁стояли	-9.63683
▁века	-9.63747
нии	-9.63937
ат	-9.63952
▁которому	-9.63987
▁какого	-9.64027
1	-9.64079
▁нашел	-9.64099
▁нескольких	-9.64214
▁оба	-9.64308
▁письмо	-9.64457
▁остался	-9.64506
▁улице	-9.64609
▁окна	-9.64679
▁всеми	-9.64823
▁помощи	-9.64935
▁Нам	-9.64975
▁Вам	-9.65094
ового	-9.65101
вший	-9.6511
▁7	-9.65152
▁решение	-9.65154
▁мистер	-9.65175
▁солнце	-9.65205
▁чувствовал	-9.65223
▁шел	-9.65296
▁правильно	-9.65331
щ	-9.65449
▁немедленно	-9.65531
▁посмотрела	-9.65539
▁Те	-9.6563
▁остановился	-9.65759
▁будешь	-9.65785
▁можете	-9.65829
ием	-9.65859
тон	-9.65866
▁поднялся	-9.65885
▁Уже	-9.65889
▁ваш	-9.66097
вар	-9.66154
2	-9.663
▁хуже	-9.66313
▁ног	-9.66331
▁цвет	-9.66355
▁душе	-9.66362
▁протянул	-9.66555
▁пытаясь	-9.66677
▁Тебе	-9.66699
▁согласился	-9.6675
ович	-9.66807
ешься	-9.66847
▁получить	-9.67073
▁главное	-9.67101
▁господин	-9.67237
▁ума	-9.6739
▁сына	-9.67525
▁городе	-9.67573
ус	-9.67701
▁женщин	-9.67872
▁обязательно	-9.67872
ню	-9.67933
▁пожал	-9.67937
▁смысл	-9.68017
▁машину	-9.68034
▁наверняка	-9.68048
▁открыл	-9.68267
▁стола	-9.6829
▁вскоре	-9.68302
▁вчера	-9.68419
▁говорила	-9.68492
ника	-9.68738
▁каждого	-9.68749
▁номер	-9.68846
▁голова	-9.68872
▁ближе	-9.69032
▁черт	-9.69043
▁первым	-9.6911
ск	-9.69247
▁Кон	-9.69279
▁шум	-9.69339
ний	-9.69341
ран	-9.69593
зи	-9.69594
▁следующий	-9.69642
▁оказались	-9.6985
▁запах	-9.69855
▁громко	-9.69917
▁света	-9.69933
▁повернулся	-9.69956
▁важно	-9.69978
▁рода	-9.69997
▁знали	-9.70112
▁положение	-9.70133
▁ум	-9.7016
▁силой	-9.70195
▁сэр	-9.70268
▁людьми	-9.70302
вал	-9.70335
▁чувства	-9.70455
▁людям	-9.70503
▁ребенка	-9.70513
▁верно	-9.70566
▁видимо	-9.70567
▁Спасибо	-9.70845
▁вернуться	-9.71023
це	-9.7108
▁работе	-9.71103
▁вспомнил	-9.71288
▁моим	-9.71539
▁небо	-9.71544
▁временем	-9.71608
▁умер	-9.7164
▁Ко	-9.71741
вшийся	-9.71766
▁дороги	-9.71797
гор	-9.71975
ической	-9.72309
▁добавил	-9.72339
▁[	-9.72365
]	-9.72448
бо	-9.72561
▁становится	-9.72599
▁берегу	-9.72603
▁понимал	-9.72618
ники	-9.72725
▁увидела	-9.72985
▁услышал	-9.73209
шие	-9.73262
▁Х	-9.73472
ают	-9.73504
▁странно	-9.73579
▁благо	-9.73682
▁плечо	-9.73714
ика	-9.73721
▁Ей	-9.73749
▁словами	-9.73802
▁характер	-9.73816
шего	-9.73931
▁телефон	-9.73944
▁поздно	-9.73992
▁хотите	-9.74041
▁противника	-9.74056
▁сможет	-9.74149
цу	-9.74195
мор	-9.74353
чик	-9.74368
▁нравится	-9.74469
▁шесть	-9.7447
▁принять	-9.74486
▁предложил	-9.74621
енный	-9.74706
▁дочь	-9.7477
ос	-9.74797
▁действия	-9.74983
Ф	-9.75
▁насколько	-9.75022
▁конец	-9.75113
ившись	-9.75195
▁кофе	-9.7524
▁боли	-9.75243
▁спать	-9.75539
▁приходилось	-9.75543
▁вышла	-9.75572
▁нового	-9.75598
▁хочется	-9.75636
ай	-9.75654
▁12	-9.75773
▁плечи	-9.75837
▁другу	-9.75841
▁искать	-9.75863
ум	-9.75993
▁вести	-9.76029
▁группы	-9.76103
▁остальные	-9.76118
Не	-9.76438
▁миг	-9.76551
▁пришла	-9.76637
▁двумя	-9.76643
▁Александр	-9.76779
▁делает	-9.76812
▁шли	-9.7692
▁Рас	-9.76988
▁зрения	-9.77095
5	-9.77097
щих	-9.7716
▁стороне	-9.77167
нь	-9.77226
▁Ах	-9.77242
▁период	-9.77275
▁S	-9.7729
▁стене	-9.77423
▁решила	-9.77446
▁меч	-9.7751
▁вдоль	-9.77546
жа	-9.77557
Е	-9.77621
▁страх	-9.77672
тель	-9.77689
▁пяти	-9.77904
▁мед	-9.77922
▁закон	-9.7807
▁смысле	-9.78104
▁Никто	-9.78149
▁двое	-9.78291
▁проблемы	-9.78319
▁сильнее	-9.78448
▁страшно	-9.7847
▁кон	-9.78565
▁появился	-9.78612
Ш	-9.78622
▁глубоко	-9.78723
▁усмехнулся	-9.78737
▁Мой	-9.78762
▁грудь	-9.78796
▁факт	-9.78812
очка	-9.79073
▁желание	-9.79098
▁нужен	-9.79184
▁девушки	-9.79233
▁числе	-9.79244
▁счет	-9.79321
▁движения	-9.79411
вших	-9.79446
пол	-9.7946
По	-9.795
▁видели	-9.79551
▁8	-9.79569
▁Наверное	-9.79575
▁спину	-9.79621
▁пальцы	-9.79741
▁ваше	-9.79855
▁сон	-9.79952
4	-9.80019
▁выход	-9.80034
жи	-9.8033
ении	-9.80349
▁поводу	-9.80426
▁угодно	-9.80532
▁Перед	-9.80614
▁крепко	-9.80898
▁народа	-9.80942
▁Мак	-9.80964
▁Кор	-9.80971
овым	-9.81108
ров	-9.81139
▁ветер	-9.81146
▁результате	-9.81192
▁наша	-9.81196
▁другую	-9.81313
▁разных	-9.81335
ями	-9.81429
▁Андрей	-9.81443
▁Сегодня	-9.81481
▁новой	-9.81482
▁представить	-9.81483
▁подумала	-9.81633
▁помню	-9.8168
енные	-9.81703
его	-9.81713
▁Три	-9.81756
▁недавно	-9.81837
лей	-9.81864
▁Ма	-9.81914
▁Было	-9.81929
▁власть	-9.81943
ска	-9.81943
▁род	-9.82092
▁постепенно	-9.82135
▁люблю	-9.82228
▁понятно	-9.82293
▁использовать	-9.825
▁никому	-9.82506
▁вашей	-9.8256
▁окно	-9.82633
▁цвета	-9.82635
▁утро	-9.82667
ших	-9.82694
▁сделала	-9.82807
▁секунд	-9.82855
▁самому	-9.82859
шка	-9.83027
▁думала	-9.83028
ического	-9.83074
▁14	-9.8312
щие	-9.8321
▁9	-9.83253
ден	-9.83414
▁водой	-9.83423
▁Ка	-9.83476
▁платье	-9.83515
▁муж	-9.83523
▁Ор	-9.83734
▁Ха	-9.8384
вод	-9.84005
ге	-9.84046
кая	-9.84261
▁A	-9.84362
▁ногами	-9.84375
▁спустя	-9.84473
▁Сколько	-9.84489
▁позже	-9.84588
▁двор	-9.84592
▁ре	-9.84592
▁пора	-9.84637
нос	-9.84933
▁рука	-9.84946
▁мужчины	-9.84947
t	-9.84982
▁заметила	-9.85003
Э	-9.85084
▁писал	-9.85131
лет	-9.85238
▁Чем	-9.85286
тор	-9.85313
▁ваши	-9.85504
▁случайно	-9.85615
▁корабль	-9.85625
▁Чего	-9.85657
▁кровати	-9.85753
▁Пол	-9.8578
▁движение	-9.85818
▁ход	-9.85843
n	-9.85851
▁начале	-9.85888
▁смотрела	-9.85905
зна	-9.85932
▁новых	-9.8596
▁Кстати	-9.85979
три	-9.85987
▁лично	-9.86003
рон	-9.86013
овая	-9.8608
ические	-9.86086
▁доктор	-9.8617
r	-9.86224
кий	-9.8625
▁благодаря	-9.8627
(	-9.86342
▁попытался	-9.865
▁Итак	-9.86587
▁пошли	-9.86616
▁неделю	-9.8666
▁пришли	-9.8666
▁примерно	-9.86682
▁л	-9.86698
▁кор	-9.86699
▁жив	-9.86733
▁воздухе	-9.86734
▁приказал	-9.86741
▁посмотреть	-9.86747
▁нужна	-9.86816
бор	-9.86846
▁однажды	-9.86873
er	-9.86917
▁окончательно	-9.86996
шки	-9.87016
▁человеку	-9.87145
▁впереди	-9.87185
▁приказ	-9.87187
▁рад	-9.8719
▁степени	-9.87277
▁звук	-9.87304
шь	-9.87325
шая	-9.87394
скому	-9.87432
▁н	-9.87567
▁системы	-9.87598
мет	-9.87628
c	-9.87726
▁небольшой	-9.87737
▁которыми	-9.87742
▁твоя	-9.87809
▁вероятно	-9.87883
ющего	-9.87985
▁памяти	-9.87992
▁США	-9.88156
▁близко	-9.88258
бы	-9.88294
▁заявил	-9.88335
ией	-9.88339
Х	-9.88368
▁покачал	-9.88391
▁ушел	-9.88392
▁оставалось	-9.88394
ете	-9.88408
▁точки	-9.88504
▁воскликнул	-9.8854
▁наиболее	-9.88605
▁дым	-9.8865
▁способ	-9.88918
▁колени	-9.89012
▁шла	-9.89081
▁напротив	-9.89085
ину	-9.89098
▁первую	-9.8919
▁мальчик	-9.89225
▁Сергей	-9.89244
▁вода	-9.89254
▁the	-9.89341
▁пар	-9.89364
▁образ	-9.89372
кам	-9.89445
▁Думаю	-9.89491
▁часы	-9.8961
▁старик	-9.89674
▁мужа	-9.89689
ел	-9.89708
▁месяц	-9.89837
▁зло	-9.89903
▁Ла	-9.8992
▁волос	-9.89982
▁некоторое	-9.89986
▁уйти	-9.90067
▁большим	-9.90084
ических	-9.90225
ян	-9.9024
▁ждал	-9.90243
бер	-9.90244
▁Куда	-9.90246
▁состояние	-9.90305
▁абсолютно	-9.9032
▁поговорить	-9.90338
▁Бога	-9.90401
▁девочка	-9.90561
▁труд	-9.9057
▁проговорил	-9.9063
▁история	-9.90674
сы	-9.90843
▁оттуда	-9.90933
ющей	-9.91064
▁считать	-9.91121
▁семьи	-9.91143
▁Бо	-9.91213
▁убить	-9.91463
▁брата	-9.91495
▁душу	-9.91518
▁нечего	-9.91541
▁причем	-9.91691
▁Давай	-9.91729
▁крикнул	-9.91769
▁времена	-9.91799
лад	-9.91823
▁вошел	-9.91861
чин	-9.91903
ван	-9.91991
▁области	-9.92041
▁наше	-9.9206
▁лежал	-9.9207
▁бой	-9.92198
▁улыбкой	-9.92235
▁старый	-9.92323
▁решили	-9.92408
кон	-9.92427
▁дыхание	-9.92434
▁вряд	-9.92511
▁метров	-9.92626
▁теле	-9.92653
ид	-9.9266
▁касается	-9.92717
▁одному	-9.92727
▁взглянул	-9.92741
ницы	-9.92886
▁всякий	-9.92951
▁разные	-9.93001
▁стране	-9.93017
▁нужны	-9.93031
▁безопасности	-9.93038
ич	-9.93058
вшие	-9.93125
▁зубы	-9.93163
▁любил	-9.93258
▁Су	-9.93354
▁твоей	-9.93501
▁собственной	-9.93555
▁класс	-9.93592
▁сообщил	-9.93596
З	-9.93624
▁кивнула	-9.93641
▁забыл	-9.93661
▁опыт	-9.93876
▁очевидно	-9.93906
нем	-9.93925
вен	-9.93945
▁полной	-9.93946
чка	-9.94032
шу	-9.94035
▁впечатление	-9.94077
▁существует	-9.94094
нул	-9.94117
▁любит	-9.94132
▁Джон	-9.94196
▁сторон	-9.94218
▁миссис	-9.94253
▁большую	-9.94338
▁честно	-9.94439
нув	-9.94521
▁минуты	-9.94587
▁столом	-9.94601
▁Сначала	-9.94659
▁никакой	-9.94725
▁сто	-9.94811
йся	-9.94932
▁редко	-9.94979
▁количество	-9.94981
▁бур	-9.95006
▁неё	-9.95035
▁Человек	-9.95092
▁некоторых	-9.951
▁Ан	-9.95183
▁показал	-9.95184
▁последнее	-9.95259
▁попросил	-9.95267
▁принял	-9.95379
▁остались	-9.95384
▁положил	-9.956
▁пошла	-9.95602
▁вз	-9.95608
▁мо	-9.95618
▁ф	-9.95619
▁Вас	-9.9564
щей	-9.95717
▁нашли	-9.95728
▁друзей	-9.95748
▁война	-9.95811
▁ситуации	-9.95851
она	-9.95891
▁историю	-9.95908
▁лестнице	-9.96008
Р	-9.96012
вшего	-9.96049
нут	-9.96144
▁Виктор	-9.96187
▁знак	-9.9624
▁выйти	-9.96321
▁30	-9.96393
▁твои	-9.96438
▁тридцать	-9.9644
вшихся	-9.9645
▁объяснить	-9.96486
ще	-9.96593
▁па	-9.96613
▁вашего	-9.96669
▁партии	-9.967
▁Девушка	-9.96734
▁маленький	-9.96781
▁компании	-9.96821
▁Какой	-9.96826
▁ниже	-9.96848
▁делал	-9.96876
▁собирался	-9.96887
▁серьезно	-9.96968
ило	-9.97007
▁каждой	-9.97064
▁быстрее	-9.9707
▁Люди	-9.97095
▁видом	-9.97132
▁B	-9.97154
▁Ре	-9.97165
▁форме	-9.97169
бу	-9.972
овый	-9.972
▁находился	-9.97333
▁дух	-9.97359
хи	-9.97363
▁интерес	-9.97484
▁широко	-9.97536
▁вкус	-9.97538
▁суд	-9.97554
ики	-9.97573
▁секунду	-9.97593
▁развития	-9.97663
▁решительно	-9.97687
▁Джек	-9.97688
ева	-9.97701
▁мужчин	-9.97788
▁прошел	-9.97813
▁друзья	-9.97818
▁мисс	-9.97849
▁пожалуйста	-9.9787
▁состав	-9.97875
▁з	-9.97876
стоя	-9.97886
щая	-9.97899
▁связь	-9.97965
▁буквально	-9.9798
▁первые	-9.98247
▁цель	-9.98368
ический	-9.98446
▁13	-9.98568
▁нашу	-9.98592
▁большие	-9.98616
стер	-9.98622
u	-9.98649
▁значение	-9.98722
▁Мир	-9.98878
▁этими	-9.98903
▁Кар	-9.98944
▁вслед	-9.98947
▁считал	-9.98965
▁множество	-9.98972
чер	-9.99012
▁Мор	-9.99013
енко	-9.99019
ству	-9.99062
▁11	-9.99104
▁тысячи	-9.99134
▁поля	-9.9914
▁моем	-9.9915
кс	-9.99175
▁вышли	-9.99225
▁Похоже	-9.99269
▁думаешь	-9.9927
▁стараясь	-9.99277
▁хватит	-9.99287
вшиеся	-9.99293
▁крест	-9.99302
ана	-9.99356
ины	-9.99372
хо	-9.99393
▁земля	-9.99781
▁II	-9.99835
▁сердца	-9.99961
▁общества	-9.99972
▁взяла	-10.0001
аль	-10.0008
▁C	-10.0012
йтесь	-10.0013
ющим	-10.0017
щего	-10.0026
▁сила	-10.0033
▁секрет	-10.0042
▁of	-10.0043
▁Па	-10.0051
ическая	-10.007
▁остается	-10.0072
▁душа	-10.0093
▁скажу	-10.0097
▁высоко	-10.0107
▁интересно	-10.0109
▁слезы	-10.011
▁труда	-10.0111
C	-10.0136
ган	-10.0138
▁Ага	-10.0142
▁Таким	-10.0148
стей	-10.0159
▁упал	-10.0163
▁радио	-10.0164
▁недели	-10.0167
овую	-10.0174
▁ком	-10.0176
▁берег	-10.0179
▁рано	-10.0181
▁моря	-10.0181
▁страха	-10.019
▁войск	-10.0191
лом	-10.0195
▁живет	-10.0201
рин	-10.0201
▁весело	-10.0203
щи	-10.0203
▁чаще	-10.0206
▁подумать	-10.0206
рис	-10.0213
▁чай	-10.0214
▁тени	-10.0218
▁сделали	-10.0227
шим	-10.0227
▁деятельности	-10.0228
▁ногу	-10.0229
▁знают	-10.023
зы	-10.0232
▁большая	-10.0236
ё	-10.0236
стве	-10.0237
▁Иногда	-10.0239
▁появилась	-10.024
▁принялся	-10.0245
▁мягко	-10.0253
цион	-10.0253
▁чувств	-10.0269
▁Несколько	-10.0271
твор	-10.0275
▁машина	-10.0276
дел	-10.0277
▁семь	-10.0279
▁другими	-10.0285
▁тщательно	-10.0296
▁процесс	-10.0299
▁сорок	-10.0301
▁рассказал	-10.0303
▁машин	-10.0313
▁честь	-10.0317
▁Бар	-10.0322
▁плен	-10.0335
рос	-10.0342
▁Гор	-10.0343
▁следовало	-10.0354
▁типа	-10.0355
▁лесу	-10.0356
▁пальцами	-10.0359
▁удивился	-10.0372
▁Пер	-10.0374
чки	-10.0386
▁зал	-10.0391
▁лоб	-10.0395
фер	-10.0396
▁Москве	-10.04
жу	-10.0417
На	-10.0427
▁оставил	-10.0437
▁достал	-10.0444
▁смотрит	-10.0451
▁девушку	-10.0456
▁лист	-10.0467
нер	-10.0479
S	-10.0483
▁кабинет	-10.0498
▁месяца	-10.05
▁раздался	-10.0502
▁вон	-10.0505
▁трубку	-10.0506
▁Николай	-10.0508
▁пальцем	-10.052
▁шею	-10.0529
жен	-10.0533
▁сознание	-10.0537
▁месяцев	-10.0537
ировал	-10.0544
▁голоса	-10.0551
6	-10.0557
▁книгу	-10.0559
ическое	-10.0563
▁пожалуй	-10.0566
▁Анна	-10.0566
▁Дело	-10.0567
▁реки	-10.0569
▁короля	-10.0573
▁стр	-10.0576
▁начинает	-10.0578
пи	-10.0582
▁and	-10.0584
▁больно	-10.0588
▁камень	-10.0588
▁ваша	-10.059
▁встреча	-10.0595
▁работает	-10.0598
▁Отец	-10.0603
▁пара	-10.061
▁постели	-10.0623
▁25	-10.0623
▁ужас	-10.0627
▁ребенок	-10.0635
▁хотели	-10.0641
▁Каждый	-10.0645
▁легче	-10.0646
▁каком	-10.0646
▁строго	-10.0648
▁темно	-10.0648
фа	-10.0649
▁Откуда	-10.0652
▁улицу	-10.066
▁Между	-10.0672
▁корабля	-10.068
▁ладно	-10.068
овал	-10.0682
▁дает	-10.0686
▁Оно	-10.0702
рик	-10.0708
▁губ	-10.0712
ющая	-10.0713
▁самая	-10.0723
▁стен	-10.0738
▁память	-10.0741
▁произнесла	-10.0749
▁сидели	-10.0752
▁начало	-10.0755
▁разу	-10.0757
▁имею	-10.0759
.].	-10.0763
▁оставить	-10.0764
▁нож	-10.077
▁Всё	-10.0779
▁хозяин	-10.0782
▁лицу	-10.0784
сов	-10.0793
▁леди	-10.0793
▁продолжил	-10.0801
▁мгновенно	-10.0804
▁рассказать	-10.0816
▁Мар	-10.0816
ун	-10.0817
▁угол	-10.0819
▁работал	-10.0826
стр	-10.0831
▁приходится	-10.0835
▁зная	-10.0838
▁рассказ	-10.0845
рен	-10.085
▁желания	-10.0851
ско	-10.0852
▁ста	-10.0854
▁события	-10.086
▁король	-10.0862
сен	-10.0866
▁прошло	-10.0866
▁повторил	-10.0866
▁углу	-10.0876
▁гости	-10.0894
▁спас	-10.0895
▁Сер	-10.0895
▁остаться	-10.0896
ели	-10.091
эн	-10.0914
сер	-10.0919
▁//	-10.0921
▁первых	-10.0922
мир	-10.0926
стро	-10.0928
▁государства	-10.093
▁бумаги	-10.0931
▁понимаешь	-10.0933
▁Де	-10.0935
▁письма	-10.0935
▁войска	-10.0943
▁сад	-10.0955
▁информации	-10.0958
▁ключ	-10.0958
образ	-10.0959
ход	-10.0969
▁задумчиво	-10.0978
▁управления	-10.0979
ём	-10.098
▁естественно	-10.0982
▁навстречу	-10.0986
▁специально	-10.0993
▁выражение	-10.0994
▁зовут	-10.0996
ях	-10.1002
▁товарищ	-10.1005
▁условиях	-10.1018
▁делом	-10.1021
▁леса	-10.1023
дра	-10.1029
▁нашем	-10.103
Да	-10.1033
сс	-10.1041
чат	-10.1048
▁Джо	-10.1048
ена	-10.1063
▁раза	-10.1065
▁вздохнула	-10.1065
▁имеют	-10.1066
зе	-10.1071
▁моему	-10.1077
▁разумеется	-10.1082
▁Пре	-10.1086
▁Кажется	-10.109
▁попал	-10.1091
7	-10.1102
▁Над	-10.1106
▁воде	-10.1108
▁всяком	-10.1116
▁ответа	-10.1116
▁десяти	-10.112
▁сидела	-10.1124
▁(«	-10.1129
▁крайне	-10.1136
тан	-10.1138
▁обратился	-10.1138
▁горы	-10.114
▁времен	-10.1142
▁наоборот	-10.1142
енная	-10.1144
▁Например	-10.1144
▁отправился	-10.1145
▁жизнью	-10.1151
▁правду	-10.1163
▁пробормотал	-10.1166
▁навсегда	-10.1168
изм	-10.1169
▁дорогой	-10.117
пре	-10.118
▁пример	-10.1184
▁будь	-10.1187
▁порядок	-10.1189
▁означает	-10.119
▁пистолет	-10.1191
▁направился	-10.1191
▁Эл	-10.1192
▁ждет	-10.1197
▁M	-10.1201
▁ответить	-10.1202
▁проблем	-10.1205
▁немало	-10.121
▁сверху	-10.1212
▁четырех	-10.1223
▁решения	-10.1228
▁отдал	-10.1229
▁смогу	-10.1232
▁церкви	-10.1233
щим	-10.1242
▁сказали	-10.125
цов	-10.1254
▁р	-10.1259
▁ею	-10.1267
▁такими	-10.1271
19	-10.1273
ими	-10.1273
иль	-10.1275
▁отряд	-10.1276
▁Лучше	-10.1277
▁дому	-10.1282
▁живот	-10.1283
▁новую	-10.1289
▁встречи	-10.1293
▁изо	-10.1298
▁направлении	-10.1298
▁исчез	-10.1298
▁разум	-10.1302
»?	-10.1305
▁др	-10.1308
ря	-10.1311
▁отлично	-10.1312
▁стоило	-10.1323
▁заметно	-10.1342
▁голосе	-10.1348
нию	-10.1348
▁речи	-10.1354
▁отношение	-10.1357
▁большинство	-10.1363
▁ш	-10.1364
▁поставил	-10.1371
сад	-10.1372
▁действий	-10.1372
▁роман	-10.1377
▁Больше	-10.138
▁третий	-10.1382
▁папа	-10.1383
▁тепло	-10.1392
▁событий	-10.1404
▁Ку	-10.1415
▁целый	-10.1418
▁отдел	-10.142
▁кстати	-10.1427
▁Ц	-10.1438
▁ярко	-10.1438
▁пользу	-10.144
сто	-10.1451
▁маг	-10.1459
▁зале	-10.1463
▁полковник	-10.1466
▁стран	-10.1471
▁ощущение	-10.1472
▁пойти	-10.1473
▁видит	-10.1481
▁дворе	-10.1481
енных	-10.1492
лер	-10.1493
▁бог	-10.1493
▁остальных	-10.1499
▁вечера	-10.1502
ющихся	-10.1512
▁основном	-10.1514
▁сестра	-10.1517
▁территории	-10.1518
▁будете	-10.1518
▁Ж	-10.1522
▁знаем	-10.1524
▁новое	-10.1524
▁осталась	-10.1531
▁восемь	-10.1533
▁внутрь	-10.1536
дар	-10.1542
▁командир	-10.1543
▁стар	-10.1546
▁Вскоре	-10.1547
ации	-10.1547
▁Зато	-10.1551
▁позади	-10.1559
▁сомнения	-10.1564
▁давай	-10.1567
▁местах	-10.157
▁хватало	-10.157
▁Германии	-10.1573
▁Владимир	-10.1573
▁потерял	-10.1575
▁столе	-10.1579
▁вина	-10.1587
▁зато	-10.1592
▁(19	-10.1604
▁Им	-10.1604
ar	-10.1608
▁князь	-10.1608
▁целью	-10.1618
▁держать	-10.162
▁организации	-10.1623
▁центре	-10.1625
очек	-10.1626
▁дар	-10.1629
рет	-10.1631
ою	-10.1634
▁след	-10.1636
▁обе	-10.1638
▁отличие	-10.1643
en	-10.1644
▁твердо	-10.1653
▁карман	-10.1657
▁недо	-10.1658
▁p	-10.1659
лан	-10.1667
зем	-10.167
▁женщину	-10.1677
▁ряд	-10.168
▁насчет	-10.1685
▁отношении	-10.1691
▁начальник	-10.1691
I	-10.1697
▁приятно	-10.1703
▁получилось	-10.1705
▁Пред	-10.1708
очки	-10.173
▁провел	-10.1752
▁1.	-10.1752
▁смотрели	-10.1753
▁кур	-10.1754
▁относительно	-10.1757
▁анти	-10.1769
▁обнаружил	-10.1773
▁Боже	-10.1775
▁жены	-10.178
ению	-10.178
▁кино	-10.1787
▁одни	-10.1792
▁сожалению	-10.1794
▁Черт	-10.1797
▁гг	-10.1798
кова	-10.1807
▁ладони	-10.1807
ция	-10.1809
▁читать	-10.1812
▁поход	-10.1814
▁слез	-10.1819
▁Вдруг	-10.1826
тен	-10.183
бе	-10.1833
▁почувствовала	-10.1843
▁причин	-10.1845
▁название	-10.1845
▁лежит	-10.1859
▁появились	-10.1861
▁ходу	-10.1861
▁спор	-10.1864
▁Петр	-10.1869
▁Ай	-10.1876
как	-10.1876
▁Два	-10.1881
▁лейтенант	-10.1888
▁хлеб	-10.1889
▁выбор	-10.1891
▁принес	-10.1908
▁группа	-10.1915
▁дали	-10.1918
▁22	-10.192
▁пить	-10.1921
▁Какая	-10.1922
▁делу	-10.1934
▁мая	-10.1941
▁особо	-10.1941
▁начать	-10.1942
вес	-10.195
▁энергии	-10.1955
▁ворот	-10.1961
▁Бор	-10.1966
▁идея	-10.1978
▁днем	-10.1981
▁русских	-10.1986
▁исключительно	-10.1988
▁звезд	-10.1991
гар	-10.2006
▁имели	-10.2008
▁Нужно	-10.2011
кер	-10.2011
▁темноте	-10.2012
▁сотни	-10.2014
▁Эр	-10.2014
вой	-10.2016
▁стену	-10.2027
▁большое	-10.2032
▁машине	-10.2049
нные	-10.2055
▁держал	-10.2057
▁пер	-10.2058
▁коридор	-10.2076
▁боя	-10.2078
телей	-10.208
▁очередной	-10.2081
шись	-10.2091
тар	-10.2095
▁прочь	-10.2095
▁граф	-10.2104
кор	-10.2105
▁Интересно	-10.2118
▁тон	-10.2124
▁профессор	-10.2126
▁срок	-10.2137
▁оружия	-10.2141
▁счастье	-10.2146
▁линии	-10.215
▁сне	-10.2161
▁подошла	-10.2162
вит	-10.2164
чет	-10.2165
▁фи	-10.2165
▁Ра	-10.2168
▁другая	-10.2172
▁второго	-10.2173
ющиеся	-10.2179
скими	-10.2184
▁языке	-10.219
▁Глаза	-10.2192
▁сидит	-10.2194
овое	-10.22
▁система	-10.2202
▁прошлом	-10.2206
итесь	-10.2214
▁успела	-10.2217
▁солнца	-10.2217
▁Несмотря	-10.2218
▁Михаил	-10.222
▁сознания	-10.222
ряд	-10.2227
▁Бен	-10.2231
▁мер	-10.2234
▁возник	-10.2235
етесь	-10.2238
дав	-10.2238
▁Надеюсь	-10.224
щую	-10.2245
“	-10.2248
ed	-10.2248
▁правило	-10.2253
▁курс	-10.2257
пле	-10.2266
▁войну	-10.2266
▁договор	-10.2267
тели	-10.2272
гер	-10.2274
нный	-10.2277
▁момента	-10.2278
▁Сан	-10.228
▁край	-10.2282
▁твоего	-10.2284
том	-10.2295
эр	-10.2299
▁ребята	-10.2305
▁заранее	-10.231
▁автор	-10.2311
▁чувствовала	-10.2313
▁каждом	-10.2316
A	-10.2319
▁радостно	-10.2322
▁бар	-10.2327
▁схватил	-10.2328
▁показать	-10.2331
▁ч	-10.2334
▁пройти	-10.2344
▁погиб	-10.2347
▁главе	-10.2353
▁сигнал	-10.2357
▁настоящий	-10.2366
▁Господи	-10.2369
▁нашим	-10.2372
▁вел	-10.2385
▁Моя	-10.2395
▁Марк	-10.2399
▁крик	-10.2401
▁удастся	-10.2404
[	-10.2405
▁Сталин	-10.2409
ост	-10.2411
▁Иванович	-10.2413
кие	-10.2416
▁поинтересовался	-10.2422
▁Ру	-10.2423
дор	-10.2425
▁шар	-10.2425
▁вес	-10.2428
▁Рад	-10.243
▁Особенно	-10.2432
▁вне	-10.244
▁замок	-10.2445
▁молод	-10.2445
▁придет	-10.2445
вшегося	-10.2455
ям	-10.2455
рас	-10.2464
▁компьютер	-10.2473
▁Франции	-10.2479
Ч	-10.2484
▁трое	-10.2486
▁вопросов	-10.2488
первых	-10.249
▁впрочем	-10.249
▁зря	-10.2493
▁тотчас	-10.2497
▁сидеть	-10.2501
▁любом	-10.2507
▁забыть	-10.2509
▁хватает	-10.251
▁информацию	-10.2513
моему	-10.2521
l	-10.2524
▁отвечал	-10.2526
▁шагов	-10.2534
▁являются	-10.2536
▁Разумеется	-10.2537
▁парня	-10.2543
воз	-10.2547
тро	-10.2548
▁офицер	-10.2549
8	-10.255
чен	-10.2552
▁врага	-10.2553
кар	-10.2556
▁значительно	-10.256
▁играть	-10.2561
▁вернулась	-10.257
▁круг	-10.2572
▁21	-10.2581
▁предложение	-10.2593
▁назвать	-10.2597
ющийся	-10.26
▁Казалось	-10.2602
▁вынужден	-10.2605
▁кровью	-10.2606
▁ходить	-10.2606
▁невольно	-10.2607
▁пишет	-10.2611
▁смогла	-10.2621
▁пришло	-10.2623
▁судя	-10.2623
ёр	-10.2624
▁Олег	-10.2624
▁мнению	-10.2627
ез	-10.2629
ед	-10.263
▁далее	-10.264
▁готовы	-10.2645
▁хотят	-10.2647
▁Однажды	-10.2648
▁снег	-10.2648
▁твое	-10.2654
▁спросить	-10.2656
▁главным	-10.2661
оз	-10.2662
▁останется	-10.2663
ас	-10.2664
▁Мари	-10.2665
▁Ти	-10.2666
▁обернулся	-10.2669
▁мнение	-10.267
▁спал	-10.2677
▁Ч	-10.2679
▁хороший	-10.2681
▁23	-10.2682
▁рассказывал	-10.2683
▁обоих	-10.2683
▁судьба	-10.2694
▁привык	-10.2694
атор	-10.2697
▁спине	-10.27
▁Алекс	-10.2704
ера	-10.2707
▁замуж	-10.2708
шую	-10.2709
ступ	-10.2711
инг	-10.2712
ало	-10.2721
▁жили	-10.2729
▁Игорь	-10.2731
чит	-10.2733
▁дочери	-10.2737
▁войне	-10.2739
кур	-10.2739
альный	-10.2747
▁отозвался	-10.2752
лег	-10.2753
▁Мама	-10.2754
ген	-10.2758
▁первом	-10.2762
▁снял	-10.2766
▁прошу	-10.2769
ация	-10.2773
▁многое	-10.2777
▁провести	-10.2777
илось	-10.2777
зов	-10.2782
▁заниматься	-10.2785
▁случаях	-10.279
▁Никогда	-10.279
▁приехал	-10.2792
▁Нью	-10.2801
ак	-10.2802
▁села	-10.2809
дон	-10.2816
▁рождения	-10.2817
▁написал	-10.2821
▁внизу	-10.2844
▁пространство	-10.2848
вшим	-10.285
▁Свет	-10.2855
▁вида	-10.2855
▁неизвестно	-10.2857
▁называется	-10.2864
▁Уж	-10.2867
ним	-10.2869
▁/	-10.2875
▁горло	-10.2879
▁необходимости	-10.2884
жд	-10.2891
▁верить	-10.2904
▁мин	-10.2909
▁опасности	-10.2919
▁прошептал	-10.2925
▁коп	-10.2937
▁удовольствием	-10.2938
▁улицы	-10.2938
▁бок	-10.2939
▁борт	-10.294
▁действовать	-10.2943
▁путем	-10.2948
▁каждым	-10.2949
▁оказаться	-10.2952
▁нормально	-10.2954
▁Фа	-10.2958
▁Ди	-10.2965
▁24	-10.2965
▁Том	-10.2969
▁одежду	-10.2972
▁бежать	-10.2973
▁делают	-10.2975
▁Бер	-10.2977
▁Макс	-10.2987
in	-10.2993
▁радости	-10.3003
▁ваших	-10.3004
▁Га	-10.3014
▁продолжала	-10.3014
▁читал	-10.3015
▁c	-10.3021
▁ожидал	-10.3022
вшей	-10.3024
▁увидев	-10.3026
▁Ба	-10.3026
изма	-10.3028
▁хвост	-10.3031
▁старался	-10.3037
▁кресло	-10.305
▁остров	-10.3053
рез	-10.3055
▁ничем	-10.3062
сте	-10.3064
▁частью	-10.3064
▁огня	-10.3066
▁силах	-10.3073
▁Дон	-10.3075
ания	-10.3076
▁писать	-10.3081
▁будущее	-10.3085
▁роли	-10.3087
▁словом	-10.3089
▁Некоторые	-10.3089
▁ехать	-10.31
▁первое	-10.3102
▁Алексей	-10.3107
▁заговорил	-10.3107
▁воздуха	-10.3114
▁Кир	-10.3138
▁Пар	-10.3138
▁Мин	-10.3143
▁убил	-10.3147
▁способен	-10.315
▁сумел	-10.3156
вот	-10.3161
▁тоном	-10.3164
▁думает	-10.3165
▁попасть	-10.3166
▁существо	-10.3175
ора	-10.3176
▁Хар	-10.3177
▁кол	-10.3179
▁игра	-10.3182
ющее	-10.3183
▁чувствую	-10.3183
al	-10.3186
▁школы	-10.3207
▁проект	-10.3216
▁центр	-10.3219
▁деревьев	-10.3222
▁полном	-10.3227
пар	-10.3227
вор	-10.3229
нная	-10.3231
цами	-10.3235
▁ровно	-10.3236
▁поверхности	-10.3236
▁участие	-10.3242
щее	-10.3246
▁пойдет	-10.3247
▁улыбка	-10.3248
▁Ро	-10.3249
▁туман	-10.3253
ание	-10.3254
▁Ло	-10.3259
ницу	-10.3263
▁предмет	-10.327
▁столу	-10.327
▁пан	-10.3277
▁прошла	-10.3283
вест	-10.3284
шку	-10.3286
▁холодно	-10.3288
▁обед	-10.3289
▁пыль	-10.3291
▁велел	-10.3294
▁уши	-10.3297
0	-10.3299
▁книг	-10.3302
▁пятьдесят	-10.3306
▁больших	-10.3306
дан	-10.3307
▁жаль	-10.3309
▁вос	-10.3312
▁сторонам	-10.332
▁Гер	-10.3321
▁Первый	-10.3322
теля	-10.3324
▁душ	-10.3332
▁различных	-10.3332
уз	-10.3336
нных	-10.3343
▁операции	-10.3343
щем	-10.3348
тов	-10.3349
фр	-10.3353
▁бросился	-10.3362
▁Ге	-10.3363
лит	-10.3364
▁ударил	-10.3364
▁согласно	-10.3378
форм	-10.3381
▁гостей	-10.3391
▁проблема	-10.3395
▁Вообще	-10.3397
бр	-10.3398
мон	-10.34
вшейся	-10.3404
▁целом	-10.3407
▁июня	-10.341
▁аккуратно	-10.3416
▁последнего	-10.3418
лив	-10.3419
ическую	-10.3419
▁подняла	-10.3426
▁Второй	-10.3428
дов	-10.3429
▁берега	-10.3434
дей	-10.3435
▁число	-10.344
▁формы	-10.3441
▁См	-10.3443
▁жену	-10.3444
▁стакан	-10.3445
▁самую	-10.3446
ушка	-10.3447
▁долларов	-10.3458
▁Нас	-10.3463
▁лорд	-10.3469
▁краю	-10.3471
▁Лишь	-10.3473
▁Бу	-10.3474
▁первая	-10.3482
▁Ис	-10.3485
▁средства	-10.349
▁двадцати	-10.3491
▁Одна	-10.3491
мут	-10.3496
оп	-10.3504
▁Время	-10.3512
▁службы	-10.3517
▁Голос	-10.3523
шек	-10.3524
▁коротко	-10.3524
▁тему	-10.3529
▁Мал	-10.3534
вали	-10.3535
▁последних	-10.3537
пис	-10.3541
▁Ман	-10.3542
▁закрыл	-10.3543
▁мастер	-10.3544
▁труп	-10.3544
зд	-10.3547
Ж	-10.3551
▁счастью	-10.3557
▁2.	-10.3561
▁готова	-10.3563
▁объяснил	-10.357
ву	-10.3571
▁подальше	-10.3573
ант	-10.3574
▁открыть	-10.3578
▁вещей	-10.3585
▁получается	-10.3587
f	-10.3593
▁полный	-10.3595
▁суда	-10.3597
▁стул	-10.3609
▁вечно	-10.3612
▁тишина	-10.3613
▁ма	-10.3613
▁слышала	-10.362
▁книге	-10.3623
▁прошли	-10.3624
овский	-10.3627
▁Москву	-10.3629
▁словам	-10.363
▁ладонь	-10.3632
▁Си	-10.3635
▁Много	-10.3635
▁ушла	-10.3643
▁выглядел	-10.3654
▁ворота	-10.3658
▁носом	-10.3662
▁цен	-10.3663
▁игры	-10.3664
▁мысленно	-10.3668
цен	-10.367
▁коня	-10.3671
став	-10.3671
▁Тар	-10.368
▁искренне	-10.3681
▁Дар	-10.3682
▁Бел	-10.3685
фи	-10.3688
мысл	-10.3689
▁радость	-10.3692
▁черные	-10.3698
▁ос	-10.3698
мин	-10.3699
▁пост	-10.3704
▁русской	-10.3705
▁пи	-10.3707
▁'	-10.3712
▁дверью	-10.3713
▁занят	-10.3719
▁поможет	-10.3722
▁горе	-10.3722
▁никуда	-10.3723
▁живут	-10.3725
▁понятия	-10.3725
▁говоришь	-10.3725
▁Ту	-10.3727
▁семья	-10.3729
▁указал	-10.3729
ланд	-10.373
▁площади	-10.3731
▁успели	-10.3731
суд	-10.3736
20	-10.3736
▁знаком	-10.3737
▁сей	-10.3739
аться	-10.3741
▁воин	-10.3743
▁Че	-10.3745
▁школе	-10.3745
▁единственный	-10.3745
щу	-10.3747
дель	-10.3749
▁принимать	-10.3749
▁непосредственно	-10.375
▁родителей	-10.375
▁лошади	-10.3751
!!!	-10.3754
▁августа	-10.3758
▁уровне	-10.3758
▁чисто	-10.3759
▁уровень	-10.3768
▁понимать	-10.3773
ир	-10.3774
За	-10.3776
▁проще	-10.3777
ват	-10.3778
▁большого	-10.3779
рит	-10.3781
няя	-10.3781
▁Ки	-10.3785
▁сзади	-10.3787
▁значения	-10.3788
▁Какие	-10.3793
лить	-10.3793
▁квартиру	-10.3793
▁имела	-10.3797
▁мозг	-10.3798
▁животных	-10.38
▁ужасно	-10.3801
▁твою	-10.3802
жив	-10.3821
▁Са	-10.3823
▁семье	-10.3827
▁лежала	-10.383
▁поэт	-10.383
мар	-10.3831
▁фон	-10.3838
▁эффект	-10.384
ху	-10.3841
ура	-10.3843
▁оказывается	-10.3843
▁вовремя	-10.3845
▁Пи	-10.3847
▁смех	-10.3851
рад	-10.3855
▁уверена	-10.3858
▁Более	-10.386
▁прием	-10.3863
вторых	-10.3863
▁тип	-10.3865
P	-10.3868
▁шести	-10.3874
сом	-10.3879
▁всякого	-10.3883
▁Ши	-10.3886
▁ветра	-10.3888
пе	-10.3892
▁Мои	-10.3898
▁вариант	-10.39
▁последней	-10.3902
енной	-10.3902
▁видишь	-10.3904
енную	-10.3905
▁Лицо	-10.3908
▁районе	-10.3912
▁in	-10.3913
▁оставаться	-10.3918
руч	-10.3919
▁автомат	-10.392
▁здания	-10.3921
▁звуки	-10.3925
▁следом	-10.393
▁глубине	-10.3938
▁настоящее	-10.3939
▁революции	-10.3941
▁пояс	-10.3944
▁Скорее	-10.3946
▁самим	-10.3947
▁намного	-10.3955
▁телом	-10.3957
▁живых	-10.3958
▁шанс	-10.396
▁получится	-10.3969
▁родители	-10.397
▁лиц	-10.3974
▁Би	-10.3979
▁Среди	-10.3985
▁штаб	-10.3986
ыч	-10.3988
▁пыталась	-10.3989
▁следы	-10.4
▁вспомнить	-10.4003
▁опустил	-10.4018
▁смысла	-10.4022
итель	-10.4025
лон	-10.4027
▁Ми	-10.4029
▁дерева	-10.4031
альные	-10.4036
▁причине	-10.4036
пор	-10.4037
так	-10.4044
▁взгляда	-10.4045
▁населения	-10.4045
▁склад	-10.4046
дж	-10.4048
▁старого	-10.405
▁совет	-10.4056
▁подтвердил	-10.4057
кра	-10.4058
▁полно	-10.4065
зор	-10.4065
▁бу	-10.407
истов	-10.4073
▁находились	-10.4074
▁неплохо	-10.4075
▁Мария	-10.4077
▁вещь	-10.4082
▁считает	-10.4087
коп	-10.4094
▁годов	-10.4096
▁разговора	-10.4098
▁любого	-10.4098
▁черный	-10.4098
▁июля	-10.41
▁вывод	-10.41
▁Стар	-10.41
▁кар	-10.4101
9	-10.4104
▁Многие	-10.4108
▁Прежде	-10.4109
▁19	-10.4111
▁адрес	-10.4111
▁спасибо	-10.4113
готов	-10.4113
▁рост	-10.4118
▁еле	-10.4119
ался	-10.4122
▁ст	-10.4126
▁Лу	-10.4126
▁замер	-10.4127
▁Видимо	-10.4137
es	-10.414
▁форму	-10.4144
▁N	-10.4145
▁Мо	-10.4146
h	-10.4146
▁возразил	-10.4156
▁выходит	-10.4157
▁подобного	-10.4157
▁сентября	-10.4158
▁положении	-10.4164
▁майор	-10.4169
▁кусок	-10.417
ливо	-10.4177
цем	-10.4177
▁Гар	-10.418
▁природы	-10.4189
▁подобно	-10.4191
▁поверить	-10.4196
ѣ	-10.4199
▁28	-10.4205
▁поставить	-10.4205
▁Фи	-10.421
▁ро	-10.4214
▁женой	-10.4215
пере	-10.4222
▁T	-10.4223
▁удовольствие	-10.4226
рав	-10.4227
▁26	-10.4233
▁заставить	-10.424
▁личности	-10.424
знач	-10.4242
ниц	-10.4243
▁слушать	-10.4245
▁идут	-10.4246
▁Ри	-10.4252
▁ногах	-10.4259
▁хозяина	-10.4266
▁тень	-10.4271
▁собственно	-10.4277
▁сведения	-10.4284
▁Ал	-10.4293
▁лошадь	-10.4295
▁Лев	-10.4299
бой	-10.4303
▁дам	-10.4308
▁заставил	-10.4309
▁держа	-10.4311
▁непременно	-10.4313
);	-10.4315
▁дед	-10.4323
▁Род	-10.4324
▁прийти	-10.4325
▁ухо	-10.4325
▁огромный	-10.4329
▁дорога	-10.4329
▁спрашивает	-10.4334
▁фронта	-10.4336
▁27	-10.4337
▁брови	-10.434
▁мрачно	-10.4343
▁Кур	-10.4344
▁помог	-10.4347
▁50	-10.4347
▁повезло	-10.4348
мат	-10.4349
Как	-10.4354
▁лошадей	-10.4361
руж	-10.4362
▁Точно	-10.4368
▁100	-10.4375
▁смогли	-10.4375
▁удивленно	-10.438
▁вред	-10.4381
▁палец	-10.4384
ишься	-10.4386
▁купить	-10.4388
▁средств	-10.439
▁армия	-10.4391
▁меж	-10.4394
▁самолет	-10.4395
ица	-10.4397
▁Ох	-10.4399
▁нашла	-10.4405
иной	-10.4407
▁Знаешь	-10.4407
енным	-10.4417
зу	-10.4422
▁открыла	-10.4424
▁отчего	-10.4427
тив	-10.4429
▁демон	-10.4431
▁получили	-10.4436
▁скажет	-10.4439
▁Вместо	-10.4442
▁Мало	-10.4443
▁ведет	-10.4443
год	-10.4446
▁планы	-10.445
▁кровать	-10.4453
▁пе	-10.4457
▁наружу	-10.4463
▁запас	-10.4465
▁уме	-10.4466
re	-10.4468
▁условия	-10.4474
син	-10.4479
▁встала	-10.4484
ён	-10.4491
ол	-10.4491
▁километров	-10.4492
▁Почти	-10.4494
▁ЦК	-10.4495
▁отцом	-10.4499
▁высокий	-10.4499
▁шее	-10.4505
▁герцог	-10.4505
us	-10.4506
ража	-10.4513
свет	-10.4517
ул	-10.452
▁привести	-10.452
ирует	-10.4521
альная	-10.4522
▁понимает	-10.4522
▁граждан	-10.4524
▁40	-10.4524
ара	-10.4525
▁заметить	-10.4531
▁Жан	-10.4532
▁воли	-10.4535
ует	-10.4537
▁главный	-10.4537
▁Хо	-10.4539
▁боюсь	-10.4543
шее	-10.4547
▁Англии	-10.4548
▁выглядит	-10.455
▁империи	-10.4553
▁ничто	-10.4555
▁мною	-10.4557
ент	-10.4559
▁книга	-10.456
▁вслух	-10.456
▁Богу	-10.456
▁взяли	-10.4565
▁спасти	-10.4567
▁колен	-10.4577
▁подо	-10.4577
▁скорость	-10.4579
▁Рай	-10.4583
▁большей	-10.4583
▁сосед	-10.4584
вшая	-10.4585
T	-10.4586
▁ад	-10.4595
тра	-10.4598
▁крестьян	-10.4599
▁пятнадцать	-10.46
эй	-10.4601
▁постель	-10.4602
▁Был	-10.4606
▁Судя	-10.461
ень	-10.4614
▁успех	-10.4616
ющую	-10.4623
▁определить	-10.4634
▁повел	-10.4634
имся	-10.4635
▁передать	-10.4637
k	-10.464
рок	-10.4642
▁Капитан	-10.4648
▁вскочил	-10.4649
▁кресла	-10.4649
ление	-10.465
иков	-10.4652
вшее	-10.4663
▁Карл	-10.4665
▁жир	-10.4666
▁полчаса	-10.4673
▁чрезвычайно	-10.4675
▁ла	-10.4676
▁друж	-10.4676
▁Опять	-10.4678
10	-10.468
▁удара	-10.468
▁подобных	-10.4684
▁Лес	-10.4684
▁зависит	-10.4688
▁капитана	-10.4692
очку	-10.4701
▁планеты	-10.4706
▁строй	-10.4707
▁Ван	-10.4709
d	-10.4709
▁создать	-10.4709
▁Тор	-10.4711
▁мальчика	-10.4713
▁прошептала	-10.4714
▁желая	-10.4721
▁праздник	-10.4722
▁слушал	-10.4725
▁прошлого	-10.4726
▁ран	-10.4729
▁знания	-10.473
▁рыб	-10.4737
▁объявил	-10.4737
▁будущем	-10.4744
▁стоять	-10.4744
▁представляет	-10.4745
▁ранее	-10.4745
Что	-10.4745
▁делали	-10.4747
▁прос	-10.4749
▁приходит	-10.475
▁кот	-10.4753
▁оставив	-10.4756
шин	-10.4762
▁сложно	-10.4762
▁похож	-10.4764
▁бо	-10.4766
▁кожи	-10.4767
▁порт	-10.4779
▁живой	-10.4779
▁a	-10.478
▁встретил	-10.4781
▁остановилась	-10.4786
▁клуб	-10.4786
▁Ин	-10.4788
▁понимая	-10.4788
▁уровня	-10.4791
▁мест	-10.4794
▁скажи	-10.4799
видимому	-10.4801
▁каждую	-10.4805
▁поднялась	-10.4807
кол	-10.481
▁князя	-10.4817
стой	-10.4822
един	-10.4822
ены	-10.4824
кал	-10.4826
30	-10.483
▁холод	-10.483
▁союз	-10.4831
пит	-10.4832
▁военных	-10.4835
▁слышно	-10.4835
▁уверенно	-10.4835
движ	-10.4838
▁Ник	-10.4838
▁пытались	-10.4838
▁Ой	-10.4841
▁счастья	-10.4845
▁октября	-10.4848
▁хватило	-10.4848
▁квартире	-10.4865
▁Кол	-10.4865
is	-10.487
▁просил	-10.487
▁аппарат	-10.4871
▁экран	-10.4872
▁повернулась	-10.4874
▁понимала	-10.4875
▁закричал	-10.4876
▁царя	-10.4877
▁подобное	-10.4878
▁результат	-10.4881
быт	-10.4885
▁дождь	-10.4887
▁порой	-10.4889
▁император	-10.4892
▁стремительно	-10.4893
▁назвал	-10.4893
▁положения	-10.4899
▁домов	-10.4903
▁вели	-10.4904
▁борьбы	-10.4915
▁станции	-10.4918
еть	-10.4918
▁вино	-10.4923
▁Женщина	-10.4924
▁членов	-10.4925
▁края	-10.493
▁исход	-10.4931
▁Какое	-10.4937
▁кармана	-10.494
ур	-10.4941
плат	-10.4942
▁Антон	-10.4946
▁русского	-10.4947
▁отдать	-10.4948
▁полиции	-10.4953
▁брать	-10.4956
▁воскликнула	-10.4956
▁Мер	-10.4956
ким	-10.4957
▁окон	-10.4958
▁документы	-10.496
▁проверить	-10.4961
▁русский	-10.4961
телем	-10.4961
▁рассмеялся	-10.4961
▁рассказывать	-10.4961
▁состоит	-10.4971
▁кухню	-10.4971
▁настроение	-10.4981
▁груз	-10.4985
▁корабли	-10.4986
▁V	-10.4987
▁примеру	-10.4987
▁пьян	-10.4988
брос	-10.4991
▁пальцев	-10.4995
00	-10.4996
▁Роман	-10.4998
▁Тре	-10.4998
▁нежно	-10.5002
▁Ленин	-10.5003
▁опасность	-10.5003
▁вашу	-10.5005
▁чём	-10.5025
▁Мэри	-10.5025
▁боялся	-10.5026
▁Борис	-10.5027
▁выхода	-10.5028
▁отсутствие	-10.5029
▁маленькая	-10.5034
▁молчание	-10.5035
▁существа	-10.5036
▁прочим	-10.5042
▁вошли	-10.505
енного	-10.5058
▁вернулись	-10.506
ing	-10.5069
▁Рядом	-10.5072
▁долг	-10.5074
M	-10.508
▁вытащил	-10.5082
вая	-10.5086
▁обещал	-10.5089
▁транспорт	-10.509
▁возраста	-10.5093
▁искусства	-10.5095
▁молодого	-10.5095
▁задача	-10.5097
ницей	-10.5099
▁завод	-10.51
▁надеюсь	-10.5107
▁всяких	-10.5108
▁дядя	-10.5109
▁кожа	-10.5117
▁ду	-10.5117
▁противо	-10.5119
ёт	-10.5122
▁называют	-10.5124
▁плащ	-10.5126
▁собственного	-10.513
▁мыслей	-10.5131
▁Александра	-10.5134
▁сказано	-10.5137
▁увидели	-10.5137
▁корм	-10.5137
”.	-10.5137
▁Одно	-10.5141
▁болезни	-10.5144
▁идеи	-10.5152
чный	-10.5153
▁дав	-10.5155
▁гнев	-10.5167
▁добраться	-10.5169
▁основе	-10.5171
b	-10.5172
▁принято	-10.5178
▁Господь	-10.5191
кую	-10.5191
лага	-10.5193
▁наблюдал	-10.5197
▁деревья	-10.5201
▁незаметно	-10.5203
▁кухне	-10.5206
▁ситуацию	-10.5211
уса	-10.5216
▁Дай	-10.5217
▁новая	-10.5217
▁отчаянно	-10.5218
▁Земле	-10.5221
▁вернуть	-10.5224
▁Павел	-10.5226
вед	-10.5226
it	-10.5227
▁подобные	-10.5228
айте	-10.5229
▁услышала	-10.523
ции	-10.5232
▁ба	-10.5233
рей	-10.5234
▁русские	-10.5235
исты	-10.5243
▁срочно	-10.5248
▁Завтра	-10.5248
▁изменения	-10.5255
шит	-10.5263
▁пойду	-10.5267
▁наверх	-10.5271
▁каждое	-10.5271
гранич	-10.5277
▁лежали	-10.5282
▁контроль	-10.5283
▁обществе	-10.5287
▁скал	-10.5288
▁поспешно	-10.5292
▁мужик	-10.5296
▁небе	-10.5297
од	-10.53
▁лож	-10.5304
▁следующее	-10.5309
▁исследования	-10.5312
▁Земли	-10.5322
▁твоих	-10.5325
▁недель	-10.5327
▁Аль	-10.534
▁текст	-10.534
зо	-10.5345
▁рабочих	-10.5347
▁воинов	-10.5349
▁языка	-10.5352
▁маленькой	-10.5355
▁четко	-10.5355
▁солдаты	-10.5366
▁поняли	-10.5368
▁вор	-10.537
or	-10.5374
▁белые	-10.5376
▁врагов	-10.5377
▁мировой	-10.5379
нку	-10.5383
▁здание	-10.5385
▁камни	-10.5387
▁марта	-10.5394
▁Москвы	-10.5395
▁здорово	-10.5396
ари	-10.5397
le	-10.54
▁Поскольку	-10.5401
▁позиции	-10.5402
▁отношений	-10.5405
ностью	-10.5406
▁одежды	-10.5407
чек	-10.5412
▁отцу	-10.5423
лок	-10.5426
▁поток	-10.5432
▁замка	-10.5434
▁Пан	-10.5435
чная	-10.5436
▁старой	-10.5436
ительно	-10.5436
крас	-10.5441
▁своё	-10.545
▁звезды	-10.545
▁Василий	-10.5451
▁ноября	-10.5451
▁середине	-10.5453
▁ждали	-10.5453
▁бор	-10.5454
▁черно	-10.5456
ци	-10.5465
▁происходило	-10.5466
джи	-10.5469
▁Саша	-10.5471
аем	-10.5471
▁недостаточно	-10.5475
▁Ответ	-10.5475
▁посреди	-10.5476
▁длинные	-10.5479
▁глупо	-10.548
▁Вар	-10.5483
▁старика	-10.5483
▁Люб	-10.5488
▁верю	-10.549
▁мечта	-10.549
▁пожар	-10.549
▁пристально	-10.549
▁Гу	-10.5491
▁проход	-10.5494
▁отвечает	-10.5497
▁понимаете	-10.5502
нье	-10.5502
чок	-10.5506
▁декабря	-10.5506
▁молчал	-10.5509
см	-10.5512
▁простой	-10.5516
▁Причем	-10.552
гре	-10.5521
▁жест	-10.5524
▁января	-10.5531
▁культуры	-10.5535
▁анализ	-10.5538
▁бал	-10.5541
▁белый	-10.5545
▁требует	-10.5548
▁изменить	-10.5549
▁ал	-10.5552
лем	-10.5552
▁махнул	-10.5555
▁попыталась	-10.5555
▁отношению	-10.5555
▁задумался	-10.5555
▁говорите	-10.556
▁старший	-10.5563
▁Тур	-10.5564
▁3.	-10.5568
рус	-10.5569
ений	-10.5571
▁молодых	-10.5574
▁портрет	-10.5575
▁Нельзя	-10.5581
▁Совет	-10.5582
▁Роберт	-10.5582
▁думаете	-10.5586
▁Понятно	-10.559
▁роз	-10.5592
чных	-10.5597
▁чувствуя	-10.5599
бин	-10.5601
ред	-10.5602
▁старые	-10.5608
▁самостоятельно	-10.5609
▁огнем	-10.5611
▁обязан	-10.5618
▁барон	-10.5622
▁вошла	-10.5623
▁Давайте	-10.5625
▁поведение	-10.5625
▁Скоро	-10.5626
▁услышать	-10.563
ять	-10.5631
▁апреля	-10.5635
▁школу	-10.5645
▁пола	-10.5646
▁возьми	-10.5647
▁кабинете	-10.5647
▁Доктор	-10.5647
след	-10.5648
нья	-10.5648
▁правительства	-10.5657
нев	-10.5658
▁Мистер	-10.5661
▁слышать	-10.5665
▁другому	-10.5667
▁данные	-10.567
▁жалко	-10.5678
город	-10.5678
▁фоне	-10.5679
▁29	-10.568
▁влияние	-10.5681
▁острова	-10.5682
▁несомненно	-10.5683
▁команды	-10.5684
вшаяся	-10.5684
▁левой	-10.569
▁собирается	-10.5697
▁систему	-10.5699
бил	-10.5701
дом	-10.5703
▁театр	-10.5705
▁остановить	-10.5717
▁оставался	-10.5719
▁сухо	-10.572
▁Старик	-10.5733
▁риск	-10.5735
▁частности	-10.5737
▁рос	-10.5747
▁способности	-10.5751
▁Се	-10.5751
▁встрече	-10.5753
▁въ	-10.5753
▁писатель	-10.5755
▁Влад	-10.5765
▁черной	-10.5766
нки	-10.5771
▁идиот	-10.5772
▁общего	-10.5773
▁этаж	-10.5773
▁начальника	-10.5773
▁звон	-10.578
▁Федор	-10.5782
!"	-10.5783
▁Такой	-10.5783
▁некогда	-10.5786
▁Ев	-10.5786
▁итоге	-10.5788
▁запад	-10.5789
▁будучи	-10.5789
m	-10.5791
▁Европе	-10.5792
▁правой	-10.5792
фе	-10.5804
ицы	-10.5813
реш	-10.5825
▁работ	-10.5826
▁кости	-10.5829
▁входа	-10.5831
▁поисках	-10.5831
▁причины	-10.5833
▁состояния	-10.5836
▁действие	-10.5837
зер	-10.5839
▁--	-10.5841
▁голод	-10.5843
▁высокой	-10.5845
▁покой	-10.5853
▁вышло	-10.5859
▁неба	-10.5861
▁полка	-10.5863
▁сжал	-10.5876
ьный	-10.5879
▁s	-10.588
▁надежды	-10.5882
нес	-10.5882
▁костюм	-10.5883
▁de	-10.5884
лек	-10.5886
▁губами	-10.5889
▁Ваше	-10.589
▁сохранить	-10.5892
▁силами	-10.5897
▁ходил	-10.59
▁добро	-10.5901
▁позволяет	-10.5901
▁генерала	-10.5901
▁луч	-10.5902
▁хорошего	-10.5906
▁узнала	-10.591
▁врач	-10.591
▁воспоминания	-10.5914
▁дала	-10.5914
▁уставился	-10.5917
▁Тан	-10.5919
овыми	-10.5921
▁умереть	-10.5925
кан	-10.5925
лина	-10.5926
▁Иначе	-10.5927
▁ушли	-10.5928
▁отдела	-10.5929
▁стоят	-10.593
груз	-10.5932
▁кресле	-10.5936
▁сути	-10.5941
▁раздел	-10.5942
Про	-10.5942
▁Сара	-10.5945
▁Хоть	-10.5949
▁Прошу	-10.595
▁президент	-10.5956
▁сестры	-10.5959
▁словах	-10.5966
▁кораблей	-10.598
▁символ	-10.5981
Ну	-10.5994
▁III	-10.5999
▁аромат	-10.6001
▁бывало	-10.6002
нице	-10.6002
бар	-10.6005
▁Мон	-10.6007
▁рис	-10.6008
▁хлеба	-10.6008
▁ужин	-10.6014
эл	-10.6018
▁сбор	-10.6019
говор	-10.6026
▁Дом	-10.6029
▁бога	-10.6035
▁повод	-10.6036
▁недолго	-10.6039
▁откровенно	-10.6039
бра	-10.6043
▁духа	-10.6043
▁дивизии	-10.6049
нка	-10.6049
▁Обычно	-10.6052
▁взгляды	-10.6055
настоящему	-10.6056
▁числа	-10.606
▁кожу	-10.6061
▁рез	-10.6063
рыв	-10.6065
»)	-10.6067
▁член	-10.6069
▁представления	-10.6071
▁послал	-10.6071
▁суть	-10.6073
▁дерево	-10.6076
▁дай	-10.6076
▁отказался	-10.608
пал	-10.6081
▁попытки	-10.6082
ющейся	-10.609
▁видите	-10.6092
нс	-10.6093
вел	-10.6094
▁девять	-10.6098
▁плотно	-10.6098
▁позволить	-10.6102
чив	-10.6103
▁оружием	-10.6104
▁закончил	-10.6104
ra	-10.6106
▁переход	-10.6107
нием	-10.611
▁новым	-10.6111
ций	-10.6113
11	-10.6114
▁судьбы	-10.6114
▁жителей	-10.6119
▁слабо	-10.612
тельный	-10.6123
▁кафе	-10.6127
ающий	-10.6131
сел	-10.6131
▁сна	-10.6132
альных	-10.6133
▁миру	-10.6134
▁пас	-10.6135
▁ящик	-10.6138
▁класса	-10.614
▁признать	-10.6141
▁поезд	-10.6142
▁Сэм	-10.6142
рю	-10.6144
▁успешно	-10.6147
▁любила	-10.6148
▁Скажи	-10.615
▁Дик	-10.6152
▁материал	-10.6157
▁общество	-10.6158
ион	-10.6159
▁Эль	-10.6159
▁концу	-10.616
▁учитель	-10.6162
on	-10.6162
▁газеты	-10.6164
▁Главное	-10.6169
▁еду	-10.6178
▁пят	-10.6184
слов	-10.6187
▁половину	-10.6187
▁Шу	-10.6189
▁великий	-10.619
▁недалеко	-10.6197
фу	-10.6197
▁f	-10.6198
▁представлял	-10.6207
▁какими	-10.6207
▁любовью	-10.6209
▁свободу	-10.6216
▁север	-10.6217
▁фигура	-10.6217
▁Оба	-10.6219
▁принц	-10.6225
▁сообщение	-10.6225
▁окажется	-10.6228
▁будущего	-10.6231
▁выяснить	-10.6232
▁пакет	-10.6233
▁правила	-10.6234
▁гон	-10.6238
▁Бур	-10.6242
▁шаги	-10.6243
▁боевой	-10.6245
▁товар	-10.6247
▁дорогая	-10.6248
▁Ян	-10.6255
▁The	-10.6257
▁ждала	-10.6264
▁Фу	-10.6265
▁двигаться	-10.6267
▁упала	-10.6268
лия	-10.6271
▁район	-10.6271
▁Максим	-10.6273
▁светом	-10.6275
▁принадлежит	-10.6277
▁неподвижно	-10.6277
▁Кот	-10.6282
an	-10.6286
▁помнил	-10.6289
▁визит	-10.629
ящий	-10.6293
▁ужаса	-10.6294
▁магии	-10.6297
лат	-10.6299
▁правительство	-10.6305
▁Мол	-10.6309
гад	-10.6309
▁дверей	-10.6311
дет	-10.6312
▁юноша	-10.6314
▁пытается	-10.6317
▁сверх	-10.6325
▁Пожалуйста	-10.6325
▁скажешь	-10.6328
лог	-10.6329
нную	-10.633
▁собираюсь	-10.6335
▁сильный	-10.634
▁написано	-10.6341
вато	-10.6345
▁женщиной	-10.6346
вол	-10.6346
Ю	-10.635
▁чудо	-10.635
▁лег	-10.6351
▁дракон	-10.6351
чей	-10.6354
▁Мать	-10.6357
▁каждому	-10.6358
▁диск	-10.6359
▁везде	-10.6361
Ка	-10.6362
B	-10.6364
▁брак	-10.6365
▁ситуация	-10.6369
▁зуб	-10.6369
▁пояснил	-10.6371
▁снять	-10.6372
▁прервал	-10.6373
гон	-10.6376
▁встретиться	-10.6381
▁меры	-10.6384
▁расчет	-10.6385
уют	-10.6387
▁Вся	-10.639
▁Рим	-10.6393
емые	-10.6396
▁взрыв	-10.6404
▁Снова	-10.6406
▁царь	-10.6408
▁казался	-10.6419
▁согласилась	-10.6421
▁продолжать	-10.6426
▁находилась	-10.6426
▁именем	-10.6427
▁стихи	-10.6427
ировали	-10.6427
▁говори	-10.6429
тин	-10.643
▁зала	-10.6432
▁потеря	-10.6433
▁вторая	-10.6434
▁философ	-10.6435
▁поближе	-10.6439
▁ногой	-10.644
▁избавиться	-10.6444
ких	-10.6452
ток	-10.6454
▁вспомнила	-10.6455
▁волю	-10.6455
▁опасно	-10.6455
▁Ша	-10.6458
▁вызвал	-10.6463
▁говорится	-10.6465
▁деревне	-10.6465
гра	-10.6468
▁заказ	-10.6472
▁океан	-10.6472
ическим	-10.6473
▁бою	-10.6474
▁Такое	-10.6474
ела	-10.6477
▁скажем	-10.6477
▁маленькие	-10.6477
▁называли	-10.6479
кро	-10.6484
▁тел	-10.6489
▁Город	-10.649
▁Питер	-10.6493
▁выйдет	-10.6493
▁деятельность	-10.6496
▁наряд	-10.65
▁Джордж	-10.6503
▁месту	-10.6504
▁Тебя	-10.6507
▁удивительно	-10.6507
вели	-10.6513
▁ловко	-10.6513
вшую	-10.6516
▁здоровье	-10.6519
▁волны	-10.6524
▁войти	-10.6525
▁протянула	-10.6535
▁Внезапно	-10.6535
емый	-10.6538
▁получила	-10.6542
люб	-10.6543
▁ха	-10.6544
▁Сар	-10.6551
15	-10.6553
▁миллионов	-10.6561
▁Сен	-10.6562
▁Всего	-10.6563
▁полез	-10.6568
▁ныне	-10.6574
▁бра	-10.6575
кус	-10.6583
▁зла	-10.6587
▁огромные	-10.659
▁Слишком	-10.6591
▁подняться	-10.6592
▁картины	-10.6598
▁Такие	-10.66
▁ранен	-10.6603
слав	-10.6603
▁умел	-10.6613
▁поднять	-10.6616
▁господа	-10.6618
▁взят	-10.6619
▁представление	-10.6623
▁Кара	-10.6627
▁причина	-10.6627
▁Кер	-10.6635
▁плат	-10.6635
▁повернул	-10.6638
▁сме	-10.6644
тал	-10.6646
▁семи	-10.6646
▁доступ	-10.6653
▁плав	-10.6653
▁даст	-10.6654
ацию	-10.6654
▁жила	-10.6654
сты	-10.6659
▁Слушай	-10.666
▁видим	-10.6665
▁мет	-10.6666
▁картину	-10.667
▁Стр	-10.667
▁светло	-10.6673
▁воле	-10.6673
▁Глеб	-10.6673
меш	-10.6675
▁остальное	-10.6678
▁квартиры	-10.6681
▁сидя	-10.6688
▁сделает	-10.669
▁Сталина	-10.669
▁усилия	-10.6695
▁орган	-10.6695
▁сунул	-10.6696
▁языком	-10.6699
▁рта	-10.6699
▁гад	-10.67
шен	-10.6701
▁направлен	-10.6701
▁ль	-10.6702
▁торопливо	-10.6704
▁пик	-10.6704
▁передал	-10.671
эт	-10.671
▁зубами	-10.6712
▁кулак	-10.6713
▁решить	-10.6713
▁разобраться	-10.6715
▁to	-10.6716
кого	-10.6718
▁движением	-10.6722
▁чувствовать	-10.6724
▁перестал	-10.6725
▁бывший	-10.6726
▁проводить	-10.6728
▁отнюдь	-10.6729
▁Тро	-10.6729
ес	-10.673
тей	-10.673
▁век	-10.6734
▁скрип	-10.6739
▁детства	-10.6741
▁Знаю	-10.6741
▁свод	-10.6741
лик	-10.6743
▁границы	-10.6744
▁Само	-10.6748
▁нервно	-10.6748
▁роста	-10.6751
▁прибыл	-10.6752
пон	-10.6753
ическом	-10.6753
низ	-10.6755
▁добиться	-10.6756
мест	-10.6756
ьев	-10.6756
▁служить	-10.6759
ающих	-10.6762
▁взглянула	-10.6762
▁науки	-10.6765
лож	-10.677
▁перемен	-10.6772
12	-10.6774
▁убили	-10.6775
Ц	-10.6776
▁бросила	-10.6777
▁магазин	-10.6779
▁мясо	-10.6782
▁Дверь	-10.6786
кос	-10.679
▁обеда	-10.6792
▁атаку	-10.6793
цию	-10.6796
▁поверхность	-10.6797
▁стану	-10.6797
▁исчезла	-10.68
▁службу	-10.6804
▁народу	-10.6818
▁встать	-10.6818
▁захотелось	-10.6819
▁расстоянии	-10.682
▁телу	-10.6822
ата	-10.6823
▁теории	-10.6824
▁защиты	-10.6829
▁любить	-10.683
▁Эд	-10.683
щик	-10.6836
ьные	-10.6837
▁создания	-10.6837
▁развитие	-10.6838
▁Вон	-10.6842
ьных	-10.6843
▁считают	-10.6844
овали	-10.6844
▁женщине	-10.6848
нин	-10.6848
аешь	-10.685
▁Петрович	-10.6856
▁лежа	-10.6861
▁Ольга	-10.6864
▁организм	-10.6868
▁подарок	-10.6872
▁грубо	-10.6876
▁правил	-10.6877
▁существ	-10.6877
▁ожидая	-10.6881
рож	-10.6883
▁туалет	-10.6886
▁сержант	-10.6887
▁белой	-10.6895
▁покачала	-10.6899
▁лагерь	-10.6905
▁жар	-10.6908
▁Али	-10.691
▁провал	-10.6912
▁грустно	-10.6916
тур	-10.6916
▁началась	-10.6917
▁Генри	-10.6922
▁руб	-10.6922
▁виноват	-10.6925
▁реке	-10.6926
▁лишен	-10.6927
▁вашим	-10.6928
▁газет	-10.6932
▁трав	-10.6933
ирование	-10.6934
▁толку	-10.6934
▁хмыкнул	-10.6934
▁отряда	-10.6935
▁тро	-10.6936
▁корпуса	-10.6938
▁целую	-10.6938
▁волосами	-10.6938
▁лук	-10.6938
ьян	-10.6939
▁давал	-10.6941
▁актив	-10.6941
мой	-10.6942
▁карты	-10.6943
▁Гитлер	-10.6946
ита	-10.6948
▁полное	-10.6948
▁Наш	-10.6948
евич	-10.6952
ложить	-10.6952
▁Совсем	-10.6956
рам	-10.6959
▁свободно	-10.696
▁имена	-10.6963
▁Едва	-10.6965
вет	-10.6969
▁помещение	-10.697
эль	-10.6971
▁Вместе	-10.6971
▁включая	-10.6973
хан	-10.6973
▁металл	-10.6976
ur	-10.6978
▁Мат	-10.6981
чем	-10.6983
▁идеал	-10.6986
▁бутылку	-10.6986
▁способность	-10.6988
▁Солнце	-10.6991
▁Иди	-10.6996
ине	-10.6997
пад	-10.6998
50	-10.7007
▁Весь	-10.7008
▁бело	-10.7012
▁гроз	-10.7013
▁Фил	-10.7016
▁считаю	-10.7018
▁люб	-10.7019
▁неприятно	-10.7019
▁Действительно	-10.702
▁источник	-10.7021
▁Россия	-10.7025
▁избежать	-10.7032
▁склон	-10.7034
ющегося	-10.7038
▁ворон	-10.7038
▁появилось	-10.7042
▁производства	-10.7042
фон	-10.7043
▁подробно	-10.7045
▁мозга	-10.7046
▁возрасте	-10.7048
▁собственных	-10.7053
▁фронт	-10.7055
▁минимум	-10.7056
▁Артур	-10.7057
▁Чу	-10.7057
Это	-10.7062
▁эльф	-10.7063
▁кошмар	-10.707
▁групп	-10.707
жит	-10.7071
▁нашему	-10.7074
▁надеялся	-10.7084
▁немцы	-10.7084
▁вернется	-10.7085
▁февраля	-10.7085
▁данном	-10.7085
▁находятся	-10.7086
▁Дев	-10.7087
лес	-10.7093
▁бабушка	-10.7094
▁ракет	-10.7097
▁знакомый	-10.7098
40	-10.71
▁отвечать	-10.7102
▁стоя	-10.7103
▁доклад	-10.7105
▁обороны	-10.7105
▁очереди	-10.7105
бел	-10.7107
▁столик	-10.711
дума	-10.7111
▁военной	-10.7115
▁собака	-10.7117
▁горд	-10.7118
▁императора	-10.7119
лл	-10.712
▁масс	-10.7122
▁назначен	-10.7122
▁ред	-10.7124
▁главного	-10.7124
▁девочки	-10.7125
▁опер	-10.7127
▁любят	-10.7129
▁Гре	-10.7129
▁пыли	-10.7133
стар	-10.7137
▁относится	-10.7139
w	-10.7141
▁ди	-10.7145
▁мороз	-10.7147
▁Маг	-10.7147
▁кара	-10.7148
17	-10.7153
▁старых	-10.7153
▁борьбе	-10.7155
el	-10.7156
▁улыбаясь	-10.7158
▁способны	-10.716
нский	-10.716
кина	-10.716
▁бокал	-10.7168
▁построен	-10.7168
▁Прости	-10.717
▁ру	-10.7173
▁ходе	-10.7176
▁остатки	-10.7176
мент	-10.7178
▁якобы	-10.7185
▁существование	-10.7187
-1	-10.7189
щит	-10.7192
▁отправиться	-10.7192
▁черты	-10.7193
▁ген	-10.7193
▁дважды	-10.7194
▁собственные	-10.7198
▁справа	-10.7198
▁смертью	-10.7202
▁командира	-10.7208
ления	-10.721
▁картина	-10.721
▁ласково	-10.7211
стями	-10.7211
▁флот	-10.7215
▁Привет	-10.7216
▁забот	-10.7223
▁низ	-10.7224
▁данный	-10.7226
▁протяжении	-10.7226
▁процентов	-10.7227
▁пал	-10.723
емых	-10.7231
▁фа	-10.7233
▁худ	-10.7237
▁упор	-10.7243
▁деревни	-10.7248
ест	-10.725
▁уходит	-10.7251
▁христиан	-10.7252
▁телефону	-10.7254
▁разом	-10.7255
▁встречу	-10.7265
сан	-10.7267
дели	-10.7268
▁родился	-10.727
нной	-10.727
рой	-10.7279
▁великого	-10.7279
тка	-10.7282
▁основания	-10.7283
разум	-10.7283
▁убийство	-10.7286
▁преступления	-10.7286
▁чьи	-10.7288
▁предназначен	-10.7289
вис	-10.7291
▁пороге	-10.7293
▁двенадцать	-10.7294
нец	-10.7298
бан	-10.7301
▁любую	-10.7301
▁обман	-10.7301
▁казалась	-10.7302
▁неподалеку	-10.7305
есь	-10.7306
▁оставили	-10.731
▁почт	-10.7315
▁Гри	-10.7316
▁Словно	-10.7316
▁церковь	-10.7318
▁точку	-10.732
▁уничтожить	-10.7322
▁двинулся	-10.7323
▁местных	-10.7324
▁детьми	-10.7324
▁кольцо	-10.7329
▁заняться	-10.7336
▁звали	-10.7336
▁единственным	-10.7338
▁столб	-10.7339
▁офицеров	-10.7343
тельные	-10.7345
▁форма	-10.7345
▁сообщить	-10.7345
▁принялась	-10.7346
ял	-10.7347
▁началось	-10.7351
▁остановил	-10.7353
▁последнюю	-10.7354
пу	-10.7362
▁вопроса	-10.7363
▁собиралась	-10.7365
▁поведения	-10.7366
▁вызвать	-10.7366
▁напомнил	-10.7367
▁поворот	-10.7369
▁ребят	-10.737
”,	-10.7372
▁вход	-10.7375
▁обратил	-10.7375
остью	-10.7377
▁выпить	-10.7378
▁вежливо	-10.7379
▁экипаж	-10.7379
▁сопровожда	-10.7382
▁Ме	-10.7388
▁всякой	-10.7392
нят	-10.7393
чист	-10.7394
▁Вин	-10.7403
▁электро	-10.7403
▁дворец	-10.7406
▁Бес	-10.7412
енное	-10.7415
ключи	-10.7417
▁проник	-10.742
▁странное	-10.7423
▁становилось	-10.7425
▁дабы	-10.7426
днев	-10.7431
▁начинается	-10.7432
▁Этого	-10.7434
▁расстояние	-10.7435
бит	-10.7435
▁кабинета	-10.7442
тек	-10.7443
▁требуется	-10.7451
▁свободы	-10.7451
▁Дальше	-10.7455
овского	-10.7455
▁отдыха	-10.7457
▁коллектив	-10.7458
▁семью	-10.7459
▁убивать	-10.7462
▁девушке	-10.7466
▁доктора	-10.7469
жать	-10.747
▁подходит	-10.7471
▁ман	-10.7473
▁справиться	-10.7473
▁пен	-10.7475
▁страну	-10.7477
▁добавила	-10.7478
▁Жизнь	-10.7478
▁соответствии	-10.7484
буд	-10.7491
ивший	-10.7491
▁получив	-10.7492
▁весел	-10.7494
▁Вероятно	-10.7498
▁прошлое	-10.7499
▁Май	-10.7501
▁данных	-10.7501
▁нахмурился	-10.7507
▁умеет	-10.7508
▁качества	-10.7508
▁остановились	-10.7509
▁народов	-10.7516
▁особенности	-10.7517
▁надежда	-10.7517
▁теми	-10.7519
▁возвращаться	-10.752
▁зависимости	-10.752
▁огне	-10.752
▁Мел	-10.7523
▁песни	-10.7529
▁белых	-10.7534
бран	-10.7539
бежал	-10.754
▁особого	-10.7541
тай	-10.7542
ож	-10.7546
▁полную	-10.7547
▁Лен	-10.7549
ад	-10.7551
▁тридцати	-10.7551
▁слева	-10.7551
▁ограничен	-10.7554
▁Боб	-10.7554
вшееся	-10.7554
хар	-10.7557
▁давать	-10.7559
бег	-10.7559
▁проговорила	-10.7562
▁разговаривать	-10.7564
▁цветы	-10.7564
▁открыв	-10.7565
▁автомобиль	-10.7567
▁Тай	-10.7569
▁метод	-10.7569
▁череп	-10.7577
▁ладонью	-10.7578
раж	-10.7582
▁основан	-10.7586
▁баб	-10.7586
▁Народ	-10.7588
олог	-10.759
▁добавить	-10.759
сп	-10.7592
▁позвонил	-10.7593
ань	-10.7595
▁отказаться	-10.7598
▁Простите	-10.7599
▁Пожалуй	-10.7603
▁Смотри	-10.7604
▁считали	-10.7604
▁выходу	-10.7606
▁ел	-10.7607
воль	-10.7607
▁спит	-10.7609
уд	-10.761
▁газ	-10.7615
▁сделаю	-10.7617
▁дают	-10.7617
дал	-10.7619
▁реклам	-10.762
▁воспользоваться	-10.7621
чные	-10.7623
печат	-10.7624
▁рублей	-10.7625
▁имеется	-10.7625
▁поцеловал	-10.7626
▁флота	-10.7627
25	-10.7627
▁верил	-10.7629
▁проводил	-10.7629
▁огромной	-10.7629
▁Чи	-10.7632
▁неловко	-10.7634
ались	-10.7637
▁убийства	-10.7642
▁Эн	-10.7644
▁Катя	-10.7645
▁штаба	-10.7646
▁достиг	-10.7646
▁шагом	-10.7649
▁музыка	-10.765
▁толпа	-10.7652
▁точнее	-10.7654
▁слав	-10.7657
▁Европы	-10.766
▁капли	-10.7664
енно	-10.7665
▁потери	-10.7669
▁комплекс	-10.7669
▁мадам	-10.767
ьте	-10.7671
▁слышали	-10.7676
▁мут	-10.7677
▁вод	-10.7679
▁ле	-10.7679
▁Будь	-10.7679
▁коленях	-10.7682
▁искал	-10.7686
▁каждая	-10.7689
▁герой	-10.7693
еб	-10.7697
▁Вера	-10.77
▁сравнению	-10.7702
▁секунды	-10.7703
шему	-10.7706
▁наблюдать	-10.7706
▁письме	-10.7709
▁темные	-10.7712
зв	-10.7714
▁занимался	-10.7717
ске	-10.7719
▁враг	-10.772
▁Ум	-10.772
▁толпы	-10.7723
ством	-10.7724
бал	-10.7724
▁цветов	-10.7728
▁Егор	-10.7729
Ты	-10.7732
▁гостиной	-10.7735
▁оп	-10.7735
▁встреч	-10.7735
▁ответственность	-10.774
лиз	-10.7741
▁успеха	-10.7742
▁послышался	-10.7743
▁остро	-10.7744
▁автора	-10.7745
▁уходить	-10.7753
▁берет	-10.7757
▁Прямо	-10.7759
▁нежели	-10.7763
чики	-10.7764
▁слух	-10.7768
▁топор	-10.7769
▁разглядеть	-10.7772
▁стекло	-10.7772
▁Мальчик	-10.7774
▁забыла	-10.7775
нар	-10.7775
▁список	-10.7775
дем	-10.7788
▁играл	-10.7789
▁корпус	-10.7792
▁инженер	-10.7794
▁мотив	-10.7794
▁задачи	-10.7794
▁человеческого	-10.7794
▁лбу	-10.7798
▁документ	-10.7799
▁контакт	-10.7801
▁подал	-10.7802
▁озера	-10.7808
▁Кам	-10.7809
▁Эх	-10.781
▁уехал	-10.781
▁веков	-10.781
▁миром	-10.7812
ируя	-10.7816
▁пес	-10.782
▁плот	-10.7821
▁Ричард	-10.7821
▁Сама	-10.7823
▁отчет	-10.7826
13	-10.7828
▁плечу	-10.783
плыв	-10.7831
▁предстоит	-10.7834
▁вашем	-10.7838
▁приступ	-10.7839
▁Ясно	-10.784
▁представил	-10.7845
▁Кейт	-10.7845
ида	-10.7848
▁фото	-10.7857
▁порядка	-10.7863
нула	-10.7867
нич	-10.787
▁детстве	-10.7872
▁страна	-10.7872
аз	-10.7874
▁посвящен	-10.7876
▁крики	-10.7877
▁птиц	-10.7877
▁пойдем	-10.7884
▁лучших	-10.7889
гляд	-10.789
▁Наши	-10.79
ается	-10.7901
▁этаже	-10.7902
▁непонятно	-10.7902
▁информация	-10.7908
знаком	-10.791
порт	-10.7912
▁команду	-10.7915
▁Генерал	-10.7916
▁позднее	-10.7918
▁называть	-10.792
▁судьбу	-10.7922
мена	-10.7922
▁удавалось	-10.7923
рд	-10.7923
▁отношениях	-10.7925
▁печально	-10.7929
лич	-10.7931
▁огромное	-10.7934
▁Джа	-10.7935
▁взрыва	-10.7936
▁храм	-10.7939
зелен	-10.794
▁ждут	-10.7941
вшуюся	-10.7942
▁стук	-10.7943
▁веру	-10.7943
каз	-10.7948
▁направление	-10.7948
▁ощутил	-10.795
▁умерла	-10.7952
▁присутствие	-10.7954
▁опыта	-10.7954
чика	-10.7955
▁двоих	-10.7957
▁старше	-10.796
пущен	-10.7965
▁Кирилл	-10.7966
▁двора	-10.7968
▁удовольствия	-10.7968
▁созда	-10.7969
▁верх	-10.7972
тик	-10.7972
▁Земля	-10.7974
ике	-10.7978
▁спец	-10.7978
все	-10.7979
▁человечества	-10.7979
пил	-10.7979
бл	-10.798
цам	-10.798
▁директор	-10.798
▁Странно	-10.7982
ище	-10.7983
▁скорости	-10.7987
стрел	-10.7988
▁реальности	-10.799
▁названием	-10.8003
▁чужой	-10.8009
нг	-10.8009
▁духов	-10.8012
▁создан	-10.8012
▁малыш	-10.8012
пут	-10.8015
▁Воз	-10.8016
▁важное	-10.8016
▁покинуть	-10.8018
лой	-10.8021
▁надеяться	-10.8023
шем	-10.8023
▁назван	-10.8027
▁Го	-10.8028
лый	-10.8028
▁волна	-10.8029
▁любое	-10.8031
▁исключением	-10.8043
ющимся	-10.8043
▁явился	-10.8045
ьер	-10.8046
гла	-10.8056
▁положила	-10.8058
▁выглядела	-10.8059
▁видя	-10.8061
▁Зо	-10.8061
креп	-10.8064
▁компания	-10.8064
▁Вокруг	-10.8065
▁засмеялся	-10.8073
▁Господа	-10.8075
▁комнат	-10.8076
▁Вопрос	-10.8078
▁чувствует	-10.8078
▁жене	-10.8079
▁сущности	-10.808
▁различные	-10.8081
ающие	-10.8091
▁Ду	-10.8092
пы	-10.8092
рак	-10.8092
▁выдержал	-10.8093
▁молодые	-10.8093
чить	-10.8095
▁третьего	-10.8097
▁заметили	-10.8097
▁окну	-10.8102
▁Господин	-10.8102
ически	-10.8104
▁работой	-10.8106
▁рту	-10.8106
▁Бе	-10.8109
▁богов	-10.8113
▁стрелять	-10.8114
▁Мужчина	-10.8116
▁включил	-10.8117
▁узнали	-10.8118
▁Джеймс	-10.8121
▁камня	-10.8122
яр	-10.8124
▁результаты	-10.8125
▁кругом	-10.8126
▁ощущения	-10.8126
▁рев	-10.8127
▁Син	-10.8127
▁радостью	-10.8129
▁станут	-10.8131
▁родной	-10.8134
▁пил	-10.8134
▁испуганно	-10.8134
▁жители	-10.8135
оль	-10.8136
▁армию	-10.8137
лез	-10.8137
▁гибели	-10.8137
без	-10.814
щему	-10.814
▁Две	-10.8142
▁дуб	-10.8144
▁друзьями	-10.8146
еры	-10.8148
▁человеческой	-10.8151
▁позволил	-10.8155
▁узнает	-10.8157
▁Дмитрий	-10.8157
▁боевых	-10.8159
▁впоследствии	-10.8163
▁отправились	-10.8164
▁нигде	-10.8167
▁признался	-10.8171
▁партизан	-10.8171
▁характера	-10.8172
▁игру	-10.8173
▁собрались	-10.8177
▁пра	-10.8179
веден	-10.8179
▁позвал	-10.818
рек	-10.8183
▁втором	-10.8185
▁побежал	-10.8186
▁пустой	-10.8187
▁общей	-10.819
▁Гра	-10.819
▁XX	-10.8191
▁стекла	-10.8192
▁длинный	-10.8195
▁группу	-10.8195
▁Сердце	-10.8197
▁шлем	-10.8198
лил	-10.82
▁Иисус	-10.8201
ром	-10.8203
▁ожидать	-10.8208
вил	-10.821
гнул	-10.821
▁мат	-10.8211
евой	-10.8214
очный	-10.8218
мана	-10.822
▁собаки	-10.8225
▁целиком	-10.8226
ирования	-10.8232
сме	-10.8233
▁Жаль	-10.8235
▁написать	-10.8235
▁31	-10.8236
▁городу	-10.8242
▁случится	-10.8244
▁фотографии	-10.8244
▁подбородок	-10.825
▁Париж	-10.8256
▁способом	-10.8262
▁Степан	-10.8263
▁выстрел	-10.8268
▁собрать	-10.8268
нт	-10.8269
▁политики	-10.8273
фф	-10.8274
▁приняли	-10.8274
▁курсе	-10.8275
шке	-10.8277
▁мяса	-10.8277
▁проходит	-10.8278
▁перебил	-10.8281
▁разница	-10.8281
гал	-10.8281
дин	-10.8284
▁сутки	-10.8285
▁дне	-10.8286
▁создал	-10.8288
▁вызывает	-10.829
▁вспоминал	-10.8291
▁пространства	-10.8292
▁торжественно	-10.8296
▁делах	-10.8296
▁Хочешь	-10.8297
аре	-10.8297
▁термин	-10.8297
работ	-10.8299
▁карту	-10.8301
▁члены	-10.8302
▁мертв	-10.8304
▁тайны	-10.8304
дур	-10.8306
▁Жив	-10.8306
▁вздрогнул	-10.8311
▁зверь	-10.8312
▁скрыть	-10.8312
▁форм	-10.8314
▁скоростью	-10.8314
▁Ст	-10.8319
пред	-10.8321
▁Могу	-10.8321
▁мужчину	-10.8324
▁собирались	-10.8327
▁вопросом	-10.8329
▁Папа	-10.833
▁нравилось	-10.833
▁пу	-10.833
▁непри	-10.8335
▁бывают	-10.8337
▁голов	-10.8338
▁показался	-10.8338
▁Мое	-10.8339
▁кос	-10.834
куп	-10.834
▁бросить	-10.8341
▁зеркало	-10.8343
леп	-10.8344
▁Север	-10.8346
шийся	-10.835
▁имея	-10.8351
жда	-10.8354
▁системе	-10.8355
▁пламя	-10.8357
▁попросила	-10.8362
▁Христа	-10.8363
▁братья	-10.8363
▁установлен	-10.8366
▁удивилась	-10.8367
очкой	-10.8368
▁занятия	-10.8369
▁шло	-10.8369
арь	-10.8371
Вы	-10.8372
▁пута	-10.8373
▁осмотрел	-10.8374
▁немцев	-10.8376
кры	-10.8378
▁предстояло	-10.8378
▁оттого	-10.8379
▁Бат	-10.838
▁правы	-10.8381
щими	-10.8383
линг	-10.8386
▁неправильно	-10.8388
▁удивление	-10.8388
▁Шар	-10.839
▁отчетливо	-10.8395
стра	-10.8403
▁золото	-10.8404
уч	-10.8407
16	-10.8407
▁гром	-10.8407
▁щеки	-10.8407
▁очки	-10.8408
водит	-10.8408
▁опустился	-10.8412
▁здоров	-10.8415
▁шагнул	-10.8415
▁стандарт	-10.8416
▁мил	-10.8418
▁грех	-10.8424
▁хорошие	-10.8425
▁неизбежно	-10.8425
▁удивлением	-10.8428
▁имело	-10.8431
▁полтора	-10.8433
кле	-10.8433
▁крепости	-10.8434
хот	-10.8434
▁эм	-10.8435
▁возникает	-10.8438
▁привел	-10.8439
▁снаружи	-10.8439
▁улыбку	-10.8441
▁Пу	-10.8441
чке	-10.8442
бре	-10.8442
▁влюблен	-10.8448
▁искр	-10.8449
▁Елена	-10.8451
▁дурак	-10.8454
▁частей	-10.8455
тр	-10.8456
стях	-10.8456
▁коридоре	-10.8458
at	-10.8458
▁сумку	-10.8461
▁мост	-10.8463
▁Ги	-10.8466
▁диван	-10.8467
▁птицы	-10.8468
ющими	-10.8469
ьи	-10.847
▁сесть	-10.8472
▁священник	-10.8477
▁бесконечно	-10.8479
▁каб	-10.8479
▁кредит	-10.8486
▁хорошее	-10.8489
▁сомнений	-10.8489
▁выбрал	-10.8491
бур	-10.8491
рост	-10.8492
▁неудач	-10.8493
▁подход	-10.8495
▁Денис	-10.8495
▁принципе	-10.8502
▁доказать	-10.8503
▁Ху	-10.8504
стан	-10.8508
▁поступил	-10.851
▁невероятно	-10.8513
▁пользоваться	-10.8517
▁заглянул	-10.8519
▁подруга	-10.852
ником	-10.8522
станов	-10.8523
▁Лет	-10.8523
▁собою	-10.8525
▁лагеря	-10.8525
▁обнял	-10.8538
▁евреев	-10.8539
▁Говорят	-10.8539
▁удобно	-10.854
▁ново	-10.8542
▁пах	-10.8543
▁делала	-10.8545
▁покоя	-10.8547
▁убит	-10.8549
▁начинают	-10.8551
бери	-10.8554
▁твоим	-10.8554
▁Утром	-10.8555
▁играет	-10.8559
▁перевод	-10.8559
▁жарко	-10.8561
▁убедить	-10.8562
жал	-10.8567
жига	-10.8569
▁ло	-10.857
▁квадрат	-10.8578
▁Ваш	-10.8578
▁военного	-10.8578
▁работали	-10.8578
▁жутко	-10.858
▁странным	-10.858
▁находиться	-10.8587
▁задание	-10.8588
ol	-10.8591
▁вторую	-10.8592
ств	-10.8592
▁Ос	-10.8593
крыл	-10.8593
сса	-10.8596
▁матерью	-10.8597
▁продолжали	-10.8601
▁Верно	-10.8604
▁халат	-10.8605
▁d	-10.8606
▁Союза	-10.8607
▁оглянулся	-10.8608
нд	-10.8608
▁шт	-10.8608
▁став	-10.8609
▁интересом	-10.861
▁кинжал	-10.8613
▁глава	-10.8614
▁государство	-10.862
рии	-10.8621
▁Марина	-10.8621
▁учителя	-10.8624
▁дипломат	-10.8624
вое	-10.8626
▁процессе	-10.8627
▁полк	-10.8633
форд	-10.8634
▁дур	-10.8635
▁природе	-10.8635
▁Семен	-10.8637
▁стрел	-10.8639
подоб	-10.8642
шко	-10.8644
Й	-10.8644
▁объект	-10.8646
рия	-10.8649
еля	-10.8652
▁существования	-10.8661
▁принимал	-10.8663
ово	-10.8665
▁давая	-10.8665
▁высокого	-10.8667
▁черных	-10.8669
▁Костя	-10.8673
▁Дома	-10.8677
▁новости	-10.8678
▁мотор	-10.8679
▁устало	-10.8681
▁низко	-10.8683
ову	-10.8683
as	-10.8684
▁сможешь	-10.8685
пас	-10.8687
▁помогает	-10.8688
▁Вроде	-10.8688
▁рухнул	-10.869
▁примет	-10.8691
▁Брат	-10.8691
▁тер	-10.8693
▁хорошая	-10.8699
▁сахар	-10.87
▁Раньше	-10.8705
▁вернее	-10.8705
аж	-10.8706
▁порыв	-10.8706
▁глухо	-10.8711
▁Чер	-10.8712
▁еды	-10.8716
чай	-10.8721
ясн	-10.8721
▁бизнес	-10.8722
▁разговоры	-10.8723
▁прост	-10.8727
il	-10.8728
▁запрет	-10.873
▁дворца	-10.873
ицу	-10.8732
▁летом	-10.8733
▁Пришлось	-10.8734
вать	-10.8736
тащил	-10.8736
ением	-10.8737
▁потряс	-10.8737
▁скандал	-10.8737
▁полным	-10.8739
▁судить	-10.874
очке	-10.8743
▁Такая	-10.8743
▁танков	-10.8744
▁остановиться	-10.8744
▁наверно	-10.8749
▁купил	-10.8749
▁нём	-10.8756
ch	-10.8756
▁борту	-10.8758
▁открыто	-10.8759
▁прибыли	-10.8762
▁пространстве	-10.8762
▁советской	-10.8763
▁появляется	-10.8771
вай	-10.8772
ард	-10.8772
▁Насколько	-10.8773
um	-10.8774
▁советских	-10.8774
надцат	-10.8775
бол	-10.8775
чку	-10.8781
▁выполнять	-10.8782
▁пальто	-10.8786
▁старая	-10.8787
▁сможем	-10.8787
били	-10.8788
нное	-10.8792
иан	-10.8793
▁Ген	-10.8797
▁парни	-10.8798
цией	-10.8798
▁пот	-10.8803
▁давайте	-10.8805
▁поспешил	-10.8805
▁Томас	-10.8805
▁вер	-10.8808
▁кров	-10.8809
g	-10.881
топ	-10.8811
▁объем	-10.8812
▁поклон	-10.8821
▁стенах	-10.8822
▁земель	-10.8823
▁оставались	-10.8826
▁девушек	-10.8827
▁защиту	-10.883
▁установить	-10.8832
луч	-10.8832
.).	-10.8836
ища	-10.8841
▁покинул	-10.8843
▁штат	-10.8843
▁рассказала	-10.8846
▁бред	-10.8846
инский	-10.8847
▁шепотом	-10.8848
▁Николаевич	-10.8849
▁ствол	-10.8849
▁Совета	-10.885
▁печаль	-10.8851
▁казались	-10.8853
▁повсюду	-10.8854
вшимся	-10.8862
▁согласен	-10.8863
вшими	-10.8864
▁рай	-10.8864
▁просить	-10.8865
бен	-10.8867
бри	-10.8868
▁авторитет	-10.8871
зон	-10.8872
▁устроить	-10.8874
▁кричал	-10.8875
▁думая	-10.8876
▁заряд	-10.8876
▁недовольно	-10.8878
▁лап	-10.8881
кат	-10.8881
▁проклят	-10.8883
▁лав	-10.8884
Ма	-10.8885
▁4.	-10.8885
»...	-10.8886
▁Вос	-10.8886
▁охраны	-10.8887
▁надолго	-10.8889
▁маршрут	-10.8894
▁подошли	-10.8894
▁взглянуть	-10.8895
▁изменилось	-10.8905
пят	-10.8906
▁слава	-10.8909
▁закрыла	-10.8909
▁взяв	-10.891
▁обмен	-10.8912
▁гость	-10.8912
▁бежал	-10.892
▁боялась	-10.8921
▁делам	-10.8921
▁единого	-10.8921
овна	-10.8923
▁самих	-10.8924
▁Мед	-10.8925
▁поверх	-10.8925
▁братьев	-10.8927
▁победы	-10.8929
▁Ры	-10.8934
уха	-10.8935
▁устал	-10.8936
изации	-10.8938
мина	-10.8942
▁комната	-10.8944
60	-10.8948
кто	-10.8949
▁мор	-10.895
▁техники	-10.895
▁пилот	-10.8951
▁служил	-10.8955
▁всякие	-10.8956
▁Сил	-10.8956
▁собак	-10.8957
▁землей	-10.8963
▁проснулся	-10.8963
▁Хи	-10.8964
ску	-10.8965
▁негромко	-10.8971
▁попробовать	-10.8971
▁крупных	-10.8972
▁саду	-10.8976
▁этап	-10.8979
▁госпожа	-10.8981
▁Вид	-10.8984
вести	-10.8986
▁Сразу	-10.8986
мол	-10.8987
▁Вит	-10.8987
▁решать	-10.8989
▁гул	-10.899
▁испытывал	-10.8991
ители	-10.8992
▁смогут	-10.8995
▁1-	-10.8998
▁детали	-10.8998
▁вела	-10.9
▁Филипп	-10.9001
тки	-10.9003
▁канал	-10.9006
▁***	-10.9006
▁Фо	-10.9007
▁Ещё	-10.9011
▁платья	-10.9014
▁конверт	-10.9014
зин	-10.9015
▁наклонился	-10.9016
ent	-10.902
▁сделано	-10.9023
чуть	-10.9024
▁маленькую	-10.9026
▁прочих	-10.9027
▁Кос	-10.9027
▁Ибо	-10.9031
▁покое	-10.9032
рь	-10.9033
▁сыном	-10.9033
▁пота	-10.9033
▁дыма	-10.9036
▁фактически	-10.9039
▁авто	-10.904
▁последствия	-10.9041
▁Хм	-10.9043
▁камней	-10.9045
▁плод	-10.9048
▁связано	-10.9052
▁День	-10.9054
▁молодая	-10.9054
▁Эрик	-10.9057
гн	-10.9057
▁Готов	-10.9061
▁сторож	-10.9063
нис	-10.9067
▁думали	-10.9068
▁голода	-10.9072
▁прямой	-10.9075
▁выяснилось	-10.9075
▁понравилось	-10.9076
▁министр	-10.9076
▁рам	-10.9078
кот	-10.9079
Если	-10.9082
▁плане	-10.9082
▁указ	-10.9083
▁делаешь	-10.9085
▁холма	-10.9087
▁самолета	-10.9088
▁че	-10.9089
45	-10.909
▁рыба	-10.909
▁губам	-10.9092
нима	-10.9093
▁собственный	-10.9093
▁положено	-10.9094
▁совета	-10.9094
▁бояться	-10.9095
▁раны	-10.9096
▁кирпич	-10.9098
жида	-10.9098
▁надеясь	-10.9098
▁чувством	-10.91
▁слухи	-10.9103
▁догадался	-10.9104
▁смешно	-10.9105
▁предупредил	-10.9106
▁Фрэнк	-10.9106
▁Первым	-10.9107
▁тур	-10.9109
▁фигуры	-10.9109
▁окном	-10.9111
▁бросилась	-10.9112
▁половине	-10.9116
▁Алиса	-10.9117
▁поиски	-10.9117
▁перевел	-10.9122
▁суток	-10.9122
▁чист	-10.9123
▁замечательно	-10.9124
▁сердито	-10.9125
▁причиной	-10.9128
▁набор	-10.9128
пел	-10.913
ляр	-10.9132
▁Очевидно	-10.9133
▁прибор	-10.9135
▁отдохнуть	-10.9135
▁учиться	-10.9137
ителя	-10.9138
▁заявила	-10.9138
▁беда	-10.914
▁надел	-10.9141
▁тре	-10.9144
работа	-10.9145
пов	-10.9151
-2	-10.9151
▁проч	-10.9151
1.	-10.9151
▁потребовал	-10.9152
нного	-10.9155
▁последним	-10.9156
▁городов	-10.9156
▁искусство	-10.9158
▁Сын	-10.9158
▁золотой	-10.9159
▁приходил	-10.916
▁предложения	-10.9161
▁Рей	-10.9163
▁десятка	-10.9165
▁ручку	-10.9165
ительный	-10.9166
маз	-10.9166
▁возраст	-10.9167
▁приводит	-10.9167
▁помогать	-10.9173
▁глянул	-10.9174
▁присел	-10.9174
дать	-10.9176
▁заодно	-10.9178
▁посоветовал	-10.9178
▁хлоп	-10.918
▁стыдно	-10.9183
▁Лит	-10.9188
▁рукав	-10.9189
▁помимо	-10.9191
▁иди	-10.9195
▁дорого	-10.9195
▁вызов	-10.9196
▁сомневался	-10.9196
▁кап	-10.9197
▁Остальные	-10.9197
▁Запад	-10.9198
▁барабан	-10.921
▁главной	-10.921
▁Лай	-10.921
▁половина	-10.9211
▁кле	-10.9216
пуск	-10.9219
▁товарищей	-10.922
▁проб	-10.922
▁прекрасный	-10.922
▁мешок	-10.9221
ании	-10.9222
▁показывает	-10.9222
йди	-10.9225
▁Вчера	-10.9226
▁Вен	-10.9226
▁помещения	-10.9228
▁тряс	-10.9228
▁попали	-10.9232
▁ходили	-10.9235
▁жертву	-10.9235
▁ц	-10.9235
▁понадобится	-10.9237
▁особой	-10.9239
чную	-10.9239
лип	-10.9242
цом	-10.9245
▁транс	-10.9246
кнул	-10.9246
чина	-10.9247
▁холодной	-10.9248
▁предположить	-10.9248
▁товарищи	-10.9248
▁площадь	-10.9249
▁малейшего	-10.9253
▁пожала	-10.9253
▁миф	-10.9254
▁побед	-10.9255
▁гроб	-10.9256
am	-10.9259
▁пос	-10.926
альной	-10.9261
десят	-10.9263
▁заметив	-10.9271
▁жестом	-10.9271
▁годах	-10.9271
?"	-10.9277
▁уверены	-10.9279
▁живу	-10.9281
▁Маша	-10.9285
голов	-10.9287
▁такому	-10.9288
▁оборот	-10.9288
▁слеп	-10.9291
ушки	-10.9292
▁исчезли	-10.9295
▁передо	-10.9295
енький	-10.9297
▁1941	-10.9297
▁выбора	-10.9299
▁Лорд	-10.9299
▁тесно	-10.93
рев	-10.9301
▁принести	-10.9303
▁Вряд	-10.9304
▁похожи	-10.9305
▁ремонт	-10.9306
▁Прошло	-10.9307
▁дышать	-10.9308
дают	-10.931
иров	-10.9311
▁дев	-10.9311
▁Гл	-10.9311
▁позор	-10.9312
▁ничуть	-10.9317
▁небес	-10.9318
▁плоти	-10.9319
▁добрый	-10.9319
▁проявил	-10.9322
▁большими	-10.9323
▁башни	-10.9329
▁использовал	-10.9331
▁центра	-10.9332
▁случая	-10.9333
▁счастлив	-10.9334
ируем	-10.9334
▁ча	-10.9335
▁Париже	-10.9337
▁ПО	-10.9338
▁заключается	-10.9338
лар	-10.9339
▁Долго	-10.934
вшему	-10.9342
▁Хан	-10.9342
аны	-10.9343
▁закона	-10.9343
▁намек	-10.9346
▁необходимость	-10.9346
пря	-10.9347
другому	-10.9347
▁жертв	-10.9347
▁буркнул	-10.9348
стран	-10.935
▁звонок	-10.9351
▁убежден	-10.9351
▁прижал	-10.9353
▁принцип	-10.9354
▁Слава	-10.9354
▁X	-10.9356
▁акт	-10.9361
▁журнал	-10.9363
▁монет	-10.9364
▁карт	-10.9364
▁поверил	-10.9365
руб	-10.9366
▁дольше	-10.9367
▁Кал	-10.9368
▁странный	-10.9368
▁связан	-10.9368
раст	-10.937
▁восьми	-10.9374
▁бег	-10.9375
ота	-10.9376
▁мистера	-10.9376
▁спрашивал	-10.9378
▁лед	-10.9378
▁дура	-10.9379
▁бороться	-10.9379
▁цел	-10.9381
▁Рон	-10.9384
▁глазам	-10.9386
мед	-10.9388
истый	-10.9389
▁пошло	-10.9389
▁яйца	-10.939
▁Мартин	-10.939
▁рада	-10.9394
▁красиво	-10.9395
▁раствор	-10.9396
От	-10.9396
▁ярости	-10.9398
пп	-10.9398
▁коридору	-10.9398
▁Лили	-10.9399
добр	-10.94
чал	-10.94
▁десяток	-10.9402
▁Стас	-10.9404
▁лучи	-10.9404
▁Россию	-10.9408
щен	-10.9409
лис	-10.9411
▁приехали	-10.9412
▁шоссе	-10.9416
▁вызван	-10.9417
▁становятся	-10.9423
▁смотри	-10.9424
нным	-10.9424
трен	-10.9426
▁всерьез	-10.9427
ук	-10.9427
▁груд	-10.9428
▁2-	-10.9429
▁Чуть	-10.9432
еев	-10.9432
▁(18	-10.9433
▁замолчал	-10.9434
▁представитель	-10.9434
▁Иль	-10.9435
▁охотно	-10.9437
очной	-10.9437
▁нрав	-10.9437
нулась	-10.9438
нова	-10.9439
▁расскажу	-10.9439
▁избран	-10.9439
▁подхватил	-10.9441
▁сыр	-10.9441
▁воины	-10.9441
▁одежда	-10.9442
▁узнав	-10.9442
▁отвлек	-10.9443
▁рус	-10.9444
▁давали	-10.9451
▁собственную	-10.9453
▁масла	-10.9453
▁подвиг	-10.9455
▁странах	-10.9456
▁предложить	-10.9461
▁задачу	-10.9461
▁Вал	-10.9465
▁Год	-10.9466
▁Пе	-10.9467
▁идей	-10.9469
вей	-10.947
▁Пошли	-10.9474
▁держаться	-10.9474
▁встретились	-10.9481
▁Мастер	-10.9482
▁начнет	-10.9485
дум	-10.9485
▁пыл	-10.9486
▁дама	-10.9486
▁записи	-10.9487
еле	-10.9488
▁лестницы	-10.9488
▁костра	-10.9491
▁отправил	-10.9494
▁Мил	-10.9496
▁тихонько	-10.95
▁законы	-10.9501
▁Ран	-10.9503
▁обязанности	-10.9503
▁убедиться	-10.9504
▁обстоятельствах	-10.9509
▁заорал	-10.9512
▁гнева	-10.9513
вала	-10.9514
сып	-10.9515
ируют	-10.9515
▁процесса	-10.9516
▁слышу	-10.9518
▁сует	-10.9518
▁мужем	-10.9521
▁достижения	-10.9521
ьную	-10.9523
гин	-10.9524
▁Дор	-10.9524
▁бойцов	-10.9525
▁боится	-10.9527
▁колдун	-10.9528
▁стула	-10.9533
мур	-10.9534
▁Отлично	-10.9536
▁обстоятельства	-10.9536
чного	-10.9536
▁близ	-10.9536
▁доход	-10.9537
овом	-10.9537
▁военные	-10.9538
▁собрался	-10.9538
▁носил	-10.9538
▁домом	-10.9539
Мы	-10.9541
▁нередко	-10.9543
▁дра	-10.9544
▁черного	-10.9544
▁упорно	-10.9545
▁ряда	-10.9549
пом	-10.9555
▁поехал	-10.9555
ицей	-10.9556
▁терпеть	-10.9556
▁Сто	-10.9557
▁создание	-10.9559
▁настоящего	-10.9559
▁команда	-10.9563
▁пройдет	-10.9566
▁служит	-10.9566
▁порог	-10.9568
несли	-10.9568
бле	-10.9569
▁обеих	-10.957
▁устав	-10.9572
▁Крас	-10.9575
▁высокие	-10.9576
▁чемодан	-10.9576
▁Дер	-10.9577
▁присутствии	-10.9578
▁клиент	-10.958
▁небрежно	-10.958
▁продолжает	-10.958
▁намерен	-10.9583
ri	-10.9584
▁трус	-10.9585
▁усилий	-10.9585
▁Артем	-10.9588
▁Кен	-10.9591
▁красно	-10.9592
кри	-10.9593
иц	-10.9593
▁долю	-10.9594
80	-10.9597
▁Вадим	-10.9597
▁приговор	-10.9599
▁ритм	-10.96
оне	-10.9601
▁Майкл	-10.9603
▁разрешения	-10.9604
▁настойчиво	-10.9604
▁показалась	-10.9604
▁высоты	-10.9606
▁старалась	-10.9606
▁Пал	-10.9607
▁тяжелый	-10.9609
▁чей	-10.961
▁составе	-10.9618
сил	-10.9622
▁лучший	-10.9623
▁Петра	-10.9626
▁детям	-10.9637
див	-10.9637
▁маневр	-10.9637
▁противник	-10.9638
▁дверях	-10.964
▁сильным	-10.9641
▁половины	-10.9642
▁Боюсь	-10.9642
▁программы	-10.9643
▁уверенность	-10.9645
ику	-10.9645
▁ощущал	-10.9645
▁обнаружили	-10.9648
ченко	-10.9652
▁просит	-10.9654
▁сиденье	-10.9655
▁свист	-10.9656
▁допрос	-10.9656
▁какому	-10.9657
▁новом	-10.9664
▁систем	-10.9664
▁гре	-10.9666
ыш	-10.9668
▁беседу	-10.9668
▁труб	-10.9669
▁провод	-10.967
▁мнения	-10.9671
▁строить	-10.9673
▁приятель	-10.9674
пра	-10.9674
▁Быть	-10.9676
▁попала	-10.9682
▁чин	-10.9683
▁делами	-10.9685
▁слаб	-10.9688
нского	-10.9691
▁сюжет	-10.9692
▁глуп	-10.9694
N	-10.9694
▁пригласил	-10.9694
▁ходит	-10.9694
дре	-10.9694
▁личность	-10.9696
▁выходить	-10.9696
▁травы	-10.9697
▁спины	-10.9699
▁воскрес	-10.9699
▁ночной	-10.9701
Вот	-10.9704
▁электрон	-10.9705
▁послан	-10.9705
▁Увидев	-10.9705
▁раб	-10.9706
▁белого	-10.9706
▁листья	-10.971
част	-10.971
▁Лю	-10.9711
уль	-10.9715
et	-10.9716
▁Кому	-10.9718
▁Эли	-10.9719
▁наверху	-10.972
▁Должно	-10.9721
▁Будет	-10.9722
▁психолог	-10.9722
чным	-10.9722
▁болезнь	-10.9722
До	-10.9723
▁начиная	-10.9723
град	-10.9725
зван	-10.9726
▁билет	-10.973
▁одинаково	-10.9731
▁вампир	-10.9735
▁Гос	-10.9735
▁считая	-10.9738
▁университет	-10.9738
▁веке	-10.9739
▁Лин	-10.974
▁200	-10.9741
▁Бра	-10.9742
▁пересек	-10.9743
▁накануне	-10.9745
▁фильм	-10.9746
▁Фе	-10.9747
▁Тра	-10.975
вый	-10.9751
▁лад	-10.9751
▁свин	-10.9752
▁Ше	-10.9756
▁Король	-10.9756
иса	-10.9758
▁ожидании	-10.9758
▁привез	-10.9759
ума	-10.9762
як	-10.9763
▁надежно	-10.9765
▁действует	-10.9767
▁господина	-10.9768
ывая	-10.9768
мышлен	-10.977
▁отметил	-10.977
▁пары	-10.9774
▁режим	-10.9774
▁Никаких	-10.9774
лли	-10.9775
▁35	-10.9777
чувств	-10.9778
▁артист	-10.978
▁шага	-10.978
▁наук	-10.9782
▁кавалер	-10.9783
▁заняты	-10.9785
кинув	-10.9787
▁ребенком	-10.9789
▁b	-10.979
телю	-10.979
▁XIX	-10.9792
▁жертвы	-10.9793
▁поражен	-10.9794
▁сердцем	-10.9799
▁удачно	-10.9801
▁начинаю	-10.9803
▁Великий	-10.9803
▁героя	-10.9804
▁урок	-10.9808
▁тяжелые	-10.9808
▁красный	-10.9808
▁управлять	-10.981
▁адмирал	-10.9811
▁песок	-10.9813
хим	-10.9815
▁Хор	-10.9815
▁плана	-10.9816
раб	-10.9818
ься	-10.9819
фор	-10.982
доб	-10.982
▁знакомых	-10.9821
кажет	-10.9824
▁блок	-10.9825
▁Богом	-10.9826
▁морской	-10.9827
▁миль	-10.9827
▁ресторан	-10.9828
иста	-10.983
альным	-10.9831
»:	-10.9835
▁статьи	-10.9836
▁изнутри	-10.9837
▁Фар	-10.9839
▁лодки	-10.9839
▁полного	-10.9839
▁древних	-10.9839
▁призыв	-10.9839
▁Михайлович	-10.984
▁веры	-10.9843
▁известный	-10.9848
гло	-10.985
▁перешел	-10.9852
шив	-10.9852
▁желает	-10.9852
▁мелкие	-10.9852
▁встретить	-10.9853
▁чести	-10.9853
▁смотрю	-10.9855
ьным	-10.9857
▁полагаю	-10.9857
▁РФ	-10.9858
▁выполнить	-10.9861
18	-10.9867
▁путешествие	-10.9869
▁литературы	-10.9872
▁разрушен	-10.9872
▁Лена	-10.9873
▁делаю	-10.9874
▁планете	-10.9875
▁иду	-10.9875
ителей	-10.9875
▁спорить	-10.988
▁обернулась	-10.988
лев	-10.9881
▁боги	-10.9882
▁проворчал	-10.9883
▁решив	-10.9886
▁подняв	-10.9887
▁шпион	-10.989
▁Лиза	-10.9893
▁поднос	-10.9895
▁помнишь	-10.9896
▁Эм	-10.9897
▁мальчишка	-10.9899
▁наблюдая	-10.9899
▁концерт	-10.99
▁провела	-10.9901
▁сорока	-10.9902
▁требовалось	-10.9902
▁терять	-10.9903
жим	-10.9904
▁домик	-10.9908
▁удивлен	-10.9908
рал	-10.9908
ивая	-10.9909
▁оставалась	-10.991
▁маленьких	-10.9915
▁батальон	-10.9916
енок	-10.9918
раста	-10.9918
▁полет	-10.992
зар	-10.9921
▁следить	-10.9921
▁призрак	-10.9921
▁страдания	-10.9923
селен	-10.9926
▁пообещал	-10.9926
▁связаны	-10.9929
▁Большой	-10.9931
▁потерять	-10.9931
чиков	-10.9934
▁дождя	-10.9935
▁попад	-10.9935
▁Император	-10.9937
▁неуверенно	-10.9942
нор	-10.9944
▁Союз	-10.9945
нк	-10.9945
▁положить	-10.9947
▁забыли	-10.995
▁Парень	-10.995
онос	-10.9952
▁особ	-10.9955
ключа	-10.9955
▁Пора	-10.9956
▁рассмеялась	-10.9957
▁совершил	-10.9958
▁атом	-10.9959
▁гордо	-10.9961
▁Кит	-10.9963
▁простор	-10.9963
14	-10.9967
▁объяснять	-10.9967
▁соль	-10.9974
ьная	-10.9974
▁работают	-10.9976
рем	-10.9978
▁Порт	-10.9979
▁взялся	-10.9979
▁горько	-10.998
бить	-10.998
▁душой	-10.998
▁Ленина	-10.9981
▁виски	-10.9982
▁разряд	-10.9982
▁настоящая	-10.9982
▁Слова	-10.9983
стен	-10.9985
▁сети	-10.9987
▁Москва	-10.9989
▁Петров	-10.9991
▁Дэн	-10.9991
▁студент	-10.9994
бед	-10.9995
▁шкаф	-10.9996
тая	-10.9999
▁милая	-11.0001
▁набрал	-11.0002
▁бывшего	-11.0003
▁выбраться	-11.0009
▁случаев	-11.001
ывать	-11.001
▁политической	-11.0013
тянут	-11.0018
поль	-11.002
▁рассмотреть	-11.0021
▁мыслями	-11.0022
▁поблизости	-11.0025
еров	-11.0028
▁заключен	-11.0028
вязан	-11.0029
▁подряд	-11.0029
▁появления	-11.0029
▁независимо	-11.003
▁отдельно	-11.0035
▁приняла	-11.0036
▁победу	-11.0036
▁Кра	-11.0037
тона	-11.004
лист	-11.0043
▁внутренней	-11.0043
ведение	-11.0046
▁острове	-11.0047
▁крылья	-11.005
водить	-11.0051
▁бед	-11.0052
▁крупные	-11.0054
▁страсти	-11.0056
нок	-11.006
ящие	-11.0061
тяж	-11.0061
▁урод	-11.0062
▁помощник	-11.0063
▁мета	-11.0064
▁реку	-11.0064
▁сум	-11.0065
▁живым	-11.0066
▁детектив	-11.0066
тых	-11.007
▁потолок	-11.0073
ложив	-11.0074
▁Миша	-11.0074
▁занять	-11.0074
меча	-11.0075
▁кучу	-11.0076
▁масса	-11.008
▁желал	-11.0083
▁Оп	-11.0085
▁занима	-11.0086
▁Ради	-11.0089
▁возвращения	-11.0091
▁строя	-11.0094
шими	-11.0095
▁щит	-11.0095
водил	-11.0096
▁чуд	-11.0099
▁существу	-11.0099
▁приготовления	-11.01
▁стоп	-11.0101
▁десант	-11.0102
▁дьявол	-11.0105
▁снизу	-11.0106
▁заключил	-11.0106
▁Джейн	-11.0106
▁адвокат	-11.0107
При	-11.0108
▁Спустя	-11.0109
▁организма	-11.0109
▁эпохи	-11.0111
сона	-11.0111
▁художник	-11.0116
▁отдельных	-11.0117
▁мечом	-11.0117
▁последовал	-11.0117
▁подробности	-11.0117
инского	-11.0121
▁поднялись	-11.0123
усь	-11.0123
▁Константин	-11.0124
▁Цар	-11.0126
▁лето	-11.0127
тельно	-11.0129
▁военно	-11.0133
лас	-11.0134
▁ткнул	-11.0137
ленд	-11.0143
▁удержать	-11.0144
▁громад	-11.0146
▁Эмили	-11.0147
▁запомнил	-11.015
▁белом	-11.0152
ливый	-11.0154
▁следов	-11.0155
несла	-11.0155
▁Вол	-11.0156
гнать	-11.0156
ленный	-11.0156
▁фразу	-11.0156
▁маленького	-11.0158
▁ошибки	-11.0161
▁Ивана	-11.0166
▁Совершенно	-11.0169
▁направилась	-11.0169
ело	-11.0171
▁двести	-11.0174
▁чудовищ	-11.0178
тре	-11.0178
ir	-11.0179
ue	-11.0179
▁обладает	-11.0182
▁благополучно	-11.0183
▁Фер	-11.0183
V	-11.0186
сси	-11.0186
▁целей	-11.0188
▁четверо	-11.0188
евский	-11.0188
▁ар	-11.0191
▁основной	-11.0191
▁содержание	-11.0192
▁прозвучал	-11.0192
▁отцов	-11.0194
▁совести	-11.0196
▁бетон	-11.0196
▁Руси	-11.0196
▁спальню	-11.0196
▁сообщила	-11.0197
ино	-11.0199
▁Быстро	-11.0199
▁рва	-11.0202
▁Голова	-11.0202
▁появится	-11.0203
▁взор	-11.0207
бес	-11.0209
ствовать	-11.021
▁га	-11.021
▁титул	-11.021
▁появление	-11.0211
дро	-11.0212
▁сделав	-11.0214
шиб	-11.0218
▁Новый	-11.0218
▁Дан	-11.0219
тельная	-11.022
▁придумать	-11.022
▁высоких	-11.0221
▁неужели	-11.0224
игра	-11.0226
▁голуб	-11.0228
▁платить	-11.0228
▁образования	-11.0229
▁открылась	-11.023
▁широкой	-11.0233
▁звучит	-11.0233
24	-11.0235
▁сход	-11.024
▁Кап	-11.024
▁Малыш	-11.0241
шев	-11.0242
▁плит	-11.0244
▁любые	-11.0248
▁большом	-11.0249
▁мрамор	-11.0249
инов	-11.0251
▁ще	-11.0253
▁куски	-11.0254
▁принимает	-11.0255
▁ведут	-11.0256
▁получает	-11.0257
ования	-11.0261
▁распространен	-11.0263
▁единственное	-11.0265
▁такси	-11.0266
▁должность	-11.0267
▁наслед	-11.0268
▁облик	-11.0271
▁институт	-11.0271
того	-11.0273
[1	-11.0277
Но	-11.028
▁Лондон	-11.0281
▁Люк	-11.0282
▁инструмент	-11.0284
▁Работа	-11.0286
емой	-11.0286
▁развод	-11.0286
▁вечеру	-11.0288
пл	-11.0288
▁мод	-11.0288
жил	-11.0293
▁Скажите	-11.03
▁авиа	-11.03
еж	-11.0302
▁Немного	-11.0303
▁отвернулся	-11.0304
▁небольшую	-11.0306
▁своя	-11.0307
▁достать	-11.031
▁птица	-11.031
▁мусор	-11.0311
▁сообщения	-11.0314
▁сперва	-11.0314
▁пищи	-11.0316
дя	-11.0317
рат	-11.0318
▁слуг	-11.0321
▁Кро	-11.0323
▁закат	-11.0325
нке	-11.0326
▁завтрак	-11.0326
▁пору	-11.0327
▁Йо	-11.0329
▁расти	-11.0331
▁скот	-11.0331
▁управление	-11.0331
▁вдвоем	-11.0334
▁десятки	-11.0335
[4	-11.0337
▁мастера	-11.0339
▁див	-11.034
жная	-11.0341
▁группе	-11.0341
езд	-11.0343
▁Естественно	-11.0343
пала	-11.0343
▁замке	-11.0344
▁юг	-11.0348
душ	-11.0348
▁эмоции	-11.0348
▁последняя	-11.0348
▁толпу	-11.0348
ящих	-11.0349
способ	-11.035
▁держит	-11.0351
▁спустился	-11.0353
▁рассказывает	-11.0357
▁масло	-11.0358
▁et	-11.036
▁энергию	-11.0362
▁Были	-11.0363
▁захочет	-11.0364
▁успев	-11.0364
▁судно	-11.0365
тороп	-11.0365
кром	-11.0368
▁традиции	-11.0372
▁романа	-11.0381
▁зл	-11.0382
▁богу	-11.0384
▁поступить	-11.0385
▁входит	-11.0385
▁северо	-11.0386
▁крем	-11.0388
▁людях	-11.0388
▁бас	-11.0388
▁хотим	-11.0388
▁массив	-11.0389
▁носить	-11.0391
▁сможете	-11.0391
▁удаля	-11.0392
▁забрать	-11.0393
ad	-11.0395
▁реакции	-11.0396
▁границу	-11.0399
▁ткани	-11.04
▁Пас	-11.0401
▁старательно	-11.0402
▁Гей	-11.0402
действительности	-11.0403
ош	-11.0403
▁хор	-11.0406
▁яростно	-11.0407
▁штурм	-11.0408
стям	-11.0409
▁Большинство	-11.041
▁трон	-11.0411
ическими	-11.0412
▁h	-11.0414
▁отказ	-11.0417
▁заставила	-11.0417
▁ищет	-11.0419
▁лучшие	-11.042
рес	-11.0421
ворот	-11.0424
▁телевизор	-11.0429
▁пешком	-11.0429
▁ударом	-11.043
▁цивилизации	-11.043
▁сумму	-11.0431
▁одиночестве	-11.0432
▁Самое	-11.0432
▁здоровья	-11.0434
дея	-11.0434
инки	-11.0436
▁Лиз	-11.0437
▁контр	-11.044
▁побольше	-11.0441
▁зверя	-11.0441
▁одеяло	-11.0441
id	-11.0442
43	-11.0442
▁духом	-11.0443
вые	-11.0445
▁Джим	-11.0448
▁скалы	-11.0449
▁следовательно	-11.045
▁рассматривать	-11.0451
▁пароход	-11.0454
▁означало	-11.0456
▁существуют	-11.0456
▁случиться	-11.0457
▁интересует	-11.0459
▁сопротивление	-11.0459
▁впрямь	-11.0461
▁сладко	-11.0461
▁безусловно	-11.0462
енными	-11.0462
▁мелко	-11.0464
глаз	-11.0465
лые	-11.0467
▁линию	-11.0468
▁крепость	-11.0469
▁полная	-11.0469
там	-11.0471
запад	-11.0473
▁продолжая	-11.0473
▁Вз	-11.0475
юр	-11.0476
26	-11.0477
▁Гол	-11.0481
▁красивая	-11.0481
дела	-11.0481
▁зашел	-11.0483
▁Ком	-11.0484
▁добра	-11.0485
▁пламени	-11.0489
хожу	-11.049
▁Руки	-11.0492
▁спрашиваю	-11.0493
▁подозрительно	-11.0493
▁60	-11.0493
клад	-11.0494
овской	-11.0495
▁вернусь	-11.0496
▁густо	-11.0496
▁услышав	-11.0497
▁захват	-11.0498
▁возникла	-11.0499
▁подвод	-11.0503
▁местные	-11.0507
▁грязи	-11.0509
▁защитить	-11.0509
они	-11.0509
▁славян	-11.051
▁рюкзак	-11.051
▁отправить	-11.0512
▁эпизод	-11.0515
▁Хозяин	-11.0515
▁короткий	-11.0516
▁моими	-11.0516
тес	-11.0519
нуться	-11.052
▁река	-11.0525
кали	-11.0526
▁кристалл	-11.0528
▁способна	-11.0532
▁Ветер	-11.0534
▁предварительно	-11.0535
▁освещен	-11.0538
емая	-11.0539
▁писателя	-11.054
▁Ск	-11.0543
▁органов	-11.0543
▁Рис	-11.0544
▁названия	-11.0545
▁холодный	-11.0545
▁заговор	-11.0549
риан	-11.055
ставить	-11.055
▁графа	-11.0555
▁позицию	-11.0555
▁пункт	-11.0556
▁театра	-11.0556
▁Герман	-11.0558
▁попытка	-11.0558
▁корабле	-11.0559
▁отдых	-11.0561
▁би	-11.0562
клон	-11.0562
тянув	-11.0562
▁обращая	-11.0565
▁жадно	-11.0568
чий	-11.0568
▁дальнейшем	-11.057
▁поражение	-11.057
бат	-11.0573
▁лопат	-11.0574
инка	-11.0574
▁спешил	-11.0578
▁попытаться	-11.0581
▁глубины	-11.0582
▁милый	-11.0582
▁реальность	-11.0585
▁некуда	-11.0588
изу	-11.0588
▁сотрудников	-11.0591
▁зрелище	-11.0592
Нет	-11.0592
▁окружен	-11.0594
цвет	-11.0596
▁арест	-11.0601
▁врача	-11.0604
▁вплоть	-11.0604
▁заклинание	-11.0604
▁хо	-11.0606
▁произведения	-11.0608
▁черта	-11.0608
▁поры	-11.061
▁сознании	-11.0613
▁Билл	-11.0613
▁понятие	-11.0613
▁работала	-11.0614
▁одних	-11.0617
смотр	-11.0618
▁крас	-11.0619
▁обряд	-11.062
▁l	-11.062
▁обеспечить	-11.0624
▁предметы	-11.0625
мира	-11.0627
▁прощения	-11.0629
21	-11.063
▁борьба	-11.063
▁уехать	-11.0633
▁обращаясь	-11.0634
▁одежде	-11.0636
▁задач	-11.0636
2.	-11.0637
ливая	-11.0638
▁сине	-11.0638
▁кармане	-11.0639
▁ор	-11.064
27	-11.0642
лам	-11.0643
вяз	-11.0644
роз	-11.0646
▁Дю	-11.0648
▁нашими	-11.0652
▁Увы	-11.0655
▁объяснял	-11.0656
▁похожа	-11.0657
тем	-11.0657
▁бомб	-11.0659
▁богат	-11.066
алась	-11.0661
▁фирмы	-11.0661
▁стан	-11.0661
носит	-11.0663
▁решился	-11.0665
▁пробормотала	-11.0666
▁потеряла	-11.0666
▁наблюдения	-11.0667
▁облака	-11.0667
бира	-11.0668
▁парад	-11.0668
▁попросту	-11.0669
▁существенно	-11.067
▁красные	-11.0671
▁пусто	-11.0672
▁прочие	-11.0672
▁признал	-11.0673
▁гу	-11.068
▁обще	-11.068
▁приближа	-11.068
Все	-11.0681
▁превратился	-11.0683
▁подготовлен	-11.0686
рэ	-11.0687
▁рванул	-11.0688
▁креп	-11.0689
▁Центр	-11.0689
▁Леонид	-11.069
▁активно	-11.0694
▁общий	-11.0694
▁отпустил	-11.0695
▁Неожиданно	-11.0699
▁развернул	-11.0702
▁признаться	-11.0704
сия	-11.0705
оф	-11.0707
▁паспорт	-11.0708
▁наступление	-11.0709
te	-11.0709
▁грохот	-11.0712
зен	-11.0712
▁растерянно	-11.0713
двига	-11.0713
граф	-11.0714
▁напрасно	-11.0717
▁модель	-11.072
мене	-11.0722
оте	-11.0723
▁некоторым	-11.0724
▁беседы	-11.0727
▁Италии	-11.0728
▁оставила	-11.0729
▁путешествия	-11.0731
▁штаны	-11.0733
▁ненадолго	-11.0735
▁представителей	-11.0736
▁подойти	-11.0736
▁сего	-11.0737
▁кулаком	-11.0738
▁точка	-11.0741
▁тысячу	-11.0743
▁рок	-11.0743
▁толком	-11.0744
▁сыну	-11.0745
▁пятидесяти	-11.0746
▁выдохнул	-11.0746
▁наполовину	-11.0746
▁IV	-11.0748
▁глубже	-11.0749
▁мудр	-11.075
▁организован	-11.0751
ично	-11.0751
веща	-11.0754
ie	-11.0757
▁стиле	-11.0758
▁аппетит	-11.0758
▁экране	-11.0761
▁плюс	-11.0762
▁сотен	-11.0764
лён	-11.0764
▁поклонился	-11.0766
ложения	-11.0767
▁хорошенько	-11.0772
▁жал	-11.0772
▁отпуск	-11.0772
▁дно	-11.0774
▁собственное	-11.0774
▁подождать	-11.0775
ору	-11.0777
▁суп	-11.0777
▁вере	-11.0778
совет	-11.0779
▁товарища	-11.0779
▁Пойдем	-11.078
▁прожил	-11.078
▁выделя	-11.0782
дорож	-11.0786
кладывал	-11.0787
34	-11.0787
▁делается	-11.0788
▁называл	-11.0788
▁постучал	-11.079
▁Ча	-11.079
нять	-11.0791
▁произойдет	-11.0791
▁лом	-11.0792
▁Шел	-11.0794
▁колено	-11.0798
пев	-11.0799
▁разума	-11.0799
имо	-11.0801
альную	-11.0804
▁молот	-11.0804
▁Хватит	-11.0808
):	-11.0808
▁музыку	-11.081
▁крив	-11.0811
▁возврат	-11.0812
▁Первая	-11.0813
▁организация	-11.0817
▁общения	-11.082
▁напряженно	-11.082
▁животное	-11.082
▁переговоры	-11.0821
▁второе	-11.0822
▁Киев	-11.0824
фин	-11.0825
▁вынул	-11.0827
▁этажа	-11.083
▁страстно	-11.0831
нит	-11.0831
▁начинал	-11.0838
▁внутренних	-11.084
▁Хочу	-11.0845
▁любим	-11.0846
▁окруж	-11.0848
▁легкий	-11.0849
▁орудий	-11.085
▁обратиться	-11.085
▁вашему	-11.0851
авший	-11.0853
▁вертолет	-11.0853
▁мило	-11.0854
▁кругу	-11.0859
▁службе	-11.086
▁танк	-11.0861
▁регулярно	-11.0861
ющееся	-11.0863
▁растения	-11.0864
▁огромным	-11.0864
дам	-11.0867
▁участок	-11.0867
▁профессора	-11.087
▁шут	-11.0876
▁5.	-11.0879
▁лагере	-11.0882
▁предложила	-11.0883
▁звери	-11.0883
▁посмотрим	-11.0884
▁вздох	-11.0885
▁настоящим	-11.0885
▁собственным	-11.0888
▁слабость	-11.0889
чев	-11.089
▁аль	-11.0898
▁идею	-11.0898
▁лип	-11.0899
▁наедине	-11.0899
▁знаний	-11.09
▁силе	-11.09
орт	-11.0901
цел	-11.0905
▁тайну	-11.0905
иф	-11.0905
▁Кого	-11.0906
▁делая	-11.0907
вез	-11.0908
▁номера	-11.0909
ушку	-11.091
▁0	-11.0911
▁жестко	-11.0914
▁Илья	-11.0916
▁должности	-11.0917
▁Тоже	-11.0919
23	-11.0919
▁следующей	-11.0919
70	-11.092
▁хорошим	-11.0923
▁десятков	-11.0923
▁президента	-11.0924
очные	-11.0931
▁Васильевич	-11.0931
▁представляю	-11.0932
▁Грин	-11.0933
05	-11.0934
▁Бол	-11.0934
тельных	-11.0936
▁регион	-11.0939
▁заявление	-11.0939
▁комиссар	-11.0942
▁данной	-11.0944
▁резерв	-11.0944
▁чашку	-11.0945
▁коло	-11.0947
▁топ	-11.0947
▁провели	-11.0948
▁старшего	-11.0948
▁возникло	-11.0948
▁поймал	-11.095
▁ра	-11.0951
▁Тим	-11.0952
▁грамот	-11.0954
сед	-11.0958
▁Вечером	-11.0958
▁ухмыльнулся	-11.096
▁бывал	-11.096
▁попросить	-11.0961
▁Слав	-11.0961
▁солнцем	-11.0962
▁любопытством	-11.0964
▁проблему	-11.0964
▁найден	-11.0966
▁считается	-11.0967
▁волнения	-11.0967
▁пр	-11.0969
▁жестоко	-11.0974
гун	-11.0974
▁плоть	-11.0976
▁Правильно	-11.0977
вёл	-11.0978
▁неизменно	-11.0979
▁тремя	-11.098
▁враща	-11.0982
▁Понял	-11.0984
▁деревню	-11.0984
▁девочку	-11.0984
▁потянулся	-11.0987
▁Иванов	-11.0988
▁человеческих	-11.0989
▁рубашку	-11.0992
▁выглядеть	-11.0994
▁военный	-11.0994
▁ножом	-11.0994
▁болта	-11.0996
▁Мас	-11.0996
очных	-11.0997
стон	-11.0999
нских	-11.1001
▁советник	-11.1001
▁съ	-11.1001
▁фигур	-11.1001
▁смотрят	-11.1001
▁выскочил	-11.1001
▁постоял	-11.1003
▁45	-11.1004
▁бесполезно	-11.1004
▁поскорее	-11.1005
▁сюрприз	-11.1006
▁Знаете	-11.1008
▁Короче	-11.1011
▁территорию	-11.1012
ивать	-11.1013
▁выбрать	-11.1013
тека	-11.1014
▁разведки	-11.1015
▁отдельные	-11.1015
▁Элис	-11.1017
▁Каким	-11.1018
▁правую	-11.1019
▁ужасом	-11.102
▁носа	-11.1021
▁направил	-11.1022
▁деньгами	-11.1022
онов	-11.1023
▁мах	-11.1024
▁хозяйка	-11.1025
▁округ	-11.1029
35	-11.1032
▁кладбище	-11.1033
▁контроля	-11.1035
▁отошел	-11.1036
▁мага	-11.1036
▁атаки	-11.1042
▁Согласно	-11.1046
▁длинными	-11.1046
▁получал	-11.1046
это	-11.1047
▁золота	-11.105
▁справедливо	-11.105
▁удары	-11.1052
ающая	-11.1052
▁грузовик	-11.1053
кать	-11.1053
▁Куб	-11.1056
▁толпе	-11.1057
▁спинку	-11.1059
▁механизм	-11.1061
▁Дэвид	-11.1061
▁Впервые	-11.1066
▁Никита	-11.1067
шиеся	-11.1074
▁Уильям	-11.1075
▁араб	-11.1081
▁красоты	-11.1081
▁отлича	-11.1081
▁факты	-11.1081
▁банк	-11.1082
▁полагал	-11.1088
▁соблазн	-11.1089
▁Сергеевич	-11.1091
пуст	-11.1092
▁черном	-11.1092
▁Твой	-11.1092
▁руководство	-11.1092
вых	-11.1096
▁массы	-11.1096
▁коллег	-11.1105
▁Америке	-11.1107
▁бел	-11.1107
сель	-11.1108
▁сестру	-11.1109
▁подъем	-11.1111
▁нажал	-11.1111
носил	-11.1112
енд	-11.1112
▁мужчиной	-11.1113
▁волк	-11.1114
ro	-11.1115
ившийся	-11.1115
ограф	-11.1115
▁средство	-11.1116
еро	-11.1119
▁племени	-11.1121
▁убийца	-11.1121
▁носу	-11.1121
▁совершить	-11.1122
верен	-11.1122
▁Стивен	-11.1122
▁Валентин	-11.1125
»).	-11.1125
▁горах	-11.1126
▁показала	-11.1127
▁слезами	-11.1128
▁убор	-11.113
▁пятна	-11.1134
▁официально	-11.1135
▁тишине	-11.1137
▁ежедневно	-11.1139
русски	-11.1139
▁гостя	-11.1139
РА	-11.1142
▁отыскать	-11.1143
▁местности	-11.1143
теле	-11.1144
▁соединя	-11.1145
▁принесли	-11.1145
нька	-11.1147
▁вперёд	-11.1149
▁перейти	-11.1149
▁отметить	-11.115
▁ожидания	-11.115
▁прим	-11.115
▁святой	-11.115
▁дитя	-11.1152
жат	-11.1153
шейся	-11.1154
▁кат	-11.1155
▁бархат	-11.1157
▁обстоятельств	-11.1158
вался	-11.1159
22	-11.1159
▁девчонка	-11.116
▁револьвер	-11.1162
центр	-11.1163
▁коже	-11.1164
▁автобус	-11.1166
▁траве	-11.1166
ющаяся	-11.1168
▁увидит	-11.1168
▁пыта	-11.117
▁Красной	-11.1171
▁кнопку	-11.1171
▁потер	-11.1171
▁уточнил	-11.1173
рог	-11.1173
тесь	-11.1176
▁тварь	-11.1179
▁бить	-11.118
коль	-11.1184
▁обычный	-11.1185
▁сильные	-11.1186
▁документов	-11.1189
▁духе	-11.1189
▁броне	-11.1191
▁улицам	-11.1192
▁повтор	-11.1192
кнув	-11.1192
▁Была	-11.1193
яться	-11.1194
▁фе	-11.1195
шир	-11.12
42	-11.1201
▁интересы	-11.1201
мел	-11.1201
ющуюся	-11.1202
▁забав	-11.1202
мерз	-11.1206
▁ошибка	-11.1206
▁дневник	-11.1207
].	-11.1208
▁32	-11.1208
▁Закон	-11.1214
▁современной	-11.1214
▁выполнен	-11.1217
28	-11.1218
▁Оста	-11.1219
▁уселся	-11.1219
▁Му	-11.1222
мп	-11.1222
▁Всем	-11.1223
▁развернулся	-11.1224
▁опубликован	-11.1227
▁конча	-11.1227
▁шеф	-11.1229
▁величество	-11.1231
▁понимали	-11.1231
глас	-11.1232
▁смеша	-11.1233
▁видов	-11.1234
▁Лис	-11.1234
▁Александрович	-11.1236
▁ненависть	-11.1238
▁Николая	-11.1239
крашен	-11.1241
ающего	-11.1241
▁предприятия	-11.1242
спеш	-11.1243
▁густой	-11.1244
рош	-11.125
▁звука	-11.1251
нными	-11.1254
▁конь	-11.1254
▁прошлой	-11.1254
▁дыр	-11.1255
▁Молодой	-11.1255
▁ошибку	-11.1258
рим	-11.1259
▁стремление	-11.126
▁изображение	-11.1261
▁привели	-11.1261
▁играли	-11.1261
▁Другие	-11.1266
▁автоматически	-11.1268
▁производство	-11.1269
▁нисколько	-11.127
▁марш	-11.1271
йд	-11.1273
▁озеро	-11.1277
▁твоем	-11.1278
▁затих	-11.1279
▁наполнен	-11.128
▁думают	-11.1282
▁Генрих	-11.1285
2)	-11.1287
▁000	-11.1289
▁наклон	-11.1289
▁прости	-11.1291
29	-11.1293
веду	-11.1293
▁закрыть	-11.1297
ёк	-11.1297
ице	-11.13
▁начался	-11.1301
▁умолк	-11.1301
▁подвал	-11.1304
▁Шер	-11.1304
▁поп	-11.1305
▁верхом	-11.1305
▁нападения	-11.1308
ствовал	-11.1308
ставил	-11.1309
▁усмехнулась	-11.1312
▁стеной	-11.1312
роч	-11.1312
▁парк	-11.1313
▁сомневаюсь	-11.1313
▁картин	-11.1314
▁каза	-11.1315
▁странные	-11.1316
▁истины	-11.1316
▁храма	-11.1317
▁кончик	-11.1318
▁бр	-11.132
▁скучно	-11.132
▁непрерывно	-11.1321
▁спрятал	-11.1323
▁огромная	-11.1323
▁отправилась	-11.1324
▁принялись	-11.1325
▁материала	-11.1326
▁явля	-11.1326
ительным	-11.1328
▁задал	-11.1329
▁Пес	-11.133
эм	-11.1331
▁следующего	-11.1334
▁хан	-11.1336
▁Особ	-11.1336
▁позвонить	-11.1337
▁Лео	-11.1337
th	-11.1338
▁улыбался	-11.1338
▁клан	-11.134
▁гостиную	-11.134
▁пределы	-11.1341
▁повесил	-11.1342
▁Всегда	-11.1343
▁королева	-11.1344
▁занимается	-11.1344
▁архив	-11.1344
▁явления	-11.1345
▁настоящей	-11.1345
▁погреб	-11.1346
ut	-11.1346
▁черная	-11.1348
▁милость	-11.135
▁ангел	-11.135
▁определенно	-11.135
▁потеряли	-11.135
▁привязан	-11.1355
▁люк	-11.1356
иком	-11.1356
нить	-11.1357
▁тонн	-11.1358
▁сцене	-11.1358
▁дрожь	-11.1359
▁Чарли	-11.1362
▁испытания	-11.1363
▁Королев	-11.1363
▁хи	-11.1367
▁Наташа	-11.137
▁облегчением	-11.137
▁траву	-11.1372
▁почет	-11.1374
▁окончания	-11.1374
▁Дед	-11.1376
▁экспедиции	-11.1376
▁НА	-11.1377
▁Юр	-11.1379
▁Вед	-11.1381
авшие	-11.1384
▁придумал	-11.1386
▁жду	-11.1387
▁многом	-11.1388
▁Америки	-11.1388
▁леп	-11.139
▁следил	-11.1392
▁Юрий	-11.1396
▁лома	-11.1396
▁битвы	-11.1399
▁единственная	-11.1399
КА	-11.1401
▁соответственно	-11.1401
▁поколения	-11.1402
▁команд	-11.1402
▁показания	-11.1403
▁Джен	-11.1403
▁чересчур	-11.1403
▁Цел	-11.1404
▁компанию	-11.1405
▁Кей	-11.1406
▁захотел	-11.1406
▁темной	-11.1407
▁ученых	-11.1409
▁пород	-11.141
▁высшей	-11.1411
ьной	-11.1411
▁поставили	-11.1411
нно	-11.1411
▁сурово	-11.1412
▁принесла	-11.1417
▁переспросил	-11.1418
▁расположен	-11.142
▁планет	-11.142
▁получать	-11.1421
▁жен	-11.1422
▁стыд	-11.1422
▁отрицательно	-11.1423
кое	-11.1424
▁большинства	-11.1424
▁Дети	-11.1425
▁соч	-11.1427
▁университета	-11.1429
▁проверил	-11.143
▁ус	-11.1435
▁моё	-11.1436
Со	-11.1436
▁мешает	-11.1436
благодар	-11.1437
енс	-11.1437
▁общее	-11.1438
шел	-11.144
▁вопросу	-11.1442
▁поддерживать	-11.1442
▁веществ	-11.1442
▁несколькими	-11.1444
▁Крис	-11.1445
▁Советского	-11.1446
чество	-11.1446
▁костер	-11.1447
чкой	-11.1452
вик	-11.1453
ене	-11.1454
▁напоминает	-11.1454
▁показывая	-11.1455
чной	-11.1458
▁братом	-11.1463
▁забыв	-11.1463
▁кухни	-11.1463
▁журналист	-11.1464
▁глубокий	-11.1465
▁вдали	-11.1466
▁Пушкин	-11.1466
▁стена	-11.1466
ленные	-11.1467
09	-11.1467
▁черед	-11.1471
▁дошло	-11.1472
строен	-11.1474
▁Извините	-11.1474
▁собеседник	-11.1478
01	-11.1479
▁великолепно	-11.148
▁следовать	-11.148
▁основных	-11.1481
нувшись	-11.1482
▁целая	-11.1482
▁поморщился	-11.1483
рах	-11.1485
ори	-11.1487
руш	-11.1487
▁сцену	-11.1489
▁темноты	-11.1492
ьем	-11.1493
▁Ева	-11.1494
берт	-11.1499
▁выводу	-11.1502
▁ключи	-11.1502
▁громче	-11.1503
▁образование	-11.1506
▁Симон	-11.151
▁Дракон	-11.1512
ечка	-11.1512
тянуть	-11.1515
▁Трудно	-11.1516
▁жениться	-11.1517
▁Мисс	-11.1524
▁Коля	-11.1525
▁напряжение	-11.1527
▁выражением	-11.1529
90	-11.153
▁рыбы	-11.1531
▁вначале	-11.1534
▁обращаться	-11.1537
глав	-11.1539
▁остальным	-11.1541
▁занял	-11.1542
▁область	-11.1544
шат	-11.1545
ставлял	-11.1545
лива	-11.1545
▁Майк	-11.1549
аются	-11.1549
▁История	-11.1549
im	-11.1551
▁шутку	-11.1551
▁лучшее	-11.1551
▁орден	-11.1552
▁обращен	-11.1553
▁белым	-11.1555
▁Прим	-11.1556
сар	-11.1558
▁скажите	-11.1562
▁украшен	-11.1564
▁хорошей	-11.1564
▁прицел	-11.1565
▁май	-11.1567
▁Видишь	-11.1568
▁смело	-11.1572
▁доволен	-11.1573
▁караван	-11.1575
оваться	-11.1575
▁эмоций	-11.1575
писан	-11.1576
оре	-11.1576
оса	-11.1579
йду	-11.158
▁рассказа	-11.1582
▁ночам	-11.1582
жить	-11.1583
▁фигуру	-11.1584
▁Далее	-11.1586
▁Всю	-11.1586
▁океана	-11.1587
▁пальца	-11.1591
▁нелегко	-11.1592
▁коз	-11.1593
▁щеке	-11.1593
06	-11.1594
давая	-11.1594
▁пульс	-11.1596
берг	-11.1596
▁наказание	-11.1598
▁Кре	-11.1598
▁успокоил	-11.1598
▁восстановить	-11.1599
▁Ур	-11.16
▁прилично	-11.1601
▁забор	-11.1601
▁повторял	-11.1602
▁Пьер	-11.1602
▁слове	-11.1603
▁успехом	-11.1603
▁причинам	-11.1604
▁представлен	-11.1605
▁Мик	-11.1607
▁допустить	-11.1608
▁сапоги	-11.1609
▁некий	-11.161
▁водо	-11.161
ери	-11.1612
▁Извини	-11.1613
▁называет	-11.1614
▁чистой	-11.1614
▁население	-11.1615
▁считала	-11.1617
▁объяснения	-11.162
▁враги	-11.162
иг	-11.1621
▁вскинул	-11.1622
▁Этим	-11.1623
▁Часть	-11.1624
▁личной	-11.1625
летнего	-11.1625
▁заново	-11.1627
▁легкой	-11.1628
▁поставила	-11.1632
▁основании	-11.1633
▁составляет	-11.1633
▁легким	-11.1633
▁мар	-11.1638
рина	-11.1638
▁получалось	-11.1638
▁объяснение	-11.1639
os	-11.164
жение	-11.1641
▁колхоз	-11.1641
▁немецких	-11.1642
дол	-11.1642
▁девушкой	-11.1642
▁бедра	-11.1644
нская	-11.1646
▁мораль	-11.1649
▁ритуал	-11.1649
где	-11.165
▁коль	-11.1651
зя	-11.1654
▁Любовь	-11.1654
▁Жен	-11.1654
▁культур	-11.1657
▁m	-11.1658
▁Кэтрин	-11.1658
▁познакомиться	-11.1663
ею	-11.1664
▁хрипло	-11.1664
ено	-11.1666
▁видят	-11.1666
▁частично	-11.1668
▁основные	-11.1668
▁всячески	-11.1669
▁останавлива	-11.167
ялся	-11.167
▁ти	-11.1671
▁предполагал	-11.1672
▁устроен	-11.1676
брав	-11.1676
▁высоким	-11.1676
▁руга	-11.1676
шкой	-11.1677
ia	-11.1677
хал	-11.1678
▁видны	-11.1679
лова	-11.168
Об	-11.168
▁Сав	-11.1681
▁великой	-11.1681
зра	-11.1682
▁ослаб	-11.1682
▁игр	-11.1684
▁небольшая	-11.1686
07	-11.1688
▁губу	-11.1688
▁случалось	-11.1691
▁конфликт	-11.1696
▁преступление	-11.1696
▁ведьма	-11.1702
▁снят	-11.1702
шт	-11.1702
▁правом	-11.1703
нские	-11.1706
▁нетерпеливо	-11.1706
▁даром	-11.1707
▁прочитал	-11.1708
▁грязь	-11.1711
▁энергия	-11.1711
▁Расс	-11.1712
▁Жуков	-11.1715
▁Индии	-11.1715
▁Ол	-11.1715
▁живо	-11.1716
▁выпил	-11.1716
▁футов	-11.1716
скор	-11.1716
38	-11.1718
▁похожий	-11.1718
▁борьбу	-11.1719
▁Таня	-11.1719
▁партия	-11.1721
▁обычной	-11.1721
▁Одним	-11.1722
писал	-11.1723
▁пива	-11.1726
овала	-11.1727
▁w	-11.1729
▁подготовки	-11.173
▁зимой	-11.1733
▁куст	-11.1733
цо	-11.1733
▁Ваша	-11.1734
▁коридора	-11.1734
▁половиной	-11.1734
▁звучал	-11.1735
▁i	-11.1736
▁ша	-11.1737
▁ши	-11.1739
▁карте	-11.174
▁Добро	-11.1742
▁образован	-11.1744
▁ге	-11.1745
▁терпеливо	-11.1745
▁крыши	-11.1747
льд	-11.1747
сам	-11.1748
▁ученые	-11.1748
гул	-11.1749
▁круто	-11.1749
▁идеально	-11.1751
▁бре	-11.1753
▁бросились	-11.1754
▁поиск	-11.1756
▁слуга	-11.1757
▁вытянул	-11.176
▁Тол	-11.176
▁утверждает	-11.1761
▁Первое	-11.1762
▁Сол	-11.1768
▁спала	-11.1769
▁бе	-11.1769
▁водитель	-11.177
▁рассчитывал	-11.177
▁продать	-11.177
▁страшного	-11.177
сказ	-11.1771
▁гал	-11.1772
▁дамы	-11.1772
▁массу	-11.1774
▁золотом	-11.1774
емого	-11.1775
Он	-11.1776
▁войско	-11.1778
льный	-11.1779
▁следующие	-11.178
лай	-11.1781
▁достоинства	-11.1781
▁крикнула	-11.1782
▁занимались	-11.1783
мени	-11.1784
▁угла	-11.1785
▁чая	-11.1786
▁судьбе	-11.1786
▁неприятности	-11.1787
▁рявкнул	-11.1789
▁увидишь	-11.1791
▁дон	-11.1791
▁Минут	-11.1792
атели	-11.1794
▁пита	-11.1795
▁внутренний	-11.1795
льные	-11.1795
▁занавес	-11.1796
пен	-11.1797
▁клад	-11.1797
▁Прав	-11.1798
▁Цвет	-11.1799
бель	-11.1799
нимал	-11.1799
▁Спас	-11.18
▁одет	-11.18
▁пуга	-11.18
греб	-11.1801
▁темы	-11.1802
▁государственной	-11.1806
Во	-11.1807
ование	-11.1808
▁шеи	-11.1808
числен	-11.1808
▁волн	-11.1808
▁Тер	-11.181
▁спрашивать	-11.1811
▁перестала	-11.1814
▁сделан	-11.1814
▁новость	-11.1815
▁сели	-11.1815
▁экс	-11.1817
▁тайна	-11.182
..."	-11.1821
▁Отсюда	-11.1823
▁Вполне	-11.1826
▁промышленности	-11.1828
▁содержа	-11.183
спо	-11.1834
▁базы	-11.1836
▁Давно	-11.1837
▁участия	-11.1837
▁желаю	-11.1838
сок	-11.1839
ць	-11.184
ic	-11.1841
▁найдет	-11.1847
аний	-11.1847
▁становился	-11.1847
▁тормоз	-11.1848
▁помолчал	-11.1849
▁партнер	-11.1849
▁черными	-11.185
▁талант	-11.1851
▁1917	-11.1851
▁Собственно	-11.1853
▁ушей	-11.1853
▁Сал	-11.1855
ведения	-11.1855
▁ярость	-11.1856
▁состава	-11.1857
гов	-11.1859
▁Рен	-11.186
▁флаг	-11.1861
▁насквозь	-11.1861
▁отражение	-11.1863
▁Около	-11.1864
▁буд	-11.1864
▁чужие	-11.1865
▁поначалу	-11.1866
▁36	-11.1867
дается	-11.1867
▁Стив	-11.1869
лых	-11.1872
мал	-11.1874
▁Андрея	-11.1874
▁лодка	-11.1874
▁черту	-11.1874
»;	-11.1883
▁33	-11.1884
ложен	-11.1884
▁глазом	-11.1887
ЛИ	-11.1887
▁пад	-11.1887
▁Чтоб	-11.189
▁влияния	-11.1891
▁имеем	-11.1891
▁судорожно	-11.1894
▁насмешливо	-11.1895
37	-11.1896
опыт	-11.1896
▁мелких	-11.1896
ацией	-11.1897
▁английский	-11.1898
ально	-11.1901
▁Внутри	-11.1903
▁оборвал	-11.1903
▁легкие	-11.1905
▁испугался	-11.1907
▁воля	-11.1908
хов	-11.1909
поинтересовалась	-11.191
▁Граф	-11.1911
▁дорог	-11.1913
пусти	-11.1914
▁пулемет	-11.1914
▁правде	-11.1914
▁спи	-11.1916
▁брал	-11.1917
дай	-11.1917
▁умею	-11.1921
▁Баб	-11.1921
▁предлагает	-11.1923
▁близких	-11.1923
▁целых	-11.1924
▁юго	-11.1926
▁обнаружить	-11.1928
ительные	-11.1928
▁Взгляд	-11.1929
!)	-11.193
Йорк	-11.1931
▁Суд	-11.1933
▁пояса	-11.1933
▁сигарету	-11.1935
▁сан	-11.1935
▁ГЛАВА	-11.1936
ьей	-11.1937
▁доложил	-11.1938
▁физически	-11.1938
▁утверждал	-11.1939
▁носит	-11.194
▁обход	-11.194
▁парней	-11.1941
76	-11.1941
▁предлагал	-11.1944
▁поэта	-11.1944
▁сеньор	-11.1945
▁Леон	-11.1945
▁Волк	-11.1946
▁развел	-11.1947
лая	-11.195
▁относятся	-11.1951
▁иностранных	-11.1952
▁молодым	-11.1953
сим	-11.1955
леж	-11.1957
▁страда	-11.1958
▁начинать	-11.1959
▁расход	-11.196
▁веки	-11.1962
яз	-11.1963
▁увы	-11.1964
▁поддержки	-11.1965
даст	-11.1967
▁операция	-11.197
▁Оказалось	-11.1971
▁привело	-11.1971
▁линия	-11.1973
▁Кри	-11.1977
▁колес	-11.1977
▁След	-11.1981
▁страсть	-11.1982
▁помнить	-11.1984
▁e	-11.1986
▁дико	-11.199
▁Крест	-11.199
▁Миссис	-11.199
▁выдал	-11.1991
▁выгод	-11.1992
▁многим	-11.1993
▁стон	-11.1994
▁орудия	-11.1996
▁изрядно	-11.1996
ступив	-11.1997
▁вступил	-11.1999
▁количества	-11.1999
▁отчасти	-11.1999
▁Великой	-11.2
▁неторопливо	-11.2001
вари	-11.2002
▁Смерть	-11.2004
иями	-11.2005
енька	-11.2005
▁волну	-11.2007
кса	-11.2008
▁завел	-11.2009
*	-11.2009
▁наука	-11.201
▁Наша	-11.2011
▁глядел	-11.2012
▁Бело	-11.2012
▁серьезным	-11.2014
▁Благодаря	-11.2017
▁варвар	-11.2018
▁скрыт	-11.2021
дз	-11.2021
дь	-11.2024
▁чья	-11.2024
44	-11.2025
▁повторила	-11.2026
▁удивления	-11.2026
▁могуществен	-11.2028
▁реакция	-11.2028
▁лапы	-11.2029
▁огромную	-11.2031
▁запись	-11.2032
▁обрадовался	-11.2033
▁эксперт	-11.2033
▁Можешь	-11.2033
▁ветром	-11.2034
▁толкнул	-11.2036
▁холм	-11.2039
▁ответственности	-11.204
▁наличие	-11.2041
▁холода	-11.2041
ящего	-11.2042
▁хорош	-11.2042
▁окружающих	-11.2043
тис	-11.2043
▁послушно	-11.2045
▁проведен	-11.2045
▁снега	-11.2046
▁получит	-11.2046
▁кризис	-11.2047
▁Рука	-11.2047
врат	-11.2048
▁защищать	-11.2048
кажу	-11.2049
▁размышления	-11.2049
дев	-11.205
▁физик	-11.2051
мок	-11.2051
▁директора	-11.2052
▁37	-11.2052
Ре	-11.2053
▁отличается	-11.2055
▁завода	-11.2056
дд	-11.2057
▁дыша	-11.2058
▁прибавил	-11.2059
пить	-11.2059
тельную	-11.2059
▁Хе	-11.2061
▁эксперимент	-11.2062
▁самыми	-11.2062
▁шип	-11.2062
ter	-11.2065
сол	-11.2065
▁еврей	-11.2069
▁Тихо	-11.207
▁вправду	-11.2071
▁единственной	-11.2071
▁изредка	-11.2075
▁понимание	-11.2075
▁ряды	-11.208
▁тонкие	-11.208
»!	-11.2081
▁сражения	-11.2084
▁мужу	-11.2084
▁Люси	-11.2084
41	-11.2084
▁тюрьме	-11.2085
▁мышцы	-11.2089
▁Благодарю	-11.2089
▁Мет	-11.2089
енькая	-11.209
▁мусульман	-11.209
▁оглядел	-11.2091
▁левую	-11.2092
▁соли	-11.2094
▁городом	-11.2095
▁любишь	-11.2095
▁достичь	-11.2096
▁пушки	-11.2097
▁подобрал	-11.2098
▁председатель	-11.2099
пускает	-11.2099
▁эпи	-11.21
▁политика	-11.2102
▁Боль	-11.2102
▁Стоит	-11.2104
▁забрал	-11.2104
▁Дж	-11.2105
▁погружен	-11.2105
▁рак	-11.2105
▁вплотную	-11.2105
эк	-11.2105
▁большее	-11.2109
▁заставляет	-11.2109
▁псих	-11.2109
▁намерения	-11.211
ог	-11.2111
▁Зе	-11.2111
▁ошибся	-11.2113
ыр	-11.2116
▁контракт	-11.2117
АР	-11.2118
▁требовал	-11.2118
носить	-11.2121
04	-11.2122
битый	-11.2122
▁высоте	-11.2123
▁пили	-11.2126
▁лаборатории	-11.2128
▁песня	-11.2128
ителем	-11.2128
ему	-11.2129
▁Кост	-11.2129
▁сосредоточен	-11.2131
▁сбросил	-11.2131
▁устройство	-11.2133
альное	-11.2135
▁полгода	-11.2137
▁Кое	-11.2137
▁кричит	-11.2137
▁вины	-11.2137
губ	-11.214
▁люд	-11.214
▁Пра	-11.2141
▁жу	-11.2141
ce	-11.2141
дри	-11.2142
▁погибли	-11.2143
▁Пят	-11.2143
давно	-11.2144
▁тест	-11.2144
▁схватила	-11.2144
X	-11.2144
ушек	-11.2145
▁осмотр	-11.2148
▁Вселенной	-11.2148
▁асфальт	-11.2148
▁четверть	-11.215
▁Ваши	-11.2151
▁тяжелым	-11.2153
▁нынче	-11.2153
бек	-11.2155
▁знакомы	-11.2156
▁Лондоне	-11.2156
лета	-11.216
▁кувшин	-11.2164
▁дерга	-11.2164
ьного	-11.2165
▁платок	-11.2165
▁персонаж	-11.2167
▁рабочие	-11.2168
▁Сказал	-11.2168
ологии	-11.2168
▁бумагу	-11.2172
▁Сим	-11.2173
▁человеке	-11.2173
▁волшебник	-11.2173
▁Послушай	-11.2174
▁костей	-11.2175
айн	-11.2179
▁любили	-11.2181
труд	-11.2181
▁принца	-11.2183
▁своём	-11.2183
кл	-11.2183
▁железной	-11.2185
▁крут	-11.2186
▁джентльмен	-11.2187
▁офицеры	-11.2188
рт	-11.2188
ька	-11.2188
▁размеров	-11.2188
шить	-11.219
▁Рик	-11.219
▁охран	-11.219
вад	-11.2192
вание	-11.2192
▁становились	-11.2192
▁направо	-11.2197
▁позволит	-11.2198
▁англичан	-11.2199
▁сообразил	-11.2199
▁немножко	-11.2201
▁фонтан	-11.2201
▁обла	-11.2203
▁возможностей	-11.2203
▁материалы	-11.2204
▁огромного	-11.2206
ственный	-11.2206
▁уст	-11.2206
▁молоко	-11.2206
▁Марии	-11.2207
▁продукты	-11.2207
какие	-11.2208
▁долгие	-11.2209
▁мел	-11.221
▁тыс	-11.2213
▁голосов	-11.2215
▁понимают	-11.2221
▁застыв	-11.2223
▁темных	-11.2223
▁рассчитывать	-11.2225
▁лодку	-11.2229
▁рассматривал	-11.2229
▁безум	-11.2234
сох	-11.2234
▁предупредить	-11.2238
▁ложь	-11.2238
бивать	-11.2239
▁поймать	-11.2239
▁дворце	-11.2239
звуч	-11.224
▁Последний	-11.224
▁офицера	-11.2241
▁лежать	-11.2242
держа	-11.2242
▁шрам	-11.2245
▁лучшего	-11.2246
▁показывал	-11.2246
▁дракона	-11.2247
нял	-11.2248
▁супруга	-11.2251
▁добрался	-11.2252
анта	-11.2252
▁инстинкт	-11.2254
▁Российской	-11.2255
▁плавно	-11.2258
▁сере	-11.226
иде	-11.2263
▁двинулись	-11.2264
▁спеша	-11.2266
пустив	-11.2267
▁Стало	-11.2268
▁встречались	-11.2269
строить	-11.2269
▁герои	-11.227
ектор	-11.227
48	-11.2271
▁зад	-11.2273
▁старались	-11.2275
▁нервы	-11.2275
▁собрал	-11.2275
▁полета	-11.2276
сет	-11.2276
▁приехала	-11.2277
ального	-11.2277
инга	-11.228
Так	-11.2281
гром	-11.2282
▁городской	-11.2284
▁любопытство	-11.2284
▁звезда	-11.2284
▁цену	-11.2285
▁тратить	-11.2285
▁меньшей	-11.2285
▁происхождения	-11.2287
▁бессмысленно	-11.2288
▁сия	-11.2289
▁поддержку	-11.229
▁ожидала	-11.229
▁отступил	-11.2291
▁превосход	-11.2291
▁статус	-11.2293
la	-11.2293
▁привет	-11.2294
нда	-11.2294
▁Лей	-11.2295
▁долгое	-11.2296
▁напряжения	-11.2297
▁вылез	-11.2299
▁замерз	-11.2299
▁главных	-11.2299
▁следующим	-11.23
▁нужды	-11.23
▁послать	-11.2303
▁шоколад	-11.2304
▁Флор	-11.2306
вшем	-11.2307
▁отход	-11.2308
st	-11.2308
▁готово	-11.2315
▁Ста	-11.2315
▁Хью	-11.2316
▁ушах	-11.2316
op	-11.2318
вернут	-11.2319
▁закричала	-11.232
▁обычного	-11.2323
▁объятия	-11.2324
▁уз	-11.2324
тт	-11.2324
торг	-11.2325
▁ужина	-11.2326
▁вал	-11.2328
Па	-11.2329
▁Гур	-11.233
▁сестре	-11.2331
▁продуктов	-11.2331
▁резин	-11.2332
береж	-11.2332
▁неважно	-11.2332
▁мент	-11.2333
▁манер	-11.2335
▁пиво	-11.2335
47	-11.2336
▁слуги	-11.2338
▁Твоя	-11.234
▁ставить	-11.2343
боя	-11.2343
▁спирт	-11.2344
33	-11.2345
▁38	-11.2345
др	-11.2346
▁договора	-11.2347
▁необходимые	-11.2347
▁собран	-11.2348
▁научно	-11.2348
▁равнодушно	-11.235
▁научиться	-11.2352
▁лог	-11.2353
▁самолетов	-11.2354
▁Другой	-11.2354
▁практике	-11.2356
▁Кай	-11.2356
▁профессионально	-11.2358
▁природа	-11.2358
▁знакомые	-11.236
обра	-11.2361
енько	-11.2362
▁попробовал	-11.2362
▁План	-11.2363
▁Вест	-11.2363
▁столицы	-11.2363
овича	-11.2364
пат	-11.2365
▁Адам	-11.2366
▁рассказывала	-11.2366
▁Впереди	-11.2367
▁мечтал	-11.2368
▁знание	-11.2371
▁усталость	-11.2372
▁цепи	-11.2374
▁оценить	-11.2374
ОР	-11.2375
▁небу	-11.2375
яет	-11.2376
▁говорилось	-11.2376
▁событие	-11.2376
закон	-11.2379
▁аж	-11.2379
▁Ак	-11.238
▁пищу	-11.238
▁выстрелил	-11.2384
▁лимон	-11.2385
▁фургон	-11.2386
▁спасения	-11.2388
▁важным	-11.2389
мели	-11.239
▁политических	-11.2391
▁доверять	-11.2391
боль	-11.2393
▁Сай	-11.2394
▁успокоить	-11.2395
лями	-11.2396
▁функции	-11.2397
▁сказав	-11.2397
ласт	-11.2398
грыз	-11.24
▁красивый	-11.24
▁представляют	-11.2401
▁буквы	-11.2402
▁большинстве	-11.2402
[5	-11.2403
▁швырнул	-11.2403
▁Двое	-11.2407
▁артефакт	-11.2409
▁землян	-11.241
▁некое	-11.2413
▁прелест	-11.2413
ющем	-11.2413
▁настроен	-11.2413
нц	-11.2414
▁плеча	-11.2414
▁изображен	-11.2416
▁годами	-11.2418
бах	-11.2418
▁разрыв	-11.2418
55	-11.2419
▁Пат	-11.2419
шками	-11.242
▁официант	-11.2421
▁возможным	-11.2425
▁уходил	-11.2425
▁код	-11.2426
▁инспектор	-11.2427
▁обоз	-11.2428
▁качество	-11.2428
▁участников	-11.2429
▁надежде	-11.2431
▁бак	-11.2431
▁подозревал	-11.2432
▁секретарь	-11.2435
▁подмигнул	-11.2437
▁многочисленные	-11.2437
▁вспоминать	-11.2437
▁метро	-11.2437
▁фамилия	-11.2438
лежа	-11.2441
бежав	-11.2442
▁красным	-11.2443
виз	-11.2443
нской	-11.2444
▁банка	-11.2445
▁импульс	-11.2446
▁бегу	-11.2447
▁6.	-11.2448
▁сеть	-11.2449
▁Девочка	-11.2451
▁небольшие	-11.2452
▁восток	-11.2453
анная	-11.2458
▁доставить	-11.246
▁жид	-11.2462
▁страхом	-11.2462
▁пир	-11.2463
беж	-11.2464
▁ходят	-11.2466
▁Тело	-11.2467
▁приготовлен	-11.2467
▁святого	-11.2468
▁Уилл	-11.2468
▁нарушил	-11.2472
▁боясь	-11.2473
▁издалека	-11.2474
▁скромно	-11.2477
▁великим	-11.2477
▁опустилась	-11.2478
чил	-11.2478
казан	-11.2481
▁коне	-11.2482
▁сцены	-11.2482
▁программ	-11.2484
▁Ника	-11.2485
▁спасение	-11.2485
▁утоп	-11.2488
▁плеч	-11.2488
▁вооружен	-11.2489
лении	-11.249
числ	-11.2492
▁корон	-11.2492
▁возвращается	-11.2492
▁тра	-11.2492
▁властью	-11.2492
▁ехали	-11.2494
▁коллеги	-11.2494
▁свойства	-11.2496
▁личного	-11.2497
▁смотря	-11.2497
▁участвовал	-11.2499
▁удается	-11.25
▁Речь	-11.25
▁заставило	-11.2502
инь	-11.2502
▁Ангел	-11.2502
▁Автор	-11.2503
▁футбол	-11.2503
мот	-11.2504
▁воображение	-11.2507
▁пожелал	-11.2509
▁Ке	-11.2512
▁Гон	-11.2513
▁уставилась	-11.2514
ёшь	-11.2516
▁прыгнул	-11.2517
▁замерла	-11.2517
▁пейзаж	-11.2519
▁отдавал	-11.252
▁фронте	-11.2521
▁Иисуса	-11.2522
▁Ильич	-11.2523
▁приподнял	-11.2524
▁проникнуть	-11.2524
▁треск	-11.2525
▁Благо	-11.2526
▁представители	-11.2528
▁охотник	-11.2531
▁отделения	-11.2533
оде	-11.2534
▁34	-11.2534
▁состоял	-11.2535
ющему	-11.2537
▁готовить	-11.2537
▁обстановке	-11.254
▁модели	-11.2541
▁Ярослав	-11.2541
▁направления	-11.2541
рова	-11.2543
▁полковника	-11.2543
▁Старый	-11.2543
полз	-11.2545
▁хозяйства	-11.2546
▁Сон	-11.2547
▁закрыв	-11.2548
▁Дух	-11.2549
гр	-11.255
▁рыбу	-11.255
▁огляделся	-11.2552
▁проходили	-11.2552
▁столовой	-11.2552
▁улыбается	-11.2553
рут	-11.2555
▁куб	-11.2557
▁Командир	-11.2557
▁ненависти	-11.256
давил	-11.2561
▁записку	-11.2561
▁держала	-11.2564
▁особых	-11.2566
яд	-11.2567
▁целое	-11.2567
▁опустила	-11.2568
▁вздрогнула	-11.2568
▁профессиональны	-11.257
v	-11.257
▁целях	-11.257
▁полиция	-11.257
▁весной	-11.257
▁скрылся	-11.2572
▁брит	-11.2572
▁явление	-11.2574
▁требования	-11.2576
▁Св	-11.2579
▁длинной	-11.258
▁Эс	-11.258
Мо	-11.2581
етта	-11.2581
▁1)	-11.2581
▁шестьдесят	-11.2584
▁пропал	-11.2585
▁экзамен	-11.2587
▁налогов	-11.2587
▁мечты	-11.2587
▁трепет	-11.2589
▁добровольно	-11.2589
▁обнаружила	-11.2593
▁кусты	-11.2594
▁Джейк	-11.2594
▁нужда	-11.2595
▁сорвал	-11.2596
▁вагон	-11.26
▁амулет	-11.2602
шла	-11.2602
▁коснулся	-11.2604
сту	-11.2604
▁свеч	-11.2607
план	-11.2607
▁главы	-11.2607
▁Джона	-11.2607
▁раздраженно	-11.2608
аясь	-11.2608
нешь	-11.261
ийский	-11.2612
▁премьер	-11.2612
▁кро	-11.2613
▁тихий	-11.2614
▁формул	-11.2615
▁внешней	-11.2615
аты	-11.2615
▁представляла	-11.2616
▁принцесса	-11.2616
▁раскрыл	-11.2617
резать	-11.2617
ёл	-11.2618
▁Пле	-11.2622
▁Нина	-11.2627
▁кулаки	-11.2627
▁бодр	-11.2628
летний	-11.2629
▁литературе	-11.263
нтар	-11.263
▁брату	-11.2633
ведя	-11.2634
▁попытку	-11.2634
истые	-11.2634
▁оригинал	-11.2635
щихся	-11.2635
бог	-11.2635
▁задумал	-11.2635
▁тупо	-11.2639
▁потребуется	-11.264
▁философии	-11.2641
▁осад	-11.2641
▁настоящие	-11.2643
▁лениво	-11.2644
шегося	-11.2645
▁религии	-11.2646
▁родов	-11.2647
▁белье	-11.2648
▁сундук	-11.265
▁Ред	-11.265
▁советского	-11.2651
▁данным	-11.2652
▁ударов	-11.2653
▁офис	-11.2653
▁переглянулись	-11.2656
плот	-11.2657
▁страниц	-11.2658
▁условий	-11.266
ru	-11.2661
тел	-11.2661
▁Азии	-11.2661
▁сражаться	-11.2663
36	-11.2664
ывал	-11.2666
▁захватить	-11.2669
▁верхней	-11.267
▁моментально	-11.267
два	-11.2672
шли	-11.2672
пись	-11.2672
▁Фин	-11.2674
олом	-11.2676
есс	-11.2679
▁ехал	-11.268
▁налево	-11.268
▁поправил	-11.2681
▁казн	-11.2682
▁гибель	-11.2683
изирован	-11.2683
сло	-11.2684
тера	-11.2684
▁темноту	-11.2684
▁ученый	-11.2686
▁усы	-11.2686
▁мгновений	-11.2688
▁протокол	-11.2688
монт	-11.269
32	-11.2691
▁поцелуй	-11.2691
цар	-11.2691
▁Гал	-11.2691
▁Будем	-11.2691
▁рамках	-11.2692
ткой	-11.2693
▁привыкли	-11.2696
▁престол	-11.2697
▁потихоньку	-11.2698
▁несу	-11.2698
▁головами	-11.27
▁аристократ	-11.2701
▁Джин	-11.2703
▁спутник	-11.2703
▁Бэ	-11.2704
▁известны	-11.2704
пет	-11.2705
▁интересов	-11.2706
ческой	-11.2708
▁общаться	-11.2708
▁замечал	-11.2708
рица	-11.2709
▁подруги	-11.2709
▁3-	-11.2711
евые	-11.2712
льник	-11.2713
ставлен	-11.2714
Ле	-11.2717
▁показаться	-11.2719
▁периода	-11.2723
▁умрет	-11.2726
▁механик	-11.2728
▁имеешь	-11.273
валился	-11.2731
▁тревожно	-11.2732
▁Бри	-11.2732
▁Роб	-11.2734
акт	-11.2738
▁змеи	-11.2738
инд	-11.274
▁актер	-11.274
▁ванной	-11.2741
▁шп	-11.2742
▁идем	-11.2742
▁падает	-11.2742
▁площадке	-11.2744
▁черным	-11.2745
▁поговорим	-11.2746
▁принят	-11.2746
▁больнице	-11.2747
пыта	-11.2748
▁руководством	-11.2749
▁сменил	-11.275
хва	-11.2751
▁коров	-11.2751
▁молодости	-11.2754
▁местного	-11.2754
рка	-11.2754
▁надежду	-11.2755
▁продукт	-11.2757
▁красной	-11.2759
▁существовать	-11.2759
ЛА	-11.2759
уш	-11.2759
▁пап	-11.276
евых	-11.276
▁выражения	-11.276
ходим	-11.276
▁фамилии	-11.2764
▁оставляя	-11.2764
▁найдется	-11.2765
▁един	-11.2765
▁Профессор	-11.2765
▁тюрьмы	-11.2765
▁глоток	-11.2766
тика	-11.2767
бегает	-11.2767
▁ветру	-11.2767
▁Шан	-11.2768
▁Силь	-11.2769
▁уха	-11.277
▁хирург	-11.277
▁зашагал	-11.2771
▁поддержал	-11.2772
▁металла	-11.2776
▁Ад	-11.2776
▁сердцу	-11.2777
▁стояло	-11.2777
▁тяжелой	-11.2778
▁плече	-11.2779
▁красного	-11.2779
▁секс	-11.278
▁Дела	-11.2781
▁побег	-11.2782
▁вдох	-11.2782
▁памятник	-11.2783
▁ордена	-11.2784
▁кратко	-11.2788
▁белая	-11.2789
век	-11.2789
пан	-11.279
▁третьей	-11.2792
▁рабочего	-11.2793
▁являлся	-11.2796
▁третьем	-11.2796
зел	-11.2798
▁доказательства	-11.2798
▁костюме	-11.2798
▁горле	-11.2799
▁проходил	-11.2799
▁министра	-11.28
ительная	-11.2801
▁маслом	-11.2802
▁крыше	-11.2803
дина	-11.2804
кров	-11.2804
▁двум	-11.2804
▁человечество	-11.2805
▁важные	-11.2805
атур	-11.2805
▁2)	-11.2811
▁столетия	-11.2815
▁жених	-11.2816
▁монах	-11.2817
▁тюрьму	-11.2817
▁поехать	-11.2818
▁полки	-11.2823
▁бутылки	-11.2825
▁кожей	-11.2826
▁сломал	-11.2826
▁кустарник	-11.2827
тый	-11.2828
жав	-11.2828
▁бежали	-11.2829
▁стенами	-11.2832
▁использования	-11.2832
вшимися	-11.2833
▁засмеялась	-11.2833
ква	-11.2834
▁продолжить	-11.2836
▁чье	-11.2837
▁муки	-11.2838
▁уйдет	-11.2839
▁коем	-11.2839
▁освободи	-11.284
▁поехали	-11.2841
▁чу	-11.2842
▁помните	-11.2842
▁приблизился	-11.2843
▁выпив	-11.2843
▁улыбке	-11.2844
▁Способ	-11.2844
▁основа	-11.2844
лё	-11.2846
54	-11.2847
▁встали	-11.2849
▁смеха	-11.2849
▁ан	-11.285
рк	-11.285
▁подверг	-11.285
▁поднима	-11.285
▁описание	-11.2851
очного	-11.2852
▁Элизабет	-11.2853
▁Ас	-11.2854
ллер	-11.2855
ящим	-11.2855
▁Вик	-11.2856
▁проводник	-11.2857
▁сознательно	-11.2857
▁собрание	-11.286
▁Яр	-11.2861
▁тетя	-11.2862
▁стер	-11.2863
▁держали	-11.2864
▁Полу	-11.2864
горел	-11.2865
деля	-11.2866
очную	-11.2866
ступая	-11.2868
▁мертвых	-11.2869
летней	-11.287
»),	-11.2873
▁Сп	-11.2873
▁выступил	-11.2875
▁мужской	-11.2875
▁залив	-11.2876
▁камеры	-11.2876
▁1942	-11.2877
▁крыс	-11.2877
▁Пара	-11.2877
плет	-11.2879
▁Лук	-11.2879
▁меча	-11.288
фо	-11.2881
▁газету	-11.2882
▁воспоминаний	-11.2883
▁закончить	-11.2883
ственные	-11.2885
▁всякое	-11.2885
фт	-11.2887
▁щедро	-11.2887
кала	-11.2887
▁выпустил	-11.289
▁команде	-11.2891
▁открыт	-11.2891
ером	-11.2891
▁сильное	-11.2891
▁пробежал	-11.2891
▁согласиться	-11.2892
▁тонко	-11.2893
пускать	-11.2894
▁зап	-11.2894
▁показали	-11.2895
▁больной	-11.2896
▁добрались	-11.2896
▁бровь	-11.2896
▁правилам	-11.2897
опа	-11.2898
▁ката	-11.2901
▁вопросительно	-11.2901
мель	-11.2903
шёл	-11.2904
▁коней	-11.2904
▁примитив	-11.2906
▁эконом	-11.2906
▁сложил	-11.2906
▁восторг	-11.2911
▁Саймон	-11.2911
▁соглас	-11.2912
грамм	-11.2912
▁Куп	-11.2912
▁Смит	-11.2913
▁мозги	-11.2913
▁хмуро	-11.2915
пустил	-11.2916
▁верит	-11.2916
▁монарх	-11.2917
уру	-11.2917
▁сопровождении	-11.2917
▁толк	-11.2919
▁Ирина	-11.292
▁трубы	-11.292
▁фыркнул	-11.292
▁находилось	-11.2921
вос	-11.2921
▁проекта	-11.2923
▁чужих	-11.2924
еет	-11.2924
▁формально	-11.2924
▁определил	-11.2925
▁смехом	-11.2925
▁несет	-11.2926
▁серьезные	-11.2927
65	-11.2927
ейн	-11.2928
▁устроил	-11.2928
▁магов	-11.2929
▁штука	-11.293
▁крышу	-11.293
▁начались	-11.293
▁подарил	-11.293
▁Джей	-11.293
▁надеждой	-11.2931
▁дожидаясь	-11.2931
▁идеолог	-11.2933
▁Четыре	-11.2933
▁собирать	-11.2935
▁достала	-11.2938
▁перво	-11.294
▁Новгород	-11.294
▁причину	-11.2941
▁Также	-11.2943
▁непро	-11.2944
плыл	-11.2944
▁равновесие	-11.2945
шихся	-11.2945
▁старуха	-11.2951
▁Сэр	-11.2952
▁Помню	-11.2952
▁Настя	-11.2956
оры	-11.2958
▁пораз	-11.2958
▁телефона	-11.296
31	-11.2961
▁Слово	-11.2961
▁любезно	-11.2964
▁шофер	-11.2965
▁реально	-11.2966
▁старт	-11.2966
▁ногам	-11.2967
▁действ	-11.2971
вела	-11.2973
▁кусочек	-11.2973
чие	-11.2973
03	-11.2974
▁кричать	-11.2978
▁открытия	-11.2979
.).]	-11.298
вернув	-11.2982
▁занятий	-11.2982
▁известных	-11.2985
Ро	-11.2987
▁Кле	-11.2988
▁Ден	-11.2988
▁отбросил	-11.2989
▁убрал	-11.2989
вуд	-11.2989
▁границе	-11.2989
▁подать	-11.2989
▁щеку	-11.2989
анд	-11.2991
▁превратилась	-11.2995
▁велосипед	-11.2996
▁многочисленных	-11.2997
▁сошел	-11.2998
▁Иоанн	-11.2998
▁записал	-11.2999
▁слышит	-11.2999
иш	-11.3002
▁Джи	-11.3002
▁браслет	-11.3003
▁возьмет	-11.3004
няк	-11.3005
▁шепот	-11.3007
▁развива	-11.3007
▁Надежда	-11.3008
▁отозвалась	-11.3008
▁ткань	-11.3008
▁огород	-11.3009
▁Кан	-11.301
▁почувствовать	-11.301
▁количестве	-11.301
▁посмотри	-11.3012
чан	-11.3013
▁огромных	-11.3013
▁осознал	-11.3016
▁правды	-11.3017
мит	-11.3017
утся	-11.3017
▁чел	-11.3019
▁ружье	-11.302
ящей	-11.3023
▁Обо	-11.3023
▁маленьким	-11.3026
▁вещества	-11.3026
▁микро	-11.3028
▁клетки	-11.303
▁приду	-11.303
▁покажу	-11.3031
▁максимально	-11.3032
▁злобно	-11.3033
▁придётся	-11.3034
нском	-11.3034
пс	-11.3035
ирован	-11.3035
▁застал	-11.3035
▁паузу	-11.3037
▁Стен	-11.3039
весел	-11.304
▁вырваться	-11.3041
▁пребывания	-11.3042
▁Прос	-11.3042
66	-11.3042
▁терял	-11.3042
ивших	-11.3043
▁глубин	-11.3043
▁писем	-11.3044
▁Света	-11.3047
08	-11.3048
▁Наверняка	-11.3049
▁уверенности	-11.3052
▁фокус	-11.3052
▁родственников	-11.3053
▁твари	-11.3054
▁сидят	-11.3055
▁спокойствие	-11.3057
▁свидания	-11.3058
▁легенда	-11.306
нцев	-11.3062
ывает	-11.3063
▁гору	-11.3063
▁перенос	-11.3064
теп	-11.3065
бет	-11.3066
здоров	-11.3067
li	-11.3069
▁Рейн	-11.3069
▁судов	-11.307
▁выглядели	-11.307
▁мяч	-11.3071
▁отвечала	-11.3071
▁всюду	-11.3073
чь	-11.3075
▁автомобиля	-11.3075
▁пирог	-11.3075
▁палубе	-11.3076
▁узор	-11.3076
▁презрительно	-11.3076
▁зим	-11.3077
▁троих	-11.3077
▁зеленый	-11.3078
▁Пла	-11.3079
▁живого	-11.308
▁получше	-11.3081
▁демократ	-11.3082
▁некромант	-11.3084
рил	-11.3085
ающим	-11.3085
▁учитывая	-11.3088
▁местом	-11.3089
▁пределами	-11.3091
енье	-11.3091
▁бара	-11.3092
▁нужным	-11.3092
кли	-11.3097
▁отража	-11.3099
est	-11.31
▁закрыты	-11.3101
▁давала	-11.3101
75	-11.3103
▁пределах	-11.3104
▁Петербург	-11.3104
▁брошен	-11.3105
▁арестован	-11.3105
▁Машина	-11.3107
▁Дуб	-11.3108
▁Полагаю	-11.3109
▁разглядел	-11.3109
лав	-11.3109
▁вследствие	-11.311
▁семей	-11.311
▁покор	-11.3111
▁изучал	-11.3111
▁упрямо	-11.3112
▁Сид	-11.3114
▁Кира	-11.3114
▁менять	-11.3115
▁зов	-11.3115
▁луна	-11.3115
▁интервью	-11.3117
▁Григорий	-11.3117
меня	-11.3118
▁гигант	-11.3119
▁наступления	-11.3121
▁страшный	-11.3121
▁конечном	-11.3122
▁дернул	-11.3123
▁Великого	-11.3125
▁легких	-11.3125
полит	-11.3125
изация	-11.3125
▁продолжила	-11.3126
тельным	-11.3127
▁связыва	-11.3127
▁особенного	-11.3129
▁обучения	-11.313
▁броса	-11.3131
▁вопреки	-11.3131
▁высокая	-11.3132
▁Обе	-11.3134
▁пациент	-11.3136
▁подполковник	-11.3137
▁болью	-11.314
▁пласт	-11.3141
▁Ган	-11.3142
▁глубокой	-11.3142
дали	-11.3142
▁дворян	-11.3143
▁оценил	-11.3145
▁беспомощно	-11.3147
▁казни	-11.3147
▁потенциал	-11.3149
▁Иерусалим	-11.3149
▁сущность	-11.3149
▁пещеры	-11.3149
▁командование	-11.3151
▁70	-11.3152
▁пыш	-11.3152
гора	-11.3154
▁необходимым	-11.3157
▁среднего	-11.3158
▁хитро	-11.3158
ерс	-11.3159
▁Муж	-11.316
ировала	-11.3161
▁вырос	-11.3161
▁камеру	-11.3162
▁миллион	-11.3162
▁Ребята	-11.3163
▁владения	-11.3163
▁горел	-11.3163
▁болот	-11.3164
▁предоставлен	-11.3164
▁горя	-11.3165
иды	-11.3166
ящая	-11.3167
▁созна	-11.3169
▁спокойным	-11.3169
бли	-11.317
▁простым	-11.3171
ийского	-11.3173
▁сторона	-11.3174
дева	-11.3174
▁желанием	-11.3175
▁вставил	-11.3176
▁песню	-11.3176
етт	-11.3177
▁причал	-11.3177
пр	-11.3177
▁чудом	-11.3178
▁сапог	-11.3178
▁листок	-11.3178
▁горизонт	-11.318
▁цветами	-11.3181
39	-11.3181
▁агент	-11.3182
▁сыт	-11.3183
▁скомандовал	-11.3185
▁круга	-11.3185
бравшись	-11.3185
пира	-11.3186
▁органы	-11.3187
▁цикл	-11.3189
▁скользнул	-11.319
▁началом	-11.3191
▁связанные	-11.3192
▁Америка	-11.3195
▁капитал	-11.3195
▁конкретно	-11.32
▁бесшумно	-11.3201
▁социально	-11.3202
▁Эк	-11.3204
▁подозрения	-11.3205
▁напоминал	-11.3206
▁открытым	-11.3208
▁Лор	-11.3208
▁рисковать	-11.3208
ринг	-11.3208
поро	-11.3209
ани	-11.321
▁магазина	-11.3211
▁прерыва	-11.3212
▁затылок	-11.3212
▁плакать	-11.3212
▁слову	-11.3214
▁Эту	-11.3217
▁занятие	-11.3217
▁Будто	-11.3221
▁умы	-11.3221
НИ	-11.3223
▁брюки	-11.3224
ne	-11.3224
▁лорда	-11.3224
▁выразил	-11.3227
щиеся	-11.3228
▁прекраща	-11.3228
▁разрыва	-11.3229
▁разговаривал	-11.323
▁экипажа	-11.3232
▁заставили	-11.3232
▁бросив	-11.3232
живать	-11.3232
▁режиссер	-11.3234
▁направля	-11.3234
оч	-11.3235
▁баран	-11.3235
дит	-11.3237
▁размером	-11.3238
▁комиссии	-11.324
▁приют	-11.3241
▁необычайно	-11.3241
▁ложки	-11.3241
ивает	-11.3242
сек	-11.3243
▁отвел	-11.3243
▁расста	-11.3244
62	-11.3244
▁положив	-11.3245
▁живое	-11.3245
▁обязаны	-11.3246
▁мал	-11.3249
▁выходил	-11.3249
▁спальне	-11.3251
▁колеса	-11.3251
бок	-11.3253
▁глупость	-11.3253
▁собственными	-11.3253
▁блюд	-11.3254
▁боевые	-11.3255
▁славу	-11.3256
▁Удар	-11.3256
▁давление	-11.3256
▁мундир	-11.3258
▁епископ	-11.3259
▁застыл	-11.3259
▁Видно	-11.3264
▁рынка	-11.3267
▁работников	-11.3269
▁сборник	-11.327
ложение	-11.327
▁беспокойство	-11.3272
▁Мей	-11.3272
щика	-11.3272
ющимися	-11.3275
яли	-11.3275
▁отделение	-11.3276
▁магия	-11.3277
▁разглядывая	-11.3279
▁неожиданности	-11.3279
▁татар	-11.328
▁галстук	-11.328
рий	-11.3281
▁Володя	-11.3282
▁командиров	-11.3282
▁пассажир	-11.3283
▁обрыв	-11.3283
▁позволила	-11.3287
▁Её	-11.3289
▁Рус	-11.329
▁зайти	-11.3292
▁русским	-11.3292
крат	-11.3293
▁тракт	-11.3294
▁повис	-11.3294
ившиеся	-11.3296
▁убрать	-11.3296
▁первыми	-11.3297
▁герцога	-11.33
▁Японии	-11.3304
▁Дэ	-11.3305
мах	-11.3306
▁бледно	-11.3307
▁погружа	-11.3308
▁занимал	-11.3308
▁держав	-11.331
▁фразы	-11.331
▁ртом	-11.3311
▁включен	-11.3311
пали	-11.3312
▁2000	-11.3312
▁око	-11.3313
▁столице	-11.3313
▁Оказывается	-11.3313
энд	-11.3314
▁обид	-11.3315
верт	-11.3317
▁виды	-11.3317
▁роде	-11.3318
▁открытой	-11.3318
▁дружно	-11.3318
ировав	-11.332
▁целые	-11.3323
▁што	-11.3323
▁приходят	-11.3323
▁встречаться	-11.3323
слушива	-11.3324
▁следующую	-11.3327
▁чудес	-11.3327
ушкой	-11.333
53	-11.3331
▁судеб	-11.3331
▁пули	-11.3331
▁разбудил	-11.3331
▁коммунист	-11.3332
бирает	-11.3333
печ	-11.3336
▁соседей	-11.3337
йдёт	-11.3338
▁моменты	-11.334
▁вынуждены	-11.3342
02	-11.3344
▁партий	-11.3344
▁встречал	-11.3345
▁сумеет	-11.3346
▁темный	-11.3347
▁Мур	-11.3347
om	-11.3347
▁потянул	-11.3348
▁Луи	-11.3348
89	-11.3349
▁хлопнул	-11.3349
▁Христос	-11.335
▁небольшое	-11.3351
▁страницы	-11.3353
▁переправ	-11.3354
▁начнут	-11.3355
▁обстоятельство	-11.3356
ставлю	-11.3357
▁Честно	-11.3357
▁разрешение	-11.3358
▁единственно	-11.3359
▁привела	-11.336
▁племен	-11.336
▁магнит	-11.3362
ичный	-11.3364
▁дверцу	-11.3365
▁ценности	-11.3365
йдя	-11.3365
▁составлен	-11.3365
▁клин	-11.3367
▁высказал	-11.3368
ностей	-11.3368
▁района	-11.3368
ation	-11.337
▁рабочий	-11.337
жива	-11.3371
46	-11.3372
▁установил	-11.3372
▁Бал	-11.3372
▁лучшим	-11.3373
евший	-11.3373
▁лун	-11.3376
▁зна	-11.3377
сков	-11.3377
▁древней	-11.3377
▁черную	-11.3378
▁законов	-11.338
▁рожда	-11.3381
▁кольца	-11.3384
▁золотых	-11.3384
▁ответы	-11.3385
▁улыбки	-11.3385
▁привлечь	-11.3386
▁холодным	-11.3386
▁получения	-11.3387
▁Гром	-11.3387
смерт	-11.339
▁собеседника	-11.3391
▁Марс	-11.3393
▁едет	-11.3393
▁бояр	-11.3393
▁Гитлера	-11.3393
кину	-11.3393
▁пролив	-11.3394
▁Достаточно	-11.3396
▁белыми	-11.3396
уча	-11.3397
▁исследований	-11.3397
▁Князь	-11.3397
▁случаю	-11.3399
▁выступ	-11.3399
▁запрос	-11.3399
сот	-11.3401
▁красивые	-11.3402
▁приложил	-11.3403
▁горячо	-11.3403
▁важнее	-11.3404
▁Землю	-11.3405
Ко	-11.3407
▁подавлен	-11.3407
▁Вода	-11.3407
▁понимания	-11.3408
▁смертельно	-11.3408
▁роб	-11.3411
строй	-11.3411
▁подняли	-11.3412
▁учил	-11.3412
▁метрах	-11.3414
▁прибыв	-11.3414
▁программу	-11.3415
▁возьму	-11.3415
▁государь	-11.3416
▁задать	-11.3416
▁Первые	-11.3416
▁заключение	-11.3417
▁внутреннего	-11.3419
▁выглядело	-11.3419
▁победа	-11.3421
▁Хал	-11.3421
▁предков	-11.3423
▁учеников	-11.3423
уры	-11.3424
▁приходили	-11.3425
валь	-11.3426
жка	-11.3426
▁показывать	-11.3427
очками	-11.343
▁перестали	-11.343
▁золотые	-11.343
равня	-11.3432
▁Бак	-11.3432
▁Конан	-11.3433
▁трудности	-11.3433
жно	-11.3433
▁Стан	-11.3434
▁помнит	-11.3435
▁улицах	-11.3435
Ан	-11.3439
▁собираешься	-11.3441
▁изменился	-11.3443
▁льда	-11.3443
▁приехать	-11.3443
▁широкий	-11.3445
▁группой	-11.345
▁воевать	-11.345
вич	-11.3452
▁возвраща	-11.3452
▁тревоги	-11.3453
▁двигатель	-11.3457
▁старым	-11.3458
▁угрозы	-11.3459
▁плечах	-11.3459
▁Кин	-11.3459
▁больницу	-11.3461
▁призван	-11.3464
▁желто	-11.3467
▁квартир	-11.347
▁стиль	-11.3471
▁преодолеть	-11.3471
▁молока	-11.3471
▁Одни	-11.3472
▁Ир	-11.3472
мести	-11.3472
▁сада	-11.3474
нику	-11.3474
▁случаи	-11.3479
тельной	-11.3479
▁швед	-11.3483
▁возвращался	-11.3483
▁героев	-11.3483
цер	-11.3486
▁Коль	-11.3487
ul	-11.3488
▁имущество	-11.3488
▁направились	-11.3489
▁бесед	-11.3489
▁пусты	-11.3491
▁стесня	-11.3493
▁завет	-11.3494
▁Ново	-11.3496
▁подобной	-11.35
▁великих	-11.35
чего	-11.35
▁охранник	-11.3501
▁силуэт	-11.3502
▁гол	-11.3503
▁обратилась	-11.3504
▁нога	-11.3504
▁найду	-11.3504
▁висел	-11.3505
своему	-11.3505
▁разными	-11.3507
▁пятно	-11.3508
▁Понимаешь	-11.351
▁французский	-11.351
▁Тони	-11.351
.],	-11.3511
лять	-11.3511
ован	-11.3512
ёв	-11.3512
▁Павлов	-11.3514
▁заклинания	-11.3514
▁Вторая	-11.3514
▁фар	-11.3514
▁сколь	-11.3514
▁признание	-11.3514
▁стрелы	-11.3515
тти	-11.3516
▁указывал	-11.3518
▁био	-11.3518
▁аргумент	-11.3518
▁вера	-11.3522
▁(17	-11.3522
57	-11.3524
▁неудобно	-11.3526
▁признак	-11.3527
▁остаются	-11.3528
▁читает	-11.3529
▁фланг	-11.3529
ly	-11.353
▁нелепо	-11.3531
▁методы	-11.3533
▁хлопот	-11.3534
иях	-11.3536
▁смеяться	-11.3536
▁супер	-11.3537
чник	-11.3539
▁борода	-11.3546
▁Полковник	-11.3547
▁лечения	-11.3548
▁облако	-11.3548
▁рынок	-11.3549
▁грани	-11.3549
▁собрания	-11.3549
▁пахло	-11.355
▁вождя	-11.3551
▁ставит	-11.3552
▁мотоцикл	-11.3552
▁маму	-11.3553
джер	-11.3553
▁Лар	-11.3553
▁кошка	-11.3553
ленная	-11.3553
▁миллиона	-11.3554
крыть	-11.3555
▁распоряжение	-11.3556
▁блеск	-11.3556
чё	-11.3557
▁произнёс	-11.3557
▁совесть	-11.3558
▁великан	-11.3558
Ба	-11.356
▁игре	-11.3561
▁безнадежно	-11.3562
анда	-11.3563
▁выжить	-11.3563
▁шест	-11.3564
▁Эми	-11.3564
▁квартира	-11.3564
▁Дей	-11.3565
▁крепче	-11.3566
▁салат	-11.3567
▁предположил	-11.3567
лёт	-11.3568
▁скрыва	-11.3571
ающей	-11.3573
▁портал	-11.3573
▁поглядел	-11.3573
▁поднимая	-11.3574
▁Энн	-11.3575
▁новыми	-11.3576
▁понят	-11.3577
▁Надя	-11.3577
▁заглянуть	-11.3578
▁главная	-11.3579
▁кра	-11.358
ИН	-11.3581
▁свернул	-11.3582
▁побери	-11.3584
уна	-11.3584
гружен	-11.3585
пада	-11.3585
▁открывал	-11.3587
еш	-11.3588
▁произойти	-11.3589
▁СС	-11.3589
▁статья	-11.359
▁нанести	-11.3592
▁мамы	-11.3592
стин	-11.3593
▁рынке	-11.3593
▁терпение	-11.3594
▁Позже	-11.3594
▁повторить	-11.3595
▁двенадцати	-11.3596
▁эпоху	-11.3597
ере	-11.36
▁Павлович	-11.3602
▁пробовал	-11.3604
▁грозит	-11.3605
▁собралась	-11.3605
▁услуг	-11.3605
оны	-11.3605
▁настроения	-11.3607
▁вспомнив	-11.3611
▁цена	-11.3612
▁открыли	-11.3612
▁института	-11.3614
▁неоднократно	-11.3615
ходишь	-11.3615
▁шок	-11.3617
уме	-11.3619
▁хмур	-11.3619
▁Жак	-11.362
▁обнажен	-11.3623
▁зеленые	-11.3623
уп	-11.3625
▁чертов	-11.3626
нен	-11.3627
▁находит	-11.3627
▁оставлять	-11.3629
ира	-11.363
▁указывает	-11.3631
хлеб	-11.3631
▁барьер	-11.3632
▁ездил	-11.3632
▁ветви	-11.3634
ета	-11.3634
существ	-11.3635
▁уста	-11.3635
ившего	-11.3637
▁американский	-11.3637
▁перехода	-11.3638
▁описан	-11.3641
▁пират	-11.3642
▁обойтись	-11.3642
евым	-11.3642
▁тарелку	-11.3643
▁элемент	-11.3644
▁вывел	-11.3645
▁тверд	-11.3646
▁легла	-11.3647
▁коли	-11.3648
чн	-11.365
▁эр	-11.3651
верх	-11.3651
▁обычных	-11.3652
▁помогли	-11.3662
шуюся	-11.3662
▁опор	-11.3663
сор	-11.3663
▁глубину	-11.3663
▁сталь	-11.3663
▁услышали	-11.3667
▁Эдвард	-11.3667
▁отнес	-11.3667
▁жалоб	-11.3668
▁Тон	-11.3669
▁НЕ	-11.3669
▁Пет	-11.367
▁изначально	-11.3671
▁выпуск	-11.3671
▁скуч	-11.3671
▁имеются	-11.3673
▁царство	-11.3673
▁висели	-11.3674
▁стороной	-11.3675
▁надпись	-11.3675
▁Гай	-11.3677
эс	-11.3677
▁1943	-11.3677
▁спальни	-11.3678
49	-11.3683
▁ставил	-11.3684
▁растений	-11.3685
▁обещание	-11.3685
▁поза	-11.3689
▁объекта	-11.3689
▁Кат	-11.369
▁согласие	-11.369
▁восста	-11.369
▁оборон	-11.3691
▁скрывать	-11.3692
кладывать	-11.3693
▁Коп	-11.3693
▁отлич	-11.3695
▁объектив	-11.3695
прост	-11.3696
▁Джесси	-11.3697
▁глупости	-11.3697
▁наследник	-11.3697
▁Буду	-11.3697
[3	-11.3697
▁музыки	-11.3699
▁блондин	-11.37
▁воскресенье	-11.3701
▁шаман	-11.3702
думал	-11.3702
мены	-11.3702
▁держался	-11.3703
▁деда	-11.371
▁покинули	-11.3711
64	-11.3711
▁улыба	-11.3712
▁напряжен	-11.3712
▁мирно	-11.3716
▁отвечаю	-11.3717
▁спали	-11.3718
▁машинально	-11.3718
ливать	-11.3719
▁Ким	-11.3719
▁шелк	-11.372
▁Сел	-11.3722
▁Единственное	-11.3723
▁специалист	-11.3724
▁важных	-11.3725
▁первоначально	-11.3726
▁вскричал	-11.3726
▁выразить	-11.3727
▁полз	-11.3732
▁каприз	-11.3732
▁Точнее	-11.3733
▁пропасть	-11.3734
▁случается	-11.3735
▁велико	-11.3735
рай	-11.3736
86	-11.3738
▁смущенно	-11.3738
▁Демон	-11.3739
авших	-11.3739
▁наступил	-11.374
▁вреда	-11.3742
▁катер	-11.3744
▁операцию	-11.3745
▁молитвы	-11.3747
▁теория	-11.3747
▁мышц	-11.3748
юще	-11.3749
▁американских	-11.3751
▁прикрыл	-11.3752
▁уступ	-11.3753
▁реформ	-11.3753
ложены	-11.3754
▁обвиня	-11.3754
▁80	-11.3755
▁Дет	-11.3755
▁Тир	-11.3756
гонять	-11.3759
доволь	-11.3759
▁любимой	-11.376
▁взглянув	-11.376
▁королю	-11.376
▁руководства	-11.3764
▁заслужил	-11.3766
▁структур	-11.377
85	-11.3771
▁одиночку	-11.3772
▁смел	-11.3774
вания	-11.3774
вард	-11.3775
волос	-11.3776
гл	-11.3776
▁характеристик	-11.3776
▁500	-11.3777
цин	-11.3777
▁выражен	-11.3778
▁суждено	-11.378
▁временно	-11.378
бей	-11.378
чать	-11.378
бон	-11.3781
▁Жена	-11.3782
▁обладал	-11.3782
▁искали	-11.3783
▁взгляде	-11.3783
▁Вернее	-11.3784
▁цены	-11.3785
резан	-11.3785
▁организовать	-11.379
▁присутствующих	-11.379
▁потащил	-11.3791
▁разговоров	-11.3794
▁простить	-11.3795
▁щелкнул	-11.3795
▁Лан	-11.3796
еру	-11.3796
▁подходил	-11.3797
▁невозмутимо	-11.3797
▁тонкой	-11.3799
▁построить	-11.38
▁Леди	-11.38
▁казаться	-11.3801
▁уют	-11.3804
ийской	-11.3804
▁существовании	-11.3806
▁триста	-11.3806
брат	-11.3806
▁Уль	-11.3807
щиков	-11.3807
▁болезненно	-11.3808
▁пресс	-11.3808
▁вернул	-11.381
был	-11.3811
▁диване	-11.3813
▁услов	-11.3814
анти	-11.3814
▁заполнен	-11.3814
▁рабов	-11.3815
▁желез	-11.3816
▁культ	-11.3816
кажешь	-11.3817
народ	-11.3819
▁робко	-11.382
▁камин	-11.3821
▁предположение	-11.3822
инской	-11.3823
▁вывести	-11.3824
мил	-11.3825
▁сбежал	-11.3825
мета	-11.3825
▁двигались	-11.3825
хорош	-11.3825
▁армий	-11.3826
▁комитет	-11.3828
▁Дин	-11.3828
▁обезьян	-11.3829
▁издал	-11.383
▁приход	-11.3831
енка	-11.3832
джа	-11.3833
▁женился	-11.3833
▁подниматься	-11.3835
▁возразила	-11.3835
▁Рам	-11.3835
▁Миш	-11.3836
▁создавать	-11.3836
ола	-11.3838
монд	-11.3839
▁видимости	-11.384
даль	-11.384
▁исполнен	-11.3841
▁любимый	-11.3844
евая	-11.3844
▁постарался	-11.3844
▁убедился	-11.3845
▁локоть	-11.3845
▁углом	-11.3845
▁потрясен	-11.3846
▁песен	-11.3849
▁окинул	-11.3849
▁итог	-11.3849
шл	-11.385
▁Ер	-11.3851
▁маме	-11.3853
▁змея	-11.3853
▁государств	-11.3853
▁осенью	-11.3854
▁статью	-11.3854
уда	-11.3855
▁благоприятн	-11.3858
▁устала	-11.3859
▁Фра	-11.3859
▁войсками	-11.3861
▁окликнул	-11.3862
▁шумно	-11.3863
▁валя	-11.3863
▁точности	-11.3865
▁доверие	-11.3866
▁опустив	-11.3866
▁добрые	-11.3866
▁Пен	-11.3867
▁блин	-11.3869
▁грязно	-11.3869
▁пса	-11.3869
▁растет	-11.3869
▁бабушки	-11.387
▁заверил	-11.387
▁посредством	-11.3871
итов	-11.3871
ип	-11.3872
▁помещении	-11.3873
▁страшное	-11.3875
дос	-11.3876
▁учения	-11.3876
▁выбирать	-11.388
лле	-11.388
▁плечом	-11.3881
▁привлек	-11.3881
▁отверг	-11.3882
ec	-11.3884
▁Свят	-11.3884
▁интереса	-11.3885
▁разрешил	-11.3885
▁молчали	-11.3885
▁воздействия	-11.3886
▁пустил	-11.3887
▁бле	-11.3887
▁газете	-11.3888
▁труднее	-11.3889
93	-11.3891
▁заговорила	-11.3893
дох	-11.3893
гас	-11.3893
▁стих	-11.3894
вок	-11.3894
▁шарик	-11.3894
▁собаку	-11.3894
берет	-11.3894
▁39	-11.3896
▁слабый	-11.3897
▁моста	-11.3897
▁приказу	-11.3897
▁Китай	-11.3897
▁обстановку	-11.3898
▁особняк	-11.3899
▁обнаружен	-11.3899
катил	-11.3899
and	-11.39
▁Северус	-11.3901
▁донос	-11.3901
▁хрен	-11.3904
▁красивой	-11.3904
▁учебник	-11.3904
▁запер	-11.3905
▁сухой	-11.3906
99	-11.3906
▁приведен	-11.3906
▁пиджак	-11.3907
▁встретила	-11.3908
▁фраза	-11.3908
▁видео	-11.3909
▁шляпу	-11.3909
▁снегу	-11.391
▁художника	-11.3911
▁баба	-11.3912
▁деревьями	-11.3915
▁ужасе	-11.3916
▁весом	-11.3917
▁Софи	-11.3918
▁признаки	-11.392
▁предложен	-11.392
▁аэродром	-11.3921
▁курса	-11.3921
▁Ch	-11.3921
▁последнем	-11.3922
▁обыкновенно	-11.3923
▁продолжа	-11.3923
▁собор	-11.3923
хай	-11.3924
лению	-11.3928
▁повторять	-11.3928
▁нарочно	-11.393
рки	-11.3931
▁Начал	-11.3934
▁промолчал	-11.3934
▁призналась	-11.3937
▁вправо	-11.3937
▁печати	-11.3939
мас	-11.3939
▁задумалась	-11.394
▁древние	-11.394
▁результатов	-11.394
▁Сир	-11.394
▁едино	-11.394
▁трава	-11.3942
▁вмешался	-11.3942
▁извлек	-11.3943
▁необыкновенно	-11.3944
▁базе	-11.3945
ДА	-11.3948
▁Видите	-11.3948
▁открывать	-11.3948
сли	-11.3949
▁столицу	-11.3949
кинуть	-11.3952
63	-11.3952
▁перенес	-11.3954
▁пишу	-11.3955
▁бытия	-11.3955
▁прошлый	-11.3957
▁куртку	-11.3958
▁маги	-11.3962
▁редактор	-11.3963
▁отправлен	-11.3963
▁огни	-11.3964
▁Последние	-11.3964
▁Сергея	-11.3965
▁вершине	-11.3967
▁страхов	-11.3968
▁серо	-11.3968
▁размышлял	-11.3969
▁новому	-11.397
▁пасть	-11.397
▁профессионал	-11.3972
▁выводы	-11.3972
▁утратил	-11.3973
крест	-11.3974
▁имеете	-11.3975
▁300	-11.3975
жек	-11.3975
▁печ	-11.3976
▁щекам	-11.3976
говаривал	-11.3978
▁сохрани	-11.398
нга	-11.398
▁применения	-11.398
▁умеют	-11.398
▁устройства	-11.3984
▁живопис	-11.3986
ическому	-11.3986
▁Эмма	-11.3987
▁бодро	-11.3988
против	-11.3988
▁настаивал	-11.3989
87	-11.399
▁назначения	-11.399
▁соответствует	-11.3993
78	-11.3994
▁звуков	-11.3995
▁карта	-11.3995
▁слив	-11.3996
▁Ля	-11.3997
▁виден	-11.3998
▁мужчине	-11.3999
▁посту	-11.3999
▁существовало	-11.3999
▁признан	-11.4
▁расстояния	-11.4001
▁чудовище	-11.4002
▁подумав	-11.4002
▁стакана	-11.4003
▁предан	-11.4003
тым	-11.4004
▁отвернулась	-11.4004
▁земной	-11.4005
▁удивлению	-11.4006
▁мыслью	-11.4006
▁обеими	-11.4007
▁Орлов	-11.4009
ада	-11.4009
ехал	-11.401
чих	-11.401
▁обычным	-11.4012
▁совершен	-11.4013
▁шире	-11.4014
▁перспектив	-11.4014
▁донесся	-11.4016
▁научился	-11.4017
▁происходящее	-11.4018
▁обращал	-11.402
▁поездки	-11.4023
▁шу	-11.4023
▁плохого	-11.4023
▁Пять	-11.4024
▁водки	-11.4025
▁красота	-11.4025
держи	-11.4027
▁боку	-11.4029
▁использовали	-11.403
▁влиянием	-11.403
▁недоверчиво	-11.4033
▁собираются	-11.4034
▁греш	-11.4036
▁пополам	-11.4037
▁животные	-11.4037
▁поту	-11.4037
▁внешне	-11.4037
▁судья	-11.4037
▁отрезал	-11.4039
▁Примерно	-11.4042
67	-11.4043
▁блокнот	-11.4045
▁блюдо	-11.4045
▁мель	-11.4047
▁австр	-11.4048
▁приказа	-11.4048
▁Мам	-11.4051
▁отсек	-11.4051
дил	-11.4052
▁ладонями	-11.4054
живает	-11.4054
▁педагог	-11.4055
▁закончен	-11.4055
▁губах	-11.4056
▁расширя	-11.4056
гой	-11.4057
▁XVIII	-11.4058
▁сирот	-11.4059
▁просвет	-11.4062
времен	-11.4064
▁дороже	-11.4065
Де	-11.4065
▁отправили	-11.4066
▁тучи	-11.4069
рид	-11.407
ано	-11.407
▁рецепт	-11.4071
▁отсутствия	-11.4072
▁правления	-11.4072
▁персон	-11.4073
▁Мен	-11.4074
▁свечи	-11.4075
▁греб	-11.4077
▁быт	-11.408
▁одинок	-11.4081
▁цирк	-11.4081
▁боже	-11.4083
▁цепь	-11.4083
▁прекратить	-11.4085
▁Фор	-11.4087
тические	-11.4087
ant	-11.4088
▁предметов	-11.4088
▁обыск	-11.4088
▁арт	-11.4089
95	-11.4091
▁лаз	-11.4091
▁высоту	-11.4091
▁боятся	-11.4092
черт	-11.4092
▁вернемся	-11.4094
▁покои	-11.4095
▁друзьям	-11.4095
▁лета	-11.4096
▁надеялась	-11.4096
▁узел	-11.4096
рап	-11.4098
▁Испании	-11.4098
▁воротник	-11.4099
▁девяти	-11.4099
▁похвал	-11.4099
▁Украины	-11.41
▁впечатления	-11.4101
▁пел	-11.4102
▁наказания	-11.4102
▁Прекрасно	-11.4103
▁программа	-11.4105
▁лежат	-11.4106
емое	-11.4106
▁понравился	-11.4106
▁g	-11.4106
▁старую	-11.4107
▁угроза	-11.4107
Си	-11.4108
▁НКВД	-11.411
▁Пир	-11.411
гни	-11.4111
нн	-11.4115
▁тонкий	-11.4115
вым	-11.4116
ича	-11.4116
▁городах	-11.4117
▁нарушение	-11.4117
▁освободить	-11.4118
▁Женя	-11.4118
▁служба	-11.412
кси	-11.412
▁Кли	-11.412
дру	-11.4121
▁протест	-11.4122
ившихся	-11.4122
▁вину	-11.4123
▁(1	-11.4124
ТО	-11.4124
▁умом	-11.4125
▁диалог	-11.4125
иты	-11.4126
▁Толстой	-11.4127
▁комендант	-11.4128
).]	-11.4128
▁простые	-11.4128
ственным	-11.4128
▁спрятан	-11.4129
▁выходили	-11.413
копа	-11.4131
▁чет	-11.4132
кен	-11.4132
▁Ленинград	-11.4134
▁смутно	-11.4134
прос	-11.4135
▁полит	-11.4135
▁Думаешь	-11.4138
▁заказал	-11.4138
un	-11.4139
стрит	-11.4139
▁согласия	-11.4139
▁сыновей	-11.414
▁красавица	-11.414
▁подобным	-11.4142
▁горяч	-11.4144
▁шутка	-11.4144
▁испуга	-11.4145
▁фиг	-11.4149
▁зараз	-11.4149
▁закончилась	-11.4152
▁ростом	-11.4152
шняя	-11.4153
▁понадобилось	-11.4153
▁зубов	-11.4153
▁воров	-11.4154
▁обеспечен	-11.4154
▁букет	-11.4154
НО	-11.4155
▁берут	-11.4156
пт	-11.4157
▁грандиоз	-11.416
рика	-11.4162
▁мебель	-11.4164
▁животе	-11.4164
▁украин	-11.4164
▁контролировать	-11.4165
ини	-11.4166
▁текста	-11.4166
елей	-11.4169
▁сном	-11.4171
▁выстрела	-11.4172
▁готовности	-11.4175
▁мак	-11.4176
▁упрям	-11.4178
глян	-11.4178
▁относиться	-11.418
▁Академии	-11.418
если	-11.4181
▁Зуб	-11.4181
▁закончится	-11.4183
▁пуст	-11.4183
▁восторга	-11.4185
▁продолжение	-11.4185
▁цепля	-11.4185
▁влево	-11.4186
▁представляется	-11.4187
▁проснулась	-11.4188
▁прочел	-11.4189
▁вблизи	-11.4191
шар	-11.4192
▁двигался	-11.4192
▁пытаются	-11.4193
▁фундамент	-11.4193
▁используя	-11.4194
рать	-11.4194
▁партию	-11.4194
уг	-11.4195
док	-11.4197
нике	-11.4198
88	-11.4199
▁тупик	-11.4201
▁первому	-11.4201
▁поднес	-11.4202
▁Аня	-11.4202
▁чудеса	-11.4204
▁добычу	-11.4204
56	-11.4205
▁Алан	-11.4205
ывали	-11.4205
▁отчая	-11.4206
▁монастыря	-11.4208
▁масштаб	-11.4209
исто	-11.421
▁сейф	-11.4211
▁вытер	-11.4211
▁социальной	-11.4211
▁одиннадцать	-11.4213
▁обычные	-11.4216
авшего	-11.4216
▁небольшого	-11.4219
▁уловил	-11.422
▁пластин	-11.422
▁похожие	-11.422
▁человеч	-11.422
▁важный	-11.4221
▁Сквозь	-11.4223
▁объявлен	-11.4223
▁приглашение	-11.4223
скочив	-11.4224
сид	-11.4225
▁жаре	-11.4225
▁простых	-11.4226
▁сумки	-11.4226
▁выдать	-11.4226
▁штраф	-11.4227
▁сомневаться	-11.4228
▁подавля	-11.4228
▁Пап	-11.4228
▁вынес	-11.4229
▁живые	-11.4229
▁следа	-11.4231
▁Толстого	-11.4232
▁определенные	-11.4232
никами	-11.4234
▁договорились	-11.4234
▁доброго	-11.4234
▁строительство	-11.4235
▁мл	-11.4235
▁горели	-11.4237
нулся	-11.4237
▁учился	-11.4237
▁приятеля	-11.4237
дне	-11.4238
▁питания	-11.4239
▁клана	-11.424
▁лат	-11.4243
▁милиции	-11.4244
лила	-11.4244
▁рыцарь	-11.4244
▁теряет	-11.4244
▁погода	-11.4245
▁схватить	-11.4245
▁встретили	-11.4247
▁Чай	-11.4249
▁услуги	-11.4249
▁судна	-11.4251
истом	-11.4251
гли	-11.4251
▁твоему	-11.4251
▁падения	-11.4251
▁выступления	-11.4253
руга	-11.4254
▁данного	-11.4254
▁понравится	-11.4255
▁табурет	-11.4256
▁планов	-11.4257
▁клинок	-11.4257
▁Некоторое	-11.4259
▁вызвали	-11.426
▁заболевания	-11.426
евать	-11.426
боле	-11.4261
анс	-11.4263
▁окнами	-11.4263
▁эффективно	-11.4264
▁закончилось	-11.4265
▁обещан	-11.4268
▁признаков	-11.4268
▁Принц	-11.4269
▁семьдесят	-11.427
ывают	-11.427
▁смотрите	-11.427
▁полицейский	-11.4271
▁la	-11.4272
▁помогал	-11.4272
▁Ок	-11.4272
плю	-11.4273
▁соображения	-11.4276
▁перевести	-11.4276
▁злой	-11.4277
▁Хол	-11.4278
ометр	-11.4279
▁ме	-11.4283
▁Гуд	-11.4286
поло	-11.4287
▁занимает	-11.4287
▁кружев	-11.429
▁лифт	-11.4291
▁Стран	-11.4292
▁считаешь	-11.4292
кладывая	-11.4293
▁среде	-11.4296
▁поступать	-11.4297
▁скорей	-11.4297
▁оста	-11.4297
▁ценность	-11.4298
▁особый	-11.43
▁задания	-11.43
▁материалов	-11.4301
▁делаете	-11.4301
▁Армии	-11.4301
▁Ход	-11.4301
▁разговоре	-11.4301
мень	-11.4302
▁содержимое	-11.4304
▁счастливым	-11.4305
▁млн	-11.4306
▁плакала	-11.4307
▁фамилию	-11.4307
▁поддерживал	-11.4308
▁участвовать	-11.431
▁1918	-11.4311
▁юн	-11.4312
▁отправля	-11.4313
нули	-11.4314
сток	-11.4314
▁евреи	-11.4315
▁испытал	-11.4316
ment	-11.4317
▁мрак	-11.4317
писать	-11.4317
▁благ	-11.432
▁отыскал	-11.4326
▁Давид	-11.4327
▁вырвал	-11.4327
▁стукнул	-11.4329
щет	-11.4331
ОЛ	-11.4332
▁весть	-11.4333
▁выхватил	-11.4333
▁рассеянно	-11.4333
▁Коз	-11.4335
зь	-11.4335
▁указывая	-11.4335
▁помешать	-11.4335
нулись	-11.4337
▁Стол	-11.4338
[6	-11.4339
▁идёт	-11.4339
сторон	-11.4339
▁уютно	-11.434
▁любых	-11.4341
▁советские	-11.4341
▁жива	-11.4342
▁ценой	-11.4342
▁русском	-11.4344
▁Брод	-11.4344
▁молчала	-11.4345
▁Черно	-11.4346
гнали	-11.4347
▁расположение	-11.4347
Гр	-11.4349
▁тяжелых	-11.4349
▁шорох	-11.4349
ёс	-11.4349
▁полон	-11.435
▁небольшим	-11.435
рн	-11.4352
▁мяс	-11.4352
▁раскрыт	-11.4353
▁Хуан	-11.4353
жела	-11.4353
▁Меч	-11.4354
▁1939	-11.4354
▁глав	-11.4354
▁Помнишь	-11.4355
▁осведомился	-11.4357
▁Подо	-11.4359
69	-11.4364
▁Кровь	-11.4364
▁потерян	-11.4365
▁Выходит	-11.4365
79	-11.4366
▁Товарищ	-11.4367
▁побережье	-11.4367
▁юности	-11.4368
▁историк	-11.4368
▁гуля	-11.4369
▁дрогнул	-11.4372
://	-11.4374
▁спуск	-11.4376
▁исправить	-11.4376
▁раненых	-11.4377
▁Люд	-11.4377
абель	-11.4377
▁отваж	-11.4377
кис	-11.438
▁постиг	-11.4382
▁мешка	-11.4382
▁Твое	-11.4383
ственная	-11.4385
тку	-11.4386
▁колонны	-11.4386
стор	-11.4386
▁исполня	-11.4388
▁побежала	-11.4388
▁Роза	-11.4388
▁начнется	-11.439
чьи	-11.4393
ивал	-11.4393
икой	-11.4394
▁гостинице	-11.4394
ac	-11.4395
покой	-11.4395
▁слон	-11.4396
гур	-11.4396
▁обняла	-11.4397
коричнев	-11.4397
▁расстроен	-11.4398
▁справедливости	-11.4399
92	-11.4401
▁сигарет	-11.4401
▁отрыв	-11.4401
▁науч	-11.4401
▁фактор	-11.4402
▁собира	-11.4402
▁побывал	-11.4403
▁известен	-11.4404
▁оборудование	-11.4405
гг	-11.4407
винов	-11.4407
атель	-11.4407
▁оркестр	-11.4409
▁больного	-11.4412
▁лихорадочно	-11.4413
вязать	-11.4414
порядоч	-11.4416
▁студентов	-11.4416
▁Хотел	-11.4416
орд	-11.4417
▁слушала	-11.4418
▁неделе	-11.4419
▁Империи	-11.4419
▁Татьяна	-11.442
чая	-11.4421
льных	-11.4422
▁ложе	-11.4422
▁школа	-11.4426
▁колокол	-11.4427
▁Напротив	-11.443
▁любая	-11.4432
▁дадут	-11.4433
ge	-11.4433
▁похорон	-11.4434
▁убедительно	-11.4434
▁степень	-11.4434
▁миров	-11.4434
▁умный	-11.4437
▁сломан	-11.4437
брод	-11.4438
▁звонил	-11.4438
▁кип	-11.4439
▁современных	-11.444
▁стой	-11.4443
▁чар	-11.4444
▁множества	-11.4445
▁посыл	-11.4445
▁полоса	-11.4446
▁Бет	-11.445
▁вероятность	-11.4451
▁Бре	-11.4451
▁талантлив	-11.4451
иваю	-11.4452
▁бойся	-11.4452
ати	-11.4454
▁получен	-11.4456
лился	-11.4456
▁журнала	-11.4457
▁выбросил	-11.4458
лиц	-11.4459
▁буй	-11.4459
резал	-11.4459
вшемуся	-11.4459
▁Сад	-11.446
▁потреб	-11.446
▁указания	-11.4462
▁академии	-11.4463
рион	-11.4464
▁распоряжении	-11.4464
водят	-11.4464
▁семьей	-11.4465
йка	-11.4465
▁баланс	-11.4466
▁коварн	-11.4466
▁очертания	-11.4467
▁королевы	-11.4468
▁мостик	-11.4469
▁тигр	-11.4471
▁42	-11.4471
сла	-11.4473
▁Игнат	-11.4473
▁верст	-11.4474
▁учение	-11.4474
▁серые	-11.4475
▁потолка	-11.4476
▁заяв	-11.4477
▁ученик	-11.4478
гонял	-11.4479
нести	-11.4479
▁свадьбы	-11.4479
▁поражения	-11.4484
▁Ночью	-11.4486
нах	-11.4487
овцы	-11.4487
▁монастырь	-11.4488
▁дошли	-11.4488
▁объятиях	-11.4488
▁уважение	-11.4488
рку	-11.4489
▁бил	-11.449
▁статье	-11.449
▁оставлен	-11.449
▁оказать	-11.4492
▁Здравствуйте	-11.4492
▁монитор	-11.4492
тина	-11.4492
▁предельно	-11.4493
▁скелет	-11.4493
▁подъезд	-11.4493
▁Деньги	-11.4494
ведении	-11.4495
▁свар	-11.4496
пек	-11.45
▁выполнения	-11.45
▁приблизительно	-11.4502
вина	-11.4502
▁бандит	-11.4503
▁сильней	-11.4506
▁дис	-11.4508
▁месяцы	-11.4508
▁сравнительно	-11.4509
▁кг	-11.4509
▁допустим	-11.4509
▁шагах	-11.4512
▁внук	-11.4513
▁рассказы	-11.4517
сея	-11.4518
дира	-11.452
▁Поттер	-11.4523
▁достигли	-11.4524
74	-11.4524
▁Рот	-11.4525
▁показались	-11.4528
▁немецкий	-11.4528
▁жажду	-11.4528
▁неведомо	-11.453
▁специалистов	-11.4531
▁поймет	-11.4532
▁безумно	-11.4532
▁изображения	-11.4534
▁обсудить	-11.4535
▁связанных	-11.4535
▁ровным	-11.4536
▁листьев	-11.4536
▁крышку	-11.4539
▁пляж	-11.4539
▁обратить	-11.4539
▁послание	-11.454
▁солдата	-11.4541
▁фильма	-11.4543
▁падали	-11.4543
плав	-11.4544
▁дочерью	-11.4546
▁короткие	-11.4549
▁ущерб	-11.4549
▁Март	-11.455
▁общих	-11.455
Ар	-11.455
▁просила	-11.4551
▁банки	-11.4552
▁крупный	-11.4552
▁гордость	-11.4554
вого	-11.4556
лод	-11.4556
▁пустыне	-11.4559
▁Мель	-11.4559
▁канон	-11.4559
▁Роджер	-11.456
▁рейс	-11.4561
▁благодарность	-11.4563
▁милорд	-11.4563
▁особое	-11.4564
▁Тэ	-11.4564
▁изучать	-11.4564
▁Голов	-11.4565
туш	-11.4565
▁Понимаю	-11.4566
▁троп	-11.4566
силь	-11.4566
▁английского	-11.4568
▁Подожди	-11.4569
▁используют	-11.4574
▁сирен	-11.4575
▁дружески	-11.4575
▁написан	-11.4575
▁гнус	-11.4576
▁бросал	-11.4577
▁стуле	-11.4577
ложил	-11.4579
▁оторвал	-11.4579
▁Дел	-11.4579
▁48	-11.458
▁пацан	-11.458
нюю	-11.4581
▁дано	-11.4581
▁тянет	-11.4582
▁бригады	-11.4582
▁челюсть	-11.4582
нду	-11.4582
▁Стро	-11.4583
▁феномен	-11.4583
▁обсуждать	-11.4584
чел	-11.4585
▁Придется	-11.4586
▁обнаружив	-11.4588
▁единой	-11.4588
▁Став	-11.4588
ийских	-11.4589
служив	-11.4589
льно	-11.459
жный	-11.459
▁усталости	-11.4591
▁руль	-11.4591
льную	-11.4591
▁разговаривали	-11.4591
▁счета	-11.4592
▁третья	-11.4592
▁успеть	-11.4592
▁движении	-11.4592
▁потребность	-11.4594
Ст	-11.4596
▁климат	-11.4596
▁свят	-11.4598
▁тайно	-11.46
▁собственности	-11.4601
▁средствами	-11.4601
▁стрелков	-11.4602
▁налил	-11.4603
▁аналог	-11.4606
рук	-11.4606
▁лыс	-11.4606
▁заброшен	-11.4607
▁Лив	-11.4607
ними	-11.4607
Те	-11.4609
▁караул	-11.4609
▁палубу	-11.461
▁Ворон	-11.461
▁петь	-11.461
ведет	-11.461
▁упомянут	-11.4613
▁нанес	-11.4614
▁соседней	-11.4614
▁перешли	-11.4615
▁привычно	-11.4615
▁овладел	-11.4617
ключ	-11.4617
▁сняла	-11.4621
▁Можете	-11.4625
▁струи	-11.4626
▁проявления	-11.4627
▁отчаяния	-11.4629
▁спрос	-11.4631
▁счастливо	-11.4631
правлен	-11.4634
▁испугалась	-11.4635
▁больных	-11.4637
▁Уверен	-11.4638
елю	-11.4639
бух	-11.464
▁распа	-11.464
смотреть	-11.464
▁штук	-11.4642
▁обращение	-11.4642
▁подсказал	-11.4642
тереть	-11.4644
▁вещах	-11.4645
▁Женщины	-11.4646
ущий	-11.4648
▁Постепенно	-11.4648
▁свобода	-11.4649
▁учить	-11.4649
▁приглашен	-11.4649
полу	-11.465
▁хозяева	-11.465
▁пульт	-11.465
▁следующем	-11.4652
▁уголь	-11.4653
▁Святого	-11.4653
ною	-11.4654
▁выбран	-11.4655
▁замкнут	-11.4655
▁беспокоиться	-11.4656
▁сказки	-11.4658
тул	-11.4658
вались	-11.466
ставим	-11.466
▁передачи	-11.4661
▁заходил	-11.4663
▁Разговор	-11.4664
нца	-11.4668
валились	-11.4669
▁Пел	-11.4671
▁человеческий	-11.4671
▁поднимается	-11.4671
▁процент	-11.4673
тил	-11.4673
▁фонарик	-11.4673
▁Фри	-11.4674
▁погас	-11.4674
нина	-11.4674
▁площадку	-11.4675
сии	-11.4675
▁патрон	-11.4675
АЛ	-11.4675
▁миллионы	-11.4675
▁Сами	-11.4679
▁ели	-11.4679
▁молчать	-11.4679
▁цыган	-11.4681
▁демона	-11.4682
▁нырнул	-11.4682
▁сообщили	-11.4682
▁армией	-11.4683
▁Помимо	-11.4683
веди	-11.4684
▁брон	-11.4685
po	-11.4685
▁широкие	-11.4685
▁истери	-11.4687
▁замечает	-11.4687
▁вертел	-11.4688
▁ходила	-11.4689
льная	-11.469
▁выделен	-11.4691
▁получают	-11.4693
▁Атлант	-11.4693
▁метра	-11.4693
гард	-11.4693
▁Третий	-11.4694
хин	-11.4694
стань	-11.4695
▁слабым	-11.4695
▁трёх	-11.4695
▁Жар	-11.4697
даются	-11.4698
▁мину	-11.4699
работать	-11.4699
▁грудью	-11.47
▁притвор	-11.47
лера	-11.4701
ig	-11.4701
жден	-11.4704
ведом	-11.4706
▁элементов	-11.4708
▁распахнул	-11.4709
▁относился	-11.4709
▁угрозу	-11.471
▁поврежден	-11.4711
▁принадлежал	-11.4712
▁произошла	-11.4713
ходит	-11.4714
▁сочета	-11.4714
▁сестрой	-11.4714
▁свету	-11.4716
▁танки	-11.4717
▁контейнер	-11.4718
▁Следовательно	-11.4718
▁темп	-11.4718
▁узнаю	-11.4719
▁грозно	-11.472
▁взглядами	-11.472
▁предлагаю	-11.4722
▁собственном	-11.4722
▁камнем	-11.4722
▁поделать	-11.4723
тяг	-11.4724
▁150	-11.4726
НА	-11.4726
▁груст	-11.4726
▁подушку	-11.4726
▁прежней	-11.4728
▁ламп	-11.4728
▁Никак	-11.4728
▁догадаться	-11.4728
овских	-11.4729
▁подверга	-11.473
▁сфере	-11.4731
ственных	-11.4733
▁морю	-11.4733
▁Мит	-11.4734
▁Сор	-11.4734
шедшего	-11.4735
▁появляются	-11.4736
▁деятель	-11.4736
▁предупреждал	-11.4737
пух	-11.4737
▁тайной	-11.4738
▁любым	-11.4738
▁откинулся	-11.4738
двин	-11.474
▁Федерации	-11.474
ерн	-11.474
ell	-11.4741
▁достав	-11.4741
▁заменить	-11.4742
▁берегов	-11.4743
нож	-11.4743
хождения	-11.4744
▁просьбу	-11.4745
84	-11.4746
▁ракеты	-11.4746
▁королем	-11.4747
считал	-11.4747
man	-11.4748
▁пут	-11.4749
▁выступал	-11.475
▁дрожа	-11.475
жки	-11.4752
▁отказалась	-11.4753
▁младший	-11.4753
▁воина	-11.4754
телен	-11.4756
▁сража	-11.4757
▁экономики	-11.4759
▁улов	-11.4759
▁поведал	-11.4759
▁открытие	-11.4759
▁тротуар	-11.4759
▁развед	-11.476
▁криво	-11.4761
▁искажен	-11.4763
мес	-11.4764
▁горячей	-11.4764
евского	-11.4765
▁туфли	-11.4768
▁авиации	-11.477
тический	-11.477
▁врагом	-11.4771
▁чтение	-11.4772
▁лейтенанта	-11.4772
нется	-11.4773
анные	-11.4774
▁лишний	-11.4774
▁корни	-11.4774
▁уничтожен	-11.4774
▁шума	-11.4774
Хо	-11.4775
▁надоело	-11.4775
▁туго	-11.4776
▁Хотелось	-11.4776
фар	-11.4776
▁воспринимал	-11.4777
рё	-11.4777
оро	-11.478
гнув	-11.4783
73	-11.4783
▁гладко	-11.4785
▁клуба	-11.4786
▁Чита	-11.4786
вержен	-11.4788
▁прекрасная	-11.4788
▁парт	-11.479
▁ржа	-11.4791
▁капель	-11.4792
▁разглядывал	-11.4796
▁вспоминая	-11.4797
▁редкость	-11.4801
▁Рок	-11.4801
▁захлопнул	-11.4803
▁нуждается	-11.4803
лена	-11.4804
▁победить	-11.4804
▁встретился	-11.4805
▁странная	-11.4806
лилась	-11.4806
▁вяло	-11.4808
▁преимущество	-11.4808
истым	-11.481
▁пахнет	-11.481
▁Рез	-11.481
▁сотрудник	-11.481
▁плохой	-11.4811
▁Бир	-11.4812
▁вином	-11.4812
истых	-11.4813
▁СПб	-11.4814
▁глубоким	-11.4815
▁Дженни	-11.4815
▁хвал	-11.4815
▁шепнул	-11.4819
▁знаки	-11.4819
▁дна	-11.482
▁верхов	-11.482
▁вдвое	-11.4821
нами	-11.4822
▁фунтов	-11.4823
▁поистине	-11.4825
all	-11.4825
▁пассажиров	-11.4825
▁раскачива	-11.4828
▁интеллигент	-11.4828
оля	-11.4828
▁Довольно	-11.4829
Ла	-11.483
▁Всех	-11.483
▁знакомым	-11.483
двинуть	-11.4831
▁лихо	-11.4831
шло	-11.4831
▁пользовался	-11.4832
▁Кинг	-11.4833
▁признавал	-11.4833
91	-11.4833
АН	-11.4834
▁коры	-11.4835
▁Марго	-11.4839
▁мышления	-11.484
▁курил	-11.4841
зия	-11.4842
щики	-11.4844
аг	-11.4845
▁задавал	-11.4845
люд	-11.4846
▁полицию	-11.4847
актив	-11.4847
пин	-11.4847
кла	-11.4847
▁прислал	-11.4848
▁потянулась	-11.4848
▁бывших	-11.4848
▁Президент	-11.4849
▁пытаюсь	-11.4849
▁разорвал	-11.485
купа	-11.4851
▁боялись	-11.4851
▁торгов	-11.4851
▁выполнил	-11.4851
▁требую	-11.4851
гроб	-11.4851
▁знакомства	-11.4852
▁чер	-11.4853
трав	-11.4854
▁видать	-11.4855
оже	-11.4855
▁рабы	-11.4855
давать	-11.4856
▁тихим	-11.4856
нз	-11.4858
ватый	-11.4858
▁собираясь	-11.4859
▁зелено	-11.4859
стил	-11.4859
▁умирать	-11.486
▁коробку	-11.4862
▁облегчение	-11.4862
едем	-11.4863
▁вкусу	-11.4863
▁сложнее	-11.4863
▁возмутился	-11.4864
▁умение	-11.4866
▁катастроф	-11.4869
▁женский	-11.4871
▁Екатерина	-11.4871
вра	-11.4872
▁рек	-11.4873
дут	-11.4873
▁похлопал	-11.4874
▁вклад	-11.4876
▁клиента	-11.4877
▁взором	-11.4877
▁гостиницы	-11.4878
▁1944	-11.4878
▁Берлин	-11.4878
▁похожее	-11.4878
ительных	-11.4878
▁Часто	-11.4879
▁непросто	-11.488
▁странной	-11.488
ходят	-11.4881
▁пятнадцати	-11.4881
тических	-11.4882
▁девица	-11.4882
“.	-11.4883
▁Ци	-11.4883
▁Марин	-11.4883
▁членом	-11.4885
чков	-11.4886
▁плевать	-11.4887
58	-11.4887
летел	-11.4887
▁пустые	-11.4888
▁Страх	-11.4889
▁свободе	-11.489
▁угас	-11.489
▁расп	-11.489
гиб	-11.4892
▁зоны	-11.4892
▁КГБ	-11.4894
▁продаж	-11.4896
▁43	-11.4897
▁свято	-11.4899
▁тюрем	-11.4899
96	-11.4899
▁Коб	-11.49
▁камнями	-11.4901
▁зенит	-11.4901
▁источников	-11.4902
▁неохотно	-11.4903
▁спрыгнул	-11.4904
▁Вор	-11.4906
▁источника	-11.4906
▁Первой	-11.4907
▁станешь	-11.4907
▁Ари	-11.4908
de	-11.4908
-3	-11.4908
друг	-11.4914
▁появиться	-11.4914
колот	-11.4914
ссе	-11.4915
▁Гали	-11.4915
▁обер	-11.4916
▁песка	-11.4916
▁поезда	-11.4916
▁школ	-11.492
▁ударила	-11.492
▁рубеж	-11.492
▁выставил	-11.4921
▁свободное	-11.4921
▁любимого	-11.4922
▁гуд	-11.4923
▁n	-11.4923
Та	-11.4923
▁высшего	-11.4923
▁верный	-11.4924
▁единиц	-11.4924
▁апостол	-11.4925
▁мучительно	-11.4925
правлял	-11.4925
▁пошёл	-11.4926
▁объяснила	-11.4926
▁лба	-11.4926
▁завис	-11.4927
▁хвостом	-11.4931
▁ров	-11.4931
едешь	-11.4934
▁звание	-11.4935
▁Соня	-11.4936
▁подтверждение	-11.4936
хали	-11.4938
▁мятеж	-11.4939
▁Церкви	-11.4939
59	-11.4941
▁обща	-11.4941
▁Тео	-11.4941
мота	-11.4941
▁поступок	-11.4941
▁сильной	-11.4943
шение	-11.4943
▁вопросам	-11.4945
▁приняв	-11.4946
слал	-11.4947
▁слой	-11.4947
▁либерал	-11.4947
вернувшись	-11.4947
альд	-11.4947
▁помогла	-11.4949
▁бойцы	-11.495
▁сахара	-11.495
бивал	-11.4951
▁клиентов	-11.4951
▁политике	-11.4951
▁приносит	-11.4951
▁мешать	-11.4952
▁предпочел	-11.4953
▁общин	-11.4954
глу	-11.4954
▁зем	-11.4955
эд	-11.4956
83	-11.4956
▁денеж	-11.4957
▁вып	-11.4957
▁базар	-11.4958
▁каст	-11.4958
дора	-11.4958
▁ковер	-11.4958
▁влез	-11.496
▁отложил	-11.496
▁Бед	-11.4961
▁реал	-11.4961
▁1990	-11.4964
▁искус	-11.4965
▁ребенку	-11.4968
▁Мира	-11.4969
▁задачей	-11.4969
▁бумаг	-11.4973
▁бежит	-11.4973
▁драться	-11.4976
▁элементы	-11.4977
▁образа	-11.4978
▁бунт	-11.4978
▁строительства	-11.498
▁небольшом	-11.4981
▁велика	-11.4981
94	-11.4982
▁Двадцать	-11.4982
▁азарт	-11.4983
▁завопил	-11.4984
рана	-11.4984
▁сжимал	-11.4985
анг	-11.4985
правил	-11.4986
стов	-11.4987
▁базу	-11.4987
государственного	-11.4987
▁театре	-11.4989
▁карандаш	-11.499
▁отмахнулся	-11.499
пускают	-11.499
лд	-11.499
▁обез	-11.4994
▁интересное	-11.4994
▁живы	-11.4995
▁повышен	-11.4995
▁рубашки	-11.4996
▁несчастный	-11.4996
ческих	-11.4996
▁присутствовал	-11.4999
▁далек	-11.4999
тора	-11.4999
▁хорошую	-11.4999
йского	-11.4999
елла	-11.5
рот	-11.5001
▁Рак	-11.5001
▁человеческие	-11.5002
▁стадии	-11.5002
▁виноград	-11.5002
▁Павла	-11.5002
▁дяди	-11.5002
▁молнии	-11.5003
ОЙ	-11.5004
ci	-11.5005
казываю	-11.5005
▁хитр	-11.5006
▁разнообраз	-11.5006
▁охоту	-11.5007
цкий	-11.5008
ивали	-11.5009
▁убеди	-11.5009
ранж	-11.501
▁Мэтью	-11.501
▁произнести	-11.501
▁вызвало	-11.5014
▁наполнил	-11.5015
▁Владимира	-11.5016
волок	-11.5017
em	-11.5021
▁Услышав	-11.5021
▁возвращение	-11.5021
▁отчаяние	-11.5022
▁Грей	-11.5023
▁дву	-11.5023
▁обвинения	-11.5024
▁проведения	-11.5024
▁Гр	-11.5026
▁взлет	-11.5026
чест	-11.5027
▁знаменитый	-11.5027
▁натянул	-11.5027
имый	-11.5027
▁обещаю	-11.5028
▁читала	-11.5029
▁Ив	-11.5029
тащить	-11.5029
ложенные	-11.5029
тягивая	-11.503
▁маленькое	-11.503
ленную	-11.503
▁связана	-11.503
▁близости	-11.5031
чести	-11.5032
анна	-11.5032
▁оставшиеся	-11.5033
▁Вика	-11.5035
оби	-11.5035
пло	-11.5035
ОВ	-11.5036
щийся	-11.5037
ившие	-11.5037
▁угрюмо	-11.5037
▁куп	-11.5038
тягивал	-11.5038
сыпал	-11.5039
▁интер	-11.5041
▁вызыва	-11.5042
▁упасть	-11.5042
▁Валь	-11.5043
▁отстал	-11.5043
▁связ	-11.5043
▁поставлен	-11.5045
шкин	-11.5045
▁вторым	-11.5045
▁ощутила	-11.5046
чо	-11.5047
▁придержива	-11.5048
▁прекрасной	-11.5049
▁Юра	-11.505
▁свободной	-11.5052
▁фор	-11.5054
тян	-11.5054
▁Реш	-11.5054
▁назнача	-11.5056
▁44	-11.5057
▁закрывал	-11.5061
▁шнур	-11.5061
Са	-11.5062
▁запястье	-11.5062
▁комсомол	-11.5063
▁помешал	-11.5065
▁Ночь	-11.5066
▁выругался	-11.5067
▁упражнения	-11.5068
▁Хай	-11.5069
▁Марта	-11.507
▁окончил	-11.5074
▁творится	-11.5075
бывал	-11.5076
▁совместно	-11.5078
▁банков	-11.5078
ированный	-11.5078
▁рану	-11.5079
▁зачастую	-11.5079
▁структуры	-11.5081
▁кинулся	-11.5081
▁торпед	-11.5082
▁сделаем	-11.5082
▁забывать	-11.5083
▁вождь	-11.5085
▁среды	-11.5085
несло	-11.5086
▁заплатить	-11.5086
▁ударить	-11.5086
▁скажете	-11.5086
▁Шум	-11.5087
▁снимать	-11.5088
спан	-11.5088
▁рукам	-11.5089
овки	-11.5089
▁светлые	-11.5091
тыка	-11.5092
▁настороженно	-11.5092
▁местами	-11.5094
▁мм	-11.5095
▁наблюдала	-11.5096
▁свежий	-11.5096
предел	-11.5097
дана	-11.5097
▁вручил	-11.5098
толкнул	-11.5098
▁сынок	-11.5102
▁двига	-11.5103
▁извини	-11.5103
▁запустил	-11.5104
▁одева	-11.5104
▁боле	-11.5108
▁бер	-11.5108
▁настроении	-11.5108
▁пытаться	-11.5109
▁тьма	-11.5111
▁Какого	-11.5115
▁ветки	-11.5115
скорб	-11.5115
▁Жу	-11.5116
▁Необходимо	-11.5118
▁встречаются	-11.5119
ндер	-11.5121
▁поняв	-11.5122
ливым	-11.5122
▁ци	-11.5123
мак	-11.5123
▁лучшем	-11.5124
▁Большая	-11.5126
▁задавать	-11.5126
▁спокойной	-11.5127
▁фашист	-11.5127
▁мужики	-11.5128
▁спуска	-11.513
▁гнил	-11.5133
▁вступить	-11.5133
▁общим	-11.5133
▁Вес	-11.5134
▁сопротивления	-11.5135
▁оси	-11.5136
▁Зак	-11.5137
▁круги	-11.5137
жж	-11.5139
▁пруд	-11.5139
анный	-11.5142
▁вздохом	-11.5143
▁отверстие	-11.5145
▁визг	-11.5145
tion	-11.5145
яна	-11.5145
ap	-11.5146
▁революция	-11.5148
▁навис	-11.5148
ИТ	-11.5148
очная	-11.5148
▁удел	-11.5149
▁Перевод	-11.5149
▁оправдыва	-11.5149
▁VI	-11.515
▁трудов	-11.515
▁вопросами	-11.515
▁считаете	-11.5151
▁окровавлен	-11.5151
КО	-11.5153
▁расскажет	-11.5153
▁исходя	-11.5154
▁Китае	-11.5156
▁взрослых	-11.5156
▁начинали	-11.5157
мос	-11.5157
нном	-11.5158
▁государственных	-11.5159
▁народом	-11.5159
▁короткое	-11.516
▁становилась	-11.516
▁виновато	-11.516
▁41	-11.5164
▁образу	-11.5166
52	-11.5166
▁слушая	-11.5168
▁планету	-11.5168
▁беды	-11.5171
▁кал	-11.5171
▁невысок	-11.5173
▁свыше	-11.5174
стру	-11.5175
ковать	-11.5175
слу	-11.5175
▁Сашка	-11.5176
▁Дже	-11.5177
▁сильных	-11.5177
▁назвали	-11.5177
▁вооруженных	-11.518
▁высокую	-11.5182
▁Зим	-11.5184
ступление	-11.5185
▁нахмурилась	-11.5186
стре	-11.5186
▁лишних	-11.5188
двор	-11.5188
дой	-11.5189
жин	-11.5189
▁отряды	-11.519
▁писателей	-11.5191
▁t	-11.5191
ковский	-11.5191
▁находил	-11.5192
анов	-11.5192
желт	-11.5192
▁обречен	-11.5194
▁могил	-11.5194
▁сумели	-11.5196
ительную	-11.5197
▁оттолкнул	-11.5197
▁желании	-11.5197
▁морских	-11.5197
▁супруг	-11.5197
▁летопис	-11.5198
▁дальнем	-11.5198
вую	-11.5202
▁наступила	-11.5202
шаяся	-11.5202
▁решений	-11.5204
овому	-11.5207
▁ожидает	-11.5209
▁падал	-11.5209
▁нападение	-11.521
▁Начальник	-11.5212
▁вершины	-11.5214
ступить	-11.5214
▁проявлял	-11.5214
▁цифр	-11.5215
истори	-11.5216
лах	-11.5216
▁оглядываясь	-11.5216
▁посетителей	-11.5217
зуб	-11.5217
▁пирамид	-11.5218
▁языки	-11.5218
▁гранат	-11.5219
▁черное	-11.5221
▁пришёл	-11.5221
▁гном	-11.5221
▁отдавать	-11.5221
▁приходить	-11.5222
▁отличался	-11.5222
▁Одновременно	-11.5222
▁родителям	-11.5222
▁Кад	-11.5223
▁салон	-11.5223
8.	-11.5223
▁остальными	-11.5225
▁Дра	-11.5225
▁Бро	-11.5225
мену	-11.5228
▁кружку	-11.5228
▁Эдуард	-11.5229
пустить	-11.523
▁счету	-11.5231
▁обманул	-11.5231
тас	-11.5232
один	-11.5232
бир	-11.5233
глаш	-11.5233
дис	-11.5233
▁хр	-11.5235
▁тишину	-11.5235
гнал	-11.5235
▁пророк	-11.5235
▁убедил	-11.5237
▁версии	-11.5239
бежать	-11.524
▁сообщает	-11.5241
▁убийстве	-11.5241
▁Гро	-11.5241
▁форт	-11.5241
98	-11.5241
▁альбом	-11.5242
проб	-11.5243
лоб	-11.5244
▁развитии	-11.5246
▁теплой	-11.5246
▁Игра	-11.5247
▁трещин	-11.5247
▁пушист	-11.5247
▁привезли	-11.5248
▁КПСС	-11.5248
▁повар	-11.525
▁понравилась	-11.5251
веча	-11.5253
▁угод	-11.5253
▁балкон	-11.5254
тана	-11.5255
▁кухонн	-11.5255
▁участке	-11.5255
pe	-11.5256
▁факел	-11.5257
ленных	-11.5257
давались	-11.5258
▁сустав	-11.5259
▁Майор	-11.526
▁окружении	-11.5261
▁женщинами	-11.5261
▁отвести	-11.5261
▁Бек	-11.5263
▁террорист	-11.5263
▁сумма	-11.5263
▁союзников	-11.5263
▁Голуб	-11.5264
▁подле	-11.5264
▁пребывал	-11.5269
▁Такого	-11.5269
▁местной	-11.527
▁гл	-11.5272
▁дер	-11.5273
▁простого	-11.5273
▁Але	-11.5273
▁политику	-11.5275
▁лекарств	-11.5276
▁тянул	-11.5276
▁хруст	-11.5278
молв	-11.5278
▁градусов	-11.5278
▁Образ	-11.5279
▁лабиринт	-11.528
▁покосился	-11.5281
▁Иосиф	-11.5282
нимая	-11.5282
тики	-11.5282
▁грыз	-11.5283
▁следствие	-11.5283
▁полезно	-11.5283
▁производил	-11.5284
▁Хей	-11.5284
▁красными	-11.5285
луча	-11.5285
катыва	-11.5286
▁Глав	-11.5287
▁1945	-11.5287
гай	-11.5291
лла	-11.5291
▁комфорт	-11.5293
аса	-11.5294
▁несчастье	-11.5297
▁парус	-11.5299
▁приема	-11.53
▁Фред	-11.53
▁счастлива	-11.5301
▁фотографию	-11.5302
▁мощный	-11.5303
▁разработан	-11.5306
▁Хелен	-11.5307
▁четвертый	-11.5307
▁запросто	-11.5309
▁увидите	-11.5309
овод	-11.531
▁сжала	-11.531
▁осуществить	-11.531
ология	-11.5312
▁поте	-11.5312
Ми	-11.5313
▁ближайшие	-11.5315
▁принимают	-11.5315
▁выиграл	-11.5316
▁врачи	-11.5317
▁Северной	-11.5317
▁Видел	-11.5318
▁умирает	-11.5319
▁файл	-11.532
▁сообщал	-11.532
▁Михаила	-11.532
▁Останови	-11.5321
▁принимали	-11.5321
анье	-11.5322
▁Наполеон	-11.5323
▁местность	-11.5323
▁мозгу	-11.5324
ползла	-11.5324
▁Анд	-11.5325
блюд	-11.5326
▁фотограф	-11.5326
▁сильного	-11.5326
▁Шаг	-11.5327
▁приготовить	-11.5327
▁покачива	-11.5328
▁звать	-11.5328
▁начальство	-11.5332
▁движений	-11.5333
▁приказы	-11.5334
▁крон	-11.5334
▁читатель	-11.5335
▁санитар	-11.5336
нским	-11.5337
▁придут	-11.5337
▁Стефан	-11.5337
▁выпрямился	-11.5337
чества	-11.5338
▁рассказывали	-11.5338
▁любому	-11.534
▁начальником	-11.534
▁лишним	-11.5341
▁заключения	-11.5341
▁обучение	-11.5341
▁Перси	-11.5341
▁изменение	-11.5342
▁Твои	-11.5342
▁испытывать	-11.5342
рач	-11.5343
▁осмотреть	-11.5344
▁вытащить	-11.5345
звезд	-11.5346
▁свеже	-11.5347
▁Наверно	-11.5347
▁планировал	-11.5347
▁волнение	-11.535
шний	-11.5351
▁известного	-11.5352
▁узкой	-11.5352
уется	-11.5352
▁размер	-11.5352
▁покраснел	-11.5354
еда	-11.5354
▁особым	-11.5355
▁выехал	-11.5358
▁разошлись	-11.5358
тке	-11.5359
▁подразделения	-11.5362
▁7.	-11.5363
▁дерз	-11.5365
▁немецкие	-11.5367
▁Карла	-11.5367
▁прорва	-11.5369
▁категорически	-11.537
▁мощь	-11.5372
▁воздействие	-11.5373
▁моменту	-11.5373
▁периодически	-11.5374
▁Жил	-11.5375
▁жалел	-11.5376
еты	-11.5376
мм	-11.5376
▁магазине	-11.5378
▁аспект	-11.5379
гоняя	-11.538
ождеств	-11.538
▁обсуждали	-11.5381
▁кадров	-11.5382
истая	-11.5384
▁Джонни	-11.5384
▁уроки	-11.5385
▁господ	-11.5387
▁очаровательн	-11.5388
падает	-11.5388
▁аккурат	-11.5388
▁покорно	-11.539
ork	-11.5392
▁описал	-11.5393
▁град	-11.5393
▁пережить	-11.5396
▁1940	-11.5396
▁Луч	-11.5397
72	-11.5397
тали	-11.5398
▁подобие	-11.5398
нтер	-11.5398
▁Бул	-11.5398
▁помех	-11.5398
▁роты	-11.5399
▁змей	-11.5399
les	-11.54
▁Бон	-11.5402
97	-11.5403
▁познания	-11.5403
▁кинул	-11.5404
▁склонил	-11.5404
▁аппарата	-11.5407
▁ледяной	-11.5408
ану	-11.5408
рубил	-11.5409
▁чаю	-11.541
▁отказа	-11.541
▁создавал	-11.5412
▁вечность	-11.5413
▁долгих	-11.5414
▁тревога	-11.5414
Из	-11.5415
▁Глядя	-11.5415
▁заставляя	-11.5416
▁имен	-11.5417
вязки	-11.5419
носят	-11.5419
▁посетил	-11.5422
▁разобрать	-11.5424
▁составить	-11.5424
люби	-11.5424
▁понедельник	-11.5425
▁саму	-11.5426
тру	-11.5427
▁уважением	-11.5427
▁хранил	-11.5427
▁башне	-11.5428
ЕТ	-11.5428
▁Бас	-11.5429
▁обидно	-11.5431
▁девочек	-11.5431
▁бухгалтер	-11.5431
▁сдержать	-11.5435
▁играла	-11.5436
▁шансы	-11.5436
▁осужден	-11.5436
▁торговли	-11.5439
▁взвод	-11.5439
▁47	-11.5439
▁зеркала	-11.544
аф	-11.544
снеж	-11.544
▁хозяйство	-11.544
▁Мод	-11.5441
▁прочесть	-11.5441
▁отчаянии	-11.5442
▁освобожда	-11.5443
▁исполнение	-11.5446
▁исчезло	-11.5446
▁классе	-11.5447
юк	-11.545
▁очередную	-11.5451
▁мальчишки	-11.5452
▁элит	-11.5453
▁пластик	-11.5453
▁цифры	-11.5456
▁большего	-11.5456
▁беспокоит	-11.5456
смеш	-11.5457
▁обвел	-11.5457
▁принимая	-11.5457
ine	-11.5458
▁взглядов	-11.5458
▁длинным	-11.5459
▁подписан	-11.5459
тического	-11.5459
▁мелочи	-11.5459
▁реплик	-11.546
▁паузы	-11.5461
▁чувствуешь	-11.5462
▁Стра	-11.5462
уди	-11.5463
▁восемьдесят	-11.5463
▁артиллерии	-11.5464
▁Туда	-11.5464
бург	-11.5464
▁пойдут	-11.5466
▁подписал	-11.5468
▁ап	-11.5468
скан	-11.547
▁Брон	-11.5471
▁Драко	-11.5471
дат	-11.5473
▁пчел	-11.5473
▁фантаст	-11.5473
▁Дем	-11.5474
эконом	-11.5474
▁чистый	-11.5474
кру	-11.5477
▁стати	-11.5477
▁вырвался	-11.5477
▁мамой	-11.5477
▁прочитать	-11.5478
68	-11.5478
▁красных	-11.5478
▁Возле	-11.5479
▁направлению	-11.5479
овские	-11.5479
▁позвонила	-11.548
▁Мэтт	-11.548
▁бат	-11.5482
▁вскочила	-11.5483
▁Степ	-11.5483
▁ухода	-11.5484
крытый	-11.5485
▁эс	-11.5485
▁реже	-11.5485
▁толстый	-11.5487
▁печать	-11.5487
▁кричали	-11.5487
▁волч	-11.5488
▁возникли	-11.5488
▁законам	-11.5489
енья	-11.5489
везли	-11.549
▁поплыл	-11.5492
▁букв	-11.5494
ческие	-11.5495
▁клич	-11.5495
▁реальной	-11.5496
▁доски	-11.5498
▁трат	-11.5498
▁решено	-11.5498
▁товаров	-11.55
▁сезон	-11.55
гран	-11.5501
▁предпринять	-11.5501
худ	-11.5502
▁лидер	-11.5503
▁стимул	-11.5505
▁Бан	-11.5507
▁мучил	-11.5508
▁родилась	-11.5508
▁предела	-11.5509
▁деталь	-11.5509
▁прилив	-11.551
▁открывая	-11.5511
▁шал	-11.5511
▁проводили	-11.5511
▁прочно	-11.5513
▁ближайшее	-11.5514
▁известной	-11.5514
▁святых	-11.5515
▁академик	-11.5516
▁застрял	-11.5516
se	-11.5517
ma	-11.5519
ЕН	-11.5519
▁публично	-11.552
стат	-11.5521
▁очередного	-11.5523
▁привыкла	-11.5523
▁парламент	-11.5525
▁щель	-11.5526
сю	-11.5529
ары	-11.553
▁спутника	-11.553
▁Последнее	-11.5531
▁всякую	-11.5532
▁борта	-11.5533
▁пишут	-11.5533
▁маз	-11.5534
▁Говори	-11.5534
▁шляп	-11.5535
метр	-11.5536
▁ошибок	-11.5537
▁дивизия	-11.5537
▁воротам	-11.5538
▁следовал	-11.5538
▁начав	-11.554
▁слышишь	-11.5541
▁Черн	-11.5541
▁Вижу	-11.5544
лях	-11.5545
▁личный	-11.5545
▁осени	-11.5545
пуская	-11.5545
катилась	-11.5546
▁сосредоточиться	-11.5548
дже	-11.5549
▁застав	-11.5549
▁общение	-11.555
▁ботинки	-11.5551
▁Рег	-11.5552
▁Сюда	-11.5552
▁горячим	-11.5553
тара	-11.5553
▁перец	-11.5554
олов	-11.556
▁укус	-11.5561
▁старости	-11.5561
▁похода	-11.5561
ТА	-11.5562
▁бан	-11.5562
▁белое	-11.5564
▁сбежать	-11.5565
▁гидро	-11.5565
▁Звезд	-11.5566
▁поднимался	-11.5567
▁личные	-11.5568
▁звонка	-11.5569
нера	-11.557
▁немецкой	-11.5571
▁утверждать	-11.5572
▁левом	-11.5572
▁Пушкина	-11.5574
▁Лок	-11.5574
▁природу	-11.5574
▁Остров	-11.5574
▁научил	-11.5574
▁крыльями	-11.5575
аций	-11.5577
▁зоне	-11.5583
хитр	-11.5584
учить	-11.5586
▁1991	-11.5587
▁побежали	-11.5588
▁Хэ	-11.5592
▁распространя	-11.5594
▁богатства	-11.5594
▁плач	-11.5595
ard	-11.5596
▁предполагает	-11.5596
▁родственники	-11.5597
▁Двор	-11.5597
▁сосуд	-11.5597
▁брака	-11.5597
▁критически	-11.5597
▁моно	-11.5599
▁студен	-11.56
олет	-11.5605
▁пуля	-11.5605
▁Белл	-11.5606
▁уважения	-11.5608
катился	-11.5611
реб	-11.5612
▁маркиз	-11.5612
▁привычка	-11.5614
▁надеть	-11.5616
нас	-11.5616
лым	-11.5618
▁Молча	-11.5619
▁рычаг	-11.562
▁Патрик	-11.562
▁выбрался	-11.5621
▁тускло	-11.5623
▁св	-11.5624
елл	-11.5625
▁Зи	-11.5625
▁Вася	-11.5627
▁мыслях	-11.5627
арт	-11.5628
молод	-11.5628
бож	-11.5628
9.	-11.5629
▁пла	-11.563
сни	-11.5631
▁купе	-11.5633
▁красоту	-11.5633
▁максимум	-11.5634
брать	-11.5635
▁Феликс	-11.5635
▁раздражение	-11.5636
▁ссор	-11.5636
крой	-11.5636
рма	-11.5636
▁луны	-11.5637
▁In	-11.5638
▁трижды	-11.5638
▁необходимое	-11.5638
▁расследование	-11.5639
▁Святой	-11.5641
▁произведение	-11.5641
▁облач	-11.5641
жные	-11.5642
▁найдут	-11.5643
▁устроили	-11.5643
▁дышал	-11.5643
▁хром	-11.5643
▁практика	-11.5645
▁танец	-11.5646
▁захвачен	-11.5646
вери	-11.5647
▁самолеты	-11.5648
▁3)	-11.5648
▁Вене	-11.5648
лот	-11.5649
▁животного	-11.5651
учи	-11.5652
звон	-11.5652
▁рассыпа	-11.5652
ЕР	-11.5653
жег	-11.5653
▁шахт	-11.5653
▁жертвой	-11.5653
ставлять	-11.5653
▁бомбы	-11.5654
▁горит	-11.5655
▁доказательств	-11.5655
▁строки	-11.5657
▁брод	-11.5657
▁хозяином	-11.5658
▁ранга	-11.5658
▁Й	-11.5658
ётся	-11.5659
▁дыхания	-11.5661
▁убежище	-11.5661
ществ	-11.5662
▁мя	-11.5662
▁бешено	-11.5663
▁Мэгги	-11.5663
▁46	-11.5663
▁науке	-11.5664
▁Карт	-11.5664
▁проводит	-11.5667
▁Робин	-11.5667
берите	-11.5668
▁богатство	-11.5668
есть	-11.5669
ителю	-11.567
▁мучитель	-11.5672
▁Арт	-11.5673
▁свидетельствует	-11.5673
▁сдержива	-11.5673
▁посох	-11.5674
▁качнул	-11.5676
▁голубые	-11.5677
бас	-11.5677
▁касс	-11.5678
▁Роланд	-11.5678
▁любовник	-11.5679
▁Солнца	-11.5679
еса	-11.5679
тир	-11.568
▁освобожден	-11.568
коро	-11.568
перед	-11.5681
▁дошел	-11.5682
▁Хотите	-11.5682
▁трупы	-11.5682
ill	-11.5684
▁строитель	-11.5685
▁комплект	-11.5685
▁определение	-11.5685
▁снегом	-11.5686
▁огромными	-11.5688
▁безумие	-11.5689
▁шансов	-11.5691
▁творчества	-11.5691
▁странного	-11.5692
▁Книга	-11.5694
▁болит	-11.5694
РИ	-11.5695
▁технолог	-11.5695
▁длинных	-11.5695
▁переговоров	-11.5697
▁социалист	-11.5697
▁полку	-11.5697
▁полные	-11.5699
▁предстал	-11.5699
▁Зелен	-11.57
▁Душ	-11.57
▁обошел	-11.57
объединен	-11.5701
▁Дядя	-11.5701
▁ЗА	-11.5701
▁громким	-11.5702
▁любопытно	-11.5705
▁роду	-11.5706
ep	-11.5707
▁парашют	-11.5708
▁ненавидел	-11.5708
▁зиму	-11.5709
▁просьбой	-11.571
▁Словом	-11.5713
▁издали	-11.5713
▁Британ	-11.5713
▁виднелись	-11.5713
▁табак	-11.5715
▁взаимо	-11.5716
▁анализа	-11.5716
▁XVI	-11.5717
▁Луна	-11.5718
▁Сила	-11.5718
▁Царь	-11.5718
▁французского	-11.5719
дера	-11.5719
благо	-11.5723
▁пережив	-11.5724
хол	-11.5725
▁Яков	-11.5725
▁4-	-11.5726
▁изменений	-11.5726
ложи	-11.5727
▁взлетел	-11.5728
▁основным	-11.5728
▁стремится	-11.5728
▁гас	-11.5729
▁Добрый	-11.573
▁ядовит	-11.5731
▁часами	-11.5732
▁милости	-11.5733
▁простите	-11.5733
▁герман	-11.5734
ведем	-11.5736
▁строк	-11.5736
▁прогресс	-11.5737
▁славы	-11.5737
▁финал	-11.5737
▁расстрел	-11.5738
▁богом	-11.5738
Ме	-11.5739
▁защищал	-11.5739
▁играют	-11.574
▁исходил	-11.574
▁пистолета	-11.5742
▁живем	-11.5742
▁подлинно	-11.5743
www	-11.5743
▁Михайлов	-11.5744
▁робот	-11.5745
▁бюро	-11.5745
шан	-11.5748
▁лез	-11.5748
▁содержания	-11.5748
▁резким	-11.5748
▁кормить	-11.5748
бирались	-11.5749
▁Стоя	-11.5749
▁Мужчины	-11.575
▁некоторой	-11.5751
1)	-11.5753
▁лестница	-11.5754
мара	-11.5754
Го	-11.5754
▁родину	-11.5756
▁Баз	-11.5756
▁мес	-11.5758
▁метр	-11.5761
▁обзор	-11.5763
▁взаимно	-11.5763
▁юге	-11.5764
▁опасаясь	-11.5765
▁смесь	-11.5765
жных	-11.5765
▁будьте	-11.5767
▁сходить	-11.5769
▁поисков	-11.5769
СК	-11.577
лька	-11.5773
метров	-11.5774
просил	-11.5776
▁плоды	-11.5777
▁водя	-11.5777
▁напасть	-11.5778
▁вниманием	-11.5779
▁писали	-11.578
▁Маль	-11.5781
вав	-11.5781
▁хаос	-11.5782
▁Золот	-11.5782
▁увижу	-11.5782
маг	-11.5783
▁Вир	-11.5783
▁приведет	-11.5784
▁тщетно	-11.5784
▁сходил	-11.5784
▁довелось	-11.5784
▁Браун	-11.5784
▁Посмотри	-11.5785
▁середины	-11.5785
▁русская	-11.5787
▁предположения	-11.5788
▁Ката	-11.5789
▁порога	-11.579
▁хозяев	-11.579
▁полосы	-11.579
▁механ	-11.5791
▁Желез	-11.5791
гри	-11.5792
▁видение	-11.5793
спар	-11.5794
▁успокоиться	-11.5794
▁скуд	-11.5795
▁скор	-11.5795
▁Саш	-11.5797
▁поцеловала	-11.5797
▁залез	-11.5799
ийская	-11.58
▁возможных	-11.58
бежали	-11.58
▁границ	-11.5801
▁желанн	-11.5802
▁наставник	-11.5802
▁известным	-11.5803
▁Сент	-11.5804
вернет	-11.5804
▁фыркнула	-11.5804
▁ведро	-11.5804
▁удержаться	-11.5804
▁Верховного	-11.5805
▁недоуменно	-11.5805
▁слабости	-11.5808
▁рассвете	-11.5808
▁диет	-11.5808
▁уважаем	-11.5809
тии	-11.581
▁прохладно	-11.5811
нцы	-11.5813
▁приняты	-11.5813
▁произвести	-11.5815
▁оценки	-11.5816
▁создает	-11.5816
▁Сей	-11.5818
▁Фридрих	-11.5818
яется	-11.5822
▁монстр	-11.5823
фан	-11.5823
пустят	-11.5823
▁высоком	-11.5823
▁анекдот	-11.5824
▁превратились	-11.583
▁библиотеке	-11.583
▁уехала	-11.5831
▁большому	-11.5831
▁шторм	-11.5831
▁куча	-11.5832
ёж	-11.5833
▁использование	-11.5833
▁юноши	-11.5834
▁быстрый	-11.5834
ляет	-11.5835
▁руководителя	-11.5837
билась	-11.584
▁зеркале	-11.584
▁приключения	-11.5841
▁высших	-11.5841
▁провинции	-11.5842
крывают	-11.5842
▁холл	-11.5842
▁усилива	-11.5844
ОН	-11.5846
▁великое	-11.5847
революц	-11.5847
▁пустить	-11.5849
голос	-11.5852
▁стремился	-11.5852
▁сжима	-11.5852
▁наличии	-11.5853
▁камере	-11.5855
▁заняли	-11.5855
▁довод	-11.5856
бов	-11.5857
▁Поль	-11.5859
▁посмотрев	-11.5861
▁острый	-11.5863
▁цветок	-11.5864
▁изменилась	-11.5864
▁рожден	-11.5864
▁племянник	-11.5864
▁крейсер	-11.5865
▁Лос	-11.5865
овка	-11.5865
▁слушает	-11.5866
▁ряду	-11.5866
▁определенной	-11.5867
▁озабочен	-11.5869
▁бул	-11.5871
▁довести	-11.5873
▁степи	-11.5874
▁счастливой	-11.5874
▁простира	-11.5875
▁владел	-11.5875
▁планета	-11.5877
▁яркие	-11.5877
щелк	-11.5877
▁белую	-11.5877
▁обслужива	-11.5877
▁молчит	-11.5878
▁тяжко	-11.5879
▁бойца	-11.5881
▁камен	-11.5882
▁хранить	-11.5884
▁гражданин	-11.5884
▁шутки	-11.5884
▁спрятаться	-11.5885
▁экземпляр	-11.5885
пот	-11.5886
▁мам	-11.5886
чное	-11.5886
▁заснул	-11.5887
вилл	-11.5887
▁тягот	-11.5888
держит	-11.5888
▁рисунок	-11.5889
▁острые	-11.589
слы	-11.5892
▁свидание	-11.5892
▁зол	-11.5892
▁крово	-11.5892
▁бесплатно	-11.5893
▁почтительно	-11.5894
▁передумал	-11.5895
ико	-11.5895
▁обиды	-11.5896
▁хороших	-11.5897
ага	-11.5899
▁Джан	-11.5899
▁Позвольте	-11.5901
▁яркий	-11.5901
▁прокричал	-11.5901
шедший	-11.5903
читал	-11.5903
▁попало	-11.5903
▁сообща	-11.5904
▁современного	-11.5905
стать	-11.5905
▁Вашингтон	-11.5905
▁взмахнул	-11.5906
▁согре	-11.5907
▁прах	-11.5908
▁ожидали	-11.5909
▁представляли	-11.591
▁Мысли	-11.5911
▁подругу	-11.5911
дес	-11.5912
▁пепел	-11.5914
▁легкостью	-11.5915
гну	-11.5915
▁серьезное	-11.5916
▁политические	-11.5917
▁купа	-11.5917
▁средней	-11.5917
▁расходы	-11.5917
▁язв	-11.5917
▁монахи	-11.5918
▁безопасность	-11.5918
▁склону	-11.5919
▁улыбалась	-11.5919
▁норм	-11.5921
ставив	-11.5921
▁стоимость	-11.5923
▁New	-11.5924
▁нижней	-11.5925
▁запрещен	-11.5925
▁долгий	-11.5927
дергива	-11.5927
▁Рог	-11.5927
▁башня	-11.5927
ута	-11.5928
▁Небо	-11.5928
▁лежало	-11.5929
▁пустую	-11.593
▁рога	-11.593
ённо	-11.5932
▁застыла	-11.5932
▁мае	-11.5936
▁гитар	-11.5938
анной	-11.5939
ийские	-11.5941
андер	-11.5942
▁испытание	-11.5943
▁немецкого	-11.5945
▁помогут	-11.5945
авшей	-11.5945
▁располага	-11.5945
▁отбор	-11.5946
▁научных	-11.5947
▁сведений	-11.5948
▁покупать	-11.5948
овская	-11.5948
▁пожалел	-11.5949
онный	-11.5949
▁кустов	-11.595
енность	-11.595
емым	-11.5951
ываю	-11.5951
77	-11.5951
▁мигом	-11.5951
▁меняется	-11.5951
кнуть	-11.5951
нимать	-11.5952
▁Право	-11.5952
▁неверно	-11.5953
сыпать	-11.5953
▁обратном	-11.5954
▁шкур	-11.5956
▁чистым	-11.5956
▁Нев	-11.5958
▁ребра	-11.5958
▁Аб	-11.5963
▁пада	-11.5966
▁невинно	-11.5967
▁дереву	-11.5968
Ли	-11.5968
▁рады	-11.5968
▁качеств	-11.5969
▁закурил	-11.5969
Ис	-11.5971
▁уходили	-11.5971
▁Сме	-11.5971
фил	-11.5972
▁сражение	-11.5973
▁описать	-11.5975
▁хода	-11.5976
страш	-11.5977
▁Мог	-11.5977
пур	-11.5977
▁Небес	-11.5978
▁кончится	-11.598
▁понемногу	-11.598
▁пользы	-11.598
▁прикрыв	-11.598
▁вирус	-11.598
▁бережно	-11.5981
▁испытывает	-11.5981
бивая	-11.5981
▁гиб	-11.5981
▁известие	-11.5982
звал	-11.5983
▁старается	-11.5984
▁вспоминает	-11.5984
зии	-11.5985
▁родитель	-11.5986
▁ящика	-11.5986
▁действовал	-11.5987
▁прочее	-11.5987
▁St	-11.5987
ленной	-11.5988
▁Погоди	-11.5988
▁цилиндр	-11.5989
▁закону	-11.599
▁Поначалу	-11.5991
ВА	-11.5991
англ	-11.5992
▁заход	-11.5993
▁поесть	-11.5993
спор	-11.5994
▁мужика	-11.5995
йский	-11.5995
кладывает	-11.5996
▁способы	-11.5997
▁ищут	-11.5999
▁гармони	-11.6002
▁наблюдатель	-11.6002
сей	-11.6002
▁Андре	-11.6002
▁глухой	-11.6003
▁прилетел	-11.6005
▁промолвил	-11.6005
▁срока	-11.601
▁тьмы	-11.6012
▁лют	-11.6013
▁пружин	-11.6013
▁распахнулась	-11.6013
▁оператор	-11.6013
▁Бег	-11.6014
тирать	-11.6014
▁страшной	-11.6015
▁трактир	-11.6015
▁Красно	-11.6016
▁посмотрели	-11.6017
▁обоим	-11.6017
▁голубой	-11.6018
▁каса	-11.6018
▁бросили	-11.6018
крутил	-11.6019
▁поступки	-11.602
▁Рассказ	-11.602
верш	-11.6021
▁серый	-11.6021
▁заработал	-11.6022
▁запретил	-11.6022
▁съел	-11.6025
руд	-11.6025
считыва	-11.6026
▁смену	-11.6028
виль	-11.6029
▁установки	-11.6029
▁ост	-11.6029
▁музей	-11.603
82	-11.603
▁Барон	-11.603
▁маску	-11.603
▁истину	-11.603
▁Плохо	-11.6031
ьтесь	-11.6031
▁энергией	-11.6031
▁Хам	-11.6031
▁Шест	-11.6031
▁изд	-11.6034
▁погладил	-11.6034
▁паук	-11.6035
▁личное	-11.6037
мона	-11.6038
▁батальона	-11.6038
▁полдень	-11.604
▁американской	-11.604
▁Конрад	-11.6042
треб	-11.6043
▁Цель	-11.6044
▁энергично	-11.6046
▁серьезный	-11.6046
евшие	-11.6048
▁Зло	-11.605
▁Юля	-11.6051
▁Вернувшись	-11.6051
▁Георгий	-11.6052
▁незнакомец	-11.6053
▁заботы	-11.6053
▁Открыв	-11.6053
▁преимущественно	-11.6053
▁тревогу	-11.6054
▁размера	-11.6055
▁Пит	-11.6056
▁отреагировал	-11.6057
▁полицейских	-11.6057
▁обморок	-11.6057
▁шир	-11.6059
▁танка	-11.6059
чар	-11.606
▁информацией	-11.606
▁насыщен	-11.6061
▁мех	-11.6061
▁каменной	-11.6062
▁сумела	-11.6062
▁краски	-11.6063
▁губернатор	-11.6064
▁поднимаясь	-11.6064
▁налет	-11.6065
▁молодец	-11.6066
▁Кана	-11.6068
▁пункта	-11.6069
▁микрофон	-11.607
▁заставив	-11.607
▁грузов	-11.607
▁пры	-11.6071
▁Лейтенант	-11.6071
▁дождем	-11.6071
▁пострадал	-11.6071
▁приходило	-11.6074
▁сбоку	-11.6074
▁выслушал	-11.6075
▁завал	-11.6075
▁повторяю	-11.6075
▁пролетел	-11.6076
▁субъект	-11.6076
ab	-11.6078
▁квартал	-11.6079
▁психо	-11.6079
▁находясь	-11.608
▁надела	-11.6081
▁отсутствовал	-11.6081
▁варианты	-11.6082
▁открывает	-11.6082
▁мешало	-11.6084
ухи	-11.6084
▁сводил	-11.6085
▁опытом	-11.6087
▁безмолв	-11.6087
▁хол	-11.6087
▁снимал	-11.6087
▁Росс	-11.6089
ываем	-11.6089
▁поддержать	-11.609
▁предал	-11.609
битые	-11.6091
▁больницы	-11.6091
▁пересел	-11.6091
▁Джулиан	-11.6091
▁копыт	-11.6091
▁враждеб	-11.6093
▁священ	-11.6093
▁орал	-11.6093
▁Стэн	-11.6094
▁спуститься	-11.6096
ньем	-11.6099
▁верт	-11.61
com	-11.6101
гей	-11.6102
▁защищен	-11.6103
▁очаг	-11.6104
▁Стоило	-11.6104
▁интересах	-11.6105
▁дорогие	-11.6105
мунд	-11.6106
▁убийств	-11.6107
ср	-11.6107
▁сердечно	-11.6107
▁удержался	-11.6108
▁долга	-11.611
страст	-11.611
▁притом	-11.6111
▁сняли	-11.6112
▁Найд	-11.6112
▁мэр	-11.6113
ТИ	-11.6114
▁переживания	-11.6115
▁личных	-11.6115
▁49	-11.6116
▁состояла	-11.6116
▁помнила	-11.6117
▁Лер	-11.6117
рывается	-11.6118
оты	-11.6118
▁ядер	-11.6119
▁склонился	-11.612
зель	-11.612
▁жалобно	-11.612
▁Лед	-11.6123
▁тысяча	-11.6123
▁Десять	-11.6124
51	-11.6124
▁тема	-11.6125
▁ежели	-11.6125
▁симпатичн	-11.6126
▁драма	-11.6126
▁основу	-11.6126
▁короткой	-11.6126
▁подобный	-11.6126
▁эфир	-11.6127
ити	-11.6127
▁укреплен	-11.6128
▁гнал	-11.6128
▁тяжелое	-11.6129
▁прибыль	-11.6129
ствен	-11.6129
поле	-11.613
▁говорим	-11.6131
▁пропустить	-11.6131
▁жертва	-11.6135
▁учили	-11.6135
▁берез	-11.6137
▁плю	-11.6137
меть	-11.6138
пуг	-11.6139
▁финансов	-11.614
▁подчиня	-11.6142
ави	-11.6143
▁Указ	-11.6143
▁классов	-11.6144
▁травм	-11.6145
оген	-11.6147
▁яйцо	-11.6147
▁точке	-11.6147
▁Лав	-11.6148
▁рыда	-11.6148
▁утверждение	-11.6148
▁Аз	-11.6148
▁рукава	-11.6149
▁Германия	-11.615
енькие	-11.6151
▁арбалет	-11.6151
▁Война	-11.6155
▁посол	-11.6156
▁Эльф	-11.6157
▁пропуск	-11.6157
▁прекрасным	-11.6157
нинг	-11.6157
▁бегом	-11.6157
▁увлека	-11.6158
надлеж	-11.6159
▁негатив	-11.6159
человечески	-11.6159
чили	-11.6159
▁цеп	-11.6161
▁горячий	-11.6161
▁температура	-11.6161
▁народы	-11.6162
▁присутствия	-11.6162
▁девяносто	-11.6165
▁хозяину	-11.6165
аков	-11.6165
▁прокурор	-11.6166
▁охота	-11.6166
▁кан	-11.6167
филд	-11.6167
▁Мест	-11.6168
чками	-11.6169
▁патруль	-11.617
▁широким	-11.6171
▁частенько	-11.6172
▁техника	-11.6172
есса	-11.6172
тиль	-11.6172
▁опасения	-11.6173
▁Западной	-11.6173
бло	-11.6174
мудр	-11.6175
▁процессы	-11.6176
▁вулкан	-11.6176
▁человеческое	-11.6178
нрав	-11.6178
▁Альберт	-11.618
дзе	-11.6182
▁операций	-11.6182
шние	-11.6183
▁согласны	-11.6183
▁XVII	-11.6184
▁загадочно	-11.6186
анную	-11.6186
▁запута	-11.6186
РЕ	-11.6188
▁практики	-11.6189
▁Мысль	-11.619
▁перерыв	-11.619
▁предмета	-11.6191
чёт	-11.6192
▁Лас	-11.6192
▁бензин	-11.6192
▁акцент	-11.6195
▁женщинам	-11.6196
▁убийцы	-11.6197
▁рассуждения	-11.6197
▁криком	-11.6198
▁резкий	-11.6199
▁познакомился	-11.6199
▁родных	-11.62
глот	-11.6203
▁Виктория	-11.6204
▁движется	-11.6204
валась	-11.6206
▁железа	-11.6208
▁очистить	-11.6209
▁пат	-11.6211
▁языков	-11.6212
▁менеджер	-11.6212
▁Послушайте	-11.6213
рги	-11.6214
▁блюда	-11.6216
щейся	-11.6216
71	-11.6217
▁возвращались	-11.6218
▁общественного	-11.6219
▁подошёл	-11.6219
▁Маркус	-11.6222
оном	-11.6222
▁лампы	-11.6222
полнен	-11.6223
▁Станислав	-11.6223
▁показывают	-11.6223
▁найдем	-11.6224
▁Учитель	-11.6228
▁приходила	-11.6228
этаж	-11.6229
берег	-11.623
▁дворцов	-11.6231
▁знакомство	-11.6232
▁выгодно	-11.6232
шнюю	-11.6232
▁позволили	-11.6233
▁требуют	-11.6233
▁разочарование	-11.6233
▁отвратительно	-11.6234
▁летать	-11.6234
▁низким	-11.6235
▁исключено	-11.6236
▁съезд	-11.6236
▁секретаря	-11.6237
▁отпустить	-11.6237
▁источником	-11.6237
реж	-11.6237
▁Помните	-11.624
селя	-11.6241
per	-11.6241
▁бормотал	-11.6243
▁пачку	-11.6243
▁позитив	-11.6244
▁интим	-11.6244
▁нетерпением	-11.6245
▁яблок	-11.6245
▁Самый	-11.6246
ольд	-11.6247
▁маленькими	-11.6249
▁вещами	-11.6249
▁работник	-11.6249
шо	-11.6251
лаз	-11.6251
▁реакцию	-11.6251
▁уход	-11.6252
▁суде	-11.6252
▁теоретически	-11.6252
▁90	-11.6252
▁изучения	-11.6254
▁измучен	-11.6255
гнуть	-11.6255
▁Бай	-11.6255
▁осуществля	-11.6255
▁ресторане	-11.6255
волоч	-11.6256
чно	-11.6256
▁готовый	-11.6256
[7	-11.6257
ону	-11.6258
Мар	-11.6258
▁перелом	-11.6258
▁матер	-11.6259
▁книжку	-11.626
▁некому	-11.626
анн	-11.6261
▁стрелял	-11.6264
▁свиреп	-11.6264
▁опасным	-11.6266
▁имелись	-11.6266
▁мертвым	-11.6267
демократ	-11.6267
▁дедушка	-11.6268
▁неопределенно	-11.6268
▁учит	-11.6269
справедлив	-11.627
▁Пад	-11.627
▁отеля	-11.627
▁спутников	-11.627
КИ	-11.6271
▁Черный	-11.6272
дежур	-11.6273
▁собственному	-11.6273
▁рат	-11.6274
▁думай	-11.6274
▁прижалась	-11.6274
▁победил	-11.6275
▁учетом	-11.6275
нци	-11.6277
▁наруша	-11.6277
▁нагло	-11.6277
▁полог	-11.6279
▁страшные	-11.628
▁забота	-11.6281
ящую	-11.6281
рр	-11.6281
▁горизонта	-11.6283
▁иное	-11.6283
▁прожив	-11.6284
ni	-11.6284
▁возвращении	-11.6284
оле	-11.6285
▁нехорошо	-11.6285
▁листов	-11.6286
▁чайник	-11.6287
▁детской	-11.6287
чук	-11.6288
▁охоты	-11.6289
▁закончился	-11.6293
важ	-11.6293
▁вооружение	-11.6293
веда	-11.6294
▁обстановка	-11.6295
▁коснулась	-11.6296
▁Ана	-11.6297
бла	-11.6299
▁Петербурге	-11.6299
▁образы	-11.6299
▁краем	-11.63
▁срыва	-11.63
очным	-11.6301
▁Час	-11.6302
▁завтрака	-11.6302
водя	-11.6302
▁паре	-11.6303
▁Смотрите	-11.6303
унов	-11.6305
▁Дайте	-11.6307
▁проблемой	-11.6308
▁устраивает	-11.6308
▁родителями	-11.6309
▁противников	-11.6309
▁Горд	-11.631
▁происхождение	-11.6311
груд	-11.6312
▁убитых	-11.6312
▁Жанна	-11.6313
▁выпад	-11.6315
только	-11.6316
дите	-11.6316
▁съем	-11.6316
▁ответили	-11.6317
▁жанр	-11.6318
oc	-11.6319
онт	-11.6321
▁длинную	-11.6323
▁ружья	-11.6324
▁косм	-11.6324
архи	-11.6324
▁сотрудники	-11.6326
▁переехал	-11.6327
▁наблюдали	-11.6327
▁упоминал	-11.633
▁Никит	-11.633
день	-11.633
льф	-11.6331
▁скуп	-11.6332
▁Круп	-11.6333
▁тарелки	-11.6335
▁пробил	-11.6335
▁разделить	-11.6335
▁Курт	-11.6336
кей	-11.6338
ктив	-11.6339
шн	-11.6339
▁перевал	-11.6342
▁усилием	-11.6342
▁противником	-11.6342
▁стека	-11.6342
▁свидетелей	-11.6342
▁комитета	-11.6343
йдет	-11.6343
▁складыва	-11.6344
▁потеряв	-11.6345
▁произведен	-11.6346
ставляя	-11.6347
▁Даша	-11.6348
стал	-11.635
ченные	-11.6352
▁звонить	-11.6352
▁защита	-11.6353
▁Ваня	-11.6354
▁доброй	-11.6355
▁свидетельство	-11.6355
▁напомнить	-11.6356
▁тревож	-11.6356
май	-11.6357
ированные	-11.6358
▁укор	-11.6358
▁бро	-11.6359
▁Алексея	-11.6359
Бо	-11.636
▁газета	-11.636
▁пропустил	-11.6361
▁тьме	-11.6363
▁короче	-11.6363
дѣ	-11.6365
▁Цз	-11.6366
елем	-11.6368
▁майора	-11.6368
▁преступник	-11.6369
▁Оле	-11.6369
▁норма	-11.637
техник	-11.637
▁потребности	-11.637
▁севере	-11.6371
▁психиатр	-11.6372
▁снаряд	-11.6372
вз	-11.6374
▁висела	-11.6375
кажите	-11.6376
йдут	-11.6378
▁Евгений	-11.6379
▁книгах	-11.638
▁разор	-11.638
▁лодке	-11.6381
▁Рима	-11.6383
▁психологии	-11.6386
коне	-11.6386
▁солнечный	-11.6387
▁ступени	-11.6387
▁достигнут	-11.6389
▁издания	-11.6391
▁Клянусь	-11.6391
печатал	-11.6392
ливает	-11.6393
▁оправ	-11.6393
▁Медленно	-11.6394
рона	-11.6395
▁встречается	-11.6396
▁Вильгельм	-11.6396
▁рассвета	-11.6396
▁Крым	-11.6397
▁Макар	-11.6397
▁хороша	-11.6398
Когда	-11.6398
▁отодвинул	-11.64
▁карманы	-11.64
▁сайт	-11.64
▁беззвучно	-11.6401
▁обращать	-11.6401
шил	-11.6402
▁кардинал	-11.6403
▁депутат	-11.6404
▁виновата	-11.6405
▁представлять	-11.6405
▁Салли	-11.6407
▁попыток	-11.6407
▁Юли	-11.6408
▁фонарь	-11.6408
▁упрек	-11.6408
▁лицами	-11.641
истой	-11.641
▁заместитель	-11.641
▁послышались	-11.6411
реч	-11.6411
▁пещеру	-11.6411
чиком	-11.6411
тч	-11.6414
▁крестьяне	-11.6414
▁шёл	-11.6415
▁Ноги	-11.6415
уйте	-11.6418
▁понес	-11.6418
▁украшения	-11.6418
▁подъезда	-11.642
▁поспешила	-11.6421
▁Теле	-11.6421
▁Дим	-11.6422
▁счёт	-11.6423
▁битве	-11.6423
▁Клэр	-11.6424
▁давным	-11.6424
▁личным	-11.6425
▁8.	-11.6426
▁войной	-11.6427
▁запасы	-11.6427
▁владельца	-11.6428
▁видения	-11.6428
▁воспитан	-11.6428
▁мис	-11.6428
▁количеством	-11.6431
[...]
