<unk>	0
<s>	0
</s>	0
<|n|>	0
,	-2.62651
.	-3.0017
▁и	-3.8731
▁в	-4.07144
▁—	-4.31402
▁не	-4.34617
▁на	-4.5245
а	-4.71137
▁с	-4.76334
▁что	-4.80505
▁–	-4.81139
▁	-5.00006
-	-5.03094
и	-5.04312
е	-5.19375
?	-5.22339
▁я	-5.36125
▁по	-5.39972
▁он	-5.48284
▁за	-5.49428
▁к	-5.52341
▁как	-5.52884
▁то	-5.54561
!	-5.57469
▁его	-5.65533
▁«	-5.66985
у	-5.68256
:	-5.70831
▁из	-5.72816
м	-5.72887
...	-5.72916
▁у	-5.7662
▁от	-5.76841
▁а	-5.78713
▁это	-5.86984
ы	-5.87256
▁Я	-5.90983
▁-	-5.96335
▁все	-5.97157
▁но	-5.97175
▁А	-5.98728
▁о	-6.0095
▁И	-6.01554
▁В	-6.04942
▁же	-6.07937
о	-6.08473
ом	-6.11682
▁так	-6.19579
▁было	-6.20602
▁она	-6.23775
й	-6.25949
▁вы	-6.27394
ов	-6.27789
▁бы	-6.27978
я	-6.33618
▁меня	-6.34933
▁ее	-6.35479
▁Но	-6.37572
▁Он	-6.41601
▁до	-6.43491
х	-6.45284
▁был	-6.48326
▁для	-6.49673
▁мне	-6.50227
ся	-6.50651
▁ты	-6.51659
»	-6.52086
▁только	-6.53506
▁под	-6.56034
▁еще	-6.58449
▁(	-6.58594
▁их	-6.60431
▁они	-6.62577
▁уже	-6.63497
▁мы	-6.64841
▁чтобы	-6.64965
▁когда	-6.66513
▁при	-6.67522
▁раз	-6.73861
▁Не	-6.74937
▁или	-6.76961
ой	-6.78139
ми	-6.78405
▁С	-6.79446
ю	-6.86875
▁со	-6.89914
▁ему	-6.90003
▁если	-6.90392
▁ни	-6.91487
▁На	-6.91722
ами	-6.93008
ный	-6.98747
▁Да	-6.99244
▁Это	-6.99591
▁чем	-7.01179
▁У	-7.01813
▁даже	-7.021
;	-7.03279
▁была	-7.037
▁про	-7.04697
го	-7.04785
▁себя	-7.05331
▁ли	-7.06827
».	-7.06867
ка	-7.07354
ные	-7.08032
▁него	-7.08662
▁время	-7.09034
▁сказал	-7.09068
ной	-7.09978
▁были	-7.1003
ли	-7.13586
ки	-7.15177
▁Она	-7.1529
в	-7.167
с	-7.1738
▁По	-7.18521
▁во	-7.19307
т	-7.20385
▁об	-7.20579
ных	-7.2104
▁того	-7.21466
▁очень	-7.23876
▁где	-7.23883
▁будет	-7.23998
ет	-7.24061
▁быть	-7.24542
▁может	-7.26014
▁нас	-7.26928
▁есть	-7.27167
▁кто	-7.27926
▁этого	-7.28191
▁без	-7.28859
▁Что	-7.30449
л	-7.30946
▁Ты	-7.32216
ть	-7.327
▁этом	-7.33636
▁Как	-7.33928
▁нет	-7.34879
ная	-7.35014
▁тебя	-7.35324
ая	-7.36411
)	-7.37388
▁себе	-7.3767
▁там	-7.39551
ного	-7.39619
▁них	-7.42843
▁том	-7.42936
»,	-7.43601
▁вот	-7.43815
▁Вы	-7.45274
ку	-7.45692
▁Ну	-7.45741
▁просто	-7.4671
▁больше	-7.47115
▁Если	-7.47952
▁ничего	-7.48694
▁этот	-7.48718
ла	-7.48854
ным	-7.48939
▁можно	-7.49234
▁да	-7.49544
▁тут	-7.51826
▁К	-7.53116
ый	-7.53179
▁О	-7.53447
▁который	-7.53489
▁тебе	-7.5429
▁после	-7.54406
▁вас	-7.55435
▁ей	-7.55617
▁За	-7.56067
▁которые	-7.56509
▁Так	-7.56561
ах	-7.57493
▁Мы	-7.57818
▁здесь	-7.57958
ную	-7.58631
▁один	-7.58784
▁тоже	-7.58899
▁теперь	-7.61386
но	-7.61915
▁потом	-7.61929
▁тем	-7.6284
▁сейчас	-7.63575
▁ним	-7.64738
▁"	-7.65258
▁через	-7.66131
▁более	-7.66138
ые	-7.66921
▁Вот	-7.67593
на	-7.67695
▁Все	-7.67911
ей	-7.68724
▁несколько	-7.69053
▁всего	-7.69466
▁пере	-7.69668
▁перед	-7.69736
▁всех	-7.69741
▁глаза	-7.70109
ых	-7.7015
▁человек	-7.71974
▁Они	-7.72153
▁надо	-7.72778
ого	-7.7419
▁лет	-7.7522
▁над	-7.75307
▁вам	-7.75563
▁ней	-7.7571
▁лишь	-7.7607
▁пока	-7.76376
▁своей	-7.77795
▁г	-7.77851
ую	-7.7801
ь	-7.78696
▁сам	-7.79309
▁нам	-7.8006
▁им	-7.80152
ам	-7.80329
▁Когда	-7.80591
ым	-7.81106
▁тот	-7.81437
ем	-7.8163
▁Нет	-7.82395
▁мог	-7.82554
н	-7.82679
▁нибудь	-7.82993
▁жизни	-7.84264
▁снова	-7.86565
▁свою	-7.87192
▁потому	-7.8757
ное	-7.88275
лись	-7.88323
▁этой	-7.88869
к	-7.90584
▁эти	-7.92069
ий	-7.92162
▁всегда	-7.92428
▁много	-7.93201
ок	-7.94552
▁такой	-7.95244
▁ведь	-7.96378
▁почти	-7.96542
▁тогда	-7.96756
▁нее	-7.97215
▁день	-7.97372
▁При	-7.9774
▁чего	-7.97986
лась	-7.98497
▁дело	-7.98792
му	-7.99003
ке	-7.9956
▁руки	-8.0013
▁спросил	-8.00211
▁два	-8.00653
сти	-8.00832
▁людей	-8.02609
▁между	-8.0367
▁хотя	-8.03843
ют	-8.0392
ется	-8.05503
ись	-8.05526
).	-8.05708
ться	-8.06065
▁своих	-8.06306
лся	-8.06547
▁знаю	-8.06547
▁никогда	-8.06608
▁стал	-8.06832
▁свои	-8.07865
▁своего	-8.07956
▁совсем	-8.07971
▁собой	-8.0825
▁*	-8.08471
▁какой	-8.08878
▁нужно	-8.09283
▁Мне	-8.09766
▁сразу	-8.09879
▁жизнь	-8.09907
ло	-8.10802
▁года	-8.10873
▁времени	-8.1102
▁сказала	-8.12852
▁словно	-8.13166
ными	-8.13684
▁сказать	-8.14942
▁почему	-8.14984
те	-8.15348
▁голову	-8.15349
▁уж	-8.15832
▁люди	-8.1588
▁М	-8.16393
ить	-8.16508
▁руку	-8.16815
▁От	-8.16852
▁мой	-8.17568
▁хорошо	-8.17602
▁человека	-8.18386
ном	-8.18818
д	-8.18924
▁ко	-8.19476
▁именно	-8.2061
ны	-8.21699
▁вдруг	-8.21933
▁три	-8.22304
▁ответил	-8.2319
кой	-8.23337
▁быстро	-8.23817
▁будто	-8.2397
ию	-8.24849
▁лучше	-8.24895
ит	-8.24929
–	-8.25707
▁которой	-8.25718
▁Его	-8.25914
▁всем	-8.2616
▁вместе	-8.26308
▁слишком	-8.26314
▁тех	-8.2637
▁слова	-8.27099
▁куда	-8.27452
▁всё	-8.2748
▁друг	-8.28214
▁которая	-8.28248
ен	-8.28344
▁должен	-8.28408
▁свой	-8.28426
▁другой	-8.29333
▁конечно	-8.30173
▁те	-8.30493
ое	-8.31254
▁Из	-8.31294
▁рядом	-8.31562
ского	-8.31835
▁лицо	-8.32406
▁также	-8.32413
ской	-8.32555
▁эту	-8.3307
ский	-8.33389
сть	-8.33418
ни	-8.33559
ась	-8.34404
▁могу	-8.34605
▁такое	-8.34697
▁назад	-8.34931
"	-8.35489
),	-8.35519
▁тому	-8.3562
▁которых	-8.3604
▁голос	-8.36292
▁место	-8.36418
▁свое	-8.36851
▁сторону	-8.37087
▁Только	-8.37162
▁этих	-8.37309
▁своим	-8.3783
им	-8.3814
▁чуть	-8.38585
▁знал	-8.40051
▁этим	-8.4013
та	-8.41213
▁дома	-8.4135
▁случае	-8.42024
▁До	-8.42314
▁стороны	-8.42573
▁Однако	-8.42723
▁которого	-8.43194
ъ	-8.43316
▁вообще	-8.43663
▁немного	-8.43668
▁мной	-8.44608
не	-8.4471
▁сделать	-8.44861
▁совершенно	-8.44907
▁никто	-8.45201
▁дверь	-8.45358
▁Теперь	-8.45439
▁одной	-8.45849
▁головой	-8.45898
▁П	-8.45943
▁эта	-8.4611
▁против	-8.46454
▁взгляд	-8.46939
▁делать	-8.47288
▁пор	-8.48412
▁прямо	-8.48836
▁её	-8.48944
▁То	-8.51
▁Может	-8.5127
▁кого	-8.51389
▁хотел	-8.51444
▁рас	-8.51643
▁самом	-8.51692
▁т	-8.52305
ются	-8.52541
ось	-8.52735
▁одного	-8.53109
▁ещё	-8.53275
▁точно	-8.54102
▁мир	-8.56455
▁хоть	-8.56465
▁видел	-8.56754
ят	-8.57002
▁2	-8.57309
▁Кто	-8.57757
▁затем	-8.58008
▁должны	-8.58289
ясь	-8.58423
▁3	-8.58706
▁понял	-8.58768
▁После	-8.58966
▁одно	-8.59269
▁Во	-8.5983
▁других	-8.60081
▁действительно	-8.60097
▁вопрос	-8.60355
▁Про	-8.60801
ин	-8.60985
лось	-8.61009
▁стало	-8.61093
▁момент	-8.61153
▁могла	-8.61189
▁либо	-8.61346
▁образом	-8.61448
▁двух	-8.61502
▁деле	-8.61596
▁говорил	-8.61782
г	-8.62001
▁которую	-8.62308
▁сегодня	-8.6245
▁ними	-8.62539
▁одна	-8.62908
р	-8.63152
ш	-8.63209
▁наконец	-8.63567
▁вокруг	-8.63632
▁ж	-8.63901
▁говорит	-8.64091
▁всю	-8.64653
▁та	-8.64788
▁долго	-8.65095
ков	-8.65115
▁оно	-8.65212
▁равно	-8.65897
▁начал	-8.65941
ил	-8.66194
▁моей	-8.66236
▁нему	-8.66719
з	-8.66737
▁Потом	-8.67018
▁могут	-8.673
▁какие	-8.67456
▁минут	-8.67853
▁Там	-8.67904
▁свет	-8.67967
▁нем	-8.68287
сь	-8.68547
ыми	-8.68951
да	-8.68988
▁две	-8.69158
▁дальше	-8.69275
▁дом	-8.69351
▁месте	-8.69375
▁Почему	-8.69545
▁значит	-8.69747
ну	-8.70187
▁Тогда	-8.70275
e	-8.70589
▁хочу	-8.70647
▁таки	-8.70727
▁Для	-8.71063
▁таким	-8.7109
▁Г	-8.7111
▁давно	-8.71326
▁будут	-8.71687
▁могли	-8.71794
▁самого	-8.72032
▁стоит	-8.72063
▁такие	-8.72164
▁Т	-8.7217
ко	-8.72248
▁весь	-8.72743
▁опять	-8.72929
▁году	-8.73089
▁мало	-8.73563
▁ноги	-8.74302
▁дня	-8.74315
▁1	-8.74341
▁стали	-8.74376
▁которое	-8.74465
▁кажется	-8.7452
▁сюда	-8.74525
!»	-8.74612
▁ответ	-8.74949
▁конце	-8.75448
▁Под	-8.75472
п	-8.75781
ч	-8.76004
▁моя	-8.76582
ских	-8.77328
▁каждый	-8.77418
▁среди	-8.77514
▁нельзя	-8.77545
ком	-8.77725
?!	-8.7783
ев	-8.77884
▁сама	-8.78267
▁едва	-8.78421
▁часть	-8.79086
▁Б	-8.79117
▁сделал	-8.79202
ния	-8.79507
▁пол	-8.79563
ешь	-8.79713
▁мои	-8.7994
ец	-8.80042
▁поэтому	-8.80153
▁Или	-8.80233
▁решил	-8.80281
за	-8.80358
▁дела	-8.80499
▁Д	-8.80527
▁увидел	-8.80586
▁знает	-8.80655
▁говорить	-8.80891
б	-8.81034
▁туда	-8.81359
ками	-8.81649
▁заметил	-8.81725
▁мысли	-8.81826
▁де	-8.82959
▁Конечно	-8.83509
ж	-8.83537
▁4	-8.83565
▁такого	-8.83571
га	-8.83733
▁рукой	-8.83755
▁прежде	-8.84
▁Со	-8.84211
ские	-8.84285
▁другие	-8.84751
▁вполне	-8.84754
▁5	-8.84931
▁глаз	-8.85054
▁п	-8.85064
▁стала	-8.85124
▁Н	-8.85232
▁раньше	-8.85245
▁Даже	-8.85399
ному	-8.85546
▁казалось	-8.85674
ать	-8.85905
[	-8.86111
▁этому	-8.86147
▁часто	-8.8654
▁достаточно	-8.86552
▁отец	-8.86678
их	-8.8683
вер	-8.87195
▁первый	-8.87568
▁сил	-8.87653
▁посмотрел	-8.88066
▁друга	-8.88131
▁глазами	-8.88132
▁сколько	-8.88571
▁буду	-8.88723
▁тело	-8.88779
▁хотелось	-8.8885
▁вперед	-8.88868
▁места	-8.89087
▁вновь	-8.89246
ская	-8.89681
▁медленно	-8.89973
▁той	-8.90048
▁кроме	-8.90146
▁тобой	-8.9028
▁спросила	-8.90563
▁тихо	-8.90633
са	-8.90809
▁год	-8.90985
▁особенно	-8.91029
▁полу	-8.9126
▁довольно	-8.91272
▁менее	-8.91378
▁Еще	-8.91451
▁ну	-8.91711
он	-8.91815
▁женщина	-8.91969
▁таких	-8.92082
ние	-8.9261
цы	-8.92733
ша	-8.92836
▁начала	-8.92858
▁ту	-8.92859
▁подумал	-8.93483
▁должна	-8.93491
▁кивнул	-8.93495
▁пять	-8.93644
▁пришлось	-8.93853
▁Ни	-8.9387
ва	-8.94244
▁сердце	-8.94429
▁д	-8.94556
▁город	-8.94659
▁стоял	-8.94881
▁однако	-8.94966
▁двери	-8.95475
или	-8.95558
▁деньги	-8.96118
▁Ведь	-8.9612
▁своем	-8.96174
▁самое	-8.96226
▁смерти	-8.96498
▁котором	-8.96912
▁правда	-8.97028
▁слово	-8.97435
ф	-8.97581
▁знать	-8.9763
▁силы	-8.98042
▁ночь	-8.98179
ля	-8.98311
▁вид	-8.98541
▁б	-8.98688
ер	-8.98889
▁Л	-8.99045
▁Хотя	-8.99211
ность	-8.99244
▁лица	-8.99417
▁моего	-8.99468
▁возможно	-8.99511
▁удалось	-8.99656
▁одну	-8.99904
▁пути	-8.99968
▁“	-8.99998
по	-9.00027
ал	-9.00097
▁имя	-9.00157
▁части	-9.00214
▁понять	-9.00438
▁нашей	-9.00684
o	-9.00721
▁мере	-9.00762
▁девушка	-9.00804
▁Поэтому	-9.0096
▁большой	-9.01106
▁всей	-9.01183
▁Сейчас	-9.01309
▁должно	-9.01365
▁произнес	-9.01594
▁думал	-9.01614
▁сильно	-9.01663
▁далеко	-9.01756
▁работы	-9.01922
▁наши	-9.02225
▁руках	-9.02283
!..	-9.0232
▁руками	-9.02456
ение	-9.02479
▁следует	-9.02771
▁самой	-9.02883
▁войны	-9.0306
▁взял	-9.03476
▁найти	-9.03506
▁второй	-9.03569
ты	-9.03608
ник	-9.03645
ль	-9.03687
▁знаешь	-9.04373
▁Ф	-9.04406
▁сами	-9.04507
▁такая	-9.04523
▁домой	-9.04931
ова	-9.04956
▁Здесь	-9.04969
▁мира	-9.05058
▁легко	-9.05081
▁своими	-9.05288
▁жить	-9.05919
▁какое	-9.05975
▁воды	-9.06019
▁Где	-9.0684
▁думаю	-9.06941
▁столь	-9.06961
▁наш	-9.07049
▁имеет	-9.07357
ском	-9.07586
▁которым	-9.08048
▁дней	-9.08522
".	-9.08594
▁внимание	-9.08695
i	-9.08898
ца	-9.08971
a	-9.09031
▁скоро	-9.09225
▁самый	-9.09276
▁вниз	-9.0959
▁явно	-9.0995
▁вроде	-9.10014
▁города	-9.10047
нее	-9.10135
▁стол	-9.10626
▁около	-9.10954
▁мое	-9.11022
▁часов	-9.11064
▁смотрел	-9.11361
▁путь	-9.11386
ле	-9.11587
ина	-9.11709
ик	-9.12046
▁мать	-9.12128
▁является	-9.12391
▁весьма	-9.12395
▁спокойно	-9.12456
▁придется	-9.12777
▁России	-9.12876
▁Раз	-9.1293
▁каким	-9.12952
▁меньше	-9.13221
▁оказался	-9.13269
▁Надо	-9.13566
▁скорее	-9.13635
▁Пока	-9.13941
▁работу	-9.14266
овой	-9.14271
▁Тут	-9.14439
▁какая	-9.14483
ту	-9.14537
▁Ее	-9.14664
▁отца	-9.14939
▁Р	-9.15003
▁пусть	-9.15044
▁Хорошо	-9.15075
▁вышел	-9.15242
▁Через	-9.15308
▁Об	-9.15485
▁глазах	-9.1583
?»	-9.16046
▁улыбнулся	-9.1605
▁четыре	-9.16052
ения	-9.16349
ство	-9.16354
стью	-9.16506
▁виду	-9.16593
▁Тем	-9.16735
ности	-9.17094
▁поскольку	-9.17333
▁взглядом	-9.17471
▁Значит	-9.17476
ан	-9.17511
▁своему	-9.17892
ился	-9.18023
▁резко	-9.18035
▁час	-9.18095
ма	-9.18236
▁мире	-9.18505
юсь	-9.18539
▁ка	-9.18745
▁землю	-9.1911
▁матери	-9.1913
▁кое	-9.19275
ут	-9.19335
▁известно	-9.19355
ится	-9.1958
▁Затем	-9.19892
али	-9.19931
▁зачем	-9.20015
▁детей	-9.20126
▁иначе	-9.20135
иться	-9.20854
▁Ничего	-9.21057
ра	-9.21442
▁комнату	-9.21474
▁идет	-9.21602
▁вовсе	-9.2168
—	-9.21726
▁десять	-9.21804
ское	-9.21915
ому	-9.21933
▁обычно	-9.22347
▁нами	-9.22376
▁наших	-9.2257
▁кому	-9.22704
▁никак	-9.22759
▁Э	-9.22898
▁Ему	-9.23176
▁ответила	-9.2323
...»	-9.23638
▁голове	-9.23642
▁мысль	-9.23653
ги	-9.23677
▁случилось	-9.23697
▁откуда	-9.23728
▁мою	-9.23752
▁пару	-9.24283
▁10	-9.24306
ня	-9.24321
▁иногда	-9.24411
▁успел	-9.24436
▁тысяч	-9.24442
ри	-9.24563
▁само	-9.24574
▁сквозь	-9.24803
▁хочет	-9.24948
▁понимаю	-9.25019
тся	-9.25074
▁обо	-9.25111
▁удар	-9.25413
▁нашего	-9.25535
▁одним	-9.25651
▁видеть	-9.25808
▁прав	-9.25859
▁будем	-9.25937
y	-9.26021
▁виде	-9.26145
▁хочешь	-9.26252
▁тела	-9.2631
▁готов	-9.26326
▁истории	-9.26441
илась	-9.26522
▁знала	-9.26572
▁возможность	-9.266
▁столько	-9.26731
▁говоря	-9.26777
▁разговор	-9.26792
▁женщины	-9.26803
▁волосы	-9.26867
▁Впрочем	-9.26915
▁Этот	-9.26943
чи	-9.27014
s	-9.27019
▁сидел	-9.27026
че	-9.27203
▁например	-9.27257
▁полностью	-9.27367
▁продолжал	-9.2748
▁стать	-9.27602
▁конца	-9.27691
▁видно	-9.2779
ши	-9.2785
▁рот	-9.27926
скую	-9.27981
▁6	-9.27988
ба	-9.27999
▁трудно	-9.28087
▁глядя	-9.28364
мен	-9.28393
▁идти	-9.28402
ите	-9.28424
ст	-9.28843
ман	-9.28848
▁земли	-9.28878
'	-9.29028
дер	-9.29184
ства	-9.29382
▁пре	-9.29458
ющий	-9.29522
▁двадцать	-9.29634
▁разве	-9.29701
▁ради	-9.29725
▁земле	-9.29767
вин	-9.29863
▁мимо	-9.3001
▁Один	-9.30026
▁Глава	-9.3011
▁доме	-9.30124
▁годы	-9.30218
▁пришел	-9.30311
ель	-9.30348
▁обратно	-9.30613
ц	-9.30718
▁другом	-9.30848
▁пред	-9.31033
▁моих	-9.3105
/	-9.3117
ились	-9.31255
▁брат	-9.31496
▁Просто	-9.31746
▁ясно	-9.31858
▁трех	-9.32046
▁невозможно	-9.32596
▁поднял	-9.32974
▁слов	-9.33043
ней	-9.33104
▁одном	-9.33224
▁никаких	-9.33397
▁самым	-9.33554
▁плохо	-9.3366
ча	-9.33805
▁сын	-9.34113
▁внимания	-9.34183
▁хотела	-9.34433
▁настолько	-9.34444
▁Правда	-9.34466
овых	-9.34512
▁э	-9.34575
ща	-9.3458
▁власти	-9.34598
▁вещи	-9.34607
▁плечами	-9.34791
ры	-9.34851
ости	-9.34872
▁лице	-9.3511
ди	-9.35174
▁вместо	-9.35218
▁наверное	-9.35362
▁15	-9.35477
▁груди	-9.35582
▁выше	-9.35632
▁постоянно	-9.3565
то	-9.36175
вы	-9.36697
]	-9.36808
▁кем	-9.36839
▁последний	-9.3695
▁комнате	-9.37
▁Тот	-9.37019
▁Их	-9.37117
▁многие	-9.37216
▁произошло	-9.37284
тер	-9.37321
▁Меня	-9.37438
▁связи	-9.3749
▁пошел	-9.37652
▁Ю	-9.3766
▁[	-9.37662
▁внутри	-9.37852
▁другого	-9.37877
овые	-9.37954
▁нос	-9.3801
▁вернулся	-9.38123
ским	-9.38302
▁Та	-9.3839
▁вами	-9.3854
мер	-9.38623
ила	-9.38659
▁помочь	-9.3866
су	-9.38801
▁Возможно	-9.38951
▁вверх	-9.38968
▁думать	-9.39054
▁происходит	-9.39074
▁души	-9.39115
▁слегка	-9.39487
▁мужчина	-9.39693
▁случай	-9.39722
▁Гарри	-9.3973
▁получил	-9.40029
вшись	-9.40334
ре	-9.40355
▁народ	-9.40362
▁Бог	-9.4059
▁ибо	-9.40604
▁минуту	-9.40724
лю	-9.40783
от	-9.40869
▁армии	-9.40883
▁стены	-9.41076
▁концов	-9.41104
▁Потому	-9.41426
▁взять	-9.41453
ость	-9.41712
ти	-9.41847
ишь	-9.41946
▁головы	-9.41989
▁станет	-9.4213
до	-9.42132
▁крови	-9.42146
нуть	-9.42238
▁воз	-9.42355
?..	-9.42367
▁бес	-9.42424
▁всему	-9.42629
▁сначала	-9.42679
▁капитан	-9.42735
▁вечер	-9.42766
▁дать	-9.4281
▁имени	-9.42889
ру	-9.4297
▁Есть	-9.43005
▁неожиданно	-9.43105
▁работа	-9.4314
▁какую	-9.43196
▁самых	-9.433
▁сих	-9.43321
▁другим	-9.43325
▁Наконец	-9.43538
▁губы	-9.43544
▁Чтобы	-9.43587
▁спиной	-9.4365
▁возле	-9.43875
ница	-9.43877
▁осталось	-9.43899
▁уверен	-9.43983
▁дал	-9.44041
▁З	-9.44423
▁рук	-9.4445
▁оказалось	-9.44501
▁другое	-9.4452
ает	-9.44739
▁17	-9.4499
▁Пусть	-9.45011
цев	-9.45122
лин	-9.45125
▁Пере	-9.45177
вид	-9.45468
▁могло	-9.4563
▁вся	-9.45823
▁слышал	-9.45909
▁гораздо	-9.45941
ают	-9.46234
▁свете	-9.46333
▁лес	-9.46501
ше	-9.46553
▁голосом	-9.46565
▁любви	-9.46601
▁воздух	-9.46678
▁кровь	-9.4668
▁Разве	-9.4674
▁завтра	-9.46743
▁7	-9.4676
▁Очень	-9.46838
▁смог	-9.46841
би	-9.46864
▁моему	-9.469
ье	-9.46969
▁поняла	-9.46971
▁молча	-9.47068
тон	-9.47162
▁первых	-9.47167
ья	-9.47167
▁S	-9.47251
▁солдат	-9.47498
▁ночью	-9.47618
▁подошел	-9.47711
▁Эти	-9.48351
▁право	-9.48414
▁отношения	-9.48626
ющие	-9.48736
",	-9.48831
▁знаете	-9.48897
ду	-9.48943
▁права	-9.48957
▁узнать	-9.49044
▁никого	-9.49129
▁го	-9.49154
▁машины	-9.49253
▁течение	-9.49346
ар	-9.49373
▁говорят	-9.49374
▁Зачем	-9.49395
▁воду	-9.49483
▁помощь	-9.49597
▁боль	-9.49706
ировать	-9.49817
▁часа	-9.49819
▁речь	-9.49844
▁имел	-9.49875
▁Эта	-9.49877
▁похоже	-9.50018
▁No	-9.50033
▁Кроме	-9.50109
ала	-9.5016
▁некоторые	-9.50275
p	-9.50502
▁ночи	-9.50549
ист	-9.50712
▁денег	-9.50792
▁Именно	-9.50929
▁Ладно	-9.50984
шей	-9.51071
▁шаг	-9.51108
▁гор	-9.51184
нов	-9.51301
▁парень	-9.5131
▁одновременно	-9.51472
▁любовь	-9.51523
▁помощью	-9.51657
.)	-9.51725
▁осторожно	-9.51742
▁необходимо	-9.51759
▁Ар	-9.51829
▁вздохнул	-9.51931
▁дети	-9.52037
▁новые	-9.52041
▁крайней	-9.52145
▁P	-9.52153
овать	-9.52182
▁любой	-9.52271
ках	-9.52307
▁лицом	-9.52346
▁твой	-9.52388
▁таком	-9.52456
▁море	-9.52541
▁можешь	-9.52701
▁прекрасно	-9.52831
▁возможности	-9.52854
▁Сам	-9.52979
ью	-9.53006
▁оружие	-9.5306
▁порядке	-9.53075
▁силу	-9.53239
▁8	-9.53304
▁качестве	-9.53391
▁первой	-9.53511
▁человеком	-9.5372
▁план	-9.53756
▁говорю	-9.53779
▁Можно	-9.53868
лен	-9.54077
▁18	-9.54145
▁мол	-9.54155
▁видела	-9.54183
▁молодой	-9.54207
▁дел	-9.5429
▁очередь	-9.5429
род	-9.54403
▁20	-9.54408
▁увидеть	-9.54463
▁внезапно	-9.5447
▁работать	-9.54586
▁I	-9.54893
▁внимательно	-9.55042
▁практически	-9.55065
▁никакого	-9.5516
▁утром	-9.55166
▁30	-9.55206
▁дороге	-9.55253
▁чему	-9.55486
де	-9.5556
▁встал	-9.5556
▁смерть	-9.55614
”	-9.5568
▁СССР	-9.55801
▁состоянии	-9.55835
▁дорогу	-9.56029
▁Вер	-9.56065
ски	-9.56118
▁Без	-9.56251
▁чтоб	-9.56361
▁самые	-9.56381
▁дни	-9.56452
▁трудом	-9.56455
▁утра	-9.56531
▁общем	-9.56617
▁Неужели	-9.5663
▁ждать	-9.567
▁Эй	-9.5676
ний	-9.56837
лы	-9.56879
▁смотреть	-9.56903
▁чувство	-9.56964
▁вижу	-9.57013
▁многих	-9.57238
▁огонь	-9.57357
▁впервые	-9.57366
ус	-9.57424
▁жил	-9.57455
▁такую	-9.5747
▁Ш	-9.57524
▁мгновение	-9.57717
▁поле	-9.57809
▁вопросы	-9.57846
▁первого	-9.57953
▁новый	-9.57957
▁прежнему	-9.58173
▁говорили	-9.58184
▁находится	-9.58189
▁несмотря	-9.58335
▁16	-9.58382
▁тяжело	-9.5839
▁бросил	-9.58426
▁руке	-9.58537
▁генерал	-9.58549
▁сел	-9.58583
ска	-9.58675
▁книги	-9.58837
вший	-9.58838
▁сто	-9.5891
▁жена	-9.59004
▁Ко	-9.59052
▁Иван	-9.59237
▁язык	-9.59304
▁оказалась	-9.59321
▁последние	-9.59372
▁нечто	-9.59492
▁каких	-9.59541
▁страны	-9.59592
▁пытался	-9.59805
▁бывает	-9.59923
▁улыбнулась	-9.59925
чу	-9.59934
▁иметь	-9.59985
енный	-9.60056
пер	-9.60128
▁мама	-9.60173
▁стояла	-9.60206
▁показалось	-9.60264
▁узнал	-9.60292
▁р	-9.60373
▁Ли	-9.6056
ешься	-9.60666
▁можем	-9.60673
▁роль	-9.60684
▁оба	-9.60804
▁Нам	-9.60805
▁почувствовал	-9.60816
▁Те	-9.60967
емся	-9.61445
кин	-9.61545
▁комнаты	-9.61607
▁Вам	-9.61732
ор	-9.62076
▁отсюда	-9.6221
ск	-9.62258
▁начали	-9.62299
ющих	-9.62344
▁душе	-9.62389
ший	-9.62481
йте	-9.62556
▁мистер	-9.62671
▁вечером	-9.62829
▁письмо	-9.62985
▁которому	-9.62987
▁нашел	-9.62995
ек	-9.63075
▁нескольких	-9.63241
▁какого	-9.6325
▁ре	-9.63296
▁Тебе	-9.63303
нии	-9.63393
во	-9.63448
▁остался	-9.6354
▁ума	-9.63554
▁решение	-9.63616
▁правильно	-9.63645
▁шел	-9.63703
▁окна	-9.63784
▁стояли	-9.63793
▁цели	-9.63834
ста	-9.63844
▁Уже	-9.63865
ды	-9.63916
▁ваш	-9.63934
ович	-9.63979
▁посмотрела	-9.63989
▁можете	-9.6399
▁ног	-9.64188
▁чувствовал	-9.64239
▁века	-9.64252
▁немедленно	-9.64286
▁всеми	-9.64297
▁помощи	-9.6442
▁н	-9.64665
▁солнце	-9.64686
▁улице	-9.64691
▁господин	-9.64741
.]	-9.64742
▁будешь	-9.64882
▁поднялся	-9.64885
▁остановился	-9.65067
▁получить	-9.65168
ятся	-9.65234
▁протянул	-9.65263
▁согласился	-9.65358
▁хуже	-9.65538
ее	-9.6557
ат	-9.65596
▁Спасибо	-9.65689
мы	-9.65702
▁пытаясь	-9.65771
▁12	-9.65793
▁сына	-9.66195
▁женщин	-9.66291
нь	-9.66423
▁городе	-9.6644
▁пожал	-9.66478
▁главное	-9.66706
▁стола	-9.66716
▁ум	-9.66732
нет	-9.66889
▁вскоре	-9.66891
ников	-9.66993
ха	-9.67008
▁наверняка	-9.67011
гу	-9.67134
▁сэр	-9.67163
▁открыл	-9.67264
▁обязательно	-9.67281
▁смысл	-9.67426
▁голова	-9.67539
▁шесть	-9.6755
▁говорила	-9.67651
▁номер	-9.67659
ика	-9.67803
▁черт	-9.67966
▁первым	-9.6805
щий	-9.68115
▁видимо	-9.68117
лу	-9.68145
▁шум	-9.68211
▁Ах	-9.6828
▁каждого	-9.68299
▁машину	-9.68302
▁цвет	-9.68316
па	-9.68346
▁повернулся	-9.68488
▁следующий	-9.68576
▁оказались	-9.68655
▁ближе	-9.68734
▁Е	-9.68782
▁положение	-9.6882
▁света	-9.68855
▁запах	-9.68871
▁силой	-9.68904
▁верно	-9.68939
▁важно	-9.6898
▁9	-9.68985
▁ребенка	-9.69051
▁людьми	-9.69073
▁умер	-9.69191
ями	-9.69277
▁чувства	-9.69324
▁знали	-9.69413
▁громко	-9.69534
ро	-9.69597
▁моим	-9.69877
▁рода	-9.69911
▁людям	-9.70006
▁работе	-9.70062
▁Александр	-9.70088
пол	-9.70131
▁вернуться	-9.7029
▁вспомнил	-9.70587
▁небо	-9.706
щ	-9.70757
▁дороги	-9.70778
▁кон	-9.71027
▁C	-9.71075
▁добавил	-9.71095
▁временем	-9.71164
▁противника	-9.71407
▁понимал	-9.71814
▁странно	-9.71821
▁становится	-9.7186
зи	-9.72019
▁увидела	-9.72027
▁сможет	-9.72293
▁услышал	-9.72381
▁Ей	-9.72392
▁Мой	-9.72489
▁принять	-9.72598
цу	-9.72685
▁Кон	-9.72688
э	-9.72765
▁хотите	-9.72784
шие	-9.72861
вар	-9.72871
▁насколько	-9.72916
▁плечо	-9.72972
▁берегу	-9.73022
▁конец	-9.7305
▁нового	-9.73164
▁словами	-9.73305
▁действия	-9.73356
енные	-9.73411
▁телефон	-9.73463
вод	-9.7352
▁предложил	-9.73655
▁Ха	-9.73761
вшийся	-9.73785
▁миг	-9.73883
▁нравится	-9.73894
▁дочь	-9.73997
▁группы	-9.74135
▁поздно	-9.74253
из	-9.74294
▁приходилось	-9.74566
тель	-9.74588
▁остальные	-9.74593
▁муж	-9.74671
▁Ка	-9.7468
▁Никто	-9.74801
ового	-9.74997
▁меч	-9.75019
▁вышла	-9.7513
▁другу	-9.75137
▁другую	-9.75218
ника	-9.75393
▁боли	-9.75412
▁двумя	-9.75464
ос	-9.75513
▁плечи	-9.75517
▁искать	-9.75661
▁спать	-9.75711
вших	-9.75821
▁хочется	-9.75871
▁шли	-9.75907
▁делает	-9.75923
.].	-9.75947
▁пришла	-9.75958
▁Наверное	-9.76061
▁вести	-9.76128
ющего	-9.76385
▁стене	-9.76523
▁благо	-9.76533
▁Сегодня	-9.76612
▁решила	-9.76652
▁пяти	-9.76655
▁двое	-9.76754
об	-9.76784
▁Ла	-9.76792
▁глубоко	-9.76813
▁проблемы	-9.76902
ич	-9.7702
▁вчера	-9.77022
▁зрения	-9.77025
▁стороне	-9.7717
при	-9.77185
▁вдоль	-9.77197
▁усмехнулся	-9.77379
▁выход	-9.7743
вал	-9.77512
▁ваше	-9.77554
▁сильнее	-9.77568
се	-9.77629
▁Три	-9.77668
▁появился	-9.77689
▁желание	-9.77718
▁страшно	-9.77774
▁сон	-9.77931
▁факт	-9.77955
▁нужен	-9.78041
▁Перед	-9.7807
▁страх	-9.78168
▁грудь	-9.78221
▁девушки	-9.78334
▁числе	-9.78418
▁период	-9.78442
▁счет	-9.78452
▁характер	-9.78477
▁Ле	-9.78497
сон	-9.7851
▁Чем	-9.78598
▁смысле	-9.78641
▁Х	-9.7866
▁новой	-9.78731
▁пальцы	-9.78755
▁угодно	-9.78901
шка	-9.78914
▁A	-9.79071
▁движения	-9.79075
▁народа	-9.79138
▁Было	-9.79166
▁крепко	-9.79218
▁Ре	-9.79228
шего	-9.79282
▁поводу	-9.79421
▁л	-9.79428
▁заявил	-9.79491
▁видели	-9.79508
▁спину	-9.79526
▁утро	-9.79617
жи	-9.79701
ении	-9.8012
ившись	-9.80176
▁понятно	-9.80228
▁Сколько	-9.80328
прав	-9.80331
▁наша	-9.80337
▁власть	-9.80352
▁представить	-9.80363
▁вашей	-9.80436
▁ветер	-9.80478
лов	-9.80494
шь	-9.80505
▁секунд	-9.8063
▁кор	-9.8065
▁недавно	-9.80661
▁помню	-9.80669
же	-9.80698
▁ход	-9.80727
▁использовать	-9.80759
вшие	-9.80765
▁подумала	-9.80785
▁разных	-9.80799
чик	-9.80892
▁результате	-9.80897
ана	-9.80947
▁никому	-9.81195
▁сделала	-9.81214
▁11	-9.81236
▁постепенно	-9.81314
▁окно	-9.81325
▁цвета	-9.81348
▁люблю	-9.81436
ющей	-9.81565
▁Чего	-9.81653
▁кофе	-9.81655
▁думала	-9.81827
ню	-9.81837
▁США	-9.81838
▁самому	-9.8195
▁мужчины	-9.82012
▁корабль	-9.82309
▁Бога	-9.82335
▁позже	-9.82357
ден	-9.82567
▁Итак	-9.82569
▁образ	-9.82796
▁пора	-9.8286
лет	-9.82877
▁Кстати	-9.82974
(	-9.82977
2	-9.83007
ях	-9.83007
▁спустя	-9.832
▁случайно	-9.83346
▁платье	-9.83353
▁Мак	-9.83372
▁рука	-9.83474
▁Андрей	-9.83495
▁ногами	-9.83546
▁заметила	-9.83566
▁двор	-9.83735
▁доктор	-9.83942
ники	-9.83945
▁новых	-9.83956
ете	-9.84007
▁примерно	-9.84049
▁звук	-9.84315
▁движение	-9.8433
▁ваши	-9.84338
▁смотрела	-9.84433
▁водой	-9.84476
ум	-9.84535
овым	-9.84552
▁14	-9.84582
▁попытался	-9.85092
▁закон	-9.85255
ще	-9.85272
▁кровати	-9.85425
мет	-9.85461
▁благодаря	-9.85485
▁жив	-9.8557
▁человеку	-9.85586
▁M	-9.85642
▁нужна	-9.85714
ран	-9.85739
▁приказал	-9.85753
▁наше	-9.85812
кая	-9.85855
▁пришли	-9.85949
▁однажды	-9.85951
▁посмотреть	-9.85963
ших	-9.85968
▁окончательно	-9.8597
▁начале	-9.8597
▁неделю	-9.85988
▁пошли	-9.86044
▁вероятно	-9.86082
▁системы	-9.86103
▁писал	-9.86122
▁труд	-9.86179
со	-9.86259
▁Думаю	-9.86315
▁Куда	-9.8633
▁воздухе	-9.86404
▁пар	-9.86456
▁мед	-9.86456
▁небольшой	-9.86525
▁твоя	-9.86777
▁которыми	-9.86796
ева	-9.87
▁покачал	-9.87005
жа	-9.87099
▁близко	-9.87111
▁мужа	-9.87259
▁ушел	-9.87361
▁впереди	-9.87377
▁наиболее	-9.87403
▁памяти	-9.87468
▁мальчик	-9.87469
▁Давай	-9.87502
▁бур	-9.87527
▁колени	-9.87578
▁оставалось	-9.87582
▁дым	-9.87597
▁приказ	-9.87604
▁па	-9.87617
йтесь	-9.87726
▁степени	-9.87739
▁воскликнул	-9.87743
▁вода	-9.87949
1	-9.88079
▁лично	-9.88094
▁зато	-9.88179
▁E	-9.88181
▁шла	-9.88328
бо	-9.88387
▁волос	-9.88403
▁напротив	-9.88408
лей	-9.88471
ступ	-9.88473
▁первую	-9.88497
тели	-9.88519
щие	-9.88612
▁B	-9.88738
▁некоторое	-9.8875
▁ждал	-9.88753
▁точки	-9.88831
▁абсолютно	-9.8884
щих	-9.88873
▁причем	-9.88884
▁Рас	-9.88887
чки	-9.8891
▁месяц	-9.88981
▁часы	-9.89084
▁большим	-9.89114
▁убить	-9.89191
▁старик	-9.89255
▁девочка	-9.89296
▁способ	-9.89362
▁история	-9.89382
▁поговорить	-9.89394
▁брата	-9.89469
▁уйти	-9.8952
▁бой	-9.89558
нув	-9.89591
▁ш	-9.89647
▁Вас	-9.89651
ницы	-9.89656
▁зло	-9.89719
скому	-9.89726
ющим	-9.89767
▁состояние	-9.89916
▁семьи	-9.89951
▁25	-9.89955
ические	-9.8997
▁проговорил	-9.90011
▁душу	-9.90048
▁оттуда	-9.90136
▁безопасности	-9.90181
ел	-9.90262
▁считать	-9.90322
▁честно	-9.90357
▁метров	-9.90401
▁вошел	-9.90628
▁старый	-9.90663
очка	-9.90666
▁нечего	-9.90748
ину	-9.90805
▁крикнул	-9.90817
▁миссис	-9.90837
▁Мир	-9.90909
ины	-9.91045
▁времена	-9.91067
▁Сергей	-9.91092
нос	-9.91126
▁взглянул	-9.91166
▁рад	-9.91274
c	-9.9128
▁нужны	-9.91629
▁лежал	-9.91689
▁касается	-9.91689
его	-9.91769
▁решили	-9.91798
▁дыхание	-9.91838
▁улыбкой	-9.91856
▁Какой	-9.9186
нул	-9.91943
чит	-9.91944
▁компании	-9.91975
▁стране	-9.91988
▁одному	-9.92027
▁кивнула	-9.9206
▁Кар	-9.92065
▁вряд	-9.92071
фа	-9.92091
▁собственной	-9.92113
▁чувств	-9.92154
▁всякий	-9.92255
▁полной	-9.92267
▁твоей	-9.92323
вшихся	-9.92375
▁никакой	-9.92403
▁зубы	-9.9245
▁любит	-9.92484
▁области	-9.92551
▁любил	-9.92571
▁разные	-9.9258
▁забыл	-9.92593
▁Гор	-9.92593
▁13	-9.92593
▁сообщил	-9.9263
▁очевидно	-9.9266
▁война	-9.92835
▁большую	-9.92902
▁Люди	-9.9292
▁Ч	-9.92964
▁1.	-9.92986
▁существует	-9.93021
▁сторон	-9.93132
▁тридцать	-9.93148
йся	-9.93148
ической	-9.93181
▁друзей	-9.93216
вен	-9.93244
▁впечатление	-9.93279
ян	-9.93389
▁II	-9.93389
▁вкус	-9.93408
▁Сначала	-9.9354
чин	-9.93542
▁минуты	-9.93568
▁Виктор	-9.93608
▁последнее	-9.93742
▁Ма	-9.93745
▁поля	-9.93865
▁принял	-9.93876
▁столом	-9.93878
▁недо	-9.94056
▁некоторых	-9.94056
вшего	-9.94074
▁редко	-9.94276
▁количество	-9.94294
чат	-9.94382
▁попросил	-9.94389
кий	-9.94395
▁знак	-9.94417
▁нашли	-9.94424
▁з	-9.94522
▁остались	-9.94529
▁дух	-9.94625
шая	-9.94668
▁Джон	-9.9467
▁Девушка	-9.9471
▁положил	-9.9477
▁показал	-9.94824
▁неё	-9.94828
▁вашего	-9.94855
▁ха	-9.9486
▁лестнице	-9.95071
▁историю	-9.95083
▁мисс	-9.95159
▁Джек	-9.95163
▁выйти	-9.95193
▁мужчин	-9.95202
▁твои	-9.95291
том	-9.95349
▁пошла	-9.95441
▁ситуации	-9.95453
▁земля	-9.9551
▁Похоже	-9.9553
▁друзья	-9.95595
шки	-9.9575
ция	-9.95775
▁быстрее	-9.95783
▁объяснить	-9.95859
кам	-9.95879
▁зал	-9.95936
▁ниже	-9.96052
▁серьезно	-9.96068
▁пожалуйста	-9.96088
▁собирался	-9.9614
▁маленький	-9.96167
▁делал	-9.96221
▁вз	-9.96305
▁связь	-9.9631
▁находился	-9.96314
▁каждой	-9.96418
▁Человек	-9.96423
ики	-9.96499
▁видом	-9.96523
▁интерес	-9.96605
▁сила	-9.96618
▁первые	-9.9662
▁буквально	-9.96637
▁цель	-9.9674
▁развития	-9.96883
▁решительно	-9.96903
шу	-9.96987
▁Ор	-9.97033
▁прошел	-9.97061
▁значение	-9.97081
▁большие	-9.97179
▁нашу	-9.97331
▁секунду	-9.97395
▁семь	-9.97399
▁считал	-9.97487
вшиеся	-9.97524
▁множество	-9.97527
▁моем	-9.9756
▁форме	-9.97699
▁вслед	-9.97836
ге	-9.97839
гор	-9.97963
▁партии	-9.97989
сы	-9.98007
er	-9.98031
той	-9.98091
ган	-9.98109
▁Мор	-9.98114
▁Ага	-9.98183
▁тысячи	-9.98197
▁душа	-9.98214
▁думаешь	-9.98271
тов	-9.98305
▁широко	-9.9837
ием	-9.98391
це	-9.98416
▁стараясь	-9.98446
▁крест	-9.98479
▁этими	-9.98516
▁вышли	-9.98539
▁состав	-9.98546
▁хватит	-9.9856
ству	-9.98593
▁темно	-9.98671
▁опыт	-9.98884
бер	-9.9912
u	-9.99177
▁Анна	-9.99315
▁войск	-9.99325
▁интересно	-9.99354
▁взяла	-9.99385
▁остается	-9.99434
▁упал	-9.99487
▁лист	-9.99561
▁сорок	-9.9973
щей	-9.99859
▁скажу	-9.99867
▁вон	-9.99873
▁сердца	-9.9991
▁Иногда	-9.99989
▁чаще	-10.0001
▁высоко	-10.0002
▁общества	-10.0031
овая	-10.0034
▁моря	-10.0039
▁слезы	-10.004
▁Таким	-10.0044
▁Несколько	-10.0052
▁чай	-10.0055
ющая	-10.0074
▁большая	-10.0074
▁живет	-10.008
▁недели	-10.008
енко	-10.009
▁рано	-10.0092
▁род	-10.0097
стве	-10.0101
▁подумать	-10.0102
▁типа	-10.0104
▁весело	-10.0107
▁стр	-10.0111
▁тени	-10.0112
▁появилась	-10.012
▁деятельности	-10.0121
▁знают	-10.0126
▁страха	-10.0128
▁ногу	-10.013
▁Дело	-10.0135
▁мягко	-10.0136
▁лейтенант	-10.0144
▁сделали	-10.0144
▁Ди	-10.0148
▁класс	-10.0149
▁берег	-10.0155
▁Отец	-10.0156
▁машина	-10.0156
стей	-10.0172
лом	-10.0175
▁тщательно	-10.0182
стер	-10.0183
▁следовало	-10.0194
ации	-10.0197
▁другими	-10.02
і	-10.02
▁честь	-10.0205
▁принялся	-10.0235
▁Ку	-10.0237
▁камень	-10.0238
▁Всё	-10.0241
▁гости	-10.0246
▁теле	-10.025
▁пара	-10.0255
▁рассказал	-10.0267
▁Бо	-10.0279
▁реки	-10.028
▁удивился	-10.0282
▁Откуда	-10.0287
▁кабинет	-10.0288
▁Кор	-10.0292
▁корабля	-10.0304
▁другому	-10.031
▁ста	-10.0317
ели	-10.0321
рон	-10.0325
▁пальцами	-10.0326
▁ваша	-10.033
▁сознание	-10.0332
▁оставил	-10.0333
кс	-10.0341
▁работает	-10.0349
▁лоб	-10.0354
▁раздался	-10.0359
ид	-10.0359
▁Каждый	-10.0364
▁лесу	-10.0368
▁голоса	-10.0371
▁плен	-10.0381
ический	-10.0391
▁месяца	-10.0393
зы	-10.0393
▁достал	-10.0417
▁встреча	-10.0426
▁смотрит	-10.0426
▁труда	-10.0442
▁Джо	-10.0447
▁Николай	-10.0449
▁Оно	-10.0451
бу	-10.046
▁ребенок	-10.0461
▁месяцев	-10.0462
▁шею	-10.0463
▁девушку	-10.0469
▁Москве	-10.0474
▁хозяин	-10.0481
▁ладно	-10.0482
▁пальцем	-10.0487
▁//	-10.0492
ическая	-10.0497
▁леди	-10.0501
▁Пол	-10.0502
чка	-10.0506
▁пожалуй	-10.0526
▁больно	-10.0529
▁книгу	-10.0532
▁ужас	-10.0537
ско	-10.0543
▁строго	-10.0549
▁короля	-10.0551
▁произнесла	-10.0554
▁легче	-10.0558
▁рассказ	-10.0562
нут	-10.0566
▁Мар	-10.0573
▁p	-10.0574
▁начинает	-10.0574
▁имею	-10.0577
▁самая	-10.0578
▁хотели	-10.0587
▁трубку	-10.0592
▁ч	-10.0593
▁каком	-10.0594
▁стен	-10.0603
▁начало	-10.0611
▁дает	-10.0613
рин	-10.0622
эн	-10.0626
▁память	-10.0629
▁постели	-10.0634
▁машин	-10.0645
▁улицу	-10.0655
▁оставить	-10.0662
▁разумеется	-10.0685
Н	-10.0685
▁ком	-10.0687
ических	-10.0692
▁желания	-10.0694
▁рассказать	-10.0696
▁стар	-10.0707
фер	-10.0709
▁войска	-10.0713
▁работал	-10.0717
▁мгновенно	-10.0719
▁лицу	-10.072
▁продолжил	-10.0723
кор	-10.0724
▁of	-10.0728
▁товарищ	-10.0731
▁the	-10.0736
▁сидели	-10.074
▁повторил	-10.0745
▁зная	-10.0747
▁Кажется	-10.0749
▁события	-10.0749
▁процесс	-10.0759
▁нож	-10.0759
▁Лучше	-10.0759
▁задумчиво	-10.0766
▁король	-10.0771
▁приходится	-10.0771
енных	-10.0774
▁губ	-10.0778
▁40	-10.0782
▁естественно	-10.0786
▁десяти	-10.0796
▁государства	-10.0806
▁бумаги	-10.081
▁немало	-10.081
▁информации	-10.0812
▁раза	-10.0814
▁остаться	-10.0818
▁углу	-10.0825
▁разу	-10.0828
▁угол	-10.0828
щего	-10.083
▁прошло	-10.083
бор	-10.084
▁ф	-10.084
t	-10.0841
▁отлично	-10.0842
енная	-10.0851
мор	-10.0853
▁специально	-10.0858
▁Бар	-10.0866
лад	-10.0875
тор	-10.0876
ило	-10.0891
овый	-10.0893
шим	-10.0895
▁выражение	-10.0896
▁сад	-10.09
▁делом	-10.091
▁письма	-10.0912
▁Си	-10.0915
▁след	-10.0916
▁понимаешь	-10.0917
▁четырех	-10.0922
образ	-10.0924
▁Между	-10.0928
▁управления	-10.093
▁нашем	-10.0941
▁зовут	-10.0947
▁крайне	-10.0948
про	-10.0954
▁Ра	-10.0963
ического	-10.097
▁условиях	-10.0972
▁Зато	-10.0973
▁навстречу	-10.0976
▁ответа	-10.0981
▁будь	-10.0982
▁обратился	-10.0983
▁леса	-10.0989
▁имеют	-10.099
▁вздохнула	-10.0991
▁решения	-10.0993
▁кстати	-10.0995
▁2.	-10.1001
ров	-10.1005
изм	-10.1007
▁Например	-10.101
▁сидела	-10.1017
▁жизнью	-10.1018
▁проблем	-10.1018
▁Боже	-10.1018
▁спас	-10.102
▁Больше	-10.102
▁исчез	-10.1021
▁попал	-10.1025
▁пистолет	-10.1026
▁Эл	-10.1029
ван	-10.1032
▁Черт	-10.1034
▁дар	-10.1036
▁смогу	-10.1039
▁всяком	-10.1043
▁означает	-10.1044
▁навсегда	-10.1046
▁Над	-10.1046
ению	-10.1055
▁отдал	-10.1062
▁роман	-10.1063
▁наоборот	-10.1064
▁восемь	-10.1065
▁порядок	-10.1072
▁правду	-10.1073
нию	-10.1081
▁сверху	-10.1083
▁встречи	-10.1083
▁ответить	-10.1084
▁отправился	-10.1098
она	-10.1104
▁пробормотал	-10.111
▁церкви	-10.1113
▁Пред	-10.1119
▁воде	-10.1122
цен	-10.1128
▁суд	-10.1135
▁ждет	-10.1138
▁дорогой	-10.1141
▁горы	-10.1147
▁командир	-10.1149
▁зале	-10.115
▁направился	-10.1155
дар	-10.1155
▁отряд	-10.1171
▁третий	-10.1174
▁новую	-10.1175
▁маг	-10.1182
▁направлении	-10.1197
▁стоило	-10.1197
▁речи	-10.1198
▁ею	-10.1203
▁сказали	-10.1204
▁большинство	-10.1206
▁Су	-10.1206
пис	-10.1215
ним	-10.1224
▁заметно	-10.1233
▁папа	-10.1234
стро	-10.1235
▁(«	-10.1235
▁Свет	-10.1237
оз	-10.1242
▁поставил	-10.1251
▁действий	-10.1255
r	-10.1263
n	-10.1265
лив	-10.127
»?	-10.1271
зна	-10.1272
▁ярко	-10.1276
▁дому	-10.1277
▁голосе	-10.1281
▁отношение	-10.1282
▁такими	-10.1286
▁стран	-10.1297
▁живот	-10.1299
▁24	-10.1305
▁остальных	-10.1306
кон	-10.1312
етесь	-10.1315
▁Интересно	-10.1321
▁новое	-10.1338
ёр	-10.1339
▁Нью	-10.134
▁Владимир	-10.1344
▁ощущение	-10.135
▁давай	-10.1354
▁времен	-10.1355
▁целый	-10.1357
▁Господи	-10.1363
ировал	-10.1365
очек	-10.1373
▁событий	-10.1377
▁тепло	-10.1379
▁видит	-10.138
▁Вскоре	-10.1383
▁пользу	-10.1395
▁Какая	-10.1395
▁бог	-10.1397
▁основном	-10.1399
▁будете	-10.1405
▁дворе	-10.1413
▁потерял	-10.1413
▁сомнения	-10.1418
▁пойти	-10.142
▁Пер	-10.1423
▁знаем	-10.1424
▁внутрь	-10.1425
М	-10.1441
▁сестра	-10.1447
▁территории	-10.1447
▁Ж	-10.1448
щи	-10.1448
▁Марк	-10.145
▁начальник	-10.1451
▁вечера	-10.1451
овую	-10.1452
▁осталась	-10.1456
▁центре	-10.1462
▁обе	-10.1462
▁позади	-10.1467
▁держать	-10.1467
▁карман	-10.1471
▁Германии	-10.1474
Е	-10.1487
ключ	-10.1494
▁Пре	-10.1498
▁хватало	-10.1503
ющихся	-10.1507
вшегося	-10.1511
▁твердо	-10.1516
▁местах	-10.1517
▁вне	-10.1518
▁Эр	-10.1522
▁22	-10.1524
▁целью	-10.1525
▁женщину	-10.1526
▁столе	-10.1528
▁Петр	-10.155
ун	-10.155
ическое	-10.1562
▁Нужно	-10.1563
▁насчет	-10.1567
▁отличие	-10.1568
▁ключ	-10.158
▁Лев	-10.1586
▁особо	-10.1588
▁энергии	-10.1591
щая	-10.1598
жу	-10.1604
▁and	-10.1613
▁обнаружил	-10.1616
▁вина	-10.162
▁относительно	-10.1621
▁провел	-10.1624
▁приятно	-10.1635
▁офицер	-10.1641
кова	-10.1643
вит	-10.1645
▁группа	-10.1649
▁Им	-10.165
▁сожалению	-10.1654
▁Моя	-10.1657
▁жены	-10.1666
▁отдел	-10.1674
▁ряд	-10.1681
ою	-10.1683
▁получилось	-10.1692
▁делу	-10.1696
▁смотрели	-10.1703
▁отношении	-10.1703
▁выбор	-10.1705
▁ладони	-10.1714
▁организации	-10.1726
▁одни	-10.1732
▁Вдруг	-10.1735
лан	-10.1747
▁читать	-10.1748
▁50	-10.175
▁русских	-10.1758
ание	-10.1759
▁граф	-10.1763
раз	-10.1767
рет	-10.1773
▁профессор	-10.1773
▁Михаил	-10.1776
ера	-10.1781
дав	-10.1789
▁почувствовала	-10.1796
▁название	-10.1801
▁князь	-10.1802
очку	-10.1804
▁сне	-10.1806
▁разум	-10.1808
▁появились	-10.1811
сов	-10.1814
▁Два	-10.1817
▁ходу	-10.1818
▁Га	-10.1819
▁дали	-10.1828
▁начать	-10.1829
щим	-10.183
▁мая	-10.1836
▁хлеб	-10.184
▁Би	-10.1841
▁боя	-10.1845
▁Надеюсь	-10.1846
▁причин	-10.185
▁исключительно	-10.1851
▁стену	-10.1852
▁гг	-10.1862
▁лежит	-10.1866
▁Сан	-10.1867
▁s	-10.187
▁идея	-10.1871
▁звезд	-10.1882
▁изо	-10.1883
нер	-10.189
В	-10.1899
▁днем	-10.1901
▁поход	-10.1903
▁имели	-10.1903
зе	-10.1907
▁ворот	-10.1908
овал	-10.1915
▁принес	-10.1915
▁большое	-10.1922
▁пить	-10.1924
▁сотни	-10.1925
▁слез	-10.1929
▁секрет	-10.1931
▁темноте	-10.1932
▁другая	-10.1936
▁радио	-10.1939
▁См	-10.1939
▁коридор	-10.1941
ими	-10.195
▁второго	-10.1951
▁система	-10.1954
▁держал	-10.1956
▁Глаза	-10.1958
▁Мама	-10.1966
▁очередной	-10.1966
▁мо	-10.1968
▁28	-10.1969
▁др	-10.1969
▁оружия	-10.1978
дра	-10.1989
▁Сталин	-10.1994
en	-10.1997
▁прочь	-10.1997
▁впрочем	-10.2006
▁Дон	-10.2016
▁Бор	-10.2017
▁Несмотря	-10.2018
▁19	-10.2026
нный	-10.2028
▁27	-10.2036
твор	-10.205
▁машине	-10.2051
▁шар	-10.2061
ена	-10.2066
▁край	-10.2071
▁23	-10.2071
▁21	-10.2073
▁счастье	-10.2074
▁линии	-10.2082
▁подошла	-10.2088
▁солнца	-10.2091
▁войну	-10.2096
▁прошлом	-10.21
▁Пар	-10.2103
▁кино	-10.2104
▁пример	-10.2107
▁успела	-10.2108
ющиеся	-10.212
▁твоего	-10.2122
▁Мал	-10.2129
дон	-10.2144
▁момента	-10.2148
▁сидит	-10.215
▁сознания	-10.2151
▁Ри	-10.2152
▁автор	-10.2155
ций	-10.2158
пад	-10.2172
▁языке	-10.2206
▁Том	-10.2206
▁схватил	-10.2207
▁правило	-10.221
▁игра	-10.2212
▁пройти	-10.2213
▁чувствовала	-10.222
ация	-10.2224
▁крик	-10.2225
вшим	-10.2226
▁нашим	-10.2227
▁заранее	-10.2229
▁настоящий	-10.2232
▁Де	-10.2238
▁радостно	-10.2239
▁тон	-10.2245
дан	-10.2246
▁Разумеется	-10.2253
▁Особенно	-10.2257
▁поинтересовался	-10.226
▁Бен	-10.2269
▁c	-10.2271
▁кур	-10.2272
“	-10.2277
▁показать	-10.228
▁трое	-10.228
▁Стар	-10.2283
стоя	-10.2283
▁мин	-10.2283
тен	-10.2292
▁замок	-10.2293
зов	-10.2297
бы	-10.2298
нем	-10.23
▁вел	-10.2308
▁главе	-10.2311
▁информацию	-10.2312
▁вопросов	-10.2312
▁каждом	-10.2312
▁удастся	-10.2313
▁придет	-10.2315
▁Ро	-10.2316
it	-10.2318
вор	-10.232
▁Никогда	-10.2336
▁Тар	-10.2342
▁врага	-10.2347
▁далее	-10.2351
▁сидеть	-10.2351
лер	-10.2367
▁парня	-10.2369
итесь	-10.2371
▁Па	-10.2372
жив	-10.2375
▁срок	-10.2378
▁Сер	-10.2381
▁любом	-10.2385
▁значительно	-10.2387
▁Уж	-10.2394
▁главным	-10.2394
▁хватает	-10.2396
▁компьютер	-10.2401
▁Однажды	-10.2404
пе	-10.2405
▁смогла	-10.2415
▁зря	-10.2417
▁забыть	-10.2418
▁шагов	-10.2419
▁кровью	-10.242
▁Хо	-10.2426
▁ребята	-10.2433
▁предложение	-10.2435
▁полковник	-10.2437
▁судя	-10.2448
▁ма	-10.245
▁вернулась	-10.2455
▁Франции	-10.2461
▁Кол	-10.2461
▁N	-10.2468
ант	-10.2476
▁Казалось	-10.2478
сто	-10.2483
рен	-10.2483
▁отвечал	-10.2486
▁Лу	-10.2489
▁пришло	-10.2493
▁хотят	-10.2495
▁вынужден	-10.2498
ём	-10.2499
ющее	-10.2502
▁невольно	-10.2504
▁кол	-10.2504
▁мнение	-10.2507
▁майор	-10.2507
▁войне	-10.2507
▁прошу	-10.2509
▁26	-10.2519
▁твое	-10.2523
▁ходить	-10.2527
▁мнению	-10.2527
▁судьба	-10.253
▁вес	-10.2535
нные	-10.2535
▁назвать	-10.2537
▁останется	-10.2537
▁готовы	-10.2537
▁хороший	-10.2538
▁являются	-10.2543
вед	-10.2543
▁Мари	-10.2549
▁Нас	-10.2549
▁спросить	-10.255
▁обернулся	-10.2551
сен	-10.2555
▁пишет	-10.2566
▁обоих	-10.2569
▁рассказывал	-10.2573
кар	-10.2589
▁спине	-10.2603
▁Хар	-10.2607
▁провести	-10.2608
рия	-10.2612
вой	-10.2614
▁рождения	-10.2614
▁многое	-10.2623
вшей	-10.2634
▁дочери	-10.2636
▁играть	-10.2647
▁Иванович	-10.2662
телей	-10.2667
енной	-10.267
▁тотчас	-10.267
▁снег	-10.2671
▁Ру	-10.2671
▁спор	-10.2673
▁Олег	-10.2679
стан	-10.2681
▁/	-10.2684
брос	-10.2686
▁пространство	-10.2686
ющийся	-10.2687
▁отозвался	-10.2689
▁Кир	-10.2689
▁круг	-10.2693
▁первом	-10.2694
▁погиб	-10.2695
▁хвост	-10.2705
▁замуж	-10.2713
жен	-10.2717
▁Игорь	-10.2719
▁села	-10.2726
3	-10.2727
цов	-10.2732
▁необходимости	-10.2733
▁Род	-10.2739
▁единственный	-10.274
▁остров	-10.274
▁оказаться	-10.2743
▁жили	-10.2744
кие	-10.2748
▁возник	-10.2749
▁случаях	-10.2751
▁привык	-10.2753
▁полно	-10.2755
▁написал	-10.2756
▁внизу	-10.2758
▁верить	-10.2759
E	-10.2761
▁горло	-10.2761
▁Некоторые	-10.2762
▁сигнал	-10.2764
▁Алекс	-10.2767
вшейся	-10.2767
▁называется	-10.2767
▁приехал	-10.2771
▁неизвестно	-10.2774
▁заниматься	-10.2787
ания	-10.2798
▁прошептал	-10.2811
хо	-10.2815
▁29	-10.2817
▁вида	-10.2819
▁действовать	-10.2823
гер	-10.2824
▁нормально	-10.2825
чер	-10.2826
▁опасности	-10.2826
▁бежать	-10.2828
рис	-10.2832
▁ваших	-10.2834
▁каждым	-10.2838
▁одежду	-10.2847
ак	-10.2857
енным	-10.2858
▁удовольствием	-10.2869
▁продолжала	-10.2871
▁бок	-10.2874
▁Алексей	-10.2877
▁договор	-10.288
▁будущее	-10.2892
▁Ман	-10.2895
▁улицы	-10.2898
▁фон	-10.2901
▁Время	-10.2902
▁снял	-10.2913
▁радости	-10.2913
▁Бер	-10.2916
▁путем	-10.2918
▁анти	-10.2919
▁первое	-10.2919
▁Голос	-10.2921
is	-10.2926
▁кресло	-10.2927
скими	-10.2927
▁делают	-10.2927
▁заговорил	-10.2933
al	-10.2938
▁Первый	-10.2944
▁старался	-10.2946
вяз	-10.2956
▁убил	-10.2959
▁проект	-10.296
▁ничем	-10.2961
очки	-10.2962
▁поэт	-10.2968
▁увидев	-10.2969
▁огня	-10.2972
▁частью	-10.2973
ало	-10.2974
▁способен	-10.2982
▁сумел	-10.2982
▁лорд	-10.2987
▁100	-10.2997
C	-10.2999
аться	-10.3003
▁попасть	-10.3007
▁см	-10.3009
цем	-10.3011
▁ожидал	-10.3015
▁словом	-10.3019
▁воздуха	-10.3028
▁силах	-10.3042
▁ровно	-10.3048
▁роли	-10.3061
▁пост	-10.3063
▁операции	-10.3072
▁участие	-10.3073
▁целом	-10.3074
▁курс	-10.3076
шись	-10.3077
кер	-10.3077
▁полном	-10.308
5	-10.3089
▁поверхности	-10.309
мат	-10.3095
▁согласно	-10.3097
▁туман	-10.31
ора	-10.3102
дел	-10.3112
▁писать	-10.3114
▁думает	-10.312
▁мер	-10.3127
Д	-10.3128
▁читал	-10.3131
▁холодно	-10.3131
ё	-10.3138
ара	-10.3142
▁улыбка	-10.3144
▁больших	-10.3148
▁жаль	-10.3149
▁чувствую	-10.315
▁чисто	-10.3151
▁еле	-10.3155
▁ехать	-10.316
▁пойдет	-10.3164
тан	-10.3165
▁черные	-10.3166
ент	-10.3167
▁столу	-10.3169
▁спал	-10.3171
▁предмет	-10.3175
▁деревьев	-10.3181
ar	-10.3183
▁прошла	-10.3186
▁число	-10.3188
▁пятьдесят	-10.3189
▁уши	-10.3189
▁первая	-10.3192
▁различных	-10.3194
▁гостей	-10.3198
▁прос	-10.3203
▁Много	-10.3206
▁ударил	-10.3207
▁школы	-10.3207
▁Второй	-10.3219
▁велел	-10.3219
стр	-10.3222
▁Одна	-10.3223
▁сторонам	-10.3235
воз	-10.3244
▁аккуратно	-10.325
▁Вообще	-10.3253
▁обед	-10.3256
▁проблема	-10.326
шую	-10.3268
▁тоном	-10.3273
▁жену	-10.3275
▁Лишь	-10.3281
▁бросился	-10.3292
рик	-10.3293
ницу	-10.3294
▁подняла	-10.3295
▁молод	-10.3298
▁Какие	-10.3304
пи	-10.3304
▁долларов	-10.3307
▁суда	-10.3308
▁книг	-10.3313
▁Мои	-10.3321
▁последнего	-10.3327
ление	-10.3331
▁V	-10.3335
▁ос	-10.3343
▁службы	-10.3347
es	-10.3347
▁занят	-10.3348
▁мастер	-10.3349
▁демон	-10.3354
ался	-10.3355
▁самую	-10.3357
▁двадцати	-10.3358
▁коротко	-10.3363
▁ст	-10.3366
▁центр	-10.3367
▁краю	-10.3382
▁закрыл	-10.3384
чет	-10.3387
▁полный	-10.3387
▁труп	-10.3387
илось	-10.3389
▁Макс	-10.3396
▁берега	-10.3396
▁тему	-10.3396
▁спасибо	-10.3401
▁сей	-10.3405
▁вечно	-10.3425
ица	-10.3428
▁открыть	-10.3434
T	-10.3439
цами	-10.3439
▁готова	-10.3444
▁Ми	-10.3446
▁вещей	-10.3451
▁слышала	-10.3451
бе	-10.3454
▁последних	-10.3459
ряд	-10.3482
▁Ай	-10.3487
▁стул	-10.3488
▁черный	-10.3491
▁Рад	-10.3492
▁квартиру	-10.3493
▁горе	-10.3494
▁подальше	-10.3503
▁выглядел	-10.3504
▁ладонь	-10.3504
бра	-10.3508
▁искренне	-10.3508
гар	-10.351
▁счастью	-10.3512
▁семья	-10.3513
кал	-10.3514
ул	-10.3518
▁словам	-10.3519
▁июня	-10.3519
вес	-10.352
▁пояс	-10.3524
▁формы	-10.3527
▁средства	-10.3534
▁получается	-10.3538
▁мысленно	-10.3539
▁принимать	-10.3541
▁прошли	-10.3547
▁душ	-10.3548
▁понятия	-10.3553
▁тишина	-10.3561
▁мозг	-10.3564
▁радость	-10.3565
▁ру	-10.3565
▁игры	-10.3568
▁Ба	-10.357
▁живут	-10.3572
▁пыль	-10.3581
▁Мария	-10.3582
▁Борис	-10.3588
▁поможет	-10.3589
▁носом	-10.359
▁объяснил	-10.3597
▁существо	-10.3603
ген	-10.3612
ря	-10.3616
▁имела	-10.3618
▁большого	-10.3628
вшая	-10.3629
▁проще	-10.3629
▁дверью	-10.3632
▁Более	-10.3632
чен	-10.3636
▁ушла	-10.3638
▁уровне	-10.3639
▁стакан	-10.364
▁родителей	-10.3644
▁никуда	-10.3645
▁успели	-10.3645
▁ужасно	-10.3656
▁указал	-10.3658
вато	-10.366
▁настоящее	-10.3665
кан	-10.3668
▁эффект	-10.3672
▁прием	-10.3672
▁твою	-10.3672
▁уровень	-10.3674
▁штаб	-10.3681
▁семье	-10.3682
▁говоришь	-10.3685
▁Ох	-10.3688
▁ворота	-10.3689
▁бар	-10.3689
▁уверена	-10.369
▁книге	-10.369
▁понимать	-10.3692
▁августа	-10.3697
▁знаком	-10.3705
▁Скорее	-10.371
лия	-10.3712
▁лошади	-10.3712
▁Москву	-10.3718
▁школе	-10.372
▁телом	-10.3725
щем	-10.3728
▁Среди	-10.3731
▁оп	-10.3739
▁районе	-10.3742
▁лежала	-10.3745
▁смех	-10.3746
мон	-10.3747
▁оставаться	-10.375
енную	-10.375
»[	-10.3753
▁вовремя	-10.3754
ющую	-10.3757
▁подобно	-10.3757
!!!	-10.3757
сел	-10.3761
▁вариант	-10.3766
▁живых	-10.3769
рос	-10.377
▁животных	-10.3772
▁значения	-10.3778
▁непосредственно	-10.3779
▁Лицо	-10.3783
▁ветра	-10.3789
альный	-10.3789
▁шанс	-10.3794
▁сзади	-10.3798
▁звуки	-10.3803
▁Ту	-10.3806
▁вспомнить	-10.3807
бил	-10.3807
▁Прежде	-10.3816
▁последней	-10.3822
▁русской	-10.3825
▁Видимо	-10.3833
иль	-10.3834
▁коня	-10.3837
▁вывод	-10.3838
▁взгляда	-10.3841
▁видишь	-10.3841
▁адрес	-10.3844
▁дерева	-10.3845
▁площади	-10.3848
▁Многие	-10.3855
мир	-10.3859
▁следом	-10.386
▁самим	-10.3865
▁пыталась	-10.3875
овое	-10.3875
▁намного	-10.3877
▁оказывается	-10.388
▁родители	-10.3884
сте	-10.3891
▁опустил	-10.3893
▁Ленин	-10.3894
▁разговора	-10.3896
▁получится	-10.3897
айте	-10.3898
▁неплохо	-10.3899
вшую	-10.3899
▁вещь	-10.3903
▁всякого	-10.3909
▁ад	-10.3911
▁Ц	-10.3919
▁следы	-10.3919
▁Ши	-10.392
▁вторых	-10.3927
▁находились	-10.3928
▁'	-10.3934
цион	-10.3937
▁старого	-10.3937
▁считает	-10.3938
▁подтвердил	-10.3949
▁хозяина	-10.3949
▁здания	-10.395
ует	-10.3954
итель	-10.3962
▁ЦК	-10.3963
шек	-10.397
▁смысла	-10.3975
▁причине	-10.3976
▁возразил	-10.3977
▁сентября	-10.3981
ыч	-10.3982
▁Знаешь	-10.3983
сп	-10.3985
▁женой	-10.3993
▁Рай	-10.3995
▁любого	-10.3996
▁борт	-10.3998
▁личности	-10.4002
▁подобного	-10.4002
еть	-10.4003
кур	-10.4005
И	-10.4009
▁замер	-10.4009
▁годов	-10.4011
аль	-10.4015
▁Ал	-10.4015
зу	-10.4018
▁Точно	-10.4019
▁Тор	-10.4023
▁июля	-10.4025
▁рост	-10.4027
▁уме	-10.4028
▁тип	-10.4032
▁Богу	-10.4033
▁окон	-10.4035
▁лиц	-10.4036
▁сме	-10.404
инг	-10.4042
▁фронта	-10.4052
▁Гер	-10.4052
▁пе	-10.4053
▁глубине	-10.4055
▁революции	-10.4056
ическую	-10.4056
▁опасность	-10.406
▁поверить	-10.4074
▁положении	-10.4077
▁кусок	-10.4077
▁заставить	-10.4087
▁выходит	-10.4091
6	-10.4098
стра	-10.4099
▁Пи	-10.41
▁a	-10.4102
ела	-10.4109
▁тень	-10.4111
▁рис	-10.4115
атор	-10.4127
▁T	-10.4127
▁удовольствие	-10.4131
▁заставил	-10.4138
ed	-10.4141
▁вред	-10.4143
▁повезло	-10.4143
▁Са	-10.4149
▁держа	-10.415
▁мрачно	-10.4153
▁Ан	-10.4154
▁природы	-10.4155
▁Вместо	-10.4158
▁дед	-10.4161
▁3.	-10.4162
▁идут	-10.4162
▁самолет	-10.4163
▁Мин	-10.4167
▁смогли	-10.4174
▁форму	-10.4181
▁ногах	-10.4189
▁Кур	-10.4189
▁Ти	-10.4189
▁дорога	-10.4189
дор	-10.4193
▁армия	-10.4196
овский	-10.4197
▁Ой	-10.4204
▁слушать	-10.4205
▁непременно	-10.4207
▁Капитан	-10.4213
▁прийти	-10.4214
▁населения	-10.4217
▁--	-10.4219
▁граждан	-10.4221
▁капитана	-10.4221
▁пятнадцать	-10.4222
Т	-10.4228
▁Почти	-10.4229
▁сведения	-10.423
ир	-10.4231
изма	-10.4234
▁удивленно	-10.4241
иной	-10.4243
▁империи	-10.4244
▁нашла	-10.4245
▁огромный	-10.4245
▁собственно	-10.425
лить	-10.4252
вать	-10.4255
▁Ло	-10.426
▁брови	-10.4262
шее	-10.4264
▁отчего	-10.4266
▁отцом	-10.4269
▁дам	-10.4269
мин	-10.4277
▁поставить	-10.4289
▁Карл	-10.4293
▁километров	-10.4293
▁получили	-10.4294
▁условия	-10.4297
К	-10.4299
▁ухо	-10.4301
ед	-10.4303
▁пи	-10.4304
▁Чу	-10.4317
эр	-10.432
▁главный	-10.4326
▁ла	-10.4326
руш	-10.4327
енного	-10.4329
▁ничто	-10.4331
▁лошадь	-10.4332
▁купить	-10.4332
▁in	-10.4332
▁Господь	-10.4333
▁планы	-10.4338
▁исход	-10.4339
▁наружу	-10.4341
▁порт	-10.4343
▁скорость	-10.4346
▁ведет	-10.4348
▁Был	-10.4348
теля	-10.4362
▁кровать	-10.4366
▁Опять	-10.4366
▁открыла	-10.4369
▁понимает	-10.4373
сом	-10.4375
▁Ге	-10.4376
▁скажет	-10.4382
▁трав	-10.439
▁Ник	-10.439
▁спасти	-10.4395
▁высокий	-10.4398
ления	-10.4403
▁крестьян	-10.4404
ing	-10.4406
▁Пан	-10.4408
▁привести	-10.441
▁Ки	-10.4417
▁книга	-10.4418
▁боюсь	-10.442
▁лошадей	-10.442
▁бал	-10.4425
▁палец	-10.4425
цию	-10.4427
аешь	-10.4427
ци	-10.4432
▁вслух	-10.4433
▁ранее	-10.4434
▁мною	-10.4437
▁черно	-10.4438
▁завод	-10.4439
▁воин	-10.4439
▁клуб	-10.444
▁встала	-10.444
▁герцог	-10.444
▁выглядит	-10.4443
▁шее	-10.4444
);	-10.4446
▁средств	-10.4454
▁заметить	-10.4457
▁воли	-10.446
▁Дай	-10.4463
▁передать	-10.4464
▁шести	-10.447
▁удара	-10.448
▁Судя	-10.4481
▁Женщина	-10.4486
▁Ван	-10.4495
▁ди	-10.4495
▁создать	-10.4496
▁рез	-10.4499
▁Мало	-10.45
▁Какое	-10.45
рад	-10.4504
▁планеты	-10.4508
тей	-10.4509
▁совет	-10.4509
▁настоящему	-10.4511
▁успех	-10.4519
▁кресла	-10.452
▁определить	-10.4523
телем	-10.4528
▁спрашивает	-10.4528
ху	-10.453
▁подобных	-10.4537
▁транспорт	-10.4553
▁приходит	-10.4554
мут	-10.4557
ож	-10.4557
▁живой	-10.4557
шку	-10.4558
▁колен	-10.4558
▁взяли	-10.4558
▁помог	-10.456
▁мальчика	-10.4565
▁большей	-10.4567
at	-10.4569
ён	-10.457
▁пер	-10.4573
▁Бу	-10.4578
▁постель	-10.4579
A	-10.4585
▁прошлого	-10.4587
зем	-10.4587
▁зависит	-10.4589
▁будущем	-10.4596
▁оставив	-10.4602
ёт	-10.4604
▁Гар	-10.4604
▁стоять	-10.4612
▁прошептала	-10.4616
▁старший	-10.4622
готов	-10.4628
▁объявил	-10.4628
▁0	-10.463
▁Жан	-10.463
▁желая	-10.4635
▁сложно	-10.4635
▁военных	-10.4636
▁слушал	-10.4636
▁полчаса	-10.4638
f	-10.4639
▁похож	-10.4643
▁вскочил	-10.4645
▁порой	-10.4647
▁рыб	-10.4648
▁ран	-10.4649
▁белые	-10.4656
▁Мо	-10.4656
▁строй	-10.4658
▁пытались	-10.4659
▁русский	-10.4664
▁Ев	-10.4664
▁уровня	-10.4665
▁корабли	-10.4667
▁Дар	-10.4672
гре	-10.4676
▁уверенно	-10.4677
▁квартире	-10.4682
▁делали	-10.4683
▁Бур	-10.4687
▁Завтра	-10.469
щую	-10.4693
▁чрезвычайно	-10.4696
▁результат	-10.4698
▁просил	-10.4702
▁белый	-10.4705
▁поднялась	-10.4705
▁Фи	-10.4708
▁знания	-10.4716
нных	-10.4718
иков	-10.4718
▁подобное	-10.4726
▁домов	-10.4729
▁цен	-10.4732
▁скажи	-10.4734
▁повернулась	-10.4734
▁понимая	-10.4734
▁станции	-10.4735
▁Мол	-10.4736
▁понимала	-10.474
▁встретил	-10.474
ход	-10.474
▁каждую	-10.474
▁хватило	-10.4741
ишься	-10.4741
▁Одно	-10.4745
альная	-10.4749
▁остановилась	-10.4751
ены	-10.4755
▁мест	-10.4756
▁брать	-10.4757
имся	-10.4759
▁счастья	-10.4761
▁представляет	-10.4763
▁праздник	-10.4766
▁октября	-10.4767
▁холод	-10.4768
▁полиции	-10.477
▁назвал	-10.4775
I	-10.4779
лит	-10.4779
С	-10.478
вис	-10.478
▁членов	-10.478
▁рассмеялся	-10.4785
▁экран	-10.4786
▁The	-10.4788
▁Совет	-10.479
▁царя	-10.479
▁проверить	-10.4794
▁воскликнула	-10.4797
▁русского	-10.4799
▁документы	-10.4802
▁Англии	-10.4806
▁отдать	-10.4809
▁Максим	-10.4812
ирует	-10.4822
▁закричал	-10.4822
ред	-10.4823
▁сказано	-10.4829
▁существа	-10.483
▁груз	-10.4833
истов	-10.4834
▁надеюсь	-10.4837
▁контроль	-10.4838
зер	-10.4839
▁слышно	-10.484
▁вино	-10.4847
▁кармана	-10.4849
ват	-10.485
▁Земле	-10.4853
▁отсутствие	-10.4854
нием	-10.4855
▁настроение	-10.4857
▁сна	-10.4859
лон	-10.4863
▁вашу	-10.4869
▁чём	-10.4873
▁коп	-10.4874
▁стремительно	-10.4876
▁Лес	-10.4883
фе	-10.4886
▁маленькая	-10.4887
▁молчание	-10.4894
▁выхода	-10.4894
▁дождь	-10.4898
▁новая	-10.4899
▁фр	-10.4907
us	-10.4919
▁союз	-10.4921
▁повел	-10.4924
▁положения	-10.4928
▁нежно	-10.4929
▁края	-10.493
▁Скоро	-10.4932
▁Антон	-10.4933
ланд	-10.4947
▁собственного	-10.4947
▁Роман	-10.495
▁задача	-10.4952
▁плащ	-10.4957
▁пальцев	-10.4959
▁дядя	-10.4964
▁вытащил	-10.4965
▁гнев	-10.4969
▁мыслей	-10.497
▁рассказывать	-10.4975
▁автомат	-10.4976
▁вошли	-10.4977
▁Дом	-10.498
▁борьбы	-10.4982
▁Рядом	-10.4987
дов	-10.4991
▁Земли	-10.4996
аем	-10.5001
▁Мистер	-10.5008
пор	-10.501
ницей	-10.5013
▁обещал	-10.5013
▁примеру	-10.5014
▁русские	-10.5014
▁боялся	-10.5015
▁император	-10.5017
▁состоит	-10.5018
▁молодого	-10.5019
нес	-10.5019
▁прочим	-10.5025
▁Нельзя	-10.5026
▁кожи	-10.5027
▁добраться	-10.5027
оп	-10.5028
ток	-10.5041
”.	-10.5049
▁всяких	-10.505
▁солдаты	-10.505
дж	-10.5051
▁кожа	-10.5054
мар	-10.5054
бой	-10.5068
▁подобные	-10.5069
▁наблюдал	-10.5076
▁принято	-10.5077
▁непри	-10.5078
▁называют	-10.5078
▁срочно	-10.5079
▁вернулись	-10.5082
гла	-10.5083
▁вернуть	-10.5084
▁кухню	-10.5087
▁Ответ	-10.5089
▁Ваше	-10.509
▁возраста	-10.51
▁отчаянно	-10.5108
▁мировой	-10.5111
▁31	-10.5114
▁болезни	-10.5122
▁проход	-10.5122
▁незаметно	-10.5123
▁ситуацию	-10.5123
альные	-10.513
ниц	-10.5131
▁Фа	-10.5136
▁текст	-10.514
пле	-10.5141
слав	-10.5143
▁поток	-10.5144
▁добро	-10.5145
▁наверх	-10.5146
тин	-10.5148
▁отношений	-10.5148
▁деревья	-10.5151
▁лож	-10.5155
▁основе	-10.5162
▁изменения	-10.5163
▁врагов	-10.517
шит	-10.5171
▁услышала	-10.5173
▁Поскольку	-10.5174
▁каждое	-10.5175
▁недель	-10.5179
гра	-10.5185
▁вели	-10.5191
▁Доктор	-10.5192
▁идеи	-10.5193
▁маленькой	-10.5198
or	-10.5202
плат	-10.5209
▁твоих	-10.5209
▁поспешно	-10.5216
▁запад	-10.5217
П	-10.5218
▁пойду	-10.522
▁старой	-10.5221
▁князя	-10.5222
ушка	-10.5225
▁Саша	-10.5229
▁барон	-10.523
ура	-10.5238
▁здорово	-10.5241
▁четко	-10.5243
l	-10.5243
▁камни	-10.5244
▁60	-10.5245
▁мужик	-10.5245
▁марта	-10.5246
▁пола	-10.5248
▁долг	-10.5251
▁искусства	-10.5252
▁кухне	-10.5254
▁обществе	-10.5258
▁воинов	-10.526
ений	-10.526
▁пан	-10.5265
▁увидели	-10.5266
▁запас	-10.5266
рей	-10.527
▁следующее	-10.5271
▁de	-10.5271
▁лежали	-10.5272
движ	-10.5276
▁кафе	-10.5277
▁звезды	-10.5277
▁пожар	-10.5278
▁правительства	-10.5278
▁глупо	-10.5279
▁сосед	-10.528
▁ду	-10.5281
▁видимому	-10.5287
▁Давайте	-10.5289
▁Василий	-10.5292
▁недостаточно	-10.5296
вали	-10.5298
▁f	-10.5302
▁своё	-10.5303
▁замка	-10.5304
▁позиции	-10.5309
стями	-10.531
▁исследования	-10.5314
▁портрет	-10.5315
▁мечта	-10.532
▁одежды	-10.5324
▁отцу	-10.5325
▁поняли	-10.5327
▁Понятно	-10.5329
▁языка	-10.5332
Л	-10.5334
▁III	-10.5336
▁верю	-10.5341
▁бо	-10.5348
▁января	-10.535
▁простой	-10.5354
▁небе	-10.5355
▁понимаете	-10.5356
вил	-10.5361
▁черной	-10.5367
▁кар	-10.5369
▁ба	-10.537
▁меж	-10.5371
▁Павел	-10.5372
▁ждали	-10.5381
▁задумался	-10.5382
▁ры	-10.5388
▁ноября	-10.5391
зор	-10.5397
▁длинные	-10.5401
▁Сара	-10.5404
▁декабря	-10.5406
▁молчал	-10.5408
ьных	-10.5412
▁посреди	-10.5412
▁происходило	-10.5413
вшаяся	-10.5415
нка	-10.5416
▁пристально	-10.5419
▁изменить	-10.5428
▁молодых	-10.5431
тра	-10.5436
сад	-10.5436
▁попыталась	-10.5438
▁старые	-10.5446
▁Прошу	-10.5448
▁здание	-10.5451
▁сухо	-10.5452
▁слабо	-10.5455
пре	-10.5456
▁Москвы	-10.5467
▁говорите	-10.5474
щее	-10.5474
▁ро	-10.5477
▁врач	-10.5478
▁апреля	-10.548
пар	-10.548
▁обязан	-10.5482
▁отношению	-10.5485
▁рабочих	-10.5492
▁Причем	-10.5495
▁самостоятельно	-10.5495
▁огнем	-10.5496
▁Александра	-10.5497
ари	-10.55
▁склад	-10.5506
▁данные	-10.5507
▁острова	-10.5508
▁кабинете	-10.551
▁генерала	-10.5515
▁середине	-10.5521
▁анализ	-10.5526
▁услышать	-10.5527
▁махнул	-10.5529
▁требует	-10.5535
▁луч	-10.5537
▁систему	-10.5541
▁Такой	-10.5543
сты	-10.5545
▁думаете	-10.5545
▁Хоть	-10.5553
▁Мэри	-10.5553
▁чувствуя	-10.5557
▁школу	-10.5558
▁влияние	-10.5561
▁Се	-10.5562
ез	-10.557
вест	-10.5574
▁полка	-10.558
▁вошла	-10.5586
▁зала	-10.5589
▁слышать	-10.5589
▁ныне	-10.5595
дей	-10.5597
▁способности	-10.5598
▁диск	-10.5602
▁риск	-10.5604
▁Стр	-10.5607
▁некогда	-10.5607
мысл	-10.5609
▁культуры	-10.5611
уд	-10.5611
▁кот	-10.5613
▁работ	-10.5616
▁заказ	-10.5617
▁фоне	-10.5619
!"	-10.562
▁встрече	-10.562
▁дав	-10.5623
▁пьян	-10.5625
▁несомненно	-10.5628
▁левой	-10.5631
▁собирается	-10.5632
лина	-10.5633
▁отвечает	-10.5635
▁Старик	-10.5635
▁оставался	-10.5637
▁ле	-10.564
▁дивизии	-10.564
▁поведение	-10.5643
▁возьми	-10.5647
чив	-10.5651
рез	-10.5653
нье	-10.5657
▁частности	-10.5658
ень	-10.5661
▁будучи	-10.5663
▁этаж	-10.5663
кол	-10.5665
▁кораблей	-10.5665
▁действие	-10.5667
▁итоге	-10.567
▁кости	-10.5672
▁покой	-10.5673
▁команды	-10.5674
▁Федор	-10.5674
▁Рим	-10.5675
▁остановить	-10.5678
▁Кара	-10.5683
тол	-10.5686
▁Ме	-10.5686
▁высокой	-10.5688
▁начальника	-10.5701
▁жалко	-10.5702
▁поисках	-10.5706
нья	-10.5706
d	-10.5709
▁общего	-10.571
▁девять	-10.5712
▁корм	-10.5713
▁Скажи	-10.5713
▁голод	-10.5718
▁духа	-10.5719
▁сохранить	-10.572
пон	-10.5724
▁Европе	-10.5726
▁воспоминания	-10.5727
▁правой	-10.573
▁силами	-10.5734
▁Пожалуйста	-10.5734
няя	-10.5737
▁причины	-10.5738
▁звон	-10.5741
▁член	-10.5746
тар	-10.5748
уса	-10.5755
▁узнала	-10.5756
▁Роберт	-10.5757
▁учитель	-10.5758
▁Мон	-10.576
▁костюм	-10.5762
▁сжал	-10.5763
▁Эль	-10.5773
▁входа	-10.5774
еля	-10.5775
▁аппарат	-10.5776
4	-10.5776
▁неба	-10.5778
Б	-10.5782
▁Гу	-10.5782
▁успешно	-10.5783
▁хорошего	-10.5784
▁вышло	-10.5786
▁уставился	-10.5786
▁надежды	-10.5789
▁умереть	-10.5792
▁позволяет	-10.5795
▁ша	-10.5796
жд	-10.5797
▁дала	-10.5799
9	-10.58
▁Артур	-10.5803
▁Иначе	-10.5805
▁старика	-10.5808
▁принц	-10.5813
▁дерево	-10.5814
ливо	-10.582
▁Обычно	-10.582
▁великий	-10.5821
▁кресле	-10.5822
▁состояния	-10.5826
▁Главное	-10.5827
▁сверх	-10.5831
▁взрыв	-10.5836
▁словах	-10.5838
▁повод	-10.5845
▁Россия	-10.5847
▁орган	-10.5848
▁ходил	-10.585
▁аромат	-10.5851
▁переход	-10.5853
форм	-10.5855
▁дракон	-10.5855
ьный	-10.5856
▁новым	-10.5858
▁ушли	-10.5859
тка	-10.5862
▁Ис	-10.5867
▁Глеб	-10.5882
вел	-10.5889
▁класса	-10.5889
▁дай	-10.589
▁стоят	-10.5891
▁сути	-10.5892
▁Вся	-10.5895
ас	-10.5904
▁брак	-10.5908
▁бога	-10.5914
▁губами	-10.5918
▁сообщение	-10.592
меш	-10.5921
▁ра	-10.5921
▁правительство	-10.5922
▁ужин	-10.5928
▁скрип	-10.5932
▁сестры	-10.5933
кус	-10.5938
чок	-10.5938
каз	-10.5939
▁Аль	-10.594
▁отказался	-10.5941
▁попытки	-10.5945
▁судьбы	-10.5949
▁числа	-10.5949
ьев	-10.5951
ита	-10.5953
еб	-10.5958
хот	-10.5961
гран	-10.5962
▁пакет	-10.5963
▁оружием	-10.5971
▁отдела	-10.5972
▁позволить	-10.5972
▁район	-10.5979
▁плотно	-10.598
▁бывало	-10.5981
нки	-10.5983
▁правила	-10.5984
▁миру	-10.5986
▁общество	-10.5989
▁признать	-10.599
▁какими	-10.5993
нная	-10.5996
▁Ин	-10.5997
8	-10.5999
▁суть	-10.5999
▁Оба	-10.6
▁писатель	-10.6002
▁север	-10.6004
el	-10.6004
▁закончил	-10.6005
▁хлеба	-10.6008
▁послал	-10.6009
▁боевой	-10.6011
▁ящик	-10.6013
ющейся	-10.6013
лиз	-10.6022
енное	-10.6022
▁президент	-10.6029
▁Лет	-10.603
▁любила	-10.6031
▁любовью	-10.6032
▁Джордж	-10.6035
▁царь	-10.6036
▁взгляды	-10.6037
▁свободу	-10.6041
▁выяснить	-10.6043
▁окажется	-10.6051
ким	-10.6055
шен	-10.6057
▁представления	-10.6064
▁видите	-10.6065
▁чудо	-10.6065
▁визит	-10.6066
▁ужаса	-10.6068
▁театр	-10.6072
▁дорогая	-10.6075
▁плав	-10.6077
▁Слишком	-10.6081
▁Ст	-10.6084
▁Мать	-10.609
▁юноша	-10.6091
водит	-10.6091
▁неподвижно	-10.6094
▁концу	-10.6094
фф	-10.6096
▁жителей	-10.6097
▁половину	-10.61
дель	-10.6103
▁вторая	-10.6104
▁зуб	-10.6107
ида	-10.6115
▁газеты	-10.6115
Г	-10.6116
▁женщиной	-10.6118
»)	-10.6121
▁раздел	-10.6123
▁Снова	-10.6131
▁упала	-10.6132
▁Кот	-10.6141
▁Сен	-10.6143
▁недалеко	-10.6144
▁Тре	-10.6144
▁Го	-10.6146
▁меры	-10.6148
ест	-10.6154
m	-10.6155
▁магии	-10.6158
▁Вар	-10.6158
▁35	-10.6161
▁Жизнь	-10.6165
▁еду	-10.6165
▁двигаться	-10.6166
ань	-10.6167
▁представлял	-10.617
▁пояснил	-10.617
▁шаги	-10.6171
▁сильный	-10.6173
▁Слушай	-10.6174
▁будущего	-10.6177
▁Тебя	-10.6177
▁пик	-10.6178
▁ждала	-10.618
ял	-10.618
▁Наш	-10.618
▁принадлежит	-10.6183
▁отчет	-10.6185
▁светом	-10.6185
▁Тур	-10.6191
▁дверей	-10.6201
щик	-10.6207
▁Сэм	-10.6207
овна	-10.6208
▁Всего	-10.6214
▁кожу	-10.6215
▁белой	-10.6216
ировали	-10.6216
▁опасно	-10.6222
▁пес	-10.6224
▁каждому	-10.6225
▁руб	-10.6225
▁квартиры	-10.6225
▁стихи	-10.6226
▁провал	-10.6229
▁помнил	-10.6232
▁пят	-10.6234
▁семи	-10.6235
▁откровенно	-10.6238
▁Такое	-10.624
▁везде	-10.6241
▁прервал	-10.6242
сси	-10.6244
▁ситуация	-10.6244
▁скажем	-10.6245
▁ль	-10.6246
нице	-10.6247
▁пытается	-10.6261
▁товар	-10.6261
▁фигура	-10.6263
▁поезд	-10.6265
▁продолжать	-10.6265
▁бор	-10.6268
▁согласилась	-10.6272
цией	-10.6275
▁включая	-10.6276
▁бою	-10.6277
▁встретиться	-10.6277
ьте	-10.6278
джи	-10.6282
▁написано	-10.6283
▁скажешь	-10.6284
▁обман	-10.6287
▁собираюсь	-10.6293
▁Пу	-10.6295
▁потеря	-10.6297
рас	-10.6303
▁находилась	-10.631
▁Привет	-10.631
ата	-10.6312
▁казался	-10.6312
▁Внезапно	-10.6313
ять	-10.6314
▁волны	-10.6328
▁нашему	-10.633
аз	-10.6331
▁волю	-10.6331
чек	-10.6332
▁войти	-10.6333
▁избавиться	-10.6334
▁получила	-10.6347
▁Народ	-10.6348
▁поближе	-10.6349
бин	-10.635
▁вспомнила	-10.635
▁говори	-10.6353
лем	-10.6354
▁ногой	-10.6355
▁ощущения	-10.6355
▁люб	-10.6356
▁бывший	-10.636
▁вызвал	-10.6361
▁снять	-10.6369
▁картины	-10.637
▁океан	-10.6376
▁Такие	-10.6378
▁господа	-10.638
▁век	-10.6381
▁деятельность	-10.6382
▁роз	-10.6386
▁Знаю	-10.639
▁именем	-10.639
▁Ян	-10.6392
▁Север	-10.6394
исты	-10.6395
фи	-10.6397
лага	-10.6399
▁протянула	-10.64
воль	-10.6403
▁говорится	-10.6408
▁Город	-10.6408
▁выйдет	-10.6408
▁Иди	-10.641
▁Люб	-10.6411
▁передал	-10.6415
ностью	-10.6416
▁наряд	-10.6417
▁идиот	-10.6418
▁недолго	-10.6427
телю	-10.6438
▁Питер	-10.6442
нич	-10.6443
раж	-10.6443
▁ловко	-10.6443
уз	-10.6443
▁удивительно	-10.6448
▁маленькие	-10.6451
▁свод	-10.6451
▁Сталина	-10.6452
▁даст	-10.6461
▁огромные	-10.6461
▁чувствовать	-10.6465
емые	-10.6466
▁атаку	-10.6466
▁месту	-10.6469
▁поднять	-10.6471
an	-10.6472
▁ел	-10.6474
▁здоровье	-10.6477
▁мил	-10.6483
▁подняться	-10.6487
in	-10.649
▁светло	-10.649
ается	-10.6494
чей	-10.6497
▁ранен	-10.6499
▁жила	-10.6499
▁картину	-10.6501
▁остальное	-10.651
▁сержант	-10.6511
▁называли	-10.6513
шев	-10.6519
▁деревне	-10.6521
▁решить	-10.6524
▁Шар	-10.6527
▁корпуса	-10.6537
▁причина	-10.6538
нд	-10.6539
▁представление	-10.6539
▁усилия	-10.6551
▁Солнце	-10.6554
лег	-10.6555
▁сделает	-10.6556
ции	-10.6556
пит	-10.6557
▁форма	-10.6562
▁коллектив	-10.6568
вшее	-10.6568
▁мясо	-10.6568
▁Вон	-10.6568
▁воле	-10.6571
▁символ	-10.6573
▁миллионов	-10.6575
▁подарок	-10.6582
▁кара	-10.6583
▁нервно	-10.6584
сме	-10.6584
▁прибыл	-10.6589
▁служить	-10.6591
шин	-10.6592
▁стану	-10.6592
▁проводить	-10.6593
▁остро	-10.6593
▁разобраться	-10.6594
▁магазин	-10.6595
бран	-10.66
▁кулак	-10.6603
▁мороз	-10.6609
▁Дверь	-10.661
▁Кам	-10.6611
ur	-10.6612
уч	-10.6616
▁взглянула	-10.6617
▁повернул	-10.6622
▁пал	-10.6624
▁умел	-10.6626
гин	-10.6627
кро	-10.6631
▁полез	-10.6632
чку	-10.6633
▁убили	-10.6633
▁Бел	-10.6636
▁движением	-10.6636
▁сунул	-10.6638
чная	-10.6639
▁Совсем	-10.664
▁телу	-10.6644
▁исчезла	-10.6647
▁языком	-10.6647
▁народу	-10.6648
▁Само	-10.6648
▁перестал	-10.665
▁отнюдь	-10.6653
▁жир	-10.6654
▁Действительно	-10.6662
▁грубо	-10.6667
▁Кер	-10.6667
▁любить	-10.6668
▁детства	-10.6671
▁рта	-10.6675
▁низ	-10.6676
▁зубами	-10.6678
▁границы	-10.6679
▁поверхность	-10.668
▁расстоянии	-10.6683
▁хмыкнул	-10.6683
▁добиться	-10.6683
▁бросила	-10.6687
остью	-10.6687
▁гре	-10.6694
▁доступ	-10.6695
стрел	-10.6698
▁защиты	-10.6699
▁Весь	-10.67
le	-10.6702
▁встать	-10.6702
▁торопливо	-10.6703
▁создания	-10.6707
▁существ	-10.6707
▁христиан	-10.6708
лек	-10.671
бл	-10.6718
нис	-10.6719
лев	-10.6725
▁бабушка	-10.6734
▁считают	-10.6735
рит	-10.6736
▁теории	-10.6737
▁способность	-10.6737
▁покачала	-10.6738
▁женщине	-10.6738
▁грустно	-10.6742
ались	-10.6746
▁реке	-10.6763
▁видим	-10.6767
▁давал	-10.6767
▁правил	-10.6767
тив	-10.6769
▁толку	-10.6771
▁вашим	-10.6772
ража	-10.6772
▁отряда	-10.6773
альных	-10.6774
▁роста	-10.6775
▁развитие	-10.6776
▁офицеров	-10.6776
▁Вместе	-10.6778
▁флот	-10.6779
▁групп	-10.6787
од	-10.6793
▁захотелось	-10.6793
▁карты	-10.6796
▁стоя	-10.6798
▁службу	-10.6799
▁науки	-10.6803
ляр	-10.6804
▁ожидая	-10.6807
▁Едва	-10.6811
▁ракет	-10.6813
емых	-10.6813
▁d	-10.6814
ением	-10.6815
▁полное	-10.6818
▁мет	-10.6822
▁свободно	-10.6822
▁вор	-10.6831
▁помещение	-10.6833
▁перемен	-10.684
ацию	-10.6844
S	-10.6844
работ	-10.6845
▁друж	-10.685
▁туалет	-10.685
▁материал	-10.6853
▁Смотри	-10.6854
▁целую	-10.6862
▁Мер	-10.6862
▁началась	-10.6863
▁организм	-10.6866
▁Генри	-10.6867
▁избежать	-10.6867
▁баб	-10.6868
▁виноват	-10.6868
▁единственным	-10.687
▁обороны	-10.6879
▁появилось	-10.688
▁имена	-10.6881
▁волосами	-10.6884
▁Бес	-10.6887
▁доклад	-10.6888
▁кошмар	-10.6888
▁ар	-10.6895
▁Че	-10.6895
▁неприятно	-10.6895
пла	-10.69
▁Эд	-10.6911
▁перевод	-10.6912
▁минимум	-10.6915
▁старых	-10.6916
▁фронт	-10.6917
▁Будь	-10.6917
▁главного	-10.692
кра	-10.6922
игр	-10.6924
▁Май	-10.6924
▁бутылку	-10.6934
▁существу	-10.6935
▁любят	-10.6936
ьные	-10.6939
▁двенадцать	-10.6939
ирование	-10.694
ирования	-10.6941
▁Прости	-10.6941
▁лег	-10.6942
▁Петрович	-10.6944
▁собственных	-10.6944
▁пил	-10.6945
▁военной	-10.6948
▁картина	-10.6949
▁актив	-10.695
▁клад	-10.6951
▁газ	-10.6953
▁подробно	-10.6954
▁въ	-10.6954
▁белых	-10.6956
▁Словно	-10.6956
▁дважды	-10.6958
▁ходе	-10.6959
▁скал	-10.6959
▁находятся	-10.6964
▁Фил	-10.6968
▁девочки	-10.6969
▁считаю	-10.6973
▁точнее	-10.6976
▁лук	-10.698
▁возрасте	-10.6984
ост	-10.6984
▁вернется	-10.6984
▁февраля	-10.6985
▁отвечать	-10.6985
пы	-10.6989
▁убийство	-10.699
овыми	-10.699
▁вос	-10.6995
▁очереди	-10.7
ющегося	-10.7001
on	-10.7002
▁Лен	-10.7003
▁4.	-10.701
щен	-10.7012
▁философ	-10.7014
▁надеялся	-10.7016
▁знакомый	-10.7017
▁собственные	-10.702
ительно	-10.7022
▁45	-10.7023
▁родился	-10.7024
▁Эх	-10.7025
▁Земля	-10.7033
▁Тай	-10.7037
▁бу	-10.7045
▁способны	-10.7046
▁Вера	-10.7049
▁смертью	-10.7053
нин	-10.7054
▁Ум	-10.7057
див	-10.706
▁улыбаясь	-10.7064
▁встречу	-10.7066
▁остатки	-10.7068
▁данный	-10.7068
▁императора	-10.7069
▁справа	-10.707
вшуюся	-10.7074
▁назначен	-10.7074
▁великого	-10.7075
овского	-10.7077
▁процентов	-10.708
▁пыли	-10.7081
▁Этого	-10.7082
▁ласково	-10.7085
▁отправиться	-10.7088
▁гад	-10.7092
▁разом	-10.7093
▁относится	-10.7096
▁Простите	-10.7097
▁мозга	-10.7098
рус	-10.7098
▁бокал	-10.7105
▁худ	-10.7109
▁электро	-10.711
▁столик	-10.7113
P	-10.7114
▁сан	-10.7114
▁немцы	-10.7115
▁метод	-10.7115
нар	-10.7115
▁дабы	-10.7115
▁кольцо	-10.7115
▁хо	-10.7119
жит	-10.7119
▁Гур	-10.7122
re	-10.7125
▁командира	-10.7125
еж	-10.7126
▁пу	-10.7129
▁детьми	-10.7129
след	-10.7133
▁якобы	-10.7135
▁данном	-10.7136
кую	-10.7139
▁черты	-10.7147
▁деревни	-10.7151
▁странное	-10.7152
нима	-10.7153
▁уничтожить	-10.7154
пал	-10.7158
ур	-10.7159
h	-10.7161
▁лагерь	-10.7163
▁упор	-10.7165
лл	-10.7168
▁чьи	-10.7168
олог	-10.7169
▁церковь	-10.7171
▁существование	-10.7172
▁заняться	-10.7174
тур	-10.7175
город	-10.7176
▁протяжении	-10.7177
▁старше	-10.718
▁опер	-10.718
▁ло	-10.7184
тки	-10.7188
▁местных	-10.7188
▁сидя	-10.7188
▁Маг	-10.7193
▁борьбе	-10.7198
уют	-10.7199
▁сообщить	-10.7202
▁казалась	-10.7204
▁вод	-10.7208
▁поворот	-10.721
▁источник	-10.7211
▁напомнил	-10.7211
▁точку	-10.7213
▁уходит	-10.7213
▁вход	-10.7213
▁оставили	-10.7216
▁экипаж	-10.7216
▁вежливо	-10.7216
▁пороге	-10.7218
▁ти	-10.7221
▁Егор	-10.7221
▁тур	-10.7227
▁имеется	-10.7232
▁требуется	-10.7232
▁убивать	-10.7233
▁Джеймс	-10.7235
▁70	-10.7236
кина	-10.7236
▁Дальше	-10.7239
▁телефону	-10.7242
▁собака	-10.7244
▁неподалеку	-10.7247
k	-10.7248
▁сопровожда	-10.7249
▁Пожалуй	-10.7251
люб	-10.7252
▁любую	-10.7253
▁последнюю	-10.7254
▁обратил	-10.7256
▁кабинета	-10.7256
▁Дик	-10.7272
▁основания	-10.7274
▁Господа	-10.7274
▁Наши	-10.7274
▁выпить	-10.7275
▁проник	-10.7278
▁рыба	-10.7282
▁вопроса	-10.7287
▁Иисус	-10.7288
▁Вероятно	-10.7294
▁флота	-10.7297
▁комплекс	-10.7297
▁Ду	-10.7298
▁вызвать	-10.7298
▁ограничен	-10.73
▁началось	-10.7304
▁гон	-10.7305
▁забот	-10.7306
▁остановил	-10.7306
▁нахмурился	-10.7309
▁двинулся	-10.731
мина	-10.7311
▁Гитлер	-10.732
▁расстояние	-10.7323
▁Син	-10.7326
▁1941	-10.733
▁принялась	-10.733
▁Влад	-10.7331
жать	-10.7333
▁получив	-10.7335
сер	-10.7337
▁слева	-10.7339
▁Странно	-10.7342
▁надежда	-10.7343
▁доктора	-10.7344
▁убийства	-10.7344
”,	-10.735
▁страну	-10.7352
▁давать	-10.7353
▁собиралась	-10.7355
▁вашему	-10.7355
▁качества	-10.7356
▁потери	-10.7359
▁становилось	-10.7361
▁рев	-10.7362
▁особенности	-10.7366
▁семью	-10.7368
▁народов	-10.7371
прос	-10.7373
▁мотор	-10.7374
▁враг	-10.7374
▁документ	-10.7376
▁начинается	-10.7376
▁жар	-10.7376
▁девушке	-10.7378
▁справиться	-10.738
▁тридцати	-10.7384
▁полную	-10.7384
▁добавила	-10.739
▁звали	-10.739
▁данных	-10.7394
▁корпус	-10.7396
▁Господин	-10.7399
зд	-10.7402
▁Мат	-10.7405
▁склон	-10.7406
▁производства	-10.7406
▁особого	-10.7408
▁открыв	-10.7413
емый	-10.7413
▁умеет	-10.7415
▁дают	-10.7418
▁прошлое	-10.7419
▁проговорила	-10.7424
▁лишен	-10.7427
▁подходит	-10.7428
знач	-10.7429
▁воспользоваться	-10.743
▁соответствии	-10.7438
▁инженер	-10.7443
▁герой	-10.7448
▁проводил	-10.7448
▁контакт	-10.7449
▁возвращаться	-10.745
ицы	-10.7456
▁разговаривать	-10.746
▁всякой	-10.746
▁сбор	-10.7461
▁Сама	-10.7462
▁отдыха	-10.7463
▁Прямо	-10.7466
шем	-10.7468
нт	-10.7468
▁берет	-10.7472
чный	-10.7473
▁принцип	-10.7475
вели	-10.7477
▁темные	-10.7478
дол	-10.7479
▁Сто	-10.7486
▁огромной	-10.7492
▁b	-10.7492
▁шагом	-10.7493
пил	-10.7495
▁сделаю	-10.7495
нной	-10.7496
▁считали	-10.7497
▁список	-10.7499
▁расчет	-10.7503
вол	-10.7503
▁автомобиль	-10.7506
▁лежа	-10.7508
▁толпа	-10.7509
▁песни	-10.7509
▁каждая	-10.751
гал	-10.7511
▁занимался	-10.7511
▁металл	-10.7513
▁секунды	-10.7514
▁Ольга	-10.7515
▁позвонил	-10.7521
▁стрел	-10.7521
▁реклам	-10.7522
▁топор	-10.7524
▁музыка	-10.7528
▁отказаться	-10.7532
▁успеха	-10.7538
А	-10.7539
▁остановились	-10.754
▁верил	-10.7541
▁выходу	-10.7545
▁цветы	-10.7546
▁зла	-10.7546
▁Жив	-10.7547
ящий	-10.7549
▁ладонью	-10.7556
▁коленях	-10.7556
▁теми	-10.7556
▁поцеловал	-10.7557
▁позднее	-10.756
▁зависимости	-10.7562
зв	-10.7564
ош	-10.7568
ающий	-10.7574
▁проч	-10.7575
есс	-10.7576
▁32	-10.7577
Я	-10.7579
▁ребят	-10.7584
бежал	-10.7586
▁штаба	-10.7587
▁наблюдать	-10.7591
▁страна	-10.7596
▁преступления	-10.7596
▁Вин	-10.7597
коп	-10.7598
▁гостиной	-10.7598
▁директор	-10.7602
З	-10.7603
ическом	-10.7604
лый	-10.7607
▁толпы	-10.7608
гнул	-10.7611
ющими	-10.7611
▁спит	-10.7624
▁неловко	-10.7626
▁Ос	-10.7632
вшимся	-10.7635
▁ими	-10.764
▁капли	-10.764
▁основан	-10.764
▁1-	-10.7643
▁задачи	-10.7644
▁искал	-10.7644
▁птиц	-10.7645
▁обеда	-10.7645
▁Ясно	-10.7647
▁Мел	-10.765
▁плот	-10.7652
▁встреч	-10.7653
вшееся	-10.7656
Р	-10.7658
▁Две	-10.7658
рав	-10.7664
▁забыла	-10.7664
тельный	-10.7665
▁послышался	-10.7665
▁информация	-10.767
▁слышали	-10.7671
овали	-10.7672
▁Вопрос	-10.7673
▁Мальчик	-10.7674
▁вашем	-10.7675
▁верх	-10.7678
▁пас	-10.7678
ad	-10.7682
▁печально	-10.7682
▁Брат	-10.7686
▁крики	-10.7686
▁веру	-10.7686
▁разглядеть	-10.7687
▁письме	-10.7688
▁рос	-10.7688
▁Шу	-10.7691
бал	-10.7691
▁нежели	-10.7699
▁сравнению	-10.7704
▁Мужчина	-10.7708
▁подал	-10.7708
▁предстоит	-10.7716
▁ответственность	-10.7716
▁Европы	-10.7718
▁третьего	-10.7719
ске	-10.7722
▁Кирилл	-10.7724
▁лбу	-10.7725
аются	-10.7725
▁умерла	-10.7728
▁газет	-10.7728
▁Мед	-10.7731
цам	-10.7733
▁Денис	-10.7733
▁непонятно	-10.7739
▁Вокруг	-10.774
били	-10.7741
▁стекло	-10.7743
▁отношениях	-10.7744
▁слух	-10.7747
▁стук	-10.7747
▁миром	-10.7749
▁впоследствии	-10.7749
▁уходить	-10.7751
▁кредит	-10.7751
▁порядка	-10.7752
▁мотив	-10.7756
▁приступ	-10.7763
сия	-10.7766
▁духов	-10.7774
▁принимал	-10.7779
▁чужой	-10.7781
▁человеческого	-10.7788
▁свободы	-10.7788
▁плечу	-10.7789
▁присутствие	-10.779
▁покинуть	-10.7791
Х	-10.7792
▁компания	-10.7792
▁фото	-10.7794
▁Ша	-10.7796
▁Жаль	-10.7796
▁детстве	-10.7797
▁лучших	-10.7797
аж	-10.78
▁Париж	-10.7803
▁мадам	-10.7805
▁судьбу	-10.781
очке	-10.7811
рам	-10.7816
▁называть	-10.7817
▁пойдем	-10.7817
▁волна	-10.7818
▁двоих	-10.7822
▁уехал	-10.7822
плыв	-10.7822
▁to	-10.7823
▁Сердце	-10.7823
▁цветов	-10.7825
▁человечества	-10.7826
▁удовольствия	-10.7829
▁веков	-10.7832
▁Фу	-10.7832
▁адмирал	-10.7837
▁жене	-10.784
▁играл	-10.7841
▁удавалось	-10.7842
▁Эн	-10.7846
▁опыта	-10.7849
ающие	-10.7849
▁взрыва	-10.7854
▁скорости	-10.7857
▁дворец	-10.786
▁огромное	-10.7865
▁автора	-10.7867
пу	-10.7869
рес	-10.7873
▁любое	-10.7875
▁камня	-10.7875
▁важное	-10.7879
ища	-10.788
▁двора	-10.788
▁озера	-10.788
▁боевых	-10.7885
▁ждут	-10.7885
▁поведения	-10.7885
b	-10.7885
▁Тра	-10.7887
нную	-10.7887
▁десант	-10.7891
▁названием	-10.7892
▁ощутил	-10.7893
жда	-10.7895
тро	-10.7896
▁направление	-10.79
▁назван	-10.79
▁дне	-10.7901
▁армию	-10.7904
▁плат	-10.7905
▁выглядела	-10.7908
▁ред	-10.7911
▁этаже	-10.7911
тал	-10.7912
▁исключением	-10.7914
▁представил	-10.7915
зо	-10.7919
▁храм	-10.7921
чев	-10.7922
▁команду	-10.7922
▁гроз	-10.7925
три	-10.793
▁Хочешь	-10.7931
▁надеяться	-10.7931
▁Алиса	-10.7932
▁положила	-10.7933
нула	-10.7936
ывая	-10.7939
▁Рей	-10.7949
лес	-10.7949
ическим	-10.7949
▁родной	-10.7956
став	-10.7956
лой	-10.7956
▁чувствует	-10.7958
▁политики	-10.796
▁34	-10.7965
▁явился	-10.7967
▁золото	-10.7968
▁позволил	-10.7969
▁видя	-10.7972
▁различные	-10.7972
рь	-10.7972
▁мм	-10.7972
▁Лили	-10.7972
▁полтора	-10.7974
▁мужчину	-10.7974
▁человеческой	-10.7976
лик	-10.7976
▁гибели	-10.798
суд	-10.7984
▁работой	-10.7984
▁станут	-10.7985
▁форм	-10.7987
▁Союза	-10.7988
надцат	-10.7988
лок	-10.799
▁рублей	-10.7991
ром	-10.7994
▁испуганно	-10.7997
▁идеал	-10.7999
▁Верно	-10.8001
▁глава	-10.8005
дом	-10.8013
▁хи	-10.8017
▁общей	-10.8022
▁окну	-10.8022
▁молодые	-10.8022
▁узнали	-10.8025
▁шлем	-10.8025
дум	-10.8026
▁карту	-10.8027
рю	-10.8029
▁богов	-10.803
▁засмеялся	-10.8032
▁пустой	-10.8034
ющимся	-10.8035
▁добавить	-10.8046
▁друзьями	-10.8047
▁черных	-10.8048
ra	-10.8057
▁рту	-10.8058
тая	-10.8058
▁радостью	-10.8062
▁стандарт	-10.8062
▁выдержал	-10.8062
▁огне	-10.8064
▁зверь	-10.8064
▁Тан	-10.8066
гн	-10.8066
лич	-10.8066
▁малыш	-10.8068
▁результаты	-10.807
▁партизан	-10.8071
▁би	-10.8073
▁штат	-10.8073
▁системе	-10.8073
▁группу	-10.8076
▁создал	-10.8077
▁признался	-10.8078
▁скоростью	-10.8079
▁узнает	-10.8079
▁Сын	-10.8085
▁правы	-10.8086
▁фи	-10.8086
▁сущности	-10.8087
рок	-10.809
евич	-10.809
▁нигде	-10.809
▁вспоминал	-10.8091
▁Сил	-10.8091
▁члены	-10.8092
▁мертв	-10.8092
▁Ваш	-10.8093
гон	-10.8093
▁жители	-10.8094
▁кругом	-10.8099
▁длинный	-10.8101
ством	-10.8103
▁игру	-10.8103
▁Катя	-10.8103
▁вернее	-10.8104
эл	-10.8108
▁жест	-10.8108
▁перебил	-10.8111
слов	-10.8118
▁приняли	-10.8118
пут	-10.8118
▁грех	-10.8118
▁подбородок	-10.8119
▁танков	-10.8122
▁объект	-10.8123
▁целиком	-10.8126
▁полк	-10.8126
▁Рон	-10.8127
▁заметили	-10.8127
▁Христа	-10.813
▁стрелять	-10.8131
▁здоров	-10.8132
▁пространства	-10.8134
ук	-10.8136
▁случится	-10.8138
▁характера	-10.8138
▁занятия	-10.8143
ову	-10.815
▁собрались	-10.8151
▁термин	-10.8155
▁неправильно	-10.8157
▁курсе	-10.8161
▁написать	-10.8163
▁Дан	-10.8163
▁дуб	-10.8164
▁мяса	-10.8164
▁собрать	-10.8165
▁сутки	-10.8167
▁80	-10.8167
▁городу	-10.8167
▁красный	-10.8172
▁птицы	-10.8172
▁День	-10.8176
▁побежал	-10.8178
▁скрыть	-10.8179
▁госпожа	-10.818
▁Кап	-10.818
▁Тро	-10.8194
стях	-10.8195
▁способом	-10.8196
▁Али	-10.8197
▁направлен	-10.8197
ируя	-10.82
▁ожидать	-10.8203
▁делах	-10.8207
▁тел	-10.8208
▁лав	-10.8209
▁нравилось	-10.821
▁дурак	-10.8211
▁разница	-10.8212
▁показался	-10.8216
▁пламя	-10.8217
син	-10.8218
▁втором	-10.8218
вая	-10.822
▁отправились	-10.8221
▁Ричард	-10.8221
▁Совета	-10.8222
▁голов	-10.8222
▁Папа	-10.8223
▁позвал	-10.8223
▁Чи	-10.8223
▁опустился	-10.8223
▁прост	-10.8224
▁проходит	-10.8225
▁выстрел	-10.8226
▁Слава	-10.8228
▁стекла	-10.8229
▁имея	-10.8231
▁вопросом	-10.8231
▁бросить	-10.8232
▁хорошие	-10.8242
▁реальности	-10.8243
бан	-10.8244
▁дур	-10.8245
▁предстояло	-10.8246
▁Ибо	-10.8246
▁крепости	-10.8248
▁удивление	-10.8249
▁зеркало	-10.825
▁Филипп	-10.8251
▁бывают	-10.8251
▁удивилась	-10.8252
▁вздрогнул	-10.8263
▁достиг	-10.8271
▁учителя	-10.8271
▁снаружи	-10.8273
▁бесконечно	-10.8275
▁фотографии	-10.8281
▁Говорят	-10.8284
▁вызывает	-10.8286
▁пута	-10.8287
▁шло	-10.8289
▁очки	-10.8289
▁богу	-10.8292
гад	-10.8295
▁воскрес	-10.8296
шат	-10.8296
▁предназначен	-10.8297
▁2-	-10.8297
щу	-10.8298
▁оттого	-10.83
ьным	-10.83
▁коридоре	-10.8301
еры	-10.8301
▁влюблен	-10.8303
▁слеп	-10.8303
▁собирались	-10.8304
▁братья	-10.8304
▁удивлением	-10.8305
▁череп	-10.8305
▁кинжал	-10.8305
▁сумку	-10.8309
▁попросила	-10.8312
▁военного	-10.8313
чные	-10.8314
▁частей	-10.8318
▁лат	-10.8323
▁хорошее	-10.8326
гляд	-10.8328
нным	-10.8335
хан	-10.8338
▁ус	-10.8343
▁Насколько	-10.8344
реш	-10.8346
▁возникает	-10.8347
▁имело	-10.8352
мана	-10.8353
▁подруга	-10.8355
▁доказать	-10.8355
▁невероятно	-10.8355
▁дипломат	-10.8359
▁делала	-10.8361
Ш	-10.8363
лог	-10.8364
▁Хан	-10.8365
▁тайны	-10.8365
▁Хор	-10.8367
▁матерью	-10.8369
▁пота	-10.8369
▁убедить	-10.8371
▁удобно	-10.8373
▁пах	-10.8373
▁государство	-10.8376
▁собаки	-10.8377
▁улыбку	-10.8377
▁задание	-10.8377
w	-10.8383
▁выбрал	-10.8383
иан	-10.8384
▁Оп	-10.8386
▁поступил	-10.8391
рат	-10.8392
▁советских	-10.8393
▁высокого	-10.8394
▁сесть	-10.8394
▁ман	-10.8395
▁мат	-10.8396
очкой	-10.8396
▁Дома	-10.8399
▁Дев	-10.8401
▁диван	-10.8403
▁Пора	-10.8403
▁странным	-10.8404
▁Могу	-10.8404
▁шагнул	-10.8408
рии	-10.8411
▁твоим	-10.8413
▁33	-10.8414
▁привел	-10.8415
▁пользоваться	-10.8417
ол	-10.842
▁щеки	-10.8423
▁мор	-10.8425
▁вторую	-10.8428
▁покоя	-10.843
ивший	-10.843
▁золотой	-10.8432
чива	-10.8436
▁квадрат	-10.8437
▁принципе	-10.8437
альную	-10.8437
▁сомнений	-10.8438
эль	-10.8445
▁Утром	-10.8447
рка	-10.8447
▁включил	-10.8448
▁советской	-10.8448
ств	-10.8448
▁Союз	-10.8452
▁торжественно	-10.8452
▁интересом	-10.8453
▁Раньше	-10.8456
есь	-10.8456
▁находиться	-10.8457
▁h	-10.8459
поль	-10.8462
рож	-10.8464
бег	-10.8465
▁запрет	-10.8465
▁новости	-10.8466
▁авто	-10.8468
▁Костя	-10.8469
▁Лорд	-10.8469
форд	-10.8472
▁отчетливо	-10.8474
▁природе	-10.8477
▁Степан	-10.848
▁неизбежно	-10.8482
▁подход	-10.8484
▁заглянул	-10.8484
▁иди	-10.8487
▁жарко	-10.8487
M	-10.8488
дели	-10.8492
▁работали	-10.8493
аре	-10.8494
▁весел	-10.8495
рд	-10.85
▁шт	-10.8504
▁низко	-10.8508
вшими	-10.8508
▁гром	-10.8509
▁Вроде	-10.8509
▁Такая	-10.851
▁искр	-10.8512
▁неудач	-10.8512
▁морской	-10.8516
ающих	-10.8519
мп	-10.8523
ище	-10.8523
▁сможешь	-10.8527
▁Дмитрий	-10.8528
▁пилот	-10.853
▁обнял	-10.853
▁начинают	-10.8531
▁авторитет	-10.8534
тельные	-10.8537
▁оглянулся	-10.8539
леп	-10.8539
▁собою	-10.8543
тес	-10.8545
нят	-10.855
▁играет	-10.8551
▁борту	-10.8551
▁устало	-10.8552
▁Ху	-10.8555
▁спец	-10.8557
▁продолжали	-10.8559
▁давая	-10.8562
um	-10.8563
▁халат	-10.8563
].	-10.8565
▁Воз	-10.8567
▁примет	-10.8569
▁немцев	-10.8571
▁X	-10.8571
▁потряс	-10.8573
рост	-10.8575
▁скандал	-10.8576
дин	-10.8577
▁полным	-10.858
▁200	-10.8582
▁процессе	-10.8588
▁судить	-10.8589
▁старая	-10.8591
ование	-10.8592
▁хорошая	-10.8592
▁министр	-10.8593
▁рухнул	-10.8595
▁твоему	-10.8595
▁лагеря	-10.8599
▁раб	-10.86
▁защиту	-10.8603
▁Эрик	-10.8608
▁глухо	-10.8609
ард	-10.8609
▁Вит	-10.8611
▁открыто	-10.8615
У	-10.8621
дал	-10.8623
▁Ещё	-10.8623
▁блок	-10.8624
▁посвящен	-10.8624
нного	-10.8625
▁покинул	-10.8626
▁Ги	-10.8629
▁Томас	-10.863
▁сможем	-10.8639
▁Эм	-10.8652
ьная	-10.8656
▁купил	-10.8656
▁Семен	-10.866
▁разговоры	-10.866
▁девушек	-10.866
лых	-10.8664
▁Генерал	-10.8665
▁пальто	-10.8666
▁давайте	-10.8667
▁Вид	-10.8668
▁m	-10.8669
▁летом	-10.867
бит	-10.8672
▁мост	-10.8673
зн	-10.8674
▁повсюду	-10.8676
▁Москва	-10.8682
▁Пришлось	-10.8682
▁стенах	-10.8684
▁выполнять	-10.8688
▁Стас	-10.8689
▁поспешил	-10.8689
▁слава	-10.8689
▁просить	-10.8689
▁еды	-10.8691
▁установить	-10.8692
▁охраны	-10.8693
▁заряд	-10.8695
оч	-10.8698
▁появляется	-10.8698
▁Кейт	-10.8699
▁восьми	-10.8703
▁согласен	-10.8704
▁лап	-10.8705
▁Мое	-10.8706
тян	-10.8707
▁существования	-10.8707
щему	-10.8708
▁Бе	-10.8708
▁пен	-10.8708
▁комната	-10.8711
ьер	-10.8712
▁помогает	-10.8712
▁обмен	-10.8714
▁холодной	-10.8718
енными	-10.8719
▁нём	-10.8723
ике	-10.8727
▁единого	-10.8731
▁парни	-10.8731
дума	-10.8732
▁бред	-10.8734
▁рассказала	-10.8736
▁убит	-10.8736
▁пот	-10.8738
инки	-10.8739
▁оставались	-10.8742
▁ствол	-10.8743
▁недовольно	-10.8746
▁взглянуть	-10.8747
▁свин	-10.8748
▁надолго	-10.8752
▁фактически	-10.8755
▁центра	-10.8756
▁наверно	-10.8757
▁остановиться	-10.8758
▁плод	-10.8759
верен	-10.876
▁казались	-10.876
▁этап	-10.8765
▁шепотом	-10.8767
нцев	-10.8769
бар	-10.877
▁набор	-10.8771
кле	-10.8771
нку	-10.8773
▁изменилось	-10.8778
▁Пал	-10.8781
▁прибыли	-10.8783
▁пра	-10.8784
▁объем	-10.8784
▁служил	-10.8787
il	-10.8791
лые	-10.8791
▁устроить	-10.8795
▁закрыла	-10.8795
▁хан	-10.8798
▁думая	-10.88
ложить	-10.8802
▁занима	-10.8802
▁Долго	-10.8803
▁взяв	-10.8805
▁делам	-10.8806
▁самолета	-10.8807
▁попробовать	-10.8807
▁боялась	-10.8808
▁ремонт	-10.8808
»...	-10.8811
▁конверт	-10.8812
быт	-10.8816
▁Готов	-10.8816
▁пита	-10.8819
▁самих	-10.8819
▁ц	-10.8823
▁победы	-10.8824
Ф	-10.8824
▁Николаевич	-10.8825
▁решать	-10.8826
▁совета	-10.8827
▁рус	-10.8827
▁техники	-10.8841
▁Вол	-10.8841
▁крупных	-10.8843
тик	-10.8844
▁холма	-10.8844
▁Константин	-10.8845
▁фа	-10.8846
▁смогут	-10.8848
▁бежал	-10.8849
▁сделано	-10.885
▁кричал	-10.8851
▁поверх	-10.8854
чке	-10.8855
▁Гра	-10.8855
▁Сар	-10.8857
▁Очевидно	-10.8859
▁печаль	-10.8861
▁подошли	-10.8863
▁сия	-10.8865
▁дорого	-10.8866
▁устав	-10.8866
топ	-10.8867
тек	-10.8869
▁землей	-10.8873
▁ча	-10.8874
▁Сразу	-10.8877
зин	-10.8878
▁маршрут	-10.8887
▁Мартин	-10.8887
▁Кос	-10.8888
▁братьев	-10.8889
жива	-10.8892
▁последствия	-10.8894
▁всякие	-10.8894
▁порыв	-10.8898
▁земель	-10.89
▁собак	-10.8902
▁собственный	-10.8905
▁кирпич	-10.8907
▁расп	-10.8907
▁че	-10.8911
изации	-10.8912
▁горд	-10.8912
▁Пес	-10.8912
▁прямой	-10.8913
▁гость	-10.8914
▁камней	-10.8914
▁дыма	-10.8915
▁детали	-10.8915
▁евреев	-10.8915
▁надел	-10.8915
▁Дэн	-10.8917
▁маленькую	-10.8918
▁покое	-10.8918
▁испытывал	-10.892
▁помимо	-10.8921
▁Ран	-10.8921
▁Кал	-10.8922
▁став	-10.8927
▁закона	-10.8927
▁Джейн	-10.893
▁Лю	-10.8933
▁прочих	-10.8934
▁Первым	-10.8935
▁устал	-10.8935
лли	-10.8936
▁оборот	-10.894
ri	-10.894
▁l	-10.8941
▁беда	-10.8945
▁мар	-10.8948
▁негромко	-10.8949
▁сыном	-10.8952
▁предупредил	-10.8954
▁выяснилось	-10.8955
▁черного	-10.8956
▁хлоп	-10.8962
▁последним	-10.8963
▁дура	-10.897
▁вела	-10.8972
ители	-10.8973
▁положено	-10.8976
тона	-10.8985
▁наклонился	-10.8986
▁потребовал	-10.8986
▁слухи	-10.8989
▁раны	-10.8989
▁возраст	-10.8994
▁Новый	-10.8994
▁бояться	-10.8998
▁заодно	-10.9
▁гул	-10.9001
▁искусство	-10.9002
▁проснулся	-10.9002
▁вызов	-10.9003
▁прибор	-10.9003
▁Дер	-10.9005
▁молодая	-10.9009
▁помогать	-10.9009
▁добрый	-10.9011
▁понравилось	-10.9011
▁причиной	-10.9012
▁Отлично	-10.9012
бр	-10.9014
▁жертву	-10.9016
g	-10.9017
▁Вчера	-10.9018
▁платья	-10.9021
един	-10.9023
▁заявила	-10.9024
▁надеясь	-10.9028
▁перевел	-10.9028
▁приводит	-10.9028
▁связано	-10.9029
▁делаешь	-10.9037
▁учиться	-10.9037
▁каб	-10.9038
▁предложения	-10.9039
▁Прошло	-10.9039
▁показывает	-10.9045
▁особой	-10.9045
▁бросилась	-10.9046
▁бег	-10.9046
▁сердито	-10.9047
▁миф	-10.9048
▁саду	-10.9048
▁суток	-10.9049
▁плане	-10.9051
▁догадался	-10.9053
▁Остальные	-10.9054
▁половина	-10.9055
▁поиски	-10.9055
▁десятка	-10.9056
▁слаб	-10.9056
▁Слова	-10.9059
мена	-10.9059
чики	-10.906
▁бед	-10.9061
▁окном	-10.9062
▁Вал	-10.9062
цом	-10.9068
▁Мил	-10.9071
▁пожала	-10.9075
▁рукав	-10.9077
▁посоветовал	-10.9077
▁чувством	-10.9078
линг	-10.9079
▁отдохнуть	-10.908
▁главной	-10.9081
▁политической	-10.9082
▁губам	-10.9084
▁гроб	-10.9086
шийся	-10.909
▁сомневался	-10.909
▁ручку	-10.9095
▁думали	-10.9097
▁Вряд	-10.9097
▁37	-10.9098
▁приходил	-10.91
▁мистера	-10.9101
▁присел	-10.9102
▁выбора	-10.9103
▁Быть	-10.9103
▁помещения	-10.9107
▁тряс	-10.9108
▁прекрасный	-10.9109
▁Запад	-10.9109
▁голода	-10.9111
▁ворон	-10.9111
▁барабан	-10.9116
▁комнат	-10.9116
▁Хи	-10.9121
▁жестом	-10.9134
шему	-10.9138
▁тре	-10.914
йди	-10.9144
▁белого	-10.9144
▁товарищей	-10.9145
▁смешно	-10.9145
▁мешок	-10.9148
▁записи	-10.915
▁башни	-10.915
▁слав	-10.9151
▁***	-10.9151
▁избран	-10.9152
дет	-10.9153
▁Вадим	-10.9153
▁дама	-10.9154
▁принести	-10.9155
▁заметив	-10.9155
лил	-10.9157
▁электрон	-10.9158
▁исп	-10.9166
▁предположить	-10.9166
▁половине	-10.9166
▁товарищи	-10.9166
▁Пошли	-10.9169
▁ничуть	-10.917
▁мут	-10.9171
▁ярости	-10.9178
▁Центр	-10.9178
▁странный	-10.918
▁фигуры	-10.9184
▁раствор	-10.9184
▁Чуть	-10.9185
▁жертв	-10.9187
бери	-10.9187
▁поклон	-10.9188
▁сыр	-10.919
▁Эли	-10.919
▁вампир	-10.9194
▁36	-10.9195
▁Великий	-10.9195
▁уверены	-10.9196
▁понадобится	-10.9196
▁монет	-10.9197
▁похожи	-10.9197
▁систем	-10.92
▁необходимость	-10.9201
▁такому	-10.9202
▁малейшего	-10.9203
▁ходили	-10.9205
▁Боюсь	-10.921
▁Кому	-10.9211
▁смотри	-10.9214
▁проявил	-10.9214
▁рада	-10.9214
вет	-10.9215
▁счастлив	-10.9216
▁попали	-10.9217
▁связан	-10.9221
▁книж	-10.9222
▁Кей	-10.9223
анная	-10.9226
▁Елена	-10.9226
▁прижал	-10.9227
▁ритм	-10.9227
▁передо	-10.923
▁замечательно	-10.9232
▁исчезли	-10.9235
пущен	-10.9236
▁позор	-10.9238
▁городов	-10.9238
▁крас	-10.9241
▁тесно	-10.9242
▁плоти	-10.9242
▁глянул	-10.9244
ело	-10.9245
▁дольше	-10.9245
евой	-10.9246
▁дышать	-10.9247
▁держаться	-10.9247
ицу	-10.9248
▁Прим	-10.9248
▁созда	-10.9249
▁38	-10.9251
▁Ше	-10.9253
▁архив	-10.9254
▁Лин	-10.9259
пят	-10.926
руб	-10.926
▁использовал	-10.926
▁живу	-10.9262
▁сахар	-10.9262
▁приятель	-10.9263
▁Будет	-10.9263
▁кап	-10.9264
▁Король	-10.9266
▁Должно	-10.9268
▁Фе	-10.9268
?"	-10.9271
00	-10.9272
▁лучи	-10.9274
▁случая	-10.928
▁всерьез	-10.9281
.).	-10.9281
стой	-10.9284
▁стыдно	-10.9286
▁поверил	-10.9287
ствовать	-10.9289
▁шпион	-10.9289
ствовал	-10.9291
▁дворца	-10.9292
▁собственную	-10.9294
▁пространстве	-10.9295
▁идей	-10.9295
▁отправил	-10.9296
▁столб	-10.9299
▁площадь	-10.9299
▁Фар	-10.93
оса	-10.9302
▁рва	-10.9304
чика	-10.9307
▁красиво	-10.9308
▁красные	-10.9309
▁буркнул	-10.931
порт	-10.931
▁большими	-10.9311
▁намек	-10.9311
▁груд	-10.9312
▁лестницы	-10.9316
кос	-10.9316
▁достижения	-10.9317
▁мужем	-10.9317
тых	-10.9319
▁Бол	-10.9319
▁полет	-10.9321
▁вызван	-10.9322
чал	-10.9324
▁предложить	-10.9325
▁нередко	-10.9326
▁программы	-10.9326
▁бойцов	-10.9327
тис	-10.9328
▁Хм	-10.9329
▁настоящего	-10.9331
▁Элис	-10.9332
▁одежда	-10.9339
▁обязанности	-10.9339
▁спрашивал	-10.934
▁коридору	-10.9341
▁замолчал	-10.9343
▁чей	-10.9345
▁лед	-10.9346
▁Ленина	-10.9346
7	-10.9347
▁пошло	-10.9348
▁чин	-10.9351
▁годах	-10.9354
▁десяток	-10.9355
▁процесса	-10.9356
▁становятся	-10.9359
▁законы	-10.936
▁воины	-10.9361
вшему	-10.9361
▁встретились	-10.9363
▁бороться	-10.9364
▁кос	-10.9366
▁отвлек	-10.937
▁звонок	-10.9373
▁обстоятельствах	-10.9375
▁убедиться	-10.9378
▁подхватил	-10.938
▁убежден	-10.9381
▁гнева	-10.9383
▁Россию	-10.9389
▁незнаком	-10.9391
чий	-10.9392
▁военные	-10.9395
▁Лена	-10.9397
▁Богом	-10.9399
▁противник	-10.94
▁команда	-10.94
▁начнет	-10.9401
▁давали	-10.9402
тай	-10.9402
▁Ча	-10.9402
▁заключается	-10.9405
▁расскажу	-10.9407
▁создание	-10.9409
▁Марина	-10.9409
▁глазам	-10.941
▁сует	-10.941
▁домом	-10.941
▁личность	-10.941
▁заговор	-10.9412
▁задачу	-10.9413
▁считая	-10.9415
рой	-10.9415
тельно	-10.9417
▁атом	-10.9418
▁яйца	-10.942
▁маневр	-10.9422
▁одинаково	-10.9425
мой	-10.9425
as	-10.9427
▁пору	-10.943
ченко	-10.9432
▁охотно	-10.9432
▁упорно	-10.9438
▁Иль	-10.944
▁высокие	-10.9442
▁поехал	-10.9444
▁стула	-10.9444
рак	-10.9446
▁et	-10.9448
маз	-10.9449
▁обстоятельства	-10.9449
▁костра	-10.945
▁лучший	-10.9451
▁настойчиво	-10.9451
▁приехали	-10.9451
▁боится	-10.9457
▁Никаких	-10.9458
ически	-10.9458
▁тихонько	-10.9463
▁приговор	-10.9464
▁просит	-10.9466
▁Закон	-10.9468
▁обеих	-10.9468
▁Большой	-10.947
▁заорал	-10.9477
▁небрежно	-10.9478
▁1)	-10.948
▁терпеть	-10.948
▁показалась	-10.9483
▁сюжет	-10.9483
▁чемодан	-10.9484
▁психолог	-10.9485
▁присутствии	-10.9488
▁построен	-10.9488
▁уверенность	-10.9488
▁демократ	-10.9489
▁сильным	-10.9491
ывать	-10.9492
▁тяжелый	-10.9493
▁беседу	-10.9495
▁разрешения	-10.9495
▁плана	-10.9496
▁Люк	-10.9496
шив	-10.9498
▁шоссе	-10.9499
▁долю	-10.95
шке	-10.9506
▁слышу	-10.9507
▁Год	-10.9511
онов	-10.9512
раст	-10.9512
▁зл	-10.9516
▁травы	-10.952
▁порог	-10.9521
▁старалась	-10.9521
▁составе	-10.9522
▁делами	-10.9522
▁боги	-10.9522
▁ходит	-10.9522
▁трус	-10.9524
▁новом	-10.9526
▁жертвы	-10.9526
днев	-10.9527
▁единственное	-10.9528
▁белом	-10.953
▁пройдет	-10.9531
щими	-10.9532
▁попала	-10.9532
▁Цар	-10.9533
▁ночной	-10.9535
▁детям	-10.9536
▁начиная	-10.9538
мест	-10.954
▁представитель	-10.9544
▁странах	-10.9544
▁собрался	-10.9544
▁накануне	-10.9546
▁героя	-10.9548
▁усилий	-10.955
альной	-10.955
▁поп	-10.9552
▁миль	-10.9554
▁Лондон	-10.9555
▁болезнь	-10.9558
▁Император	-10.9558
▁пригласил	-10.9558
▁IV	-10.9564
▁билет	-10.9566
▁Лиза	-10.9567
▁мнения	-10.9568
▁действует	-10.9569
▁дверях	-10.9571
▁наверху	-10.9572
▁ряда	-10.9572
▁повтор	-10.9573
▁планете	-10.9573
▁полагаю	-10.9574
▁пусто	-10.9575
дур	-10.9576
подоб	-10.9577
▁5.	-10.9578
▁высоты	-10.9584
▁продолжает	-10.9586
▁ребенком	-10.9586
мит	-10.9588
▁ан	-10.9589
▁Парень	-10.959
▁господина	-10.9592
▁Фрэнк	-10.9598
зон	-10.9599
▁урок	-10.9601
▁хор	-10.9601
▁доход	-10.9601
▁Совершенно	-10.9603
▁университет	-10.9604
▁Париже	-10.9605
▁спины	-10.9606
▁веры	-10.9607
▁труб	-10.9609
▁проклят	-10.9611
▁пары	-10.9617
ником	-10.9621
▁надежно	-10.9624
▁отметил	-10.9625
▁послан	-10.9629
▁фильм	-10.963
аны	-10.9632
▁чести	-10.9636
▁удачно	-10.964
▁обнаружили	-10.9641
▁ритуал	-10.9642
▁строить	-10.9644
▁Кан	-10.9646
▁тяжелые	-10.9646
ору	-10.9646
▁стрем	-10.9647
нг	-10.9648
▁студент	-10.9649
▁какому	-10.9649
смотр	-10.965
▁допрос	-10.965
▁нрав	-10.9652
▁призыв	-10.9653
▁выходить	-10.9654
ани	-10.9654
Ч	-10.9656
▁знакомых	-10.9657
▁сиденье	-10.9658
▁детектив	-10.9658
▁священник	-10.9658
▁вол	-10.9659
▁Михайлович	-10.9665
▁Увидев	-10.9668
низ	-10.967
▁шага	-10.967
▁сети	-10.9671
шить	-10.9671
град	-10.9672
рек	-10.9673
▁пересек	-10.9676
▁особ	-10.9676
▁привез	-10.9679
▁ощущал	-10.9679
▁желает	-10.968
▁мелкие	-10.9682
чить	-10.9684
беру	-10.9686
▁вер	-10.9688
▁половины	-10.9688
▁масса	-10.9689
вала	-10.9691
▁поражен	-10.9691
▁приготовления	-10.9692
разум	-10.9693
чных	-10.9693
▁небес	-10.9694
▁Маша	-10.9694
▁адвокат	-10.9697
▁сорока	-10.97
тый	-10.9702
▁акт	-10.9702
▁управлять	-10.9703
▁ресторан	-10.9704
▁ще	-10.9706
▁План	-10.9706
▁Рис	-10.9708
▁гордо	-10.9708
▁режим	-10.9709
пев	-10.9709
▁выполнить	-10.971
тр	-10.9714
▁настоящая	-10.9714
▁известный	-10.9715
▁Ради	-10.9717
▁урод	-10.9722
▁изнутри	-10.9722
▁Ген	-10.9725
▁лад	-10.9725
тека	-10.9726
▁сердцем	-10.9728
▁полного	-10.9728
▁История	-10.9731
шко	-10.9732
▁щит	-10.9734
▁разрушен	-10.9734
▁путешествие	-10.9735
▁реку	-10.9736
▁му	-10.9738
▁терять	-10.9739
▁провела	-10.974
▁птица	-10.9741
▁душой	-10.9742
ливая	-10.9744
▁потерять	-10.9745
▁зашел	-10.9746
свет	-10.9748
▁перешел	-10.9749
▁масс	-10.975
▁требовалось	-10.975
▁крылья	-10.9752
▁решив	-10.9752
ово	-10.9755
▁отцов	-10.9755
ведение	-10.9756
▁ожидании	-10.9757
кинув	-10.9759
ируют	-10.976
▁бывшего	-10.9762
▁Эмили	-10.9762
▁Скажите	-10.9765
▁разряд	-10.9767
▁древних	-10.977
▁набрал	-10.977
▁носил	-10.9772
▁проворчал	-10.9773
▁начинаю	-10.9776
▁Петра	-10.9776
»:	-10.9777
▁удивлен	-10.978
душ	-10.978
▁рассмеялась	-10.9781
▁домик	-10.9786
▁помощник	-10.9787
▁страдания	-10.9787
▁Вен	-10.9787
▁помнишь	-10.9795
ску	-10.9795
▁работают	-10.9796
▁забыли	-10.9798
▁жал	-10.9799
▁Работа	-10.9801
▁дер	-10.9801
▁наблюдая	-10.9803
▁красно	-10.9806
▁ослаб	-10.9806
хал	-10.9808
груз	-10.9809
▁листья	-10.9809
▁подняв	-10.9809
▁литературы	-10.981
▁независимо	-10.9812
▁спорить	-10.9814
▁Петров	-10.9815
▁песок	-10.9817
▁острове	-10.9817
▁заняты	-10.9818
▁лодки	-10.9819
▁близ	-10.9825
▁пообещал	-10.9826
▁Лиз	-10.9828
▁живым	-10.9835
▁славян	-10.984
▁горько	-10.9843
▁встретить	-10.9844
▁оставалась	-10.9844
▁обернулась	-10.9845
▁Голова	-10.985
▁статьи	-10.9851
▁внутренней	-10.9851
▁глуп	-10.9853
▁маленьких	-10.9854
▁следить	-10.9857
▁совершил	-10.9857
▁Джим	-10.9858
дать	-10.9861
▁журнал	-10.9861
▁звука	-10.9863
▁XX	-10.9866
▁Грин	-10.9867
вый	-10.9868
нец	-10.9869
шими	-10.9869
ования	-10.9872
▁неуверенно	-10.9872
лис	-10.9872
▁рассмотреть	-10.9877
▁потолок	-10.9879
▁президента	-10.9881
▁победу	-10.9883
▁Петербург	-10.9884
▁выбраться	-10.9887
▁статус	-10.9889
▁жутко	-10.9891
▁дождя	-10.9891
▁канал	-10.9891
вай	-10.9892
клад	-10.9893
▁последовал	-10.9893
▁приняла	-10.9894
▁случаев	-10.9897
▁XIX	-10.9898
ании	-10.9898
▁связаны	-10.9899
▁мод	-10.9903
▁веке	-10.9903
▁каза	-10.9905
Й	-10.9907
▁узнав	-10.9909
▁шкаф	-10.9911
▁Юр	-10.9912
▁мальчишка	-10.9915
тре	-10.9916
▁делаю	-10.9917
▁лето	-10.9918
▁иду	-10.9919
▁заключил	-10.992
▁занять	-10.9922
жига	-10.9922
пел	-10.9923
▁милая	-10.9924
▁бизнес	-10.9927
▁Быстро	-10.9928
▁взялся	-10.9929
▁соль	-10.9934
инов	-10.9935
енно	-10.9939
▁снизу	-10.9941
▁подряд	-10.9942
▁расс	-10.9945
ограф	-10.9948
▁художник	-10.9948
▁Немного	-10.9951
▁дра	-10.9953
▁строя	-10.9954
▁смотрю	-10.9958
▁объяснять	-10.9959
▁мыслями	-10.9959
рина	-10.996
▁мечом	-10.996
▁зад	-10.996
▁Коля	-10.9962
иров	-10.9962
сса	-10.9964
фу	-10.9966
▁бетон	-10.997
▁трон	-10.997
ol	-10.9972
▁иной	-10.9974
▁рок	-10.9974
▁простор	-10.9976
▁титул	-10.998
▁отдельно	-10.998
▁подробности	-10.9982
▁поблизости	-10.9984
аг	-10.9984
кали	-10.9986
▁маленького	-10.9987
▁виски	-10.9988
▁крупные	-10.9995
▁наук	-10.9995
▁желал	-10.9997
▁служит	-11
▁мусор	-11.0001
▁слуг	-11.0001
▁такси	-11.0002
▁кучу	-11.0003
▁возвращения	-11.0004
▁скот	-11.0005
▁Гре	-11.0008
▁Боб	-11.0012
▁четверо	-11.0012
дре	-11.0018
▁страсти	-11.002
уха	-11.0024
▁жен	-11.0025
▁Спустя	-11.0025
▁входит	-11.0029
▁удержать	-11.0029
▁2)	-11.0031
▁креп	-11.0035
▁река	-11.0037
▁кавалер	-11.0039
▁эпохи	-11.0039
▁поднос	-11.0041
▁целей	-11.0041
▁появления	-11.0046
мур	-11.0047
ць	-11.005
▁энергию	-11.005
▁романа	-11.005
▁сделав	-11.0051
▁масла	-11.0052
▁90	-11.0052
▁мастера	-11.0057
енький	-11.0058
▁ши	-11.006
▁высоких	-11.0061
▁трепет	-11.0062
кри	-11.0063
тянуть	-11.0063
▁Естественно	-11.0065
▁появление	-11.0067
еров	-11.0068
▁восток	-11.0068
енок	-11.007
▁39	-11.007
▁Пе	-11.007
▁концерт	-11.0074
▁ткнул	-11.0074
▁сообщила	-11.0074
et	-11.0075
▁прим	-11.0076
алась	-11.0076
▁прозвучал	-11.0077
▁уст	-11.0079
▁сообщения	-11.008
▁сперва	-11.008
▁ген	-11.0083
▁совести	-11.0087
▁принимает	-11.0088
▁обладает	-11.0088
am	-11.0088
▁появится	-11.0088
▁транс	-11.0089
▁ошибки	-11.009
стям	-11.0091
▁поднялись	-11.0091
▁получает	-11.0092
▁1917	-11.0093
▁Ивана	-11.0099
фон	-11.0101
▁двести	-11.0105
ливый	-11.0105
▁Лит	-11.0106
▁w	-11.0109
▁придумать	-11.0116
▁направилась	-11.0117
ься	-11.0118
▁основной	-11.0119
▁неужели	-11.0119
пот	-11.0121
▁отвернулся	-11.0123
▁Ветер	-11.0124
▁отдельных	-11.0124
▁Руки	-11.0125
▁Порт	-11.0125
▁фразу	-11.0127
ьян	-11.013
▁управление	-11.0132
▁Тим	-11.0132
▁дьявол	-11.0132
▁своя	-11.0132
▁суп	-11.0133
▁Пят	-11.0133
▁га	-11.0137
▁открылась	-11.0137
▁любые	-11.0138
▁ведут	-11.014
кладывал	-11.014
иса	-11.014
▁сопротивление	-11.0143
▁последняя	-11.0143
▁Самое	-11.015
бел	-11.015
▁топ	-11.0153
▁Большинство	-11.0157
▁прохлад	-11.0159
▁гал	-11.0161
▁крепость	-11.0163
▁должность	-11.0169
▁образования	-11.017
▁броне	-11.0174
▁эмоции	-11.0174
▁куски	-11.0176
▁десятки	-11.0178
▁старшего	-11.0179
▁Хозяин	-11.018
▁широкой	-11.0181
▁достать	-11.0182
ыш	-11.0183
▁Кого	-11.0184
▁Были	-11.0187
▁000	-11.0189
▁кристалл	-11.0191
▁Хочу	-11.0192
▁группе	-11.0193
▁небольшую	-11.0195
▁корабле	-11.0196
зар	-11.0197
▁сможете	-11.0203
мель	-11.0205
▁одиночестве	-11.0209
чина	-11.021
▁тер	-11.0211
▁платить	-11.0212
▁замке	-11.0213
▁Лей	-11.0213
▁содержание	-11.0216
▁журналист	-11.0216
▁цивилизации	-11.0217
▁Иванов	-11.0219
▁большом	-11.022
▁густо	-11.022
▁Кра	-11.0221
▁забрать	-11.0221
▁чудовищ	-11.0223
▁благополучно	-11.0223
▁Хватит	-11.0224
▁северо	-11.0225
▁хотим	-11.0227
▁парад	-11.0229
▁отказ	-11.0229
▁захочет	-11.0231
ic	-11.0233
оль	-11.0233
▁запомнил	-11.0236
ложения	-11.0238
▁действ	-11.024
▁ударом	-11.0242
▁Дэвид	-11.0243
▁поступить	-11.0243
▁грязи	-11.0243
енс	-11.0244
▁аль	-11.0246
▁важным	-11.0248
▁институт	-11.0248
евский	-11.0249
▁мрамор	-11.0249
▁плюс	-11.0249
▁зверя	-11.025
▁вечеру	-11.025
▁спальню	-11.0252
▁облик	-11.0253
нев	-11.0254
▁заставила	-11.0254
▁взор	-11.0254
▁осмотрел	-11.0257
▁яростно	-11.0259
хов	-11.0259
▁людях	-11.0261
▁42	-11.0263
▁полная	-11.0264
▁пр	-11.0265
▁лучшие	-11.0269
▁Миша	-11.027
▁убийца	-11.027
▁толпу	-11.0272
емая	-11.0272
рал	-11.0276
▁Бра	-11.0279
▁организма	-11.028
▁звучит	-11.0281
▁линию	-11.0281
▁ор	-11.0284
▁наступление	-11.0289
▁отправить	-11.029
▁защитить	-11.0291
▁способна	-11.0293
▁ново	-11.0296
несла	-11.0296
▁Му	-11.0299
▁духом	-11.0299
иш	-11.03
▁стер	-11.03
▁держит	-11.0301
▁добра	-11.0301
▁мудр	-11.0302
▁носить	-11.0303
▁Малыш	-11.0309
▁спустился	-11.0313
▁побольше	-11.0314
▁военно	-11.0314
▁позицию	-11.0318
▁бел	-11.0318
▁сумму	-11.032
хва	-11.0322
водить	-11.0322
ывал	-11.0322
▁границу	-11.0325
▁писателя	-11.0327
▁модель	-11.0327
▁подозрительно	-11.0328
▁бело	-11.0336
▁кат	-11.0337
▁интересует	-11.0338
▁телевизор	-11.0338
▁вдвоем	-11.0338
▁органов	-11.034
глаз	-11.0342
▁холодный	-11.0342
▁пищи	-11.0343
▁местные	-11.0344
▁Увы	-11.0347
▁пункт	-11.0348
ёк	-11.0351
жим	-11.0351
действительности	-11.0351
▁безусловно	-11.0353
▁скалы	-11.0354
▁ищет	-11.0354
▁удаля	-11.0356
▁возникла	-11.0357
▁атаки	-11.0358
▁судно	-11.036
▁существуют	-11.0362
▁реакции	-11.0363
▁i	-11.0365
▁банк	-11.0365
▁сине	-11.0366
▁карт	-11.037
▁вплоть	-11.0371
▁рассказывает	-11.0373
▁продолжая	-11.0377
▁завтрак	-11.0377
▁звери	-11.0377
▁поражение	-11.0379
ent	-11.0379
щит	-11.038
кажет	-11.0383
▁одеяло	-11.0384
▁Гол	-11.039
двига	-11.039
▁Пойдем	-11.0391
▁орудия	-11.0392
чувств	-11.0392
▁работала	-11.0393
▁потер	-11.0394
тороп	-11.0394
▁рам	-11.0395
▁попросту	-11.0395
▁случиться	-11.0397
▁пламени	-11.0397
▁бомб	-11.0398
▁подвиг	-11.04
▁традиции	-11.0401
▁обеспечить	-11.0405
▁короткий	-11.0405
тельная	-11.0408
носит	-11.0408
мира	-11.041
▁Уильям	-11.0411
▁общий	-11.0413
▁побед	-11.0413
▁Вед	-11.0415
кры	-11.0415
▁услышав	-11.0416
▁попытаться	-11.0416
▁моими	-11.0417
▁красивая	-11.0419
▁следовательно	-11.0424
▁Знаете	-11.0424
▁стоп	-11.0426
▁предварительно	-11.0427
▁некуда	-11.043
▁сотрудников	-11.0432
▁беседы	-11.0434
▁старательно	-11.0435
▁общения	-11.044
▁одежде	-11.0441
▁означало	-11.0443
бить	-11.0445
▁задач	-11.0446
▁обращаясь	-11.0448
ie	-11.0451
езд	-11.0454
▁попытка	-11.0455
▁арест	-11.0455
▁единственная	-11.0457
▁Адам	-11.0458
▁тремя	-11.046
▁вернусь	-11.046
▁Илья	-11.0461
оне	-11.0464
▁вере	-11.0464
▁Крас	-11.0465
сар	-11.0466
▁обращая	-11.0466
▁Оста	-11.0467
дем	-11.0468
▁свист	-11.0469
бри	-11.0469
▁артист	-11.0471
▁дальнейшем	-11.0471
▁пароход	-11.0474
▁отпуск	-11.0476
▁слове	-11.0478
▁окружен	-11.0479
▁фирмы	-11.0479
▁графа	-11.048
▁отлича	-11.0482
▁псих	-11.0483
▁6.	-11.0483
кать	-11.0485
▁Неожиданно	-11.0486
▁пешком	-11.0489
▁переговоры	-11.0489
▁бра	-11.0489
вую	-11.0491
эй	-11.0491
бур	-11.0491
▁мелко	-11.0493
▁врача	-11.0493
жал	-11.0494
▁Киев	-11.0494
йд	-11.0497
▁Первая	-11.0499
▁Чер	-11.0499
▁объяснял	-11.05
▁зрелище	-11.05
▁впрямь	-11.05
веща	-11.0501
▁рассматривать	-11.0501
▁пад	-11.0502
кнул	-11.0504
жил	-11.0505
ируем	-11.0507
▁выдохнул	-11.0508
▁понятие	-11.0508
▁прощения	-11.051
ir	-11.0512
▁потеряла	-11.0513
ивая	-11.0514
▁поры	-11.0516
▁ткани	-11.0517
▁юг	-11.0522
▁заклинание	-11.0522
▁названия	-11.0523
нор	-11.0523
▁Смерть	-11.0525
нуться	-11.0528
▁отдых	-11.0529
▁эпизод	-11.053
ЛИ	-11.0531
▁Леонид	-11.0532
▁признал	-11.0534
▁Любовь	-11.0536
▁здоровья	-11.0536
▁закат	-11.0537
▁Твой	-11.0539
ула	-11.0542
▁жадно	-11.0543
▁похожа	-11.0545
опыт	-11.0546
ери	-11.0547
▁сознании	-11.0547
кат	-11.0548
▁второе	-11.0548
▁Добро	-11.0549
▁пробормотала	-11.0549
мог	-11.0549
▁существенно	-11.055
▁превратился	-11.0551
▁колено	-11.0551
▁паспорт	-11.0553
инский	-11.0553
▁Мен	-11.0554
▁профессора	-11.0554
▁наблюдения	-11.0555
▁Бело	-11.0556
▁нашими	-11.0557
▁борьба	-11.0558
▁положить	-11.0559
▁Шел	-11.056
▁Мисс	-11.056
▁отпустил	-11.0561
▁мага	-11.0561
▁убор	-11.0563
▁масло	-11.0564
▁облака	-11.0565
▁активно	-11.0565
ичный	-11.0566
▁обряд	-11.0569
▁спешил	-11.0569
▁прочие	-11.057
▁стан	-11.0573
▁глубины	-11.0575
▁Кен	-11.0576
▁черта	-11.0577
▁молот	-11.0577
доб	-11.0578
юр	-11.0578
▁милый	-11.0579
▁возврат	-11.058
роб	-11.058
▁лип	-11.0582
▁товарища	-11.0583
оф	-11.0583
▁представителей	-11.0583
▁напряженно	-11.0584
▁некоторым	-11.0584
▁тысячу	-11.0586
▁оставила	-11.0587
пек	-11.0588
▁пульс	-11.0588
▁Правильно	-11.0589
▁одних	-11.0589
▁подготовлен	-11.059
▁кармане	-11.0591
▁Италии	-11.0591
▁Сим	-11.0592
▁лом	-11.0594
▁наполовину	-11.0594
гло	-11.0595
▁Каким	-11.0598
▁разума	-11.0603
▁собственное	-11.0604
▁еврей	-11.0605
▁спрашиваю	-11.0606
▁сюрприз	-11.0606
▁приближа	-11.0607
нский	-11.0607
▁решился	-11.061
▁развернул	-11.061
дро	-11.0611
▁резерв	-11.0614
▁пятидесяти	-11.0616
▁1942	-11.0623
▁вперёд	-11.0624
▁поклонился	-11.0624
ушки	-11.0625
▁РФ	-11.0626
▁уехать	-11.0626
▁растерянно	-11.0627
▁черном	-11.063
▁напрасно	-11.0631
▁предметы	-11.0635
усь	-11.0635
▁компанию	-11.0645
▁рай	-11.0646
▁внутренних	-11.0649
очные	-11.0649
▁Генрих	-11.0651
бен	-11.0654
эт	-11.0655
нулась	-11.0657
нда	-11.0657
▁реальность	-11.066
▁сотен	-11.0661
▁жестко	-11.0662
▁крив	-11.0663
ut	-11.0663
▁произведения	-11.0664
▁взят	-11.0665
▁признаться	-11.0666
▁настоящим	-11.0667
▁постучал	-11.0667
ицей	-11.067
▁собственным	-11.067
▁ненадолго	-11.0671
▁прожил	-11.0671
▁службе	-11.0671
▁Руси	-11.0674
▁путешествия	-11.0674
▁пап	-11.0676
▁подождать	-11.0676
▁1943	-11.0677
▁белым	-11.0679
▁рванул	-11.0681
▁чу	-11.0682
▁произойдет	-11.0683
▁пыл	-11.0686
▁сего	-11.0687
хит	-11.0689
фо	-11.0689
▁легкий	-11.0692
▁военный	-11.0692
▁Артем	-11.0692
ue	-11.0693
▁кулаком	-11.0697
▁подойти	-11.0698
▁парк	-11.07
▁сыну	-11.0707
▁рюкзак	-11.071
▁май	-11.0711
▁Тоже	-11.0713
▁заявление	-11.0713
ивать	-11.0714
▁животное	-11.0716
▁буд	-11.0717
▁силе	-11.072
▁хорошенько	-11.072
▁округ	-11.072
▁кров	-11.0721
яет	-11.0723
▁толком	-11.0723
▁контроля	-11.0726
▁дно	-11.0726
▁экране	-11.0727
▁номера	-11.0729
▁стиле	-11.0729
▁глубже	-11.0729
ителя	-11.0729
▁хорошим	-11.0731
▁знаний	-11.0735
▁Зо	-11.0736
▁огромным	-11.0736
▁протест	-11.0737
▁ангел	-11.0737
▁ухмыльнулся	-11.0739
▁называл	-11.0739
▁следующей	-11.0741
▁вздох	-11.0741
▁обратиться	-11.0743
чиков	-11.0743
пада	-11.0743
ленные	-11.0744
▁1,	-11.0745
▁враща	-11.0746
▁штаны	-11.0751
▁регулярно	-11.0751
▁носа	-11.0751
▁скучно	-11.0753
▁Ком	-11.0753
нова	-11.0753
▁Индии	-11.0756
сту	-11.0756
▁бывал	-11.0758
▁организован	-11.0759
▁делается	-11.076
▁следов	-11.076
▁дитя	-11.0762
):	-11.0765
ласт	-11.0765
▁начинал	-11.0766
▁тро	-11.0768
хожу	-11.0768
▁хозяйка	-11.077
▁орудий	-11.0772
▁музыку	-11.0775
емой	-11.0776
▁организация	-11.0778
▁наедине	-11.078
▁Всем	-11.078
▁этажа	-11.0782
кот	-11.0782
▁конь	-11.0783
авший	-11.0785
▁черная	-11.0786
▁предложила	-11.0794
▁попросить	-11.0796
нька	-11.0798
▁страстно	-11.0798
нок	-11.08
тащил	-11.0803
▁посмотрим	-11.0803
▁кругу	-11.0804
онос	-11.0805
▁выбрать	-11.0806
▁делая	-11.0808
ано	-11.081
▁официально	-11.0815
ch	-11.0817
ющееся	-11.0818
▁Дети	-11.0818
▁аппетит	-11.0818
▁точка	-11.0819
▁идею	-11.0819
▁выражения	-11.082
▁клиент	-11.0821
▁слабость	-11.0822
льный	-11.0824
▁комиссар	-11.0824
▁десятков	-11.0825
чем	-11.0836
▁провели	-11.0836
▁проблему	-11.0837
▁бесполезно	-11.0837
▁возникло	-11.0838
▁направил	-11.0839
▁Красной	-11.084
▁Стив	-11.0841
▁вынул	-11.0843
▁подвод	-11.0846
▁Ры	-11.0847
▁плоть	-11.0847
того	-11.0848
▁спи	-11.0851
▁участок	-11.0851
▁министра	-11.0852
▁прости	-11.0853
▁мило	-11.0854
▁гибель	-11.0855
▁неизменно	-11.0859
▁фигур	-11.0861
▁театра	-11.0862
▁поймал	-11.0862
▁Впервые	-11.0863
▁зап	-11.0865
▁жестоко	-11.0865
▁мужчиной	-11.0871
▁шеф	-11.0872
▁Молодой	-11.0873
▁девочку	-11.0874
▁Слав	-11.0875
▁святой	-11.0876
▁потянулся	-11.0877
▁Понял	-11.0877
▁гостя	-11.0879
▁механизм	-11.0882
▁правую	-11.0883
▁Полу	-11.0883
▁представляю	-11.0885
▁волк	-11.0885
вёл	-11.0888
▁Цвет	-11.0888
▁коллег	-11.0889
нить	-11.0894
▁эльф	-11.0895
▁территорию	-11.0897
▁Всегда	-11.0898
▁человеческих	-11.0899
овской	-11.0899
▁Граф	-11.0904
▁шелков	-11.0905
блюд	-11.0906
▁любопытством	-11.0908
▁Стивен	-11.0909
ленный	-11.0911
▁Была	-11.0912
▁интересы	-11.0912
ада	-11.0912
фт	-11.0914
сим	-11.0914
▁провод	-11.0916
▁выглядеть	-11.0917
▁Согласно	-11.0917
▁Юрий	-11.0917
▁ужасом	-11.0918
▁клан	-11.0919
▁Сп	-11.0923
▁толпе	-11.0923
▁найден	-11.0926
▁племени	-11.0926
хар	-11.0927
▁бархат	-11.0927
рем	-11.0931
жение	-11.0931
▁Короче	-11.0932
▁Бл	-11.0935
дай	-11.0935
▁отошел	-11.0936
▁41	-11.0936
▁шут	-11.0938
▁рубашку	-11.094
▁обычный	-11.0943
▁длинными	-11.0944
▁скрыт	-11.0946
ёл	-11.0947
лип	-11.0948
луч	-11.0948
▁наполнен	-11.0949
▁живо	-11.095
инка	-11.0956
▁Мастер	-11.0956
▁руководство	-11.0956
▁Америке	-11.0956
▁Люси	-11.0964
▁деньгами	-11.0965
▁солнцем	-11.0965
▁кладбище	-11.0966
▁удары	-11.0967
▁единственной	-11.0968
▁Ци	-11.0969
▁Наташа	-11.0969
▁показала	-11.0971
рев	-11.0971
▁Лео	-11.0973
▁чашку	-11.0973
▁полагал	-11.0973
▁перейти	-11.0974
▁Извините	-11.0974
▁явля	-11.0974
▁получал	-11.0978
▁пыта	-11.0979
▁марш	-11.0979
▁факты	-11.098
▁Никита	-11.0981
нное	-11.0983
▁43	-11.0987
▁ножом	-11.0988
▁наклон	-11.0988
▁Сон	-11.0989
▁Александрович	-11.0991
▁лагере	-11.0993
▁смотрят	-11.0995
▁смеша	-11.0996
жная	-11.0998
▁выскочил	-11.0999
ящих	-11.0999
▁волнения	-11.0999
▁пятна	-11.1001
▁милость	-11.1002
▁данной	-11.1003
▁Пьер	-11.1004
▁отдельные	-11.1004
утся	-11.1004
▁считается	-11.1006
▁ежедневно	-11.1007
▁документов	-11.1008
▁Вечером	-11.1008
▁подъем	-11.101
▁величество	-11.101
фор	-11.1011
▁люк	-11.1012
▁ожидания	-11.1015
▁уточнил	-11.1016
▁бас	-11.1017
▁спинку	-11.102
▁красоты	-11.1021
▁сильные	-11.1024
▁Пра	-11.1026
лая	-11.1027
▁ненависть	-11.1028
▁разведки	-11.103
▁деревню	-11.103
▁совершить	-11.1031
▁тварь	-11.1033
▁колдун	-11.1033
▁местности	-11.1034
▁Другие	-11.1034
▁t	-11.1037
▁грузовик	-11.1038
▁пух	-11.1046
нять	-11.105
стен	-11.1053
▁опубликован	-11.1053
▁отыскать	-11.1055
▁должности	-11.1057
▁див	-11.1058
лива	-11.1059
▁руга	-11.106
▁отметить	-11.1064
▁автоматически	-11.1065
▁девчонка	-11.1065
ющаяся	-11.1066
работа	-11.1067
▁Сергеевич	-11.1068
▁поскорее	-11.107
▁улицам	-11.107
▁Майкл	-11.1071
▁богат	-11.1073
▁Сад	-11.1074
▁Ля	-11.1074
▁наслед	-11.1075
▁планет	-11.1076
▁соединя	-11.1078
▁справедливо	-11.1079
▁принесли	-11.1079
▁тайну	-11.1079
▁носу	-11.108
▁Ак	-11.1081
▁сход	-11.1083
▁нажал	-11.1085
▁увидит	-11.1086
▁испытания	-11.1086
▁полз	-11.1088
▁сомневаюсь	-11.1091
еев	-11.1092
▁кле	-11.1094
▁понимали	-11.1094
▁массы	-11.1095
ставить	-11.1095
▁растения	-11.1096
▁Наша	-11.1097
ившийся	-11.1098
▁слезами	-11.1098
▁Суд	-11.1099
▁бить	-11.1099
мол	-11.1101
▁Хью	-11.1101
▁дев	-11.1103
▁коз	-11.1104
▁тишине	-11.1106
▁Пушкин	-11.1106
▁дыр	-11.1107
мах	-11.1107
▁команд	-11.1109
▁батальон	-11.1113
▁задал	-11.1114
▁нападения	-11.1117
▁забав	-11.1123
▁чист	-11.1124
▁золота	-11.1124
▁ошибка	-11.1124
▁переспросил	-11.1127
ума	-11.1128
▁сестру	-11.1128
ющуюся	-11.1131
▁уселся	-11.1135
▁собеседник	-11.1135
▁кнопку	-11.1135
тельным	-11.1139
▁ошибку	-11.114
▁странные	-11.114
▁прошлой	-11.114
▁Гос	-11.1143
▁Трудно	-11.1143
▁предприятия	-11.1144
▁красным	-11.1144
▁памятник	-11.1148
▁Видишь	-11.1154
▁Америки	-11.1154
тяж	-11.1154
▁стремление	-11.1156
▁соответственно	-11.1157
▁несет	-11.1158
гун	-11.1159
▁почет	-11.116
▁горах	-11.116
th	-11.1164
▁прогресс	-11.1165
▁автобус	-11.1168
▁траве	-11.1169
▁обстоятельств	-11.1171
▁зеленый	-11.1171
▁университета	-11.1172
▁следующего	-11.1173
▁духе	-11.1173
▁коже	-11.1175
▁моё	-11.1176
ота	-11.1179
▁темной	-11.1181
▁развернулся	-11.1181
▁начался	-11.1184
▁густой	-11.1185
О	-11.1185
▁общее	-11.1186
▁варвар	-11.1188
▁дневник	-11.1188
▁пулемет	-11.1188
▁высшей	-11.1193
▁чистой	-11.1197
▁показания	-11.1198
▁озеро	-11.12
▁энергия	-11.1201
▁изображение	-11.1202
ящие	-11.1202
▁умолк	-11.1204
▁48	-11.1205
▁ученых	-11.1205
▁Извини	-11.1206
▁Хе	-11.1207
▁средство	-11.1209
▁современной	-11.121
▁огромная	-11.1215
▁окончания	-11.1222
▁подвал	-11.1222
▁занимается	-11.1226
▁Ста	-11.1228
ично	-11.1228
▁сурово	-11.1229
▁пределы	-11.1232
▁Билл	-11.1232
▁Рен	-11.1232
нская	-11.1236
▁Кро	-11.1236
бле	-11.1237
▁Советского	-11.1239
вуд	-11.1241
▁закрыть	-11.1242
▁револьвер	-11.1244
▁проверил	-11.1245
▁слуга	-11.1247
▁затих	-11.125
▁конча	-11.125
»).	-11.1251
▁отправилась	-11.1252
▁твоем	-11.1252
▁непрерывно	-11.1254
▁грамот	-11.1256
▁думают	-11.1258
▁шест	-11.126
▁истины	-11.126
▁Ева	-11.1261
▁привели	-11.1261
▁Ваша	-11.1262
▁стена	-11.1263
▁гостиную	-11.1268
час	-11.127
▁получать	-11.1271
рт	-11.1271
▁Леон	-11.1271
ведения	-11.1272
▁королева	-11.1273
▁потеряли	-11.1274
▁выдал	-11.1275
▁44	-11.1276
▁поддерживать	-11.1277
▁видов	-11.1278
▁ключи	-11.1278
▁настоящей	-11.1279
ложив	-11.1279
шиб	-11.1281
▁траву	-11.1282
▁облегчением	-11.1283
▁картин	-11.1284
▁нисколько	-11.1285
▁Фо	-11.129
▁производство	-11.129
▁улыбался	-11.129
▁секретарь	-11.1294
▁дрожь	-11.1294
▁Майк	-11.1296
▁напряжение	-11.1296
▁стеной	-11.1297
▁забыв	-11.1303
▁принялись	-11.1306
▁целая	-11.1307
▁спрятал	-11.1308
▁мешает	-11.1308
▁заключен	-11.1309
▁кончик	-11.1309
▁сторож	-11.1309
▁братом	-11.131
▁лог	-11.1311
▁отрицательно	-11.1311
▁принесла	-11.1312
ителей	-11.1313
▁следовать	-11.1313
▁глубокий	-11.1315
▁лома	-11.1318
▁повесил	-11.1319
▁поморщился	-11.1319
▁черными	-11.1321
▁успев	-11.1322
▁черед	-11.1322
▁образование	-11.1323
▁установлен	-11.1323
▁многом	-11.1323
▁поколения	-11.1324
▁следил	-11.1328
▁жду	-11.1329
▁Мик	-11.1329
▁офицера	-11.133
альным	-11.1338
▁выводу	-11.1339
▁некий	-11.134
▁усмехнулась	-11.1342
▁чересчур	-11.1342
▁вопросу	-11.1342
▁явления	-11.1342
▁показывая	-11.1344
нке	-11.1344
КА	-11.1344
▁Лис	-11.1345
▁дошло	-11.1345
▁храма	-11.1348
▁позвонить	-11.1349
▁Дед	-11.135
▁битвы	-11.135
▁грохот	-11.135
▁захотел	-11.1351
▁Валентин	-11.1351
▁сколь	-11.1351
риан	-11.1351
▁Часть	-11.1352
тесь	-11.1353
лар	-11.1353
▁Васильевич	-11.1354
▁остальным	-11.1356
▁ПО	-11.1358
лист	-11.1358
▁расположен	-11.1363
▁пушки	-11.1364
▁выражением	-11.1366
▁Уилл	-11.1367
ясн	-11.1368
тку	-11.137
▁великолепно	-11.137
▁занял	-11.1371
▁Ке	-11.1371
▁пород	-11.1373
▁эксперт	-11.1374
▁1945	-11.1375
▁вначале	-11.1376
▁несколькими	-11.1376
▁зеленые	-11.1379
глас	-11.1379
▁Всю	-11.1381
▁большинства	-11.1384
▁партнер	-11.1385
▁сломал	-11.1387
мок	-11.1388
сан	-11.1388
▁эмоций	-11.1388
▁Чтоб	-11.1388
▁океана	-11.139
анта	-11.1391
▁футов	-11.1392
▁изображен	-11.1392
▁совершен	-11.1393
▁основных	-11.1393
▁Далее	-11.1396
▁прицел	-11.1397
▁чар	-11.1399
▁государственной	-11.1401
▁страда	-11.1402
▁Дор	-11.1402
мъ	-11.1403
▁личной	-11.1403
бот	-11.1404
▁вдали	-11.1408
▁рыбы	-11.1409
▁волн	-11.141
чную	-11.1413
▁напоминает	-11.1414
▁играли	-11.1414
▁код	-11.1415
▁чуд	-11.1419
▁определенно	-11.1419
▁болот	-11.1419
▁привязан	-11.142
▁область	-11.1423
▁легкой	-11.1427
▁хорошей	-11.1427
▁темноты	-11.1428
нувшись	-11.1428
▁костер	-11.1429
▁распространен	-11.1429
▁Герман	-11.1429
▁допустить	-11.143
▁премьер	-11.1431
▁Тер	-11.1431
▁прилично	-11.1432
▁заново	-11.1432
▁брал	-11.1434
▁грязь	-11.1434
▁восстановить	-11.1441
бравшись	-11.1441
▁всячески	-11.1441
▁водитель	-11.1442
▁новому	-11.1442
▁съ	-11.1443
▁громче	-11.1443
▁Этим	-11.1446
сона	-11.1447
▁считала	-11.1447
▁поставили	-11.145
▁Первое	-11.1453
▁великой	-11.1454
▁придумал	-11.1456
очный	-11.1458
▁обычной	-11.1461
▁3-	-11.1463
▁составляет	-11.1466
▁звучал	-11.1468
вое	-11.147
▁основные	-11.1471
▁обращен	-11.1471
чным	-11.1472
▁верхом	-11.1473
▁договора	-11.1475
▁обращаться	-11.1479
▁идеально	-11.1479
▁Дух	-11.148
▁караван	-11.1485
▁выполнен	-11.1487
▁успехом	-11.1487
▁жениться	-11.1489
▁Йорк	-11.149
▁смело	-11.1491
▁обще	-11.1492
▁скажите	-11.1492
▁причинам	-11.1493
▁частично	-11.1494
▁лучшее	-11.1494
давая	-11.1494
вез	-11.1496
тянув	-11.1496
▁носит	-11.1498
▁погреб	-11.1498
иста	-11.1501
▁постоял	-11.1502
▁кухни	-11.1505
▁Давно	-11.1505
▁видят	-11.1505
▁доволен	-11.1506
▁сцене	-11.1507
крашен	-11.1514
▁мусульман	-11.1515
▁Сел	-11.1515
▁видны	-11.1517
▁приду	-11.1518
оваться	-11.1518
▁подготовки	-11.1521
▁красной	-11.1521
▁Баб	-11.1522
▁щеке	-11.1523
▁Фер	-11.1523
▁Около	-11.1526
▁конфликт	-11.1527
▁высоким	-11.1528
▁Одним	-11.1528
▁даром	-11.1528
▁враги	-11.153
▁правом	-11.1531
рош	-11.1531
▁физик	-11.1531
id	-11.1533
▁нелегко	-11.1534
ставлял	-11.1539
▁Гон	-11.154
▁образован	-11.154
▁бедра	-11.1541
▁партия	-11.1542
▁намерен	-11.1542
▁объяснение	-11.1542
▁соч	-11.1543
▁продать	-11.1544
▁преступ	-11.1545
▁небольшая	-11.1546
ленд	-11.1547
▁базы	-11.155
▁Миссис	-11.155
юще	-11.1553
▁ночам	-11.1554
▁называет	-11.1554
▁познакомиться	-11.1555
te	-11.1556
▁сапоги	-11.1556
▁тонн	-11.1561
▁политических	-11.1561
▁проб	-11.1561
▁Бат	-11.1562
▁танк	-11.1563
▁Шан	-11.1563
▁легким	-11.1565
▁фигуру	-11.1565
▁повторял	-11.1565
▁Джа	-11.1565
▁ученые	-11.1566
▁успокоил	-11.1566
▁наказание	-11.1566
im	-11.1567
▁похожий	-11.1569
▁Взгляд	-11.1569
▁Вос	-11.1569
▁рассчитывал	-11.1571
▁сцену	-11.1573
▁Вполне	-11.1575
пл	-11.1577
▁колхоз	-11.1579
▁утверждает	-11.1582
▁Собственно	-11.1582
▁громад	-11.1583
▁Последний	-11.1583
▁Минут	-11.1583
▁предполагал	-11.1584
мент	-11.1585
▁председатель	-11.1585
▁поза	-11.159
▁коль	-11.1591
▁мел	-11.1591
▁Великой	-11.1594
▁губу	-11.1594
▁девушкой	-11.1594
▁украшен	-11.1595
▁вдох	-11.1595
▁шутку	-11.1595
вых	-11.1596
▁смотря	-11.1599
▁коридора	-11.16
жить	-11.1602
лё	-11.1605
▁объяснения	-11.1605
под	-11.1606
▁красного	-11.1607
▁карте	-11.1607
▁куст	-11.1608
▁случалось	-11.1609
арь	-11.1609
▁Благодарю	-11.161
▁одет	-11.1615
▁немецких	-11.1616
▁поставила	-11.1616
▁хрипло	-11.1618
▁крыши	-11.1619
оде	-11.162
▁золотом	-11.162
▁пуга	-11.1621
пуст	-11.1622
▁массив	-11.1622
др	-11.1622
▁новость	-11.1624
лез	-11.1627
▁получалось	-11.1627
пас	-11.1629
▁прочитал	-11.1631
▁воля	-11.1632
стре	-11.1633
етт	-11.1635
дь	-11.1637
ице	-11.1637
▁дамы	-11.1638
▁занимались	-11.1639
▁Сал	-11.1639
▁звер	-11.164
▁поиск	-11.164
▁ярость	-11.1644
▁внутренний	-11.1644
гля	-11.1645
▁население	-11.1645
B	-11.1645
▁терпеливо	-11.1646
ворот	-11.1649
▁круто	-11.1649
АР	-11.1649
▁чая	-11.165
▁следующие	-11.165
▁политика	-11.1651
ьем	-11.1651
▁веществ	-11.1653
▁выпил	-11.1656
▁Королев	-11.1659
▁ГЛАВА	-11.1659
▁насквозь	-11.1659
▁офицеры	-11.166
бат	-11.1663
▁поддержки	-11.1664
▁основании	-11.1665
мот	-11.1666
▁Кит	-11.1667
▁увы	-11.1668
▁насмешливо	-11.167
▁неприятности	-11.1671
▁вскинул	-11.1673
▁вытянул	-11.1674
▁наука	-11.1676
▁Внутри	-11.1676
▁завода	-11.1677
▁крикнула	-11.1679
дис	-11.1681
▁темы	-11.1682
▁борьбу	-11.1682
▁спала	-11.1688
брав	-11.1689
▁землян	-11.1689
▁Ур	-11.1689
▁Послушай	-11.169
▁рявкнул	-11.169
▁достоинства	-11.169
▁захват	-11.1695
▁игр	-11.1696
▁лун	-11.17
▁участия	-11.1703
▁колес	-11.1704
берг	-11.1704
дит	-11.1705
▁создан	-11.1706
▁Ваши	-11.1706
▁покор	-11.1707
▁поэта	-11.1709
▁Боль	-11.171
▁доложил	-11.1711
▁половиной	-11.1711
▁найдет	-11.1712
▁чужие	-11.1713
▁желаю	-11.1713
пан	-11.1715
▁становился	-11.1716
▁страшного	-11.1716
▁посыл	-11.1716
▁занавес	-11.1717
▁Джи	-11.1718
▁Гри	-11.172
▁орден	-11.172
▁угла	-11.1722
▁ведьма	-11.1724
▁зимой	-11.1724
ющему	-11.1724
▁мелких	-11.1726
▁нетерпеливо	-11.1727
ающего	-11.1728
▁джентльмен	-11.1731
▁контракт	-11.1732
▁направля	-11.1733
▁рассказа	-11.1734
▁Вселенной	-11.1734
▁целых	-11.1735
▁Миш	-11.1735
▁забор	-11.1737
▁влияния	-11.1738
▁ак	-11.1739
▁кризис	-11.174
бек	-11.174
лот	-11.1742
кса	-11.1742
▁тыс	-11.1747
▁развел	-11.1748
▁талант	-11.1748
▁тест	-11.175
▁привычно	-11.175
▁полковника	-11.1751
▁экспедиции	-11.1752
ектор	-11.1753
▁пива	-11.1754
айн	-11.1755
▁St	-11.1757
▁операция	-11.1758
▁брит	-11.1761
▁увидишь	-11.1763
▁принца	-11.1765
▁вооружен	-11.1767
▁фе	-11.1767
os	-11.1767
▁Отсюда	-11.1767
▁представлен	-11.1768
▁ушей	-11.1768
▁дорог	-11.1769
▁запись	-11.1772
▁судьбе	-11.1775
▁Николая	-11.1775
гг	-11.1776
▁Твоя	-11.1776
▁отражение	-11.1776
▁перестала	-11.1777
▁Сказал	-11.1778
▁Можешь	-11.1778
▁Дж	-11.1779
▁утверждал	-11.178
▁авиа	-11.1781
▁пальца	-11.1781
▁обход	-11.1782
▁иностранных	-11.1785
▁дракона	-11.1785
ог	-11.1785
▁директора	-11.1788
истый	-11.1788
▁расход	-11.1789
▁белая	-11.179
▁шеи	-11.1792
▁состава	-11.1793
▁созна	-11.1795
▁массу	-11.1797
▁молодым	-11.1798
▁Джей	-11.1798
емого	-11.18
нцы	-11.18
▁бросились	-11.1801
▁призрак	-11.1801
ллер	-11.1801
▁останавлива	-11.1801
▁материала	-11.1802
▁обнаружить	-11.1803
▁Благодаря	-11.1804
▁Ца	-11.1805
▁помнить	-11.1805
▁глазом	-11.1805
▁правде	-11.1805
лета	-11.1806
ирован	-11.1807
▁Пат	-11.1809
▁вступил	-11.181
▁преступление	-11.181
▁флаг	-11.1812
оре	-11.1812
▁Иисуса	-11.1814
▁легкие	-11.1814
иком	-11.1814
▁Стоит	-11.1815
▁Марии	-11.182
ающая	-11.1821
▁вал	-11.1821
▁предлагал	-11.1821
▁спрашивать	-11.1825
▁Рик	-11.1826
▁начинать	-11.1828
▁отчасти	-11.1829
▁скромно	-11.183
▁Дже	-11.1831
нимал	-11.1831
фан	-11.1831
»;	-11.1832
▁Жуков	-11.1833
▁лодка	-11.1833
▁тормоз	-11.1834
пп	-11.1834
▁коллеги	-11.1834
▁Кре	-11.1835
▁баз	-11.1841
▁сели	-11.1842
▁1939	-11.1842
▁тайна	-11.1842
зен	-11.1844
▁обла	-11.1849
▁Рука	-11.1849
▁Обо	-11.185
▁помолчал	-11.1851
▁прибавил	-11.1852
ложи	-11.1852
▁поначалу	-11.1852
▁повторила	-11.1855
▁Кэтрин	-11.1857
▁осмотр	-11.1857
▁уз	-11.1858
▁Слово	-11.1858
▁Способ	-11.1859
▁дико	-11.1859
▁Андрея	-11.186
▁серьезным	-11.1861
▁младший	-11.1863
*	-11.1865
сло	-11.1869
▁многим	-11.1869
▁послушно	-11.187
▁Саймон	-11.187
▁хорош	-11.1871
▁лапы	-11.1872
▁Сол	-11.1872
▁изрядно	-11.1876
▁получит	-11.1876
▁близких	-11.1877
▁предлагает	-11.1878
▁промышленности	-11.188
▁подобрал	-11.1882
▁лаборатории	-11.1882
▁Таня	-11.1883
▁мужу	-11.1885
▁относятся	-11.1886
▁имеем	-11.1888
▁огромную	-11.1888
▁дыша	-11.1888
▁Ким	-11.189
▁пояса	-11.1891
▁сладко	-11.1892
носить	-11.1893
торг	-11.1896
▁инспектор	-11.1896
гнать	-11.1896
▁супруга	-11.1897
▁привело	-11.1898
▁черту	-11.1898
▁окружающих	-11.1899
▁чья	-11.1901
▁2000	-11.1902
▁судорожно	-11.1902
▁веки	-11.1904
▁Оказалось	-11.1904
▁артефакт	-11.1907
няк	-11.1907
▁реакция	-11.1908
▁оборвал	-11.1909
▁парней	-11.1911
▁страсть	-11.1911
▁Лондоне	-11.1912
▁Ангел	-11.1914
▁модели	-11.1915
▁звезда	-11.1915
▁ответственности	-11.1916
ыр	-11.1916
▁Крис	-11.1919
▁шрам	-11.1922
▁волну	-11.1922
▁сед	-11.1924
▁родов	-11.1927
▁обоз	-11.1931
▁темных	-11.1931
▁достичь	-11.1933
ителем	-11.1937
▁устройство	-11.1937
▁оглядел	-11.194
▁наличие	-11.1941
▁снега	-11.1944
▁тюрьме	-11.1944
▁толкнул	-11.1945
несли	-11.1948
▁полета	-11.1948
иц	-11.1949
▁Дей	-11.1954
!)	-11.1954
▁Вз	-11.1955
▁слуги	-11.1956
шир	-11.1957
▁изредка	-11.1958
▁войско	-11.1958
▁защищать	-11.1961
▁Кое	-11.1961
исто	-11.1961
▁сражения	-11.1962
▁природа	-11.1963
▁количества	-11.1964
▁тонкие	-11.1964
хим	-11.1965
▁умею	-11.1965
стон	-11.1967
▁возможностей	-11.1968
авшие	-11.1968
▁бак	-11.1969
▁удивления	-11.1971
▁городом	-11.1972
▁Шер	-11.1973
▁стон	-11.1975
▁Тихо	-11.1977
▁освещен	-11.1977
▁намерения	-11.1979
▁вправду	-11.1981
10	-11.1983
▁костей	-11.1984
кладывать	-11.1985
▁противо	-11.1986
мел	-11.1986
▁холода	-11.1987
нских	-11.1987
▁n	-11.1988
▁Благо	-11.1988
▁левую	-11.1989
▁долгие	-11.1991
▁любим	-11.1991
▁самыми	-11.1993
ета	-11.1994
▁содержа	-11.1994
▁волшебник	-11.1996
нешь	-11.1996
▁понимание	-11.1996
▁размышления	-11.1999
▁неторопливо	-11.1999
▁линия	-11.2002
луча	-11.2005
▁требовал	-11.2005
▁Старый	-11.2006
▁привет	-11.2006
▁кувшин	-11.2007
▁отличается	-11.2007
ушек	-11.2008
▁шоколад	-11.2008
▁ме	-11.2011
▁импульс	-11.2012
▁погибли	-11.2012
чного	-11.2013
▁механик	-11.2013
»!	-11.2014
▁бре	-11.2014
▁охотник	-11.2014
▁мышцы	-11.2015
▁След	-11.2016
▁англичан	-11.2018
▁холм	-11.2018
▁глядел	-11.202
▁своём	-11.2021
ику	-11.2023
▁Бал	-11.2024
мед	-11.2026
op	-11.2027
▁испугался	-11.2028
▁мент	-11.2028
ставил	-11.2028
▁Лай	-11.2029
лён	-11.203
▁Бри	-11.203
om	-11.2032
бре	-11.2032
▁герои	-11.2034
▁Ворон	-11.2034
▁пили	-11.2035
▁тяжелым	-11.2035
▁сигарету	-11.2037
▁ложь	-11.2038
▁Элизабет	-11.2039
▁ветром	-11.204
▁направо	-11.204
▁материалы	-11.2041
▁Стало	-11.2042
▁секс	-11.2044
▁ряды	-11.2045
▁змеи	-11.2046
▁знакомы	-11.2047
▁устроен	-11.2047
▁участников	-11.2047
▁Сав	-11.2049
шиеся	-11.2049
▁обрадовался	-11.205
▁1918	-11.205
▁экс	-11.2051
▁кра	-11.2051
▁Сай	-11.2051
битый	-11.2053
▁лучшего	-11.2058
▁усы	-11.2058
ia	-11.206
хин	-11.206
▁сеньор	-11.206
▁добрался	-11.2061
дева	-11.2062
бла	-11.2068
▁Речь	-11.2069
▁позволит	-11.2069
▁кричит	-11.2069
чать	-11.207
▁голосов	-11.207
▁Северус	-11.2071
▁Другой	-11.2071
▁полгода	-11.2073
▁Волк	-11.2073
ящего	-11.2073
▁тратить	-11.2074
▁песня	-11.2075
ею	-11.2077
▁городской	-11.2078
▁любишь	-11.2081
раста	-11.2081
▁Дела	-11.2083
▁послать	-11.2083
▁огромного	-11.2085
▁фонтан	-11.2085
писал	-11.2086
▁ошибся	-11.2086
▁становились	-11.2087
▁схватила	-11.2092
цел	-11.2093
ино	-11.2093
▁банка	-11.2098
▁рассчитывать	-11.2099
даст	-11.2099
▁самолетов	-11.2103
▁отступил	-11.2106
▁Девочка	-11.2107
▁любили	-11.2107
▁150	-11.2108
▁вплотную	-11.2108
▁Прав	-11.211
▁лежать	-11.211
▁платок	-11.2112
куп	-11.2113
▁поддержку	-11.2114
▁великим	-11.2114
ад	-11.2114
▁английский	-11.2118
▁неважно	-11.2119
▁некое	-11.2119
▁сообразил	-11.2119
▁татар	-11.2122
▁сеть	-11.2123
▁Рейн	-11.2123
▁вины	-11.2124
шками	-11.2125
▁грани	-11.2127
▁Цел	-11.2127
▁поймать	-11.2129
инского	-11.2129
тия	-11.2131
▁железной	-11.2134
▁встречались	-11.2135
▁вертолет	-11.2137
▁дерга	-11.2138
▁гигант	-11.2139
▁старались	-11.2139
▁любопытство	-11.2142
▁ожидала	-11.2142
мышлен	-11.2143
▁47	-11.2144
▁Особ	-11.2148
▁знание	-11.2148
ёшь	-11.2148
▁программ	-11.215
▁четверть	-11.215
▁замерз	-11.215
▁профессионально	-11.2154
▁знакомые	-11.2155
▁человеке	-11.2156
▁официант	-11.2157
▁асфальт	-11.2159
▁Мур	-11.2159
▁предупредить	-11.216
тым	-11.216
▁доверять	-11.2164
▁собрал	-11.2167
▁черным	-11.2167
▁высоте	-11.2169
▁двинулись	-11.2171
▁большее	-11.2172
▁Бак	-11.2173
▁меньшей	-11.2173
▁заставляет	-11.2173
▁размеров	-11.2173
пере	-11.2175
▁застыв	-11.2178
▁выпив	-11.218
▁советского	-11.218
▁налогов	-11.2185
▁бумагу	-11.2185
▁качество	-11.2186
▁Российской	-11.2188
ацией	-11.2191
▁мах	-11.2191
▁плавно	-11.2191
▁забрал	-11.2191
▁небу	-11.2192
▁нервы	-11.2192
▁обычного	-11.2193
анный	-11.2193
▁научиться	-11.2193
▁снят	-11.2197
рки	-11.2201
▁проекта	-11.2201
▁цепи	-11.2201
▁Ильич	-11.2201
▁молоко	-11.2201
рэ	-11.2202
▁отход	-11.2204
анные	-11.2205
▁напряжения	-11.2206
енька	-11.2206
▁готово	-11.2207
овом	-11.221
еш	-11.2212
▁долгое	-11.2213
▁Двое	-11.2215
▁святого	-11.2218
▁рабочие	-11.222
▁понимают	-11.2221
▁Чарли	-11.2223
▁Профессор	-11.2225
▁равнодушно	-11.2225
▁ушах	-11.2226
бивать	-11.2228
▁практике	-11.2229
▁цену	-11.2231
ссе	-11.2233
▁ставить	-11.2234
▁главных	-11.2235
овича	-11.2235
▁приехала	-11.2235
▁советник	-11.2235
▁стыд	-11.2237
▁красивый	-11.2237
▁закричала	-11.2239
▁объятия	-11.2242
▁подозревал	-11.2243
ическими	-11.2246
▁сестре	-11.2246
▁необходимые	-11.2248
▁Командир	-11.2249
▁собран	-11.2251
мели	-11.2251
РА	-11.2252
▁спасение	-11.2252
▁фамилия	-11.2253
▁Четыре	-11.2257
▁выстрелил	-11.2258
▁аристократ	-11.2262
очных	-11.2263
▁оценить	-11.2264
▁главы	-11.2265
▁показывал	-11.2268
▁буквы	-11.2268
▁немножко	-11.2271
▁Пен	-11.2272
елю	-11.2273
▁спеша	-11.2274
сил	-11.2274
▁шестьдесят	-11.2275
сков	-11.2275
▁годами	-11.2276
▁большинстве	-11.228
▁прелест	-11.2282
яться	-11.2285
▁проникнуть	-11.2286
▁1944	-11.2286
▁нужды	-11.2287
пускает	-11.2293
▁страхом	-11.2295
▁представители	-11.2295
▁нынче	-11.2295
ола	-11.2297
▁лимон	-11.2297
очной	-11.2298
ступив	-11.2301
▁сказав	-11.2304
▁лодку	-11.2304
▁араб	-11.2305
▁попробовал	-11.2305
жат	-11.2308
веду	-11.2309
ывали	-11.2309
▁уходил	-11.231
▁Св	-11.2311
▁нарушил	-11.2312
▁ходят	-11.2312
▁говорилось	-11.2315
▁спасения	-11.2316
▁корон	-11.2316
▁настоящие	-11.2318
▁подмигнул	-11.2318
▁опустилась	-11.232
▁ужина	-11.2321
▁многочисленные	-11.2321
▁следующим	-11.2322
лении	-11.2322
▁выделя	-11.2323
▁продукты	-11.2324
▁раскрыл	-11.2329
▁жу	-11.233
▁ученый	-11.233
полз	-11.2331
▁Впереди	-11.2331
▁событие	-11.2332
ющем	-11.2334
▁протокол	-11.2335
▁небольшие	-11.2335
..."	-11.2335
нен	-11.2337
▁столицы	-11.2337
▁амулет	-11.2339
пра	-11.2339
▁Муж	-11.234
▁стих	-11.234
▁уставилась	-11.2342
верн	-11.2344
▁Дю	-11.2345
▁Будем	-11.2345
бежав	-11.235
▁разрыв	-11.2351
▁крыла	-11.2353
▁Ган	-11.2353
▁манер	-11.2354
▁треск	-11.2357
▁46	-11.2358
▁отдавал	-11.2359
▁пиво	-11.2359
▁рассказывала	-11.2359
вик	-11.2364
▁внешней	-11.2365
▁коснулся	-11.2365
ительный	-11.2365
▁пищу	-11.2366
▁надежде	-11.2366
▁требования	-11.2366
▁вспоминать	-11.2367
▁фронте	-11.2369
▁швырнул	-11.237
▁успокоить	-11.237
▁убрал	-11.2371
▁Вест	-11.2372
пр	-11.2373
▁боясь	-11.2373
▁жених	-11.2374
▁происхождения	-11.2374
▁лопат	-11.2377
▁несу	-11.2379
▁прыгнул	-11.238
▁Ас	-11.2381
грыз	-11.2381
▁мечтал	-11.2383
▁данным	-11.2383
▁соли	-11.2384
▁огляделся	-11.2385
бок	-11.2385
▁возможным	-11.2386
кач	-11.2388
▁состоял	-11.2389
▁офис	-11.2392
▁Гал	-11.2392
▁дон	-11.2396
▁явление	-11.2398
▁полиция	-11.2401
▁опустила	-11.2402
▁отделения	-11.2405
▁вздрогнула	-11.2406
вернув	-11.2407
льник	-11.2407
шейся	-11.2408
▁профессиональны	-11.2408
▁усталость	-11.2411
▁личного	-11.2412
▁тихий	-11.2413
▁располага	-11.2416
▁особых	-11.2416
▁ненависти	-11.2416
▁держала	-11.2418
▁пожелал	-11.2418
▁доставить	-11.2419
гов	-11.242
▁заставило	-11.2422
▁добровольно	-11.2423
вшем	-11.2424
▁продуктов	-11.2425
▁Света	-11.2425
▁плеча	-11.2425
▁представляют	-11.2427
▁страниц	-11.243
▁участвовал	-11.243
▁захватить	-11.2432
▁Надежда	-11.2434
▁длинной	-11.2434
▁меча	-11.2435
▁00	-11.2436
▁сражаться	-11.2437
▁обстановке	-11.2438
▁удается	-11.2441
▁плеч	-11.2441
теле	-11.2442
▁целое	-11.2444
оза	-11.2444
вшимися	-11.2444
▁обнаружила	-11.2447
▁записку	-11.2448
▁вылез	-11.2448
▁свойства	-11.2449
▁49	-11.2449
▁замерла	-11.2452
нского	-11.2452
пыта	-11.2453
▁воображение	-11.2454
▁Азии	-11.2455
▁Кира	-11.2458
▁пейзаж	-11.2458
▁Лан	-11.2459
▁агент	-11.2459
▁Пять	-11.246
▁Ново	-11.246
▁Прос	-11.2462
врат	-11.2462
▁крут	-11.2462
▁бегу	-11.2463
▁мечты	-11.2463
▁Джона	-11.2463
ологии	-11.2464
▁приподнял	-11.2466
▁приготовлен	-11.2469
берт	-11.2475
▁спирт	-11.2476
▁побег	-11.2476
▁местного	-11.2478
▁люд	-11.2479
▁налево	-11.248
▁суб	-11.2481
▁столовой	-11.2482
пс	-11.2483
▁чел	-11.2483
▁гл	-11.2483
▁третьей	-11.2483
▁Ред	-11.2484
▁властью	-11.2489
▁мета	-11.2495
▁Сэр	-11.2495
▁Ол	-11.2496
▁Демон	-11.2497
▁сундук	-11.2497
атель	-11.2497
▁раздраженно	-11.2498
▁тупо	-11.2498
▁помните	-11.2498
▁лениво	-11.2499
▁издалека	-11.25
▁весной	-11.2502
▁готовить	-11.2503
ходим	-11.2504
▁нужда	-11.2504
тяг	-11.2504
▁направления	-11.2505
▁пропал	-11.2506
▁возвращается	-11.2513
▁доказательства	-11.2514
эм	-11.2516
▁подруги	-11.2517
▁эс	-11.2518
▁завел	-11.2519
чко	-11.2519
ального	-11.252
▁осад	-11.252
жав	-11.252
▁задумал	-11.2521
▁сорвал	-11.2523
▁условий	-11.2523
▁принцесса	-11.2527
ившиеся	-11.2527
▁магов	-11.2535
▁ката	-11.2539
▁эксперимент	-11.2542
▁религии	-11.2542
▁залив	-11.2544
▁Расс	-11.2544
▁контр	-11.2545
▁представляла	-11.2547
▁сцены	-11.2548
раб	-11.255
▁ударов	-11.255
▁аж	-11.2551
енье	-11.2552
▁мал	-11.2552
▁Эдвард	-11.2554
▁уха	-11.2554
щика	-11.2556
▁кип	-11.2556
▁Нина	-11.2557
▁300	-11.2557
чь	-11.2559
▁потребуется	-11.2559
▁человечество	-11.2559
▁умрет	-11.256
▁посе	-11.2561
▁проходили	-11.2561
▁Настя	-11.2562
▁брату	-11.2569
кру	-11.2569
истые	-11.257
▁рыбу	-11.257
▁кулаки	-11.257
▁Тир	-11.257
▁Христос	-11.2572
ован	-11.2572
ему	-11.2572
▁известны	-11.2573
▁скрылся	-11.2576
▁ехали	-11.2576
рубил	-11.2581
▁квартир	-11.2581
▁g	-11.2584
▁сп	-11.2584
▁превосход	-11.2589
▁проведен	-11.2589
▁метро	-11.259
▁закрыв	-11.259
▁целях	-11.259
▁Иоанн	-11.2592
▁общаться	-11.2593
бол	-11.2594
▁зашагал	-11.2596
▁переглянулись	-11.2598
▁головами	-11.2598
▁поднима	-11.2599
▁попытку	-11.2599
▁третьем	-11.2601
ави	-11.2602
▁рассматривал	-11.2606
вист	-11.2606
силь	-11.2607
▁поправил	-11.2608
▁функции	-11.2609
▁литературе	-11.2612
▁Ск	-11.2615
▁поддержал	-11.2615
▁тюрьму	-11.2615
▁привыкли	-11.2617
▁непро	-11.2618
бли	-11.2619
▁почт	-11.2621
пло	-11.2622
деля	-11.2622
▁мгновений	-11.2622
▁идем	-11.2623
стру	-11.2623
▁кусты	-11.2624
▁двум	-11.2624
енькая	-11.2625
▁3)	-11.2626
▁Стан	-11.2627
▁поцелуй	-11.2628
▁надежду	-11.263
▁камеры	-11.263
дается	-11.2632
▁равновесие	-11.2632
жур	-11.2632
▁оставляя	-11.2633
▁интересов	-11.2633
▁мужской	-11.2633
▁Также	-11.2634
буд	-11.2634
▁сделан	-11.2636
лила	-11.2639
▁реально	-11.2642
▁сознательно	-11.2643
▁тревожно	-11.2644
▁белье	-11.2644
елей	-11.2644
яли	-11.2646
▁фыркнул	-11.2649
▁моментально	-11.265
▁важные	-11.2651
▁спутник	-11.2651
▁чужих	-11.2651
▁тюрьмы	-11.2653
▁супер	-11.2654
вей	-11.2656
▁замечал	-11.2658
ительная	-11.2659
▁юго	-11.2659
▁Полагаю	-11.2661
▁некромант	-11.2664
▁принят	-11.2664
▁Помню	-11.2665
▁ехал	-11.2665
▁браслет	-11.2666
▁Мам	-11.2667
совет	-11.2668
резать	-11.267
▁уста	-11.267
▁воспоминаний	-11.2671
▁ля	-11.2671
▁хозяйства	-11.2673
дира	-11.2673
▁тонко	-11.2674
▁выгод	-11.2676
▁металла	-11.2676
▁имеешь	-11.2676
▁крыс	-11.2677
▁глоток	-11.2678
▁плече	-11.2678
▁щедро	-11.268
▁болта	-11.2681
▁площадке	-11.2683
▁трава	-11.2683
▁рамках	-11.2684
еру	-11.2684
▁Ярослав	-11.2687
▁поговорим	-11.2687
▁Тони	-11.269
▁руководством	-11.2691
▁крышу	-11.2691
▁тяжелой	-11.2691
▁Григорий	-11.2693
▁штука	-11.2695
▁темноту	-11.2697
▁огород	-11.2698
фир	-11.2698
▁вопросительно	-11.27
НИ	-11.2701
уна	-11.2701
▁дворце	-11.2703
они	-11.2705
▁существовать	-11.2706
▁найдется	-11.2707
▁падает	-11.2707
аков	-11.2709
жка	-11.2711
▁Наверняка	-11.2712
▁фамилии	-11.2712
▁показаться	-11.2713
▁вагон	-11.2715
уп	-11.2716
▁Куб	-11.2718
▁ветру	-11.2719
▁ванной	-11.2722
▁больнице	-11.2722
▁продолжить	-11.2723
▁коров	-11.2723
▁стенами	-11.2725
▁Ника	-11.2725
▁сопровождении	-11.2725
▁француз	-11.2726
▁выступил	-11.2726
▁пробежал	-11.2727
▁являлся	-11.2727
▁использования	-11.2728
▁Дин	-11.2728
йду	-11.2729
▁наступления	-11.2732
▁любезно	-11.2734
▁стояло	-11.2736
▁цикл	-11.2736
▁верит	-11.2737
дил	-11.2737
▁Тэ	-11.2739
▁костюме	-11.2741
▁закончить	-11.2741
▁сердцу	-11.2741
▁командование	-11.2741
▁лейтенанта	-11.2742
▁Зе	-11.2743
▁держали	-11.2743
уш	-11.2744
▁белыми	-11.2746
▁периода	-11.2748
▁полки	-11.2749
▁крыше	-11.2749
▁правилам	-11.2753
ялся	-11.2754
▁потихоньку	-11.2755
▁улыбается	-11.2756
▁Сид	-11.2758
▁эр	-11.2759
▁коем	-11.2759
йдя	-11.2759
▁верхней	-11.276
ори	-11.276
▁выпустил	-11.276
▁чье	-11.276
▁вып	-11.2762
еле	-11.2762
▁серьезные	-11.2762
▁зов	-11.2767
▁Рок	-11.277
▁производил	-11.2771
▁бровь	-11.2771
▁Володя	-11.2772
▁Кле	-11.2774
▁собрание	-11.2775
ложен	-11.2776
▁открыт	-11.2777
▁сильное	-11.2778
▁осознал	-11.2778
▁сборник	-11.2779
▁180	-11.278
▁лорда	-11.278
▁бежали	-11.278
▁проходил	-11.2781
▁ордена	-11.2784
▁Удар	-11.2787
▁сыт	-11.2787
▁находилось	-11.2788
▁Новгород	-11.2792
ительным	-11.2793
боя	-11.2794
▁500	-11.2794
▁ногам	-11.2797
V	-11.2797
▁добрались	-11.2798
▁приблизился	-11.2799
ительные	-11.2802
шкой	-11.2802
▁открытия	-11.2804
▁засмеялась	-11.2805
охран	-11.2805
еро	-11.2806
▁почувствовать	-11.2807
▁встали	-11.2808
st	-11.2808
▁Кри	-11.2809
▁камеру	-11.2809
клон	-11.2809
▁кожей	-11.281
нц	-11.2811
▁пуст	-11.2812
▁экзамен	-11.2813
▁Крым	-11.2814
▁Ад	-11.2814
▁интервью	-11.2815
граф	-11.2815
▁миллион	-11.2816
▁хмуро	-11.2816
▁молодости	-11.282
аясь	-11.2821
▁шип	-11.2821
▁Машина	-11.2823
глу	-11.2824
N	-11.2825
▁сложил	-11.2826
сид	-11.2827
▁клетки	-11.2827
ивает	-11.2827
ёс	-11.2828
▁велосипед	-11.2829
▁уйдет	-11.283
▁вследствие	-11.2831
тащи	-11.2831
▁фокус	-11.2831
дам	-11.2832
леж	-11.2832
джа	-11.2832
ter	-11.2833
▁описание	-11.2834
▁причину	-11.2836
лова	-11.2836
▁трубы	-11.2837
нит	-11.2837
▁дружески	-11.2839
▁телефона	-11.2839
▁шофер	-11.2839
▁согласиться	-11.284
▁столетия	-11.2842
▁мозги	-11.2843
истой	-11.2845
чар	-11.2846
▁судов	-11.2849
опас	-11.2853
▁вытер	-11.2853
▁терял	-11.2853
▁больной	-11.2855
▁устроил	-11.2856
▁улыбке	-11.2856
▁Кай	-11.2857
▁Автор	-11.2858
▁Фин	-11.2858
▁злобно	-11.286
▁правды	-11.2863
▁55	-11.2863
▁серые	-11.2864
▁собирать	-11.2864
▁известных	-11.2864
▁футбол	-11.2865
бира	-11.2865
▁мертвых	-11.2865
▁Тело	-11.2865
▁презрительно	-11.2865
▁учитывая	-11.2866
▁поехать	-11.2867
тельных	-11.2867
▁штурм	-11.2867
▁начались	-11.2868
▁Принц	-11.2868
▁всякое	-11.2869
мести	-11.287
▁герцога	-11.287
вела	-11.2871
▁Гай	-11.2871
▁пациент	-11.2872
▁круж	-11.2873
▁родственников	-11.2873
▁горле	-11.288
▁бутылки	-11.288
▁шепот	-11.2881
▁непод	-11.2884
▁живого	-11.2884
▁достала	-11.2886
▁восторг	-11.2886
▁превратилась	-11.2889
ступая	-11.2889
▁отбросил	-11.2889
▁Чай	-11.2893
▁закрыты	-11.2894
▁НА	-11.2894
▁баба	-11.2895
льные	-11.2896
▁квартира	-11.2896
▁огромных	-11.2898
▁подарил	-11.2898
▁Ребята	-11.29
▁бессмысленно	-11.2901
кала	-11.2901
▁смеха	-11.2903
плот	-11.2903
рут	-11.2903
▁перенос	-11.2904
▁пещеры	-11.2904
▁троих	-11.2906
▁сошел	-11.2906
лас	-11.2907
век	-11.2909
▁пределах	-11.2909
енья	-11.2909
▁боевые	-11.291
меня	-11.291
▁фин	-11.2911
▁инструмент	-11.2913
▁социально	-11.2914
добр	-11.2915
▁палубе	-11.2915
▁смехом	-11.2915
▁Симон	-11.2916
пустив	-11.2917
пред	-11.2918
▁показали	-11.2919
▁границе	-11.2919
ринг	-11.292
▁получше	-11.2922
▁указ	-11.2923
▁Князь	-11.2924
▁газету	-11.2925
бегает	-11.2925
етта	-11.2925
▁вопреки	-11.2925
▁занятий	-11.2928
дали	-11.293
▁толк	-11.2931
▁пир	-11.2931
▁возьмет	-11.2933
нял	-11.2935
▁оригинал	-11.2935
▁автомобиля	-11.2937
▁маленьким	-11.2937
▁формально	-11.2938
ation	-11.2938
▁свидания	-11.2938
▁спокойствие	-11.2938
▁нужным	-11.2942
▁двигатель	-11.2942
▁высокая	-11.2942
▁магия	-11.2943
▁глубин	-11.2947
▁пассажир	-11.2947
пат	-11.2948
▁придётся	-11.2948
▁пират	-11.295
▁многочисленных	-11.295
▁Китай	-11.295
▁приют	-11.2951
▁связыва	-11.2952
▁дожидаясь	-11.2953
▁шаман	-11.2953
▁застал	-11.2955
▁среднего	-11.2955
▁смол	-11.2955
▁щеку	-11.2957
▁черную	-11.2958
▁вера	-11.2958
▁команде	-11.2959
▁надеждой	-11.296
▁отправля	-11.296
▁поехали	-11.2961
▁тетя	-11.2962
▁Иерусалим	-11.2963
▁престол	-11.2964
▁максимально	-11.2964
▁клин	-11.2965
▁горя	-11.2966
▁отозвалась	-11.2968
пустил	-11.2969
вери	-11.2969
ЕТ	-11.2969
▁выразил	-11.297
▁пределами	-11.2971
.).]	-11.2971
▁органы	-11.2971
▁Конан	-11.2972
▁хитро	-11.2973
▁кро	-11.2973
▁кусочек	-11.2974
▁вещества	-11.2974
▁казни	-11.2974
▁сущность	-11.2974
▁напоминал	-11.2975
ывает	-11.2978
пала	-11.2979
▁дворян	-11.2979
▁держав	-11.2982
▁проводник	-11.2984
»),	-11.2985
▁Видно	-11.2986
▁выглядели	-11.2986
стран	-11.299
▁вставил	-11.299
▁кричать	-11.299
ером	-11.2991
▁культур	-11.2992
▁сапог	-11.2993
▁пребывания	-11.2993
▁Великого	-11.2993
▁сидят	-11.2994
▁твари	-11.2996
▁партий	-11.2996
▁записал	-11.2996
▁восста	-11.2998
▁философии	-11.2998
▁быт	-11.3
▁Бре	-11.3
▁отнес	-11.3002
▁продолжила	-11.3007
▁вырваться	-11.3007
рим	-11.3008
▁старуха	-11.3009
▁обучения	-11.3009
▁Японии	-11.3009
чо	-11.3009
▁Эту	-11.3012
кину	-11.3013
▁семей	-11.3013
▁временно	-11.3014
▁уверенности	-11.3014
▁изучал	-11.3015
▁писем	-11.3016
▁луна	-11.3016
ОЛ	-11.3017
▁простым	-11.3017
▁отвечала	-11.3017
▁особенного	-11.3019
▁горел	-11.3019
▁епископ	-11.302
▁эпи	-11.3022
▁морщин	-11.3026
▁глубокой	-11.3026
▁магазина	-11.3027
▁живое	-11.3027
▁экипажа	-11.3027
нде	-11.3028
▁ткань	-11.303
▁ожида	-11.3031
плет	-11.3031
▁мундир	-11.3032
▁рисковать	-11.3032
▁аналог	-11.3033
▁американских	-11.3034
▁кошка	-11.3034
▁колеса	-11.3035
▁давление	-11.3035
ировала	-11.3036
▁слову	-11.3038
▁комиссии	-11.3039
▁русским	-11.3039
▁Дет	-11.3039
▁учеников	-11.3039
анг	-11.304
▁Тол	-11.304
▁утоп	-11.304
▁упрямо	-11.3041
▁охранник	-11.3041
▁подать	-11.3042
▁Первые	-11.3042
▁темный	-11.3044
аты	-11.3045
чай	-11.3045
▁менять	-11.3045
▁Пет	-11.3047
▁Спас	-11.3049
▁слышит	-11.3049
▁заяв	-11.305
кого	-11.305
▁дернул	-11.305
▁Саб	-11.3051
▁связанные	-11.3052
▁гору	-11.3052
▁расста	-11.3056
анд	-11.3056
▁обязаны	-11.3057
▁скользнул	-11.3059
▁паузу	-11.306
▁занятие	-11.3061
▁коней	-11.3061
▁всюду	-11.3061
жки	-11.3061
▁золотых	-11.3061
▁страшный	-11.3062
▁оказа	-11.3062
▁пирог	-11.3063
▁количестве	-11.3063
▁Ир	-11.3064
▁сдержать	-11.3065
▁открытым	-11.3065
горел	-11.3065
▁роб	-11.3066
▁услуг	-11.3067
▁разглядел	-11.3067
▁магнит	-11.3067
▁размером	-11.3067
▁желанием	-11.3068
▁внутреннего	-11.3068
дой	-11.3068
▁подозрения	-11.3069
▁победа	-11.3069
▁местом	-11.3069
▁развива	-11.3069
тера	-11.3069
▁беспомощно	-11.307
▁спокойным	-11.3074
▁Землю	-11.3076
▁вырос	-11.3076
▁пролив	-11.3077
▁соблазн	-11.3078
▁высказал	-11.3078
▁чудом	-11.3078
▁необычайно	-11.3079
▁давала	-11.308
▁инстинкт	-11.3084
▁необходимым	-11.3084
▁прерыва	-11.3085
▁Достаточно	-11.3087
▁Крест	-11.3088
ткой	-11.3088
▁Лор	-11.3092
▁актер	-11.3093
▁заставили	-11.3096
▁фу	-11.3096
▁тигр	-11.31
▁убрать	-11.31
лыш	-11.3101
▁круга	-11.3102
▁страницы	-11.3103
▁легких	-11.3103
▁Вторая	-11.3104
▁Дракон	-11.3104
енд	-11.3107
▁оценил	-11.3107
▁казн	-11.3109
▁ответы	-11.3112
▁заключение	-11.3112
▁плит	-11.3115
ro	-11.3115
жела	-11.3117
▁сторона	-11.3118
▁пораз	-11.3119
▁разговаривал	-11.3119
▁Вода	-11.3119
▁объекта	-11.3122
ечка	-11.3125
▁Тон	-11.3126
человеч	-11.3126
рк	-11.3127
дея	-11.3127
▁скомандовал	-11.3128
▁Честно	-11.313
▁арестован	-11.313
▁кольца	-11.3131
овод	-11.3134
▁соседей	-11.3135
▁собеседника	-11.3135
▁глупость	-11.3136
▁Леди	-11.3137
▁52	-11.3137
ливать	-11.3137
йдёт	-11.3138
▁болью	-11.3138
▁Её	-11.314
▁района	-11.3142
▁беспокойство	-11.3146
▁конечном	-11.3147
▁педагог	-11.3147
вести	-11.315
▁лучшим	-11.3151
▁владения	-11.3151
ёв	-11.3152
▁золотые	-11.3153
▁бросив	-11.3154
▁спальне	-11.3155
▁следующую	-11.3155
▁позволила	-11.3156
▁мирно	-11.3156
▁отвел	-11.3157
Э	-11.3158
▁запута	-11.3158
▁славу	-11.316
ушку	-11.316
▁оборон	-11.3161
▁Гро	-11.3162
▁Кин	-11.3162
▁реформ	-11.3163
▁цена	-11.3164
▁застыл	-11.3165
▁положив	-11.3165
▁дружно	-11.3166
дела	-11.3166
▁удивля	-11.3167
▁бесшумно	-11.3168
ведя	-11.3169
▁броса	-11.3171
▁рожда	-11.3173
▁собственными	-11.3173
▁отделение	-11.3174
▁рабов	-11.3174
▁листок	-11.3175
▁разрешение	-11.3175
ира	-11.3175
чкой	-11.3176
▁разглядывая	-11.3176
▁началом	-11.3177
▁роде	-11.3178
▁Павлов	-11.3182
▁песню	-11.3182
▁холодным	-11.3183
▁Будто	-11.3186
▁задать	-11.3186
▁приходят	-11.3189
▁старым	-11.3189
▁конкретно	-11.3189
▁племен	-11.3191
уме	-11.3193
▁мяч	-11.3194
лежа	-11.3195
пуск	-11.3195
▁ртом	-11.3196
▁произнёс	-11.3197
▁имущество	-11.3197
▁выходил	-11.3197
▁баран	-11.3198
чие	-11.3198
▁Оказывается	-11.32
▁великих	-11.3201
▁программу	-11.3204
▁командиров	-11.3207
ённо	-11.3207
▁кратко	-11.3207
чил	-11.3209
▁целые	-11.321
▁встречал	-11.3213
лав	-11.3215
▁пел	-11.3215
▁7.	-11.3216
▁миров	-11.3217
▁Йо	-11.3218
истых	-11.322
▁опор	-11.3224
▁открытой	-11.3225
▁Смит	-11.3227
▁горизонт	-11.3227
▁столице	-11.3229
▁51	-11.3229
▁цветами	-11.3229
▁маслом	-11.323
▁вынес	-11.3231
КО	-11.3232
▁брюки	-11.3233
▁сумеет	-11.3237
▁Дэ	-11.3237
▁получения	-11.3237
▁плакать	-11.3237
уль	-11.3238
▁занимал	-11.3238
▁1940	-11.324
кров	-11.3241
▁мораль	-11.3241
▁причал	-11.3242
▁имеются	-11.3242
крыл	-11.3242
▁сирот	-11.3242
лян	-11.3244
▁рабочего	-11.3245
▁первыми	-11.325
▁пули	-11.3252
▁красивые	-11.3252
крас	-11.3256
▁угрозы	-11.3256
▁неожиданности	-11.3257
▁моменты	-11.3259
▁выжить	-11.3259
монд	-11.3259
▁улыбки	-11.326
▁тракт	-11.3262
▁героев	-11.3265
оро	-11.3266
▁затылок	-11.3266
▁зайти	-11.3268
▁виды	-11.3268
▁обер	-11.3272
тельную	-11.3273
▁Свят	-11.3274
▁начнут	-11.3275
▁привлечь	-11.3276
▁Понимаешь	-11.3277
▁встречаться	-11.3278
▁привела	-11.3284
▁СС	-11.3284
нах	-11.3286
▁помнит	-11.3286
▁важнее	-11.3287
▁трудов	-11.3287
▁государь	-11.3292
▁обид	-11.3292
▁Лук	-11.3292
▁маму	-11.3292
▁учил	-11.3293
рил	-11.3294
▁горячо	-11.3294
▁обстоятельство	-11.3295
▁потянул	-11.3295
▁аргумент	-11.3297
▁смертельно	-11.3298
▁признан	-11.3299
рова	-11.3299
▁воевать	-11.3301
▁стиль	-11.3301
▁завет	-11.3304
зва	-11.3305
имо	-11.3305
▁Позже	-11.3308
▁хлопнул	-11.3308
▁рабочий	-11.331
▁подняли	-11.331
▁Зи	-11.3313
▁законов	-11.3313
▁карта	-11.3314
▁небольшое	-11.3314
гро	-11.3315
▁трудности	-11.3316
▁Ленинград	-11.3317
▁нанести	-11.332
▁блондин	-11.332
▁галстук	-11.3322
▁фразы	-11.3324
ИТ	-11.3325
▁стрелы	-11.3325
льную	-11.3325
▁статья	-11.3326
▁Полковник	-11.3327
▁смел	-11.3327
▁развод	-11.3328
▁обезьян	-11.3328
▁лета	-11.3328
▁предков	-11.3329
рах	-11.3329
▁вынуждены	-11.333
тил	-11.3334
▁найду	-11.3336
чих	-11.3337
тика	-11.3338
▁разбудил	-11.3338
▁погружа	-11.3339
нтар	-11.3339
▁улицах	-11.334
двину	-11.334
еет	-11.3341
▁обратилась	-11.3341
▁побери	-11.3341
ec	-11.3341
▁приехать	-11.3343
▁Одни	-11.3343
▁случаи	-11.3345
серд	-11.3346
щихся	-11.3349
▁ценности	-11.335
▁музыки	-11.3351
▁выглядело	-11.3353
▁монарх	-11.3353
▁царство	-11.3354
▁признание	-11.3356
нулись	-11.3357
▁приложил	-11.3358
▁чудес	-11.3358
▁направились	-11.3359
▁бесед	-11.3359
▁подобной	-11.3359
▁куб	-11.336
▁сталь	-11.336
▁могуществен	-11.3362
▁нога	-11.3363
▁висел	-11.3364
▁леп	-11.3364
▁запрос	-11.3364
▁грозит	-11.3365
▁игре	-11.3366
▁поднимая	-11.3369
▁бледно	-11.3369
ЛА	-11.3369
▁фиг	-11.3369
▁изменился	-11.3372
▁гиб	-11.3373
▁муки	-11.3375
НО	-11.3376
▁капель	-11.3378
способ	-11.3379
▁Мей	-11.3379
ивают	-11.3379
▁новыми	-11.338
▁метрах	-11.338
▁двенадцати	-11.3381
▁плечах	-11.3381
▁змея	-11.3383
▁пятно	-11.3384
▁слив	-11.3386
▁понимания	-11.3387
▁предположил	-11.3388
▁разрыва	-11.3388
▁крепче	-11.339
ича	-11.339
▁нелепо	-11.3391
▁преодолеть	-11.3391
ировав	-11.3391
▁широкий	-11.3392
▁хлопот	-11.3395
▁облако	-11.3397
▁разными	-11.3398
▁приказа	-11.3399
▁отверг	-11.3403
▁тверд	-11.3403
▁Жена	-11.3403
▁совесть	-11.3404
▁ружье	-11.3404
ийский	-11.3405
Ц	-11.3409
▁обычных	-11.341
▁крем	-11.3411
▁терпение	-11.3413
▁рынка	-11.3415
▁французский	-11.3415
▁показывать	-11.3418
▁возвраща	-11.3419
▁открыли	-11.342
▁маги	-11.342
▁настроен	-11.342
▁заглянуть	-11.3421
▁распоряжение	-11.3425
▁Эми	-11.3427
снеж	-11.3428
▁настроения	-11.3429
▁салат	-11.343
Ж	-11.3433
▁образу	-11.3433
ально	-11.3434
нику	-11.3435
▁Единственное	-11.3436
крат	-11.3436
▁мн	-11.3436
▁остаются	-11.3437
▁ставит	-11.3437
▁распространя	-11.3437
▁миллиона	-11.3437
▁жалоб	-11.3437
вшемуся	-11.3438
▁безумно	-11.3438
▁Аня	-11.3438
▁возвращался	-11.3439
▁возьму	-11.3439
▁дву	-11.3441
стат	-11.3441
ТО	-11.3441
▁Драко	-11.3444
сек	-11.3444
▁мамы	-11.3447
▁перестали	-11.3449
▁древней	-11.345
▁государств	-11.345
▁ставил	-11.3452
нат	-11.3452
▁скор	-11.3452
▁собираешься	-11.3453
▁монах	-11.3454
▁силуэт	-11.3454
▁пресс	-11.3455
▁приходили	-11.3456
▁случаю	-11.3456
▁читает	-11.3457
▁едет	-11.3458
▁пл	-11.3458
▁перенес	-11.3459
▁льда	-11.346
▁описан	-11.3461
▁согласие	-11.3461
▁безнадежно	-11.3461
▁блюд	-11.3462
2)	-11.3462
▁стесня	-11.3462
▁Коб	-11.3463
▁структур	-11.3463
▁Ирина	-11.3463
▁полоса	-11.3465
▁сада	-11.3466
▁дверцу	-11.3466
хол	-11.3466
▁барьер	-11.3467
водил	-11.3468
▁губернатор	-11.3468
▁повторить	-11.347
нтер	-11.3471
▁чертов	-11.3472
▁Последние	-11.3472
▁выпуск	-11.3475
▁определил	-11.3475
▁выступ	-11.3476
▁поглядел	-11.3477
▁наследник	-11.3478
▁Алан	-11.3479
ология	-11.3479
▁ложки	-11.3479
▁приход	-11.348
▁исследований	-11.348
▁собрания	-11.348
▁неудобно	-11.3481
▁пахло	-11.3482
▁тревоги	-11.3482
гли	-11.3485
▁Товарищ	-11.3486
▁указывал	-11.3487
▁Кат	-11.3487
▁одиночку	-11.3488
чё	-11.3489
елла	-11.3496
▁молитвы	-11.3497
▁Начал	-11.3499
▁группой	-11.35
▁помогли	-11.35
▁курса	-11.35
▁выражен	-11.3505
▁Бэ	-11.3506
▁заверил	-11.3506
▁рецепт	-11.3507
▁Лед	-11.3507
▁первоначально	-11.3507
▁Надя	-11.3508
▁цел	-11.3509
▁легла	-11.351
▁висели	-11.351
▁био	-11.351
▁персон	-11.3512
▁вспомнив	-11.3513
▁обещание	-11.3513
▁75	-11.3516
▁важных	-11.3517
живать	-11.3518
летней	-11.3519
▁сбежал	-11.352
▁пробовал	-11.3525
▁един	-11.3525
▁итог	-11.3525
береж	-11.3525
▁каприз	-11.3525
▁эпоху	-11.3526
▁Хал	-11.3526
▁бабушки	-11.3527
▁голубые	-11.3528
▁хмур	-11.3528
▁института	-11.3528
▁посредством	-11.353
▁мак	-11.3531
пали	-11.3532
▁мотоцикл	-11.3533
▁заклинания	-11.3535
ываю	-11.3535
▁зараз	-11.3535
▁Бек	-11.3536
▁режиссер	-11.3537
▁воров	-11.3537
▁узор	-11.3537
▁триста	-11.3537
▁блеск	-11.3539
▁Ус	-11.3541
дорож	-11.3544
▁армий	-11.3544
▁стороной	-11.3546
док	-11.3547
цеп	-11.3547
▁обеспечен	-11.3548
▁любимой	-11.3551
▁произойти	-11.3553
▁Вес	-11.3554
▁New	-11.3554
▁признак	-11.3556
▁коли	-11.3558
▁ветви	-11.3558
▁молока	-11.3559
▁усилива	-11.356
▁Голуб	-11.356
руга	-11.356
▁ше	-11.356
▁оставлять	-11.3561
существ	-11.3562
▁Пара	-11.3565
▁Против	-11.3565
▁взглянув	-11.3566
енько	-11.3568
нца	-11.3568
▁Вернее	-11.3569
▁собралась	-11.3569
▁больницу	-11.3569
▁случается	-11.357
тэ	-11.357
▁неоднократно	-11.357
▁теория	-11.357
▁свернул	-11.3572
▁скрывать	-11.3572
▁мерз	-11.3575
and	-11.3577
уча	-11.3577
▁потенциал	-11.3579
▁призван	-11.358
▁судья	-11.358
▁научно	-11.3582
▁потерян	-11.3584
дри	-11.3584
▁войсками	-11.3584
▁портал	-11.3585
▁перехода	-11.3586
меч	-11.3586
▁находит	-11.3586
▁пище	-11.3587
▁арт	-11.3587
▁обладал	-11.3588
▁спальни	-11.3588
▁смеяться	-11.3589
уру	-11.3589
печа	-11.359
▁Бед	-11.3593
▁спали	-11.3594
▁методы	-11.3596
веч	-11.3596
▁изначально	-11.3596
▁вывести	-11.3597
▁возразила	-11.3597
▁обойтись	-11.3599
пов	-11.3599
бед	-11.36
▁Жен	-11.3601
▁покинули	-11.3601
▁Украины	-11.3602
▁организовать	-11.3603
▁прикрыл	-11.3603
▁эм	-11.3604
▁вправо	-11.3604
▁Видите	-11.3605
▁подполковник	-11.3607
▁рынок	-11.3607
▁добрые	-11.3608
▁Ана	-11.361
▁принадлежа	-11.3611
▁Точнее	-11.3611
▁уступ	-11.3614
тую	-11.3616
▁художника	-11.3617
▁издал	-11.3617
▁глупости	-11.3619
▁понят	-11.3619
▁воскресенье	-11.362
▁держался	-11.362
▁вождя	-11.3621
▁постарался	-11.3622
▁1990	-11.3624
▁Шт	-11.3627
елл	-11.3628
▁предан	-11.3628
▁Здравствуйте	-11.363
▁водо	-11.3631
▁заслужил	-11.3633
▁указывает	-11.3636
акт	-11.3638
▁доверие	-11.3639
▁вывел	-11.3639
▁Стрел	-11.3641
▁создавать	-11.3642
слу	-11.3644
▁смущенно	-11.3644
▁руководства	-11.3644
▁операцию	-11.3646
▁грязно	-11.3646
ходишь	-11.3648
▁базе	-11.3648
▁надпись	-11.3648
▁пропасть	-11.3648
авшего	-11.3648
▁деда	-11.3649
▁эконом	-11.3652
▁Хуан	-11.3652
ственно	-11.3653
нди	-11.3654
▁обнажен	-11.3655
▁вскричал	-11.3655
▁Энн	-11.3658
▁простить	-11.3658
▁капитал	-11.3659
▁Уль	-11.366
дру	-11.3661
бирал	-11.3663
ившего	-11.3664
числен	-11.3664
▁лечения	-11.3666
▁гр	-11.3667
жек	-11.3668
▁присутствующих	-11.3668
▁служба	-11.367
▁Флор	-11.3673
▁программа	-11.3673
▁VI	-11.3674
▁невозмутимо	-11.3675
▁Мэтью	-11.3675
▁рынке	-11.3675
льная	-11.3676
▁рак	-11.3677
▁характеристик	-11.3677
▁наступил	-11.3677
▁глубину	-11.3677
евым	-11.3679
.],	-11.3679
ложены	-11.3679
▁дис	-11.368
▁подниматься	-11.3681
кнув	-11.3681
▁мужчине	-11.3682
▁вмешался	-11.3683
▁Гром	-11.3683
▁комендант	-11.3683
▁бодро	-11.3684
▁Роза	-11.3685
▁коне	-11.3686
▁Примерно	-11.3687
льно	-11.3689
▁щелкнул	-11.3691
▁ездил	-11.3693
▁машинально	-11.3694
▁Орлов	-11.3695
▁болезненно	-11.3695
чество	-11.3697
▁заговорила	-11.3699
▁песен	-11.3699
▁женился	-11.3701
▁суждено	-11.3702
десят	-11.3702
▁звуков	-11.3705
▁учения	-11.3705
кр	-11.3706
▁услышали	-11.3707
▁Академии	-11.3707
▁Зак	-11.3708
▁v	-11.3708
▁аэродром	-11.3709
▁вреда	-11.3709
▁выбирать	-11.3712
▁робко	-11.3713
лым	-11.3713
▁сосуд	-11.3717
▁шумно	-11.3717
▁обстановку	-11.3718
▁катер	-11.3719
▁улыба	-11.3719
▁влево	-11.3719
▁потрясен	-11.3719
лететь	-11.372
▁гол	-11.372
▁опустив	-11.3722
▁тонкой	-11.3722
▁встретила	-11.3722
▁разговоров	-11.3722
▁искали	-11.3726
▁особняк	-11.3726
▁Георг	-11.3728
▁Карт	-11.3728
▁признаки	-11.3728
▁потащил	-11.3732
▁чудовище	-11.3732
▁Женя	-11.3733
▁тарелку	-11.3733
▁слабый	-11.3735
▁существовании	-11.3735
▁Прекрасно	-11.3735
▁интереса	-11.3735
рот	-11.3737
▁красивой	-11.3739
▁Эмма	-11.3739
▁приказу	-11.374
▁Росс	-11.3742
▁тр	-11.3744
▁видимости	-11.3745
▁определя	-11.3748
▁окликнул	-11.3751
▁цены	-11.3753
▁предположение	-11.3755
бирает	-11.3755
▁блин	-11.3757
овцы	-11.3757
▁комитет	-11.3758
▁Пас	-11.3758
▁подходил	-11.3758
▁двигались	-11.3759
вари	-11.376
▁внешне	-11.376
▁Ход	-11.376
▁отсек	-11.3762
▁Джан	-11.3763
▁уют	-11.3766
йдите	-11.3767
▁Софи	-11.377
▁вернул	-11.377
▁ужасе	-11.3771
▁настаивал	-11.3772
писать	-11.3773
▁убедился	-11.3773
▁выразить	-11.3774
▁локоть	-11.3775
▁пестр	-11.3775
▁Поттер	-11.3776
▁угроза	-11.3776
▁Стол	-11.3779
ящая	-11.3779
▁учебник	-11.378
▁точности	-11.3781
шегося	-11.3783
▁помещении	-11.3784
▁плохого	-11.3786
▁объектив	-11.3788
▁удивлению	-11.3788
▁чудеса	-11.3788
▁исполнен	-11.3791
авших	-11.3793
▁разрешил	-11.3794
▁последнем	-11.3794
очного	-11.3794
рап	-11.3795
▁труднее	-11.3796
▁плечом	-11.3797
гни	-11.3797
▁королю	-11.38
▁Кровь	-11.3801
▁выводы	-11.3804
▁устала	-11.3804
▁утратил	-11.3807
▁ложе	-11.3807
▁НКВД	-11.3807
▁необыкновенно	-11.3807
дев	-11.3809
▁Буду	-11.381
▁окинул	-11.3811
▁взгляде	-11.3811
▁устройства	-11.3811
▁диване	-11.3811
▁Меч	-11.3812
▁страшное	-11.3812
▁хрен	-11.3815
▁переправ	-11.3815
▁построить	-11.3817
▁умом	-11.3817
▁донос	-11.3818
▁советские	-11.3818
▁Фор	-11.3819
▁видео	-11.3819
АЛ	-11.382
очками	-11.382
▁голубой	-11.382
▁Давид	-11.3821
▁красота	-11.3822
▁главная	-11.3822
▁печати	-11.3823
▁Бон	-11.3823
▁задумалась	-11.3824
▁бара	-11.3826
▁перспектив	-11.3828
▁осенью	-11.3829
▁газете	-11.383
▁казаться	-11.383
▁нанес	-11.3831
▁древние	-11.3831
▁прошлый	-11.3832
▁гу	-11.3832
▁блокнот	-11.3834
▁влиянием	-11.3835
▁терп	-11.3836
гора	-11.3836
▁шарик	-11.3836
ОН	-11.3837
▁углом	-11.3837
▁Жак	-11.3838
▁открывать	-11.384
▁НЕ	-11.3842
▁предложен	-11.3845
▁клана	-11.3846
бель	-11.3846
▁отрезал	-11.3846
▁едино	-11.3847
▁имеете	-11.3847
ушкой	-11.3848
▁девяти	-11.3849
▁фар	-11.3851
▁результатов	-11.3853
▁сухой	-11.3854
▁бессмерт	-11.3856
▁куртку	-11.3856
ОР	-11.3856
▁цепь	-11.3858
▁Думаешь	-11.3858
спа	-11.3859
▁сейф	-11.386
▁весом	-11.386
▁призналась	-11.3861
▁сломан	-11.3862
▁греб	-11.3862
ant	-11.3862
▁обычным	-11.3862
▁древ	-11.3863
▁любимый	-11.3863
▁спуска	-11.3865
▁работников	-11.3866
▁продолжение	-11.3867
▁физически	-11.3871
▁промолчал	-11.3871
▁статью	-11.3872
▁рабы	-11.3873
▁благ	-11.3873
▁маме	-11.3873
ере	-11.3874
▁прекратить	-11.3874
▁нарушение	-11.3879
▁редактор	-11.3879
гонять	-11.3879
голов	-11.3879
▁коры	-11.3881
▁пасть	-11.3881
▁земной	-11.3881
беж	-11.3882
▁поездки	-11.3882
мил	-11.3884
изация	-11.3884
▁мышц	-11.3884
▁диалог	-11.3884
катил	-11.3886
рач	-11.3888
▁умы	-11.3888
).]	-11.3889
▁отправили	-11.3889
▁собираются	-11.389
монт	-11.389
▁расстояния	-11.3891
гру	-11.3891
▁бе	-11.3892
▁Испании	-11.3893
▁согласия	-11.3895
▁обнаружен	-11.3895
▁услуги	-11.3896
▁Мас	-11.3899
▁Пап	-11.39
▁собор	-11.39
▁происходящее	-11.39
▁тонкий	-11.3901
▁ладонями	-11.3901
▁боку	-11.3901
▁снегу	-11.3901
▁окруж	-11.3902
▁Джейк	-11.3903
щиеся	-11.3903
даль	-11.3905
▁Гуд	-11.3906
▁отсутствия	-11.3906
▁одиннадцать	-11.3909
▁выступления	-11.391
зан	-11.391
▁Деньги	-11.391
так	-11.3911
▁использовали	-11.3912
▁сном	-11.3912
▁донесся	-11.3913
▁нарочно	-11.3914
▁клинок	-11.3916
▁размышлял	-11.3917
▁мл	-11.3917
▁умеют	-11.3918
▁покои	-11.3919
▁Инд	-11.3921
▁обычные	-11.3922
▁КГБ	-11.3926
цер	-11.3927
кл	-11.3927
▁друзьям	-11.3927
▁шляпу	-11.3927
▁основа	-11.393
▁шире	-11.3932
▁текста	-11.3933
▁Бир	-11.3935
▁высоту	-11.3935
▁огни	-11.3936
ставлю	-11.3936
▁простые	-11.3936
▁велико	-11.3937
оры	-11.3938
▁морских	-11.3938
▁подвижн	-11.394
▁Люд	-11.394
гул	-11.3941
▁обращал	-11.3941
бир	-11.3943
▁посту	-11.3944
▁мыслью	-11.3947
▁существовало	-11.3947
ану	-11.3948
▁серо	-11.3948
▁вершине	-11.3949
дд	-11.3949
▁пополам	-11.3949
▁Эс	-11.395
▁красавица	-11.395
▁полицейский	-11.395
бывал	-11.3952
▁растений	-11.3952
▁подумав	-11.3952
▁планов	-11.3955
▁боятся	-11.3956
гас	-11.3956
▁приглашение	-11.3956
▁стрелков	-11.3957
▁научился	-11.396
бет	-11.3961
▁Павлович	-11.3961
сыпать	-11.3961
▁обеими	-11.3961
▁надеялась	-11.3961
▁молчали	-11.3962
▁растет	-11.3963
▁простых	-11.3966
▁подобным	-11.3966
▁закончится	-11.3967
▁старую	-11.3967
▁Выходит	-11.3969
▁Хай	-11.3972
▁отвернулась	-11.3972
▁применения	-11.3974
иваю	-11.3974
аф	-11.3975
▁тучи	-11.3976
▁соответствует	-11.3977
▁Рот	-11.3977
▁Президент	-11.3978
▁Хелен	-11.3978
▁шутка	-11.3979
фл	-11.3979
▁закончен	-11.3979
нюю	-11.3979
▁дороже	-11.3981
колот	-11.3982
реч	-11.3983
▁боже	-11.3986
▁просвет	-11.3987
▁фраза	-11.3989
▁приятеля	-11.3989
▁млн	-11.3991
▁чет	-11.3992
▁сохрани	-11.3992
▁повар	-11.3993
строить	-11.3995
▁щекам	-11.3997
▁доброго	-11.3997
▁злой	-11.3998
чник	-11.4
▁1991	-11.4
▁освободить	-11.4
▁животные	-11.4
закон	-11.4
ющимися	-11.4
▁недоверчиво	-11.4002
▁клиента	-11.4004
▁клуба	-11.4005
▁понравился	-11.4005
▁используя	-11.4006
▁открывал	-11.4007
лями	-11.4014
▁зубов	-11.4015
▁моста	-11.4015
▁закончилась	-11.4019
▁двигался	-11.402
▁семьдесят	-11.4021
▁заказал	-11.4022
▁ученик	-11.4023
▁столицу	-11.4023
▁перевести	-11.4025
▁узел	-11.4026
▁Третий	-11.4027
▁муч	-11.4032
▁живые	-11.4033
▁психо	-11.4034
▁упрям	-11.4035
лам	-11.4035
▁спуск	-11.4035
▁рыцарь	-11.4035
▁пусты	-11.4035
▁губах	-11.4035
▁выходили	-11.4036
▁вину	-11.4038
▁подавля	-11.4039
▁падения	-11.404
▁Книга	-11.404
▁горяч	-11.4042
мудр	-11.4042
шихся	-11.4045
▁деревьями	-11.4045
▁воротник	-11.4048
▁демона	-11.4048
▁американский	-11.4049
мены	-11.4049
▁Сергея	-11.405
▁указывая	-11.4051
▁сосредоточен	-11.4051
▁свечи	-11.4052
бив	-11.4054
▁понадобилось	-11.4054
▁скелет	-11.4056
▁Гитлера	-11.4056
МА	-11.4058
носил	-11.4059
▁разговоре	-11.406
▁добычу	-11.406
▁назначения	-11.406
▁прочел	-11.4062
▁Некоторое	-11.4062
▁Ром	-11.4062
▁цепля	-11.4063
▁повторять	-11.4066
▁la	-11.4067
ерс	-11.4069
▁впечатления	-11.4071
▁пытаются	-11.4071
▁ростом	-11.4071
▁воздействия	-11.4072
▁цирк	-11.4072
▁милиции	-11.4072
орт	-11.4074
▁пиджак	-11.4075
▁покажу	-11.4076
нду	-11.4076
▁водки	-11.4077
валь	-11.4077
▁следа	-11.4078
▁монастыря	-11.4078
▁Мэгги	-11.408
▁мебель	-11.408
▁учился	-11.4082
лома	-11.4083
▁смутно	-11.4083
нн	-11.4086
рион	-11.4086
▁красных	-11.4088
▁берут	-11.4091
люд	-11.4091
▁ров	-11.4092
▁Рез	-11.4094
▁файл	-11.4094
▁Рус	-11.4095
▁вернемся	-11.4096
▁мостик	-11.4096
▁Татьяна	-11.4096
▁выдать	-11.4098
▁пластин	-11.4101
▁похожие	-11.4101
▁предметов	-11.4102
▁сирен	-11.4102
▁эффективно	-11.4103
джер	-11.4104
▁полон	-11.4105
▁прод	-11.4106
▁Мира	-11.4106
лению	-11.4106
▁фамилию	-11.4107
волос	-11.411
▁первому	-11.4111
▁Империи	-11.4111
▁отчая	-11.4114
▁бригады	-11.4114
▁Помнишь	-11.4115
емое	-11.4116
▁содержимое	-11.4116
▁снимать	-11.4116
▁помогал	-11.4116
▁реп	-11.4117
▁исправить	-11.4118
▁Жу	-11.4119
▁ценой	-11.412
гнал	-11.412
▁похорон	-11.4123
▁продаж	-11.4124
▁соображения	-11.4125
овала	-11.4127
изу	-11.4127
▁поддерживал	-11.4128
▁относиться	-11.4128
▁страхов	-11.4128
▁ценность	-11.4128
оны	-11.4129
▁XVIII	-11.4129
▁Сквозь	-11.413
▁серый	-11.413
говаривал	-11.4131
гр	-11.4131
▁партию	-11.4132
зя	-11.4133
▁поступать	-11.4134
▁участвовать	-11.4136
▁горели	-11.4137
доволь	-11.4138
▁Женщины	-11.4138
▁контролировать	-11.4138
▁небольшого	-11.4138
▁масштаб	-11.4138
▁виден	-11.4138
▁Берлин	-11.4138
▁правления	-11.4139
▁фундамент	-11.4139
▁особый	-11.4139
▁учение	-11.414
зрел	-11.414
▁сомневаться	-11.4141
▁объявлен	-11.4142
▁кружев	-11.4142
▁сыновей	-11.4143
▁лежат	-11.4143
▁лаз	-11.4144
хай	-11.4145
▁оборудование	-11.4147
▁тай	-11.4147
▁сумки	-11.4147
▁тяжелых	-11.4148
▁весть	-11.415
▁делаете	-11.415
оли	-11.415
▁социальной	-11.415
▁откровен	-11.4151
▁выстрела	-11.4154
▁валя	-11.4156
▁грандиоз	-11.4157
▁мист	-11.4158
▁холл	-11.4158
▁теряет	-11.4158
▁понравится	-11.4159
▁красными	-11.4159
▁уютно	-11.416
▁украин	-11.416
▁майора	-11.4162
лился	-11.4163
▁Шум	-11.4164
▁искус	-11.4164
▁считаешь	-11.4165
▁град	-11.4166
▁идёт	-11.4167
ающей	-11.4168
▁гостинице	-11.4168
▁важный	-11.4169
▁счастливым	-11.417
▁установил	-11.417
▁похвал	-11.4171
бес	-11.4172
▁закончилось	-11.4173
▁монастырь	-11.4174
▁схватить	-11.4174
▁приблизительно	-11.4175
кажешь	-11.4177
▁КПСС	-11.4178
▁патриот	-11.4178
▁материалов	-11.4178
ьей	-11.4179
▁студентов	-11.418
▁Сами	-11.4182
▁постиг	-11.4183
▁уловил	-11.4184
▁ци	-11.4184
▁прорва	-11.4185
▁специалистов	-11.4185
▁договорились	-11.4185
▁задания	-11.4187
сель	-11.4188
аса	-11.4189
зия	-11.4189
▁Напротив	-11.419
▁климат	-11.419
▁проснулась	-11.4191
▁Дра	-11.4191
▁восторга	-11.4191
▁русском	-11.4192
▁вырвал	-11.4194
▁солдата	-11.4194
▁гар	-11.4194
реб	-11.4195
▁Толстого	-11.4195
▁оста	-11.4197
▁передачи	-11.4197
▁Хотел	-11.4197
дия	-11.4197
▁перес	-11.4197
▁счета	-11.4198
▁представляется	-11.4199
▁милорд	-11.42
▁Подожди	-11.4201
▁свобода	-11.4201
▁изд	-11.4203
▁смотрите	-11.4204
андер	-11.4204
▁шок	-11.4205
лять	-11.4205
▁погода	-11.4208
▁слон	-11.4208
▁тупик	-11.4208
▁вызвали	-11.4208
▁мрак	-11.4209
▁любых	-11.421
▁обещан	-11.4212
▁жива	-11.4213
▁Роджер	-11.4214
боле	-11.4214
хлеб	-11.4214
▁встретили	-11.4215
пом	-11.4215
рку	-11.4218
скочив	-11.4218
▁выхватил	-11.422
▁поднес	-11.4221
▁Тех	-11.4221
▁букет	-11.4223
▁дурно	-11.4223
▁строительство	-11.4225
▁отыскал	-11.4226
▁блюдо	-11.4226
▁помешать	-11.4226
▁плакала	-11.4231
▁умный	-11.4231
▁Разговор	-11.4232
▁городах	-11.4234
▁признаков	-11.4234
▁Святого	-11.4234
▁испытал	-11.4234
▁третья	-11.4236
▁апостол	-11.4239
▁послание	-11.424
▁пут	-11.4243
▁побережье	-11.4245
▁Твое	-11.4246
чн	-11.4247
▁хозяева	-11.4248
кладывая	-11.425
▁раненых	-11.4253
кси	-11.4253
▁критик	-11.4254
▁неделе	-11.4256
▁оркестр	-11.4257
▁животе	-11.4257
кли	-11.4257
▁штраф	-11.4257
▁обняла	-11.4258
▁воина	-11.4259
роч	-11.4259
▁дадут	-11.426
▁Коль	-11.426
▁историк	-11.4261
▁уважение	-11.4261
▁купе	-11.4263
▁академии	-11.4266
юк	-11.4268
▁вероятность	-11.4268
▁собаку	-11.4268
▁Гэ	-11.427
▁справедливости	-11.4271
▁вблизи	-11.4271
▁уголь	-11.4273
▁молчала	-11.4274
▁журнала	-11.4275
▁Вене	-11.4275
▁расположение	-11.4275
▁табурет	-11.4276
▁упр	-11.4278
▁начнется	-11.4279
▁Довольно	-11.4279
▁занимает	-11.4279
▁Никак	-11.428
▁побывал	-11.428
▁питания	-11.428
ложил	-11.4281
▁небольшим	-11.4282
▁окнами	-11.4283
▁круп	-11.4285
▁сотрудник	-11.4286
ОС	-11.4286
▁дрогнул	-11.4286
строен	-11.4287
▁сигарет	-11.4289
▁любая	-11.4292
▁англ	-11.4292
▁оказать	-11.4293
▁среде	-11.4293
▁готовности	-11.4294
▁известен	-11.4294
▁мяс	-11.4295
▁Коп	-11.4295
рий	-11.4295
▁контейнер	-11.4295
▁стукнул	-11.4296
▁Сир	-11.4297
РЕ	-11.4298
▁монитор	-11.43
▁данного	-11.4302
▁сравнительно	-11.4302
▁потолка	-11.4302
чан	-11.4302
▁лифт	-11.4302
▁Вика	-11.4303
▁Уверен	-11.4305
▁полит	-11.4306
▁Перевод	-11.4306
▁микро	-11.4307
▁рассеянно	-11.4307
▁судна	-11.4309
▁канон	-11.4309
▁расти	-11.431
ады	-11.4314
▁Ночью	-11.4316
инга	-11.4317
ните	-11.4318
план	-11.4318
▁профессионал	-11.4322
▁слушала	-11.4325
▁элемент	-11.4325
▁обсудить	-11.4325
▁трёх	-11.4328
сот	-11.4328
▁дочерью	-11.4329
▁семьей	-11.4329
▁шорох	-11.433
думал	-11.4331
▁Вик	-11.4331
▁испуга	-11.4335
▁Март	-11.4337
шн	-11.4338
▁армией	-11.4342
▁Жи	-11.4343
▁ге	-11.4343
▁Двадцать	-11.4343
▁феномен	-11.4345
дир	-11.4346
▁Дум	-11.4346
▁Мель	-11.4347
вок	-11.4348
▁буй	-11.4348
▁грозно	-11.4349
▁Морган	-11.435
▁бытия	-11.435
▁фактор	-11.4351
нули	-11.4351
▁Страх	-11.4351
▁Перси	-11.4352
ною	-11.4352
▁школа	-11.4352
▁указания	-11.4353
▁внук	-11.4353
альд	-11.4354
▁допустим	-11.4356
иды	-11.4356
ительную	-11.4357
▁бандит	-11.4357
▁очертания	-11.4357
▁53	-11.4358
▁камнем	-11.4359
ленная	-11.436
▁осведомился	-11.4361
▁мешка	-11.4361
мад	-11.4362
▁побежала	-11.4363
▁Мертв	-11.4366
ДА	-11.4366
▁фонарик	-11.4366
▁Иосиф	-11.4367
▁Джен	-11.4367
ившихся	-11.4368
▁расстроен	-11.4368
▁лихорадочно	-11.4369
оход	-11.437
▁юности	-11.4372
▁предельно	-11.4372
▁убедительно	-11.4373
▁Можете	-11.4373
уры	-11.4374
гл	-11.4374
▁баланс	-11.4375
ящей	-11.4378
▁распахнул	-11.4379
▁Большая	-11.4379
▁распоряжении	-11.438
▁обращение	-11.438
▁множества	-11.4381
▁Придется	-11.4381
▁свадьбы	-11.4381
▁месяцы	-11.4381
▁коварн	-11.4386
▁благодарность	-11.4387
рать	-11.4387
▁верст	-11.4391
▁8.	-11.4393
▁обвиня	-11.4393
▁Соня	-11.4397
шла	-11.4397
▁дошли	-11.4397
казывать	-11.4398
▁темп	-11.4399
▁выбросил	-11.44
▁любому	-11.44
ведении	-11.44
▁исполня	-11.44
▁отваж	-11.4401
▁бросал	-11.4402
▁изучать	-11.4404
▁обсуждать	-11.4407
гур	-11.4407
ливым	-11.4408
▁общих	-11.4408
▁единой	-11.441
▁Всех	-11.4412
льд	-11.4412
▁Федерации	-11.4413
▁Понимаю	-11.4413
▁крупный	-11.4415
▁караул	-11.4416
▁бывших	-11.4416
▁евреи	-11.4416
▁Дел	-11.4417
жения	-11.4417
бон	-11.4418
яд	-11.4418
▁Кост	-11.4419
▁степень	-11.4419
▁бойся	-11.4419
▁королевы	-11.4423
▁звонил	-11.4424
▁Война	-11.4425
▁рассказы	-11.4425
▁напряжен	-11.4426
▁ровным	-11.4427
▁населен	-11.4428
▁жаре	-11.443
▁поймет	-11.443
▁пустыне	-11.443
▁повис	-11.4431
▁подсказал	-11.4431
▁единиц	-11.4432
▁показались	-11.4433
ётся	-11.4433
▁Церкви	-11.4434
▁поражения	-11.4434
вля	-11.4436
▁просила	-11.4437
▁стуле	-11.4438
▁счастливо	-11.4438
▁Тео	-11.444
▁дано	-11.444
▁бил	-11.444
▁жажду	-11.4441
тори	-11.4442
▁определенные	-11.4442
▁учить	-11.4444
▁современных	-11.4446
▁гордость	-11.4446
▁мон	-11.4446
Ю	-11.4448
рублен	-11.4451
▁патрон	-11.4451
ква	-11.4451
▁танки	-11.4451
▁СПб	-11.4451
▁талантлив	-11.4454
▁достигли	-11.4454
▁плохой	-11.4454
▁ущерб	-11.4454
▁Армии	-11.4455
▁Став	-11.4459
▁интеллигент	-11.446
▁неведомо	-11.4461
веди	-11.4462
▁колонны	-11.4464
▁слабым	-11.4465
▁привлек	-11.4466
▁1920	-11.4467
▁берегов	-11.4468
▁палубу	-11.4468
ватый	-11.4469
▁пустил	-11.4471
еву	-11.4474
альное	-11.4474
▁немецкий	-11.4474
▁приглашен	-11.4475
▁Зу	-11.4475
▁планета	-11.4475
▁проявления	-11.4476
▁спрятан	-11.4477
▁свеч	-11.4478
▁заболевания	-11.448
нском	-11.4481
кручива	-11.4481
▁шагах	-11.4483
▁оторвал	-11.4483
▁лыс	-11.4483
▁Ночь	-11.4484
лле	-11.4485
ьной	-11.4486
▁угрозу	-11.4487
▁рейс	-11.4488
▁вещах	-11.4488
▁Арк	-11.4489
▁королем	-11.4493
▁короткие	-11.4494
▁Остров	-11.4495
▁Куп	-11.4495
телями	-11.4496
берет	-11.4496
▁бодр	-11.4498
▁тянет	-11.4499
▁больных	-11.4499
▁свету	-11.4501
▁Екатерина	-11.4501
▁ху	-11.4502
щиков	-11.4503
порядоч	-11.4503
▁связанных	-11.4505
бах	-11.4507
летний	-11.4507
▁перешли	-11.4508
▁больного	-11.4508
▁запер	-11.4509
овки	-11.4509
▁банков	-11.451
▁подверг	-11.4513
▁объятиях	-11.4513
▁особое	-11.4514
▁Вашингтон	-11.4514
▁нацист	-11.4515
▁отправлен	-11.4515
▁петь	-11.4515
енка	-11.4518
нными	-11.4518
чая	-11.4519
▁сообщили	-11.452
черк	-11.452
▁сказки	-11.4521
▁падали	-11.4521
▁средствами	-11.4521
▁54	-11.4521
▁гостиницы	-11.4523
▁крышку	-11.4523
▁разговаривали	-11.4525
▁чтение	-11.4525
▁нечист	-11.4527
▁отчаяния	-11.4527
пить	-11.4527
▁молнии	-11.4528
▁замкнут	-11.4528
щики	-11.4528
▁зоны	-11.453
▁Образ	-11.453
▁тар	-11.4531
енность	-11.4533
▁потребность	-11.4534
▁прежней	-11.4534
▁тайной	-11.4534
▁девица	-11.4535
▁развед	-11.4537
нести	-11.4538
мета	-11.4538
▁соседней	-11.4541
шняя	-11.4541
анную	-11.4542
▁совместно	-11.4543
▁лихо	-11.4543
▁ходила	-11.4546
▁сняла	-11.4547
▁обнаружив	-11.4547
▁Постепенно	-11.4548
▁свар	-11.4548
тина	-11.4548
▁Бан	-11.4549
▁врагом	-11.4549
▁печ	-11.4553
▁обратить	-11.4555
▁Хотелось	-11.4557
зь	-11.4557
▁экономики	-11.4558
гард	-11.4558
▁странной	-11.4559
▁криво	-11.456
шли	-11.4562
▁миллионы	-11.4563
губ	-11.4564
▁Хэ	-11.4565
▁Зло	-11.4565
▁Хей	-11.4565
▁пятнадцати	-11.4567
▁подверга	-11.4567
▁око	-11.4567
▁деятель	-11.4568
▁овладел	-11.4568
▁используют	-11.4569
▁выступал	-11.457
▁движении	-11.457
▁белое	-11.457
бог	-11.457
▁штук	-11.457
нике	-11.4572
▁клиентов	-11.4573
▁Какого	-11.4574
▁челюсть	-11.4575
жн	-11.4576
итов	-11.4576
li	-11.4577
▁просьбу	-11.4578
▁Обе	-11.4578
▁достав	-11.4579
▁странная	-11.4581
▁65	-11.4583
▁усталости	-11.4583
▁успеть	-11.4585
▁выбран	-11.4587
▁10.	-11.4587
▁уничтожа	-11.4588
▁Силь	-11.4588
▁беспокоиться	-11.4588
▁обща	-11.4589
▁авиации	-11.4589
▁упомянут	-11.4592
гой	-11.4592
▁Помимо	-11.4593
▁победить	-11.4594
▁Сила	-11.4595
▁фильма	-11.4597
▁условно	-11.4597
▁12.	-11.4597
▁Часто	-11.4599
▁струи	-11.4599
▁пры	-11.4601
▁преимущество	-11.4601
▁Шаг	-11.4602
▁узнаю	-11.4602
▁отказалась	-11.4602
▁знач	-11.4604
▁задавать	-11.4605
евского	-11.4605
▁пат	-11.4606
▁любым	-11.4606
▁морю	-11.4607
▁пацан	-11.4608
▁Следовательно	-11.461
▁посмотри	-11.4611
гнали	-11.4611
▁науч	-11.4612
▁глубоким	-11.4612
▁увлека	-11.4612
▁метра	-11.4612
▁открытие	-11.4614
▁извлек	-11.4615
▁откинулся	-11.4615
гонял	-11.4616
▁молчать	-11.4617
▁заменить	-11.4618
▁невысок	-11.4618
▁собственном	-11.4619
дик	-11.4619
▁поднимается	-11.462
▁широкие	-11.462
тти	-11.4621
▁Вели	-11.4621
▁уложил	-11.4621
▁относился	-11.4622
▁следующем	-11.4622
▁фунтов	-11.4622
▁грудью	-11.4622
▁повышен	-11.4623
▁4-	-11.4623
▁троп	-11.4624
▁Майор	-11.4624
ія	-11.4624
▁степ	-11.4624
▁редкость	-11.4624
ленных	-11.4625
зел	-11.4626
ндер	-11.4626
▁площадку	-11.4626
▁уничтожен	-11.4627
▁Вир	-11.4628
▁сестрой	-11.4629
▁раскачива	-11.4629
▁свободное	-11.4629
▁сильной	-11.4629
▁шума	-11.463
лд	-11.463
▁появляются	-11.4631
▁произошла	-11.4631
хлоп	-11.4631
хождения	-11.4631
▁дрожа	-11.4632
бивал	-11.4633
▁вклад	-11.4633
▁тихим	-11.4634
▁верхов	-11.4634
▁английского	-11.4634
▁убедил	-11.4635
▁торгов	-11.4636
▁подушку	-11.4641
▁горячей	-11.4642
▁улов	-11.4643
▁изображения	-11.4644
▁Ари	-11.4644
▁туго	-11.4644
▁подъезд	-11.4645
▁заходил	-11.4646
▁гладко	-11.4647
▁человеческий	-11.4648
▁Хол	-11.4648
▁предлагаю	-11.465
▁консерв	-11.465
трен	-11.465
шедшего	-11.4651
▁непросто	-11.4652
▁элементов	-11.4654
валились	-11.4655
овка	-11.4655
▁ели	-11.4655
анс	-11.4659
▁взглядами	-11.466
▁политике	-11.4661
▁взлет	-11.4661
▁женский	-11.4663
▁сфере	-11.4663
еда	-11.4664
▁поделать	-11.4665
▁Святой	-11.4666
▁заполнен	-11.4666
▁поистине	-11.4666
▁прекрасная	-11.4666
▁вдвое	-11.4667
▁Марта	-11.4667
▁умирать	-11.4667
▁вторым	-11.4668
▁боялись	-11.4668
▁Ch	-11.4669
равн	-11.4671
▁Петербурге	-11.4671
▁Але	-11.4671
▁Оле	-11.4672
▁знакомства	-11.4673
▁прислал	-11.4673
▁Бет	-11.4674
считал	-11.4674
▁сквер	-11.4675
▁обыкновенно	-11.4675
▁свободе	-11.4675
▁поведал	-11.4676
▁фургон	-11.4676
изирован	-11.4677
истом	-11.4677
▁умение	-11.4677
▁тайно	-11.4677
▁знаки	-11.4677
▁помещ	-11.4678
▁форт	-11.4679
▁сбросил	-11.4679
атур	-11.4679
▁Пле	-11.4679
▁вертел	-11.4679
▁станешь	-11.4679
▁бояр	-11.4679
▁Лар	-11.468
▁зенит	-11.4682
▁плевать	-11.4682
▁догадаться	-11.4683
дана	-11.4684
▁защищал	-11.4685
▁пляж	-11.4686
▁нырнул	-11.4686
▁предупреждал	-11.4686
▁курил	-11.4687
▁несчастный	-11.4687
▁погас	-11.4688
▁пульт	-11.4688
▁ракеты	-11.4688
▁дна	-11.4689
▁вяло	-11.4689
голь	-11.4689
▁выполнения	-11.469
▁получают	-11.469
▁нуждается	-11.469
▁захлопнул	-11.4694
▁принадлежал	-11.4694
▁пользовался	-11.4696
▁Необходимо	-11.4697
▁Основ	-11.4699
▁корни	-11.47
анов	-11.47
▁пассажиров	-11.47
▁встретился	-11.4706
▁санитар	-11.4706
ьного	-11.4706
▁вспоминая	-11.4708
истая	-11.4708
▁хвал	-11.4711
▁статье	-11.4712
▁кг	-11.4713
▁хирург	-11.4714
▁вступить	-11.4714
▁знакомым	-11.4715
гай	-11.4717
▁туфли	-11.4718
▁лишний	-11.4719
ne	-11.472
▁свыше	-11.4722
пен	-11.4723
▁довод	-11.4723
▁парт	-11.4724
▁подле	-11.4724
▁задавал	-11.4725
▁гном	-11.4725
▁коробку	-11.4726
▁бойцы	-11.4726
▁руль	-11.473
▁поступок	-11.473
▁общин	-11.473
▁подтверждение	-11.4731
▁разорвал	-11.4732
▁денеж	-11.4732
▁цыган	-11.4735
▁сложнее	-11.4736
▁высшего	-11.4736
▁бан	-11.4738
▁Первой	-11.4738
▁тюрем	-11.4738
▁облач	-11.474
▁союзников	-11.474
▁пытаюсь	-11.474
▁вызвало	-11.4741
▁ламп	-11.4742
▁Сме	-11.4743
▁Мэтт	-11.4745
▁угрюмо	-11.4746
яна	-11.4746
нется	-11.4747
▁камнями	-11.4747
▁голуб	-11.4747
▁полицию	-11.4748
04	-11.4748
ностей	-11.4749
▁замечает	-11.4749
▁распа	-11.475
▁супруг	-11.4753
▁верный	-11.4754
▁разглядывал	-11.4755
сыпал	-11.4755
тягивая	-11.4755
▁культ	-11.4755
▁базу	-11.4757
▁ударила	-11.4759
сток	-11.476
▁Игра	-11.476
▁испугалась	-11.4761
▁появиться	-11.4761
▁вопросам	-11.4762
▁объяснила	-11.4762
▁присутствовал	-11.4764
ческой	-11.4764
ell	-11.4764
▁Жил	-11.4764
▁произнести	-11.4766
вшемся	-11.4766
▁мешать	-11.4766
▁приносит	-11.4766
▁налил	-11.4767
сок	-11.4767
▁пророк	-11.4767
50	-11.4768
тельной	-11.4769
жан	-11.4769
▁обез	-11.477
▁похлопал	-11.4771
▁вином	-11.4772
▁иное	-11.4772
шил	-11.4772
▁надоело	-11.4773
▁листьев	-11.4773
▁хорошую	-11.4776
▁взором	-11.4776
▁приняв	-11.4776
▁перво	-11.4777
▁образа	-11.4778
▁специалист	-11.4782
▁похожее	-11.4783
▁помогла	-11.4783
▁свободной	-11.4785
▁отмахнулся	-11.4787
▁пахнет	-11.4789
▁Варшав	-11.479
▁юн	-11.4793
▁Небес	-11.4794
▁шепнул	-11.4794
▁Начальник	-11.4795
▁сочета	-11.4799
▁Брит	-11.4799
▁предпочел	-11.4801
▁проведения	-11.4801
ичным	-11.4802
▁бумаг	-11.4802
▁возмутился	-11.4802
▁облегчение	-11.4803
▁хвостом	-11.4803
▁охоту	-11.4804
▁базар	-11.4804
▁принимали	-11.4805
▁любимого	-11.4805
▁дяди	-11.4806
▁мятеж	-11.4808
▁угас	-11.4808
▁маз	-11.4809
государственного	-11.481
▁выполнил	-11.4811
здоров	-11.4811
▁черное	-11.4812
▁неохотно	-11.4812
чим	-11.4813
▁пустые	-11.4813
▁притвор	-11.4816
илла	-11.4817
звуч	-11.4818
жид	-11.482
▁общим	-11.482
▁признавал	-11.482
▁Эп	-11.4822
▁двига	-11.4822
▁членом	-11.4822
▁человеческие	-11.4822
ствие	-11.4823
▁Рег	-11.4824
▁стакана	-11.4825
▁Павла	-11.4825
▁потянулась	-11.4826
▁поту	-11.4827
▁оси	-11.4827
▁сопротивления	-11.4829
▁любопытно	-11.4829
▁отрыв	-11.4829
резал	-11.4829
▁гидро	-11.4831
▁Владимира	-11.4831
▁наказания	-11.4832
▁Теле	-11.4834
елли	-11.4834
▁светлые	-11.4835
вир	-11.4835
водят	-11.4836
▁комсомол	-11.4836
▁отличи	-11.4836
▁собственности	-11.4837
▁запястье	-11.4837
▁государственных	-11.4837
▁ощутила	-11.4838
▁требую	-11.4839
страст	-11.4839
▁верт	-11.484
▁завопил	-11.4844
▁отстал	-11.4844
▁сжимал	-11.4846
▁отдавать	-11.4846
пира	-11.4848
имый	-11.4848
▁гнил	-11.4849
▁приведен	-11.4851
▁спрыгнул	-11.4852
▁торпед	-11.4853
▁шнур	-11.4853
ТА	-11.4854
▁упражнения	-11.4856
▁интересное	-11.4858
▁одева	-11.4858
лай	-11.4859
стри	-11.4859
ment	-11.4861
▁обвинения	-11.4862
▁гуля	-11.4864
▁возвращение	-11.4865
▁настороженно	-11.4866
поло	-11.4868
потреб	-11.4869
анье	-11.4869
телен	-11.487
▁ост	-11.4871
▁окончил	-11.4873
▁поняв	-11.4876
▁ковер	-11.4877
ущий	-11.4877
чком	-11.4879
▁лба	-11.488
▁Ката	-11.4881
▁живы	-11.4882
▁стресс	-11.4882
▁выругался	-11.4882
▁персонаж	-11.4885
▁драться	-11.4887
▁маленькое	-11.4888
▁поезда	-11.4888
▁планету	-11.4888
тические	-11.4889
▁мучительно	-11.4889
▁выставил	-11.4889
▁звание	-11.4889
помни	-11.4891
▁тротуар	-11.4893
▁Право	-11.4893
▁задачей	-11.4897
▁Феликс	-11.4899
▁Марго	-11.4899
▁собираясь	-11.49
▁технолог	-11.4901
▁раска	-11.4904
▁велика	-11.4906
▁сынок	-11.4906
▁Услышав	-11.4908
шуюся	-11.4908
▁Наверно	-11.4909
▁пошёл	-11.491
нимать	-11.491
▁Свобод	-11.4912
▁бунт	-11.4913
▁Добрый	-11.4914
▁наступит	-11.4914
▁видать	-11.4915
▁сильных	-11.4917
▁стадии	-11.4917
▁народом	-11.4918
▁рек	-11.4918
вернувшись	-11.4918
▁Конрад	-11.4921
уется	-11.4923
▁лекарств	-11.4926
▁змей	-11.4926
▁Останови	-11.4926
▁груст	-11.4929
едем	-11.4929
▁взрослых	-11.4929
▁прекрасной	-11.4929
▁Луна	-11.4929
▁включен	-11.493
▁помешал	-11.493
▁Гермиона	-11.493
▁источника	-11.493
▁спокойной	-11.4931
▁тьма	-11.4933
▁отчаяние	-11.4934
▁карандаш	-11.4935
ичных	-11.4935
▁отложил	-11.4935
▁обещаю	-11.4935
валась	-11.4937
▁Видел	-11.4937
▁упасть	-11.4938
▁скажете	-11.4938
“.	-11.4938
АТ	-11.494
▁рубашки	-11.4941
▁ребенку	-11.4942
▁Сей	-11.4942
ложенные	-11.4942
▁окровавлен	-11.4942
▁политику	-11.4943
▁Аб	-11.4943
▁слой	-11.4944
▁пытаться	-11.4944
▁дивизия	-11.4945
▁ветки	-11.4946
ньки	-11.4946
ическому	-11.4947
▁оставшиеся	-11.4948
▁хитр	-11.4949
▁Юля	-11.4949
▁кадров	-11.4957
▁Черный	-11.4958
▁прибыв	-11.4959
▁ударить	-11.4959
▁пчел	-11.4959
▁лишних	-11.4962
▁близости	-11.4963
▁наблюдала	-11.4964
▁заключения	-11.4965
▁считаете	-11.4966
олов	-11.4967
▁факел	-11.4969
▁небольшом	-11.4971
▁извини	-11.4971
вка	-11.4971
▁рукам	-11.4972
▁рубеж	-11.4973
ul	-11.4973
▁рану	-11.4976
▁визг	-11.4976
▁Сент	-11.4976
анию	-11.4977
▁настроении	-11.4978
▁Пр	-11.4979
▁бежит	-11.498
ичные	-11.4981
▁разнообраз	-11.4981
работать	-11.4981
▁решений	-11.4981
▁куп	-11.4983
нел	-11.4984
пет	-11.4984
▁Альберт	-11.4987
▁Северной	-11.4987
крыв	-11.4987
▁натянул	-11.4988
▁кинулся	-11.499
лена	-11.4991
▁Наполеон	-11.4991
▁плач	-11.4992
▁колокол	-11.4992
▁структуры	-11.4994
▁Сашка	-11.4996
нина	-11.4997
▁связана	-11.4998
▁сделаем	-11.4999
▁Глав	-11.4999
▁вручил	-11.5
едешь	-11.5001
даю	-11.5002
▁Такого	-11.5003
▁сумели	-11.5004
верт	-11.5004
гром	-11.5005
▁местами	-11.5007
олом	-11.5007
▁сумма	-11.5009
▁пруд	-11.5009
▁прочно	-11.5009
▁мышления	-11.5013
▁элементы	-11.5013
▁Й	-11.5013
▁нападение	-11.5014
▁вызыва	-11.5014
тана	-11.5015
ИН	-11.5015
евший	-11.5015
▁господ	-11.5017
▁58	-11.5017
▁Степ	-11.5018
▁революция	-11.5018
▁попа	-11.5018
▁обрыв	-11.5021
▁56	-11.5023
▁Зим	-11.5023
▁полезно	-11.5024
никами	-11.503
▁белую	-11.503
▁приходить	-11.503
толкнул	-11.5035
▁Робин	-11.5037
▁женщинами	-11.5037
▁среды	-11.5038
▁песка	-11.5038
▁исходя	-11.5041
▁заплатить	-11.5042
цар	-11.5042
▁придержива	-11.5042
тащить	-11.5043
▁разбира	-11.5043
▁становилась	-11.5045
▁Луи	-11.5047
ити	-11.5048
▁отличался	-11.505
▁встречаются	-11.5051
▁азарт	-11.5052
▁категорически	-11.5053
▁версии	-11.5053
▁Твои	-11.5055
▁падал	-11.5057
▁знаменитый	-11.5058
▁зем	-11.5059
анда	-11.506
▁высокую	-11.5062
▁обучение	-11.5065
▁сжала	-11.5066
▁Красно	-11.5067
▁прокурор	-11.5067
▁Дуб	-11.5068
▁зеркала	-11.5068
бей	-11.5068
▁круги	-11.5069
▁вооруженных	-11.5069
зав	-11.5075
яется	-11.5076
▁свежий	-11.5078
▁закрывал	-11.5079
▁менеджер	-11.508
▁вопросами	-11.5081
▁запустил	-11.5081
▁местной	-11.5081
▁Рассказ	-11.5082
▁девят	-11.5082
▁творится	-11.5083
▁букв	-11.5083
▁вкусу	-11.5085
▁Ден	-11.5085
▁Желез	-11.5087
▁Толстой	-11.5088
вались	-11.5088
▁слушая	-11.5088
▁дальнем	-11.5088
▁начальство	-11.5089
▁мозгу	-11.5092
▁гранат	-11.5094
▁строительства	-11.5094
▁лучшем	-11.5095
▁салон	-11.5095
▁убийстве	-11.5099
▁Стро	-11.5099
▁назвали	-11.51
▁Говори	-11.51
▁банки	-11.51
▁Одновременно	-11.5102
ЕН	-11.5102
нской	-11.5102
▁находил	-11.5102
▁приземл	-11.5103
▁начинали	-11.5103
▁создавал	-11.5103
▁желании	-11.5103
▁Арт	-11.5103
▁Грей	-11.5104
▁ослеп	-11.5104
анна	-11.5105
▁читала	-11.5106
▁оправдыва	-11.5106
истым	-11.5106
▁остальными	-11.5106
▁окружении	-11.5106
ированный	-11.5106
▁критически	-11.5107
▁бого	-11.5108
▁Грейс	-11.5109
▁посетителей	-11.511
▁короткое	-11.511
▁проявлял	-11.5111
▁приема	-11.5111
тир	-11.5112
держав	-11.5113
нэ	-11.5114
пух	-11.5114
▁примитив	-11.5114
▁забывать	-11.5114
▁общение	-11.5115
ающим	-11.5116
▁Последнее	-11.5116
▁разно	-11.5117
▁беды	-11.5117
лёт	-11.5119
▁участке	-11.512
▁Вижу	-11.512
▁грыз	-11.5121
▁лабиринт	-11.5121
oc	-11.5123
▁пребывал	-11.5123
▁оттолкнул	-11.5123
▁зачастую	-11.5123
АС	-11.5123
▁In	-11.5125
▁сообщал	-11.5125
▁отверстие	-11.5125
уля	-11.5125
▁привезли	-11.5125
▁реплик	-11.5126
▁языки	-11.5126
▁оглядываясь	-11.5127
▁запросто	-11.5127
ходят	-11.5128
▁особым	-11.5129
▁крейсер	-11.513
▁тянул	-11.513
ОВ	-11.513
▁вытащить	-11.5131
▁Восточной	-11.5132
▁отвести	-11.5132
▁комфорт	-11.5134
▁русски	-11.5134
▁следствие	-11.5136
▁ближайшие	-11.5137
▁читатель	-11.5138
▁качнул	-11.5138
▁увидите	-11.5138
▁робот	-11.514
нил	-11.5141
▁вождь	-11.5141
▁развитии	-11.5142
греб	-11.5143
шкин	-11.5143
▁магазине	-11.5144
▁счастлива	-11.5145
▁четвертый	-11.5148
вад	-11.5148
▁мужики	-11.5149
▁расскажет	-11.515
▁трещин	-11.515
▁хохот	-11.5151
давать	-11.5151
▁склонил	-11.5152
▁11.	-11.5153
▁разработан	-11.5153
▁звать	-11.5154
▁Германия	-11.5155
▁зеленой	-11.5155
▁виновато	-11.5155
▁кухонн	-11.5157
мал	-11.5158
▁мощь	-11.5158
брод	-11.5159
ведом	-11.5159
▁Мит	-11.516
▁тишину	-11.5161
▁Брон	-11.5162
▁умирает	-11.5162
ечь	-11.5164
▁простите	-11.5164
▁поста	-11.5165
▁Молча	-11.5165
▁желто	-11.5165
▁Жар	-11.5166
▁вздохом	-11.5166
▁политические	-11.5167
▁Вор	-11.5168
▁Небо	-11.5168
▁62	-11.5168
▁нахмурилась	-11.5168
▁колод	-11.517
▁простого	-11.517
▁изменение	-11.517
▁понравилась	-11.5172
ковский	-11.5172
▁чистый	-11.5173
▁обречен	-11.5177
▁пережить	-11.5177
▁поте	-11.5178
▁зоне	-11.5178
ольд	-11.5179
есса	-11.5179
тики	-11.518
▁сообщает	-11.518
▁понедельник	-11.5181
▁мощный	-11.5181
сии	-11.5182
тереть	-11.5186
▁кинул	-11.5186
▁пришёл	-11.5187
ивал	-11.5188
.[	-11.519
▁защищен	-11.519
▁обманул	-11.5191
двинуть	-11.5193
▁расстрел	-11.5193
▁подобие	-11.5195
▁Открыв	-11.5196
▁Виктория	-11.5197
▁известного	-11.5197
▁размер	-11.5199
▁счету	-11.5199
▁танец	-11.52
▁осмотреть	-11.5201
▁начальником	-11.5201
▁парламент	-11.5204
▁назнача	-11.5205
фин	-11.5205
берег	-11.5205
▁местность	-11.5205
▁Сум	-11.5208
волю	-11.521
▁парус	-11.521
стор	-11.521
▁узкой	-11.5212
▁моменту	-11.5214
▁планировал	-11.5214
▁ледяной	-11.5214
строил	-11.5215
▁выиграл	-11.5217
▁сильного	-11.5219
▁принимают	-11.522
▁секретаря	-11.522
▁наступила	-11.5221
▁предел	-11.5222
▁цифры	-11.5223
▁энергично	-11.5223
▁личный	-11.5223
▁осуществить	-11.5224
▁публично	-11.5226
▁бюро	-11.5228
▁Кали	-11.5229
▁обсуждали	-11.5229
▁реже	-11.5231
ac	-11.5232
штейн	-11.5233
▁освободи	-11.5233
▁клич	-11.5233
▁брака	-11.5235
▁Эк	-11.5237
▁родителям	-11.5238
▁хозяином	-11.5239
зри	-11.5239
▁реальной	-11.5239
▁печать	-11.5239
▁уроки	-11.5239
▁рассказывали	-11.5239
▁личные	-11.524
▁писателей	-11.524
▁испытывать	-11.5241
▁мамой	-11.5242
рив	-11.5243
▁фотографию	-11.5244
▁фотограф	-11.5244
▁борта	-11.5246
▁мам	-11.5249
▁Салли	-11.5251
▁балкон	-11.5251
▁альбом	-11.5251
нские	-11.5252
▁спрос	-11.5253
волок	-11.5254
▁воздействие	-11.5254
▁составить	-11.5254
▁святых	-11.5254
вязки	-11.5256
▁Кас	-11.5256
▁мель	-11.5257
▁волнение	-11.5257
▁Сюда	-11.5257
▁выпрямился	-11.526
▁ранга	-11.526
▁подразделения	-11.5261
▁свеже	-11.5262
▁большего	-11.5262
▁оператор	-11.5262
▁могил	-11.5262
▁Туда	-11.5263
▁покорно	-11.5264
ползла	-11.5264
▁лев	-11.5265
▁театре	-11.5266
▁башне	-11.5267
▁посетил	-11.5267
▁девочек	-11.5269
гнуть	-11.527
▁Толст	-11.527
▁беспокоит	-11.5271
▁несчастье	-11.5271
гуля	-11.5271
▁любовник	-11.5273
▁немецкие	-11.5273
▁долгих	-11.5274
▁шансы	-11.5275
▁придут	-11.5275
вание	-11.5281
вив	-11.5281
▁принимая	-11.5282
уг	-11.5282
▁описал	-11.5282
▁сустав	-11.5283
▁XVI	-11.5284
▁расследование	-11.5284
▁вечность	-11.5285
▁движений	-11.5287
▁американской	-11.5289
▁Фра	-11.529
▁строитель	-11.529
▁Дядя	-11.5291
la	-11.5292
▁уважением	-11.5293
ствует	-11.5294
▁раскрыт	-11.5294
▁прочесть	-11.5296
▁переговоров	-11.5296
▁очередную	-11.5296
▁длинным	-11.5296
дз	-11.5297
нга	-11.53
▁Юра	-11.53
▁аппарата	-11.53
▁Эдуард	-11.5301
▁Михаила	-11.5301
ep	-11.5303
пущу	-11.5303
▁хром	-11.5304
▁вершины	-11.5306
▁отряды	-11.5307
▁исполнение	-11.5309
▁Глядя	-11.5309
▁природу	-11.5309
▁паузы	-11.5309
▁подписал	-11.531
▁шир	-11.5311
НА	-11.5312
▁Посмотри	-11.5312
ступление	-11.5312
▁родилась	-11.5315
вина	-11.5315
шение	-11.5316
▁2008	-11.5316
▁посла	-11.5317
▁безумие	-11.5317
▁наставник	-11.5317
▁исчезло	-11.5318
▁http	-11.5318
хали	-11.5321
▁метр	-11.5322
▁убийцы	-11.5322
тем	-11.5323
▁пробил	-11.5324
▁спутника	-11.5326
▁сердеч	-11.5327
▁покосился	-11.5329
▁врачи	-11.5332
енькие	-11.5335
▁изъ	-11.5335
люсь	-11.5336
пт	-11.5336
▁1937	-11.5337
▁кружку	-11.5337
▁тревога	-11.5337
▁сосредоточиться	-11.5338
▁глав	-11.5338
▁чаю	-11.5339
▁скрыва	-11.534
▁вырвался	-11.534
▁лидер	-11.5341
▁восемьдесят	-11.5342
▁мелочи	-11.5342
▁научил	-11.5344
▁классе	-11.5344
ОЙ	-11.5345
▁роты	-11.5346
▁лишним	-11.5347
▁Хотите	-11.5347
шт	-11.5349
▁ближайшее	-11.5349
креп	-11.5349
▁синие	-11.5349
унд	-11.535
▁обвел	-11.535
лилась	-11.5352
▁Учитель	-11.5352
▁разобрать	-11.5353
▁монстр	-11.5353
▁Бель	-11.5355
сво	-11.5356
ЕР	-11.5357
▁бомбы	-11.5357
▁удел	-11.5358
▁максимум	-11.5358
▁тема	-11.5358
оля	-11.5359
копа	-11.5359
▁заставляя	-11.536
▁Мужчины	-11.5361
▁составлен	-11.5362
▁икон	-11.5362
бежать	-11.5365
тит	-11.5366
▁приняты	-11.5366
▁помех	-11.5367
▁укор	-11.5368
▁Верховного	-11.5368
▁400	-11.5369
▁выехал	-11.5369
▁аккурат	-11.537
▁взглядов	-11.537
▁Возле	-11.5371
▁Зор	-11.5371
▁Михайлов	-11.5371
гоняя	-11.5372
://	-11.5373
▁возникли	-11.5373
▁касс	-11.5374
▁священ	-11.5374
▁милости	-11.5375
пускать	-11.5375
▁разошлись	-11.5375
▁Позвольте	-11.5376
▁черн	-11.5377
▁отчаянии	-11.5378
▁жалел	-11.5379
▁сбежать	-11.5379
РИ	-11.538
▁покраснел	-11.538
▁Китае	-11.5381
▁лак	-11.5381
▁очередного	-11.5384
▁приказы	-11.5384
нулся	-11.5388
▁сменил	-11.539
▁цифр	-11.5391
▁прилетел	-11.5392
▁родственники	-11.5392
▁Словом	-11.5392
▁прилив	-11.5392
▁следовал	-11.5392
▁Стен	-11.5393
▁Мет	-11.5394
▁проводили	-11.5394
▁строки	-11.5394
▁позна	-11.5394
▁обзор	-11.5395
▁странного	-11.5396
▁банд	-11.5397
▁посох	-11.5397
▁сезон	-11.5399
▁покачива	-11.5403
коле	-11.5403
▁ботинки	-11.5403
ap	-11.5403
▁Гали	-11.5404
▁перевал	-11.5406
▁градусов	-11.5408
▁сек	-11.5409
▁жертвой	-11.5411
▁ожидает	-11.5411
▁Лейтенант	-11.5412
нно	-11.5413
▁поднимался	-11.5413
▁Ок	-11.5415
▁очаровательн	-11.5415
▁Солнца	-11.5415
дора	-11.5417
падает	-11.5417
▁Царь	-11.5418
▁застрял	-11.5418
ношен	-11.5419
▁прочитать	-11.5419
▁пойдут	-11.5419
▁поисков	-11.5421
интересовалась	-11.5421
▁обидно	-11.5422
▁законам	-11.5423
▁ухода	-11.5423
▁Коз	-11.5424
▁Рид	-11.5424
▁немецкой	-11.5424
▁французского	-11.5425
▁привыкла	-11.5426
▁толстый	-11.5426
жден	-11.5426
▁доски	-11.5427
рва	-11.5427
цвет	-11.5427
▁открывая	-11.5427
▁проводит	-11.5428
▁пуля	-11.5429
очным	-11.5432
▁теплой	-11.5432
un	-11.5432
▁доказательств	-11.5432
▁танка	-11.5433
▁Западной	-11.5433
▁вскочила	-11.5434
катилась	-11.5435
▁предпринять	-11.5436
▁Мод	-11.5436
po	-11.5437
▁пада	-11.5438
▁наполнил	-11.5439
▁решено	-11.544
▁рычаг	-11.5441
▁законом	-11.5443
ставлен	-11.5444
▁Патрик	-11.5444
▁трижды	-11.5445
▁жид	-11.5445
▁предела	-11.5448
▁виноград	-11.5448
▁мину	-11.5449
енном	-11.545
▁Нар	-11.5453
мота	-11.5453
▁маркиз	-11.5456
▁пишут	-11.5457
тический	-11.5459
▁уважения	-11.546
▁освобожден	-11.5461
▁1919	-11.5463
▁комплект	-11.5463
▁прогноз	-11.5465
▁чистым	-11.5465
ставим	-11.5465
▁Джулиан	-11.5468
глаш	-11.5469
▁хозяев	-11.5469
▁левом	-11.5471
▁Плохо	-11.5472
учи	-11.5472
▁Десять	-11.5472
▁шелест	-11.5473
▁водя	-11.5473
пать	-11.5475
ленную	-11.5477
тыка	-11.5477
▁Лок	-11.5479
▁владел	-11.5479
▁Смотрите	-11.548
ары	-11.548
▁академик	-11.5481
▁приготовить	-11.5481
▁хозяйство	-11.5481
▁убежище	-11.5481
▁Барон	-11.5482
▁Мысли	-11.5482
▁самолеты	-11.5482
▁складыва	-11.5483
▁похода	-11.5483
катился	-11.5484
▁ненавидел	-11.5485
▁трупы	-11.5485
катыва	-11.5485
▁Марин	-11.5485
▁взаимно	-11.5486
▁русская	-11.5487
▁направить	-11.5489
▁дышал	-11.5489
▁Огонь	-11.5489
▁исходил	-11.5489
▁Фридрих	-11.5491
▁прикрыв	-11.5491
▁красоту	-11.5492
▁кричали	-11.5492
▁направлению	-11.5494
▁навис	-11.5494
ine	-11.5497
▁скуп	-11.55
▁осени	-11.5501
▁чувствуешь	-11.5502
▁деталь	-11.5502
▁пропуск	-11.5505
▁торговли	-11.5506
▁периодически	-11.5506
везли	-11.5506
ссо	-11.5507
▁ошибок	-11.551
▁источников	-11.551
▁собира	-11.5513
▁взвод	-11.5513
▁будьте	-11.5514
▁богатства	-11.5514
▁Бой	-11.5515
▁Пла	-11.5515
правлял	-11.5515
▁финансов	-11.5516
▁старости	-11.5517
▁купа	-11.5517
▁горячим	-11.5517
▁синяк	-11.5517
▁богатство	-11.5518
▁Истин	-11.5519
▁играла	-11.552
▁богом	-11.552
▁известной	-11.552
▁крыльями	-11.5522
рри	-11.5526
pe	-11.5526
▁Путь	-11.5528
пси	-11.5529
▁пистолета	-11.553
▁ссор	-11.5531
▁всякую	-11.5532
▁плоды	-11.5532
▁мыслях	-11.5532
▁звонка	-11.5532
▁тра	-11.5533
дут	-11.5534
шков	-11.5534
▁скорей	-11.5535
▁вольно	-11.5536
стар	-11.5536
▁рожден	-11.5536
▁гас	-11.5537
оген	-11.5538
▁лез	-11.5538
▁определение	-11.5538
носят	-11.5539
лера	-11.554
▁предстал	-11.5543
▁просьбой	-11.5543
▁Ma	-11.5544
▁мальчишки	-11.5544
▁Эльф	-11.5545
▁гражданин	-11.5545
ork	-11.5546
▁произведение	-11.5547
исс	-11.5548
▁растущ	-11.5548
▁стремится	-11.555
▁желанн	-11.555
менял	-11.5551
ати	-11.5551
арев	-11.5551
▁воротам	-11.5551
верг	-11.5553
рика	-11.5553
ставив	-11.5554
▁отвечаю	-11.5554
▁ядовит	-11.5554
▁начав	-11.5555
▁позвонила	-11.5555
▁раздражение	-11.5555
без	-11.5556
▁сбил	-11.5558
летнего	-11.5558
▁слышишь	-11.556
▁великое	-11.556
▁куча	-11.5561
▁Валь	-11.5561
ab	-11.5561
▁роду	-11.5562
▁шляп	-11.5562
▁выбрался	-11.5563
▁Мад	-11.5563
▁отнести	-11.5563
▁анализа	-11.5564
▁быстрый	-11.5564
▁шторм	-11.5565
▁безопасность	-11.5565
▁фыркнула	-11.5565
▁грузов	-11.5566
▁сум	-11.5567
▁Лер	-11.5567
▁тускло	-11.5567
▁познания	-11.5567
▁батальона	-11.5568
опе	-11.5569
▁устроили	-11.5569
▁шахт	-11.5571
▁надеть	-11.5572
▁Тома	-11.5573
▁классов	-11.5573
▁трапез	-11.5573
▁видение	-11.5575
▁хода	-11.5575
▁камере	-11.5575
▁цветок	-11.5575
▁создает	-11.5576
ичная	-11.5576
▁славы	-11.5577
▁утверждать	-11.5578
▁племянник	-11.5579
▁юноши	-11.5579
▁необходимое	-11.558
рн	-11.5581
40	-11.5581
сор	-11.5583
▁мучил	-11.5583
▁огромными	-11.5587
ивших	-11.5587
▁табак	-11.5587
кен	-11.5588
▁предполагает	-11.5588
▁бойца	-11.559
▁хранил	-11.5593
мб	-11.5593
▁руководителя	-11.5594
▁щель	-11.5595
▁жертва	-11.5596
▁побежали	-11.5596
берите	-11.5598
▁влез	-11.5598
▁Дайте	-11.5599
▁увижу	-11.5599
▁потоп	-11.5599
▁шансов	-11.5601
▁животного	-11.5602
▁найдут	-11.5602
▁юге	-11.5603
▁горит	-11.5604
▁незнакомец	-11.5604
▁родитель	-11.5604
старел	-11.5605
▁полные	-11.5605
▁анекдот	-11.5606
▁рисунок	-11.5606
▁сходил	-11.5606
тел	-11.5606
▁свидание	-11.5607
▁строк	-11.5607
▁рассыпа	-11.5608
▁унес	-11.5608
▁Алис	-11.5609
▁пса	-11.561
▁основным	-11.5611
▁длинных	-11.5612
▁посмотрев	-11.5613
▁Вильгельм	-11.5615
▁счастливой	-11.5616
▁Лос	-11.5616
▁закрыт	-11.5617
▁установки	-11.5618
раш	-11.5619
▁хаос	-11.5619
▁Пад	-11.562
учить	-11.5621
▁снегом	-11.5622
▁Друг	-11.5623
▁опасаясь	-11.5625
▁свидетельствует	-11.5625
тии	-11.5625
▁яркий	-11.5626
▁часами	-11.5627
▁Бай	-11.5628
бросив	-11.5631
▁взлетел	-11.5632
▁привычка	-11.5632
▁испытание	-11.5633
▁Мог	-11.5633
яют	-11.5633
▁мае	-11.5633
йдут	-11.5634
man	-11.5636
▁высших	-11.5636
▁бро	-11.5636
▁Поль	-11.5638
▁76	-11.5638
em	-11.5639
▁монахи	-11.564
▁громким	-11.564
чиво	-11.5641
ённый	-11.5642
▁срока	-11.5642
уда	-11.5642
▁виднелись	-11.5643
▁Рос	-11.5643
90	-11.5644
▁фантаст	-11.5645
▁резким	-11.5645
правлен	-11.5646
▁Звезд	-11.5646
▁кормить	-11.5646
▁Вечер	-11.5649
▁шал	-11.5649
▁взаимо	-11.565
▁Пир	-11.5651
▁хол	-11.5652
▁выпад	-11.5654
яла	-11.5654
▁возможных	-11.5655
▁позитив	-11.5656
▁дошел	-11.5656
▁экземпляр	-11.5656
иде	-11.5658
жег	-11.5662
▁хруст	-11.5664
▁цилиндр	-11.5665
пись	-11.5665
▁мучитель	-11.5668
стов	-11.5668
▁острый	-11.5668
30	-11.5669
▁Кад	-11.567
▁Стой	-11.5671
▁большому	-11.5673
▁обошел	-11.5674
ящим	-11.5675
▁зол	-11.5675
▁мэр	-11.5676
▁произвести	-11.5679
▁Джесси	-11.568
▁XVII	-11.5681
ившие	-11.5681
▁слабости	-11.5682
▁острые	-11.5683
▁пролетел	-11.5683
▁приведет	-11.5684
▁закону	-11.5685
▁пружин	-11.5686
▁наруж	-11.5686
▁перец	-11.5686
▁вирус	-11.5687
кла	-11.5688
▁1938	-11.5688
▁стремился	-11.5689
вания	-11.569
▁науке	-11.569
льц	-11.5691
all	-11.5691
▁издали	-11.5692
▁играют	-11.5692
гну	-11.5693
▁заняли	-11.5694
▁превратились	-11.5695
▁простира	-11.5695
▁приключения	-11.5696
▁запрещен	-11.5696
▁долга	-11.5696
▁Курт	-11.5697
шься	-11.5699
▁отказа	-11.5699
▁Пик	-11.57
▁оценки	-11.5702
▁некоторой	-11.5703
▁застав	-11.5704
▁развит	-11.5704
▁обслужива	-11.5706
чук	-11.5706
▁долгий	-11.5707
▁полку	-11.5707
ослов	-11.5709
▁невинно	-11.5709
▁предал	-11.571
▁2003	-11.5711
▁сражение	-11.5711
▁поставлен	-11.5712
▁рога	-11.5713
▁живем	-11.5714
▁гитар	-11.5715
крой	-11.5715
ватым	-11.5716
▁Труд	-11.5718
▁Роб	-11.572
▁почтительно	-11.5721
▁поцеловала	-11.5724
▁довелось	-11.5724
▁написан	-11.5725
▁расходы	-11.5725
▁предположения	-11.5726
▁преимущественно	-11.5727
▁ящика	-11.5727
▁Георгий	-11.5728
▁паук	-11.5728
▁тщетно	-11.5728
▁Пушкина	-11.5729
еса	-11.5729
бург	-11.5729
▁ведро	-11.573
▁использование	-11.5731
▁матушка	-11.5731
▁пирамид	-11.5732
▁фашист	-11.5732
▁рассвете	-11.5733
▁башня	-11.5733
▁зиму	-11.5733
▁известным	-11.5733
▁Фей	-11.5734
чков	-11.5734
▁Элли	-11.5735
▁расширя	-11.5735
слал	-11.5737
▁9.	-11.5737
▁промолвил	-11.5738
▁Браун	-11.574
▁луны	-11.5741
▁прах	-11.5742
▁аспект	-11.5742
▁хороших	-11.5743
▁вниманием	-11.5744
▁лестница	-11.5744
▁яркие	-11.5744
▁Бро	-11.5746
▁пустить	-11.5747
▁пепел	-11.5747
▁бесплатно	-11.5748
▁шутки	-11.5748
ане	-11.575
▁удержаться	-11.5752
оте	-11.5753
бов	-11.5753
▁писали	-11.5754
▁Мест	-11.5755
очную	-11.5755
▁ок	-11.5756
▁бухгалтер	-11.5757
▁Послушайте	-11.5759
ill	-11.5759
▁сходить	-11.576
▁отрез	-11.576
▁брод	-11.576
зуб	-11.5761
▁подлинно	-11.5761
чками	-11.5761
▁Мысль	-11.5761
▁передумал	-11.5761
▁Игнат	-11.5762
▁Вася	-11.5765
▁негатив	-11.5765
▁энергией	-11.5767
вался	-11.5768
уйте	-11.5769
▁каст	-11.5769
▁успокоиться	-11.5769
▁границ	-11.5769
▁меняется	-11.577
глав	-11.577
▁Евгений	-11.5771
80	-11.5771
▁серой	-11.5772
▁изменений	-11.5772
▁научных	-11.5773
▁подругу	-11.5773
▁Разум	-11.5775
▁тягот	-11.5775
▁дыхания	-11.5776
▁озабочен	-11.5776
▁патруль	-11.5776
▁личное	-11.5777
ковал	-11.5777
▁притом	-11.5779
▁товаров	-11.5779
▁попало	-11.578
▁помогут	-11.5782
▁недоуменно	-11.5782
▁напасть	-11.5784
ведем	-11.5784
▁спрятаться	-11.5785
▁библиотеке	-11.5786
▁одержим	-11.5786
пустят	-11.5786
▁кардинал	-11.5786
▁Клянусь	-11.5786
▁Рак	-11.5787
лька	-11.5787
▁склону	-11.5787
▁Погоди	-11.5788
▁истину	-11.5789
▁Джонни	-11.5792
▁каса	-11.5793
уэ	-11.5794
ig	-11.5794
▁молодец	-11.5798
льных	-11.5801
анное	-11.5802
▁пользы	-11.5802
▁полосы	-11.5802
▁родину	-11.5802
▁застыла	-11.5807
▁2004	-11.5808
▁взмахнул	-11.581
▁современного	-11.5811
▁слушает	-11.5811
▁распахнулась	-11.5812
▁Весел	-11.5813
▁газета	-11.5813
▁завал	-11.5813
▁кустарник	-11.5813
▁смесь	-11.5817
бул	-11.582
▁хранить	-11.582
▁уехала	-11.582
▁великан	-11.582
▁трат	-11.582
▁Вернувшись	-11.5823
раду	-11.5823
▁ожидали	-11.5823
▁болит	-11.5824
▁лежало	-11.5825
▁Стэн	-11.5825
▁пункта	-11.5826
▁изменилась	-11.5828
▁уважаем	-11.5828
▁сообща	-11.583
▁серьезное	-11.5835
▁Час	-11.5835
▁поддержать	-11.5835
тке	-11.5837
▁64	-11.5837
чения	-11.5837
рча	-11.5838
▁Маргарет	-11.584
▁зеркале	-11.5841
▁свято	-11.5842
строй	-11.5842
▁провинции	-11.5842
▁лют	-11.5843
ико	-11.5844
▁смену	-11.5845
▁двойн	-11.5846
▁порога	-11.5847
▁легкостью	-11.5847
▁Двор	-11.5848
▁гнал	-11.5848
▁мужика	-11.5848
▁пострадал	-11.5849
лиц	-11.5849
▁маску	-11.585
▁Белый	-11.5851
▁мигом	-11.5852
▁информацией	-11.5852
▁обиды	-11.5853
▁Мэй	-11.5853
▁неверно	-11.5853
▁каменной	-11.5854
▁рады	-11.5854
▁суде	-11.5854
▁старается	-11.5856
▁действовал	-11.5857
▁заснул	-11.5857
▁Пит	-11.5859
▁Стоило	-11.586
▁интим	-11.586
▁середины	-11.5862
▁заместитель	-11.5862
▁сжима	-11.5863
▁высоком	-11.5863
▁Самый	-11.5863
▁предмета	-11.5864
▁творчества	-11.5865
ива	-11.5866
▁бросили	-11.5866
▁стрит	-11.5867
▁Андре	-11.5867
▁пустую	-11.5868
▁задержал	-11.5868
ийской	-11.5869
▁заход	-11.5869
▁ряду	-11.5869
▁испытывает	-11.5871
ставлять	-11.5873
▁Нэнси	-11.5874
▁музей	-11.5876
рог	-11.5876
▁практики	-11.5877
▁захвачен	-11.5878
▁отстав	-11.5879
▁обоим	-11.588
▁симпатичн	-11.5881
▁Кавказ	-11.5882
▁очистить	-11.5884
▁охота	-11.5885
▁шкур	-11.5885
▁57	-11.5887
мос	-11.5887
▁предоставлен	-11.5888
▁глухой	-11.5889
▁немецкого	-11.589
метров	-11.589
▁имен	-11.5891
▁хозяину	-11.5891
▁брошен	-11.5892
иска	-11.5895
ливые	-11.5897
▁эфир	-11.5898
этаж	-11.5898
▁поднимаясь	-11.59
▁заработал	-11.5901
ька	-11.5902
20	-11.5902
▁ищут	-11.5903
▁крон	-11.5904
зил	-11.5905
▁бережно	-11.5905
▁запретил	-11.5906
▁Карла	-11.5906
▁тысяча	-11.5907
▁демонов	-11.5908
щийся	-11.5909
▁согласны	-11.5911
▁уходили	-11.5911
▁способы	-11.5911
▁Джин	-11.5912
▁накрыл	-11.5913
▁Яр	-11.5913
▁Дро	-11.5913
▁депутат	-11.5913
▁варианты	-11.5914
▁улыбалась	-11.5915
▁продукт	-11.5915
шер	-11.5916
▁техника	-11.5918
▁понемногу	-11.5918
филд	-11.5919
▁покупать	-11.592
▁отреагировал	-11.592
▁качеств	-11.5921
▁сумела	-11.5922
мерт	-11.5922
рр	-11.5924
▁отеля	-11.5924
▁ребра	-11.5926
▁Душ	-11.5926
▁Поначалу	-11.5927
реж	-11.5928
▁воспринимал	-11.5928
▁Сор	-11.5929
▁описать	-11.5929
▁пожалел	-11.5929
▁прокричал	-11.593
▁содержания	-11.5932
евая	-11.5933
▁Ама	-11.5934
анты	-11.5936
▁подобный	-11.5936
▁представляли	-11.5939
▁Помните	-11.594
▁4)	-11.5941
▁вооружение	-11.5941
▁полицейских	-11.5941
▁пыла	-11.5942
▁личных	-11.5943
▁полдень	-11.5943
▁Анны	-11.5943
▁r	-11.5943
▁краски	-11.5943
▁серьезный	-11.5944
▁Цз	-11.5944
▁Снег	-11.5944
▁мешало	-11.5945
анных	-11.5946
▁наличии	-11.5946
▁бюджет	-11.5946
▁Советский	-11.5948
▁обратном	-11.5949
▁переживания	-11.5949
▁укреплен	-11.5949
▁теоретически	-11.5952
▁Эв	-11.5953
щет	-11.5955
ковать	-11.5955
▁девяносто	-11.5956
рве	-11.5956
▁ловил	-11.5957
очная	-11.5959
▁очаг	-11.596
▁общественного	-11.5963
▁участник	-11.5963
▁Буд	-11.5964
▁тьмы	-11.5964
▁повторяю	-11.5964
▁склонился	-11.5964
▁Фред	-11.5964
▁выслушал	-11.5965
▁акцент	-11.5966
▁забота	-11.5968
▁короткой	-11.5969
▁кончится	-11.597
▁обморок	-11.5971
▁насыщен	-11.5972
пля	-11.5972
▁погладил	-11.5974
▁рассуждения	-11.5974
шет	-11.5975
эд	-11.5976
рывается	-11.5976
▁нижней	-11.5976
▁драма	-11.5976
писан	-11.5977
▁страшной	-11.598
▁лишил	-11.5981
▁народы	-11.5982
▁интересах	-11.5982
▁находясь	-11.5983
ственные	-11.5986
▁прочее	-11.5987
▁состояла	-11.5988
▁рукава	-11.5988
▁помнила	-11.5988
▁Бах	-11.5989
▁практика	-11.5991
▁кузен	-11.5992
ственный	-11.5992
▁Рог	-11.5992
▁закурил	-11.5995
▁истерик	-11.5995
▁кустов	-11.5996
▁человеческое	-11.5997
▁присутствия	-11.5997
▁тревогу	-11.5998
▁посол	-11.5999
▁тяжко	-11.5999
▁парашют	-11.6002
▁жанр	-11.6003
▁заботы	-11.6004
▁заставив	-11.6004
реза	-11.6005
▁отбор	-11.6005
▁выдох	-11.6005
▁стихий	-11.6005
▁копыт	-11.6006
▁поесть	-11.6008
▁Август	-11.6008
▁Дженни	-11.6008
▁защита	-11.6009
▁Круп	-11.601
▁отсутствовал	-11.6011
овских	-11.6012
▁горячий	-11.6013
▁приходило	-11.6013
▁выгодно	-11.6014
▁довести	-11.6014
▁молчит	-11.6014
▁Брайан	-11.6015
▁квартал	-11.6015
▁дождем	-11.6017
▁температура	-11.6018
▁яйцо	-11.6019
▁конференции	-11.602
▁трактир	-11.602
▁Луч	-11.6022
▁средней	-11.6022
▁съел	-11.6022
▁прибыль	-11.6025
▁Указ	-11.6025
▁опасения	-11.6026
▁родных	-11.6027
ard	-11.6027
▁движется	-11.6028
крутил	-11.6028
▁говорим	-11.6028
▁опытом	-11.603
▁пауза	-11.6032
цо	-11.6032
▁Корн	-11.6035
▁точке	-11.6036
абель	-11.6036
▁посмотрели	-11.6037
учен	-11.6037
коне	-11.6038
▁стоимость	-11.6039
▁учили	-11.6042
▁стат	-11.6042
▁поступки	-11.6043
▁арбалет	-11.6044
ОМ	-11.6044
▁согре	-11.6044
▁бензин	-11.6046
▁опасным	-11.6046
▁резкий	-11.6047
▁языков	-11.6048
v	-11.6048
▁спуститься	-11.6052
▁прекрасным	-11.6053
▁перерыв	-11.6054
▁следователь	-11.6054
▁Гам	-11.6055
▁сведений	-11.6055
живает	-11.6056
▁свидетелей	-11.6056
▁открывает	-11.6058
▁операций	-11.6058
вре	-11.606
тягивать	-11.6061
▁думай	-11.6063
ывают	-11.6065
▁некому	-11.6065
▁соглас	-11.6065
кладывает	-11.6066
▁Дорога	-11.6067
▁больницы	-11.6068
▁Гус	-11.6068
▁отпустить	-11.6069
▁помощника	-11.6069
▁бер	-11.6069
▁Лично	-11.6071
▁бегом	-11.6071
оже	-11.6071
▁Тип	-11.6073
▁Имя	-11.6073
▁убийств	-11.6075
▁объединен	-11.6075
▁Ним	-11.6077
▁вспоминает	-11.6078
▁Блэк	-11.6079
▁горизонта	-11.6079
▁познакомился	-11.6081
▁знакомство	-11.6081
▁уход	-11.6083
▁приз	-11.6083
нимая	-11.6084
▁вещами	-11.6084
▁детской	-11.6087
▁летать	-11.6087
нна	-11.6089
вра	-11.6089
дне	-11.6089
▁соединения	-11.6089
▁лазер	-11.6089
рид	-11.609
▁1930	-11.609
▁орал	-11.6092
▁Америка	-11.6093
▁микрофон	-11.6093
▁Станислав	-11.6094
▁свиреп	-11.6094
ъяв	-11.6094
рожден	-11.6095
оном	-11.6096
альт	-11.6096
▁поврежден	-11.6097
евшие	-11.6098
▁имелись	-11.6098
▁нагло	-11.6098
▁Любой	-11.6099
▁Отчего	-11.6101
▁четверт	-11.6103
нами	-11.6104
▁Шест	-11.6104
▁гуд	-11.6105
▁снаряд	-11.6107
▁листов	-11.6108
▁дорогие	-11.6108
▁Жанна	-11.6108
▁Молод	-11.6109
петь	-11.611
▁Сиг	-11.611
▁противников	-11.6111
▁жалобно	-11.6111
▁широким	-11.6112
▁личным	-11.6112
▁Кэт	-11.6113
▁упоминал	-11.6114
йра	-11.6114
▁подчиня	-11.6115
▁поплыл	-11.6116
тара	-11.6116
▁американского	-11.6117
▁обоснова	-11.6117
▁отвратительно	-11.6118
▁основу	-11.6121
▁повести	-11.6121
▁требуют	-11.6121
▁камин	-11.6122
▁найдем	-11.6122
битые	-11.6123
▁Дур	-11.6123
▁собственному	-11.6124
▁охоты	-11.6124
▁проблемой	-11.6124
▁бледн	-11.6126
▁ресторане	-11.6127
тических	-11.6127
▁доброй	-11.6128
▁мертвым	-11.6128
▁позе	-11.6129
▁войной	-11.6129
▁стрелял	-11.6129
▁надела	-11.613
чны	-11.613
▁идеолог	-11.613
▁частенько	-11.6131
▁утверждение	-11.6132
▁степи	-11.6133
шаяся	-11.6133
▁позволили	-11.6133
звон	-11.6136
вле	-11.6136
чел	-11.6138
▁обращения	-11.6142
▁Рев	-11.6142
▁Место	-11.6143
▁коснулась	-11.6143
▁разочарование	-11.6144
гроб	-11.6144
▁женщинам	-11.6145
тора	-11.6145
▁канат	-11.6145
▁лампы	-11.6146
▁пишу	-11.6147
▁Воздух	-11.6148
▁сайт	-11.6148
▁сбоку	-11.6148
▁ступени	-11.615
▁пуш	-11.615
▁закончился	-11.615
▁поэзии	-11.6151
крытый	-11.6152
▁сняли	-11.6153
▁бешено	-11.6153
▁криком	-11.6154
▁артиллерии	-11.6156
▁удержался	-11.6156
▁алмаз	-11.6156
▁120	-11.6157
▁реакцию	-11.6158
тёр	-11.6159
чёт	-11.6161
▁республик	-11.6161
▁сер	-11.6162
▁тяжелое	-11.6162
▁отража	-11.6162
▁Чита	-11.6163
▁Юли	-11.6165
иты	-11.6165
цкий	-11.6166
мерз	-11.6167
▁исключено	-11.6168
▁исправ	-11.6168
▁посылал	-11.6168
▁разбит	-11.6169
▁обстановка	-11.617
оты	-11.6172
лях	-11.6173
▁саму	-11.6175
▁встав	-11.6176
▁ежели	-11.6178
▁победил	-11.6178
▁рыда	-11.6179
▁Мус	-11.6179
ce	-11.6181
тельство	-11.6183
▁снимал	-11.6183
▁учетом	-11.6184
▁известие	-11.6185
▁размера	-11.6185
▁убийц	-11.6187
▁писала	-11.6187
▁Ноги	-11.6187
▁обыск	-11.6187
▁залива	-11.619
▁осужден	-11.619
▁измучен	-11.6191
спор	-11.6192
АН	-11.6195
рги	-11.6196
▁враждеб	-11.6198
росс	-11.6198
▁разделить	-11.6199
▁чайник	-11.62
▁Черно	-11.6201
▁Роланд	-11.6201
▁родителями	-11.6202
▁шуб	-11.6202
давались	-11.6202
▁несчаст	-11.6203
▁преступник	-11.6204
мунд	-11.6204
▁двигателя	-11.6204
считать	-11.6205
▁наблюдатель	-11.6205
▁Хорош	-11.6205
дает	-11.6206
▁источником	-11.6208
▁зеленых	-11.6208
▁пропустить	-11.621
X	-11.6211
▁книгах	-11.6212
седа	-11.6213
▁страшные	-11.6213
▁тыл	-11.6213
▁прижалась	-11.6213
▁наблюдали	-11.6214
▁напомнить	-11.6216
▁ед	-11.6216
▁ап	-11.6217
▁спасать	-11.6219
▁устраивает	-11.6219
▁Алексея	-11.6219
▁старому	-11.6223
билась	-11.6224
▁вправе	-11.6225
▁спутников	-11.6225
кля	-11.6225
унов	-11.6225
▁усилием	-11.6226
▁глас	-11.6227
▁давным	-11.6228
▁подарки	-11.6228
▁пальм	-11.6229
▁Юн	-11.623
▁востоке	-11.6231
▁потеряв	-11.6231
▁севере	-11.6232
▁охрана	-11.6232
▁солнечный	-11.6233
▁западной	-11.6233
▁представлять	-11.6234
▁печали	-11.6234
▁Восток	-11.6235
▁Бег	-11.6235
▁Ух	-11.6237
▁мех	-11.6238
▁маленькими	-11.6238
▁приходила	-11.6239
▁Церковь	-11.6239
▁краем	-11.624
▁Нового	-11.624
▁просьба	-11.6241
▁возвращении	-11.6241
▁Эг	-11.6242
▁юноше	-11.6242
▁Сперва	-11.6242
▁маленьком	-11.6244
▁поглощен	-11.6244
▁тьму	-11.6245
▁Белл	-11.6246
▁убитых	-11.6246
▁возвращались	-11.6247
▁туч	-11.6247
▁Альфред	-11.6247
▁разбил	-11.6248
▁расправ	-11.6249
▁определенной	-11.6249
▁уродлив	-11.6251
▁слыхал	-11.6253
▁паре	-11.6254
▁образы	-11.6255
вернул	-11.6257
▁пачку	-11.6257
▁видения	-11.6257
▁диет	-11.6258
▁обрел	-11.6259
▁Медленно	-11.626
▁сотрудники	-11.6261
▁Буш	-11.6262
▁средних	-11.6263
▁полог	-11.6264
▁короче	-11.6264
▁подошёл	-11.6265
▁красив	-11.6265
▁Зелен	-11.6266
▁нетерпением	-11.6267
▁пещеру	-11.6267
▁хороша	-11.6268
дно	-11.6269
▁зрение	-11.6272
▁сохранять	-11.6273
крыть	-11.6273
▁происхождение	-11.6274
▁счёт	-11.6275
▁обращать	-11.6276
▁Тимур	-11.6276
▁летопис	-11.6277
▁конкурент	-11.6278
▁прихода	-11.6278
▁Зал	-11.6278
▁быстрым	-11.6279
▁Раб	-11.6279
▁железа	-11.628
▁связаться	-11.628
▁прекращ	-11.6282
▁уточн	-11.6283
▁процессы	-11.6285
▁готовый	-11.6285
▁переехал	-11.6286
▁технологии	-11.6286
эк	-11.6286
▁украшения	-11.6287
▁бормотал	-11.6288
▁одиноко	-11.6288
▁висела	-11.6289
центр	-11.6291
▁сенатор	-11.6291
▁пропустил	-11.6294
▁www	-11.6294
▁фланг	-11.6295
меха	-11.6296
▁выдохнула	-11.6296
▁зритель	-11.6298
▁ответили	-11.6299
▁поспешила	-11.6299
ливает	-11.6299
▁парой	-11.6301
▁2001	-11.6302
▁исключения	-11.6302
▁струн	-11.6303
▁Рима	-11.6303
▁Вей	-11.6305
▁духовной	-11.6306
▁национальной	-11.6306
▁фонарь	-11.6307
дера	-11.6307
▁падение	-11.6307
жог	-11.6308
▁Рам	-11.6308
евых	-11.6309
▁завяз	-11.6309
▁организовал	-11.631
▁попыток	-11.6312
цин	-11.6312
▁оставлен	-11.6314
тру	-11.6315
▁синий	-11.6315
▁кида	-11.6317
▁встречается	-11.6317
елем	-11.6317
▁конструктор	-11.6318
▁простит	-11.6318
▁изучения	-11.6318
▁Дем	-11.6319
▁график	-11.6319
тирать	-11.632
▁отныне	-11.632
▁корзин	-11.6321
▁упомянул	-11.6322
▁тарелки	-11.6324
▁показывают	-11.6325
▁длинную	-11.6325
▁накопи	-11.6326
стоян	-11.6327
ализм	-11.6328
▁Следует	-11.6329
лоб	-11.633
▁священника	-11.6331
▁Старший	-11.6332
▁истинно	-11.6332
одо	-11.6334
▁оборону	-11.6334
▁газов	-11.6335
ge	-11.6335
▁што	-11.6336
▁блюда	-11.6336
▁умело	-11.6337
истую	-11.6337
▁захватил	-11.6339
▁тьме	-11.634
▁веришь	-11.634
▁лю	-11.634
▁доказательство	-11.6342
▁вставал	-11.6342
▁руководитель	-11.6343
▁пленных	-11.6343
▁послышались	-11.6343
мес	-11.6344
▁запасы	-11.6345
▁подвел	-11.6345
▁низким	-11.6345
ньем	-11.6348
▁виновата	-11.6348
▁дедушка	-11.635
▁Даша	-11.6351
▁положительно	-11.6352
ЕС	-11.6352
▁патрул	-11.6352
▁нехотя	-11.6352
пив	-11.6353
▁сильная	-11.6353
▁правый	-11.6353
▁вздохнув	-11.6353
▁воспоминание	-11.6354
▁тише	-11.6355
▁мудрость	-11.6355
▁отодвинул	-11.6355
▁предметом	-11.6355
▁цит	-11.6355
▁плет	-11.6356
▁промах	-11.6356
▁Вначале	-11.6357
▁Элен	-11.6357
▁звонить	-11.6357
▁re	-11.6358
ированные	-11.6359
▁шёл	-11.636
▁крепкий	-11.6362
▁монастыре	-11.6362
▁Ура	-11.6362
▁благодарен	-11.6365
▁американцы	-11.6366
гнув	-11.6367
▁Кана	-11.6367
▁пласт	-11.6368
▁противником	-11.6368
▁съем	-11.6371
▁внутренним	-11.6372
▁потребности	-11.6373
▁Гордон	-11.6373
▁ходом	-11.6373
▁Баг	-11.6374
▁неопределенно	-11.6374
▁возникают	-11.6374
▁упрек	-11.6374
▁испытывала	-11.6375
▁искажен	-11.6375
▁Черн	-11.6375
▁загадочно	-11.6375
щин	-11.6376
▁комитета	-11.6376
▁рассвета	-11.6379
▁Угу	-11.638
▁окраин	-11.638
▁Лад	-11.6382
▁ошиб	-11.6383
шай	-11.6384
▁приятным	-11.6384
ийского	-11.6384
▁комплимент	-11.6386
▁грохотом	-11.6386
▁пирож	-11.6386
▁перо	-11.6387
▁опираясь	-11.6389
ждение	-11.6389
▁ответом	-11.6389
▁крестьяне	-11.6389
▁нехорошо	-11.639
▁владельца	-11.639
▁поколение	-11.639
▁высот	-11.6392
▁внешность	-11.6393
шло	-11.6393
▁Зуб	-11.6394
▁храни	-11.6395
▁вызвала	-11.6396
▁лицами	-11.6399
▁гора	-11.6399
▁лодке	-11.6399
ow	-11.6399
▁воспитан	-11.6399
сыпан	-11.64
▁завтрака	-11.64
▁желудок	-11.6401
▁дворцов	-11.6402
▁книжку	-11.6402
▁добрым	-11.6402
▁дерьмо	-11.6407
▁съезд	-11.6408
▁образов	-11.6408
▁грави	-11.6408
▁ружья	-11.6409
овская	-11.641
▁рыцаря	-11.641
▁тренер	-11.6411
▁били	-11.6411
▁частиц	-11.6411
ver	-11.6412
▁талию	-11.6415
ставляя	-11.6415
▁колон	-11.6415
▁зрителей	-11.6415
▁битве	-11.6415
ti	-11.6416
▁кадр	-11.6416
▁произведен	-11.6417
▁худо	-11.6417
▁беззвучно	-11.6418
веш	-11.6418
▁тревож	-11.6418
▁Лори	-11.6419
▁скул	-11.642
▁мини	-11.6421
чение	-11.6421
▁карманы	-11.6424
▁Ер	-11.6425
шар	-11.6425
▁ловушку	-11.6427
▁упали	-11.6427
▁злости	-11.6428
▁позиция	-11.6428
▁оставшихся	-11.6428
▁разочарован	-11.6429
▁днях	-11.6429
▁инвалид	-11.643
▁табл	-11.643
▁восхища	-11.6431
▁Сур	-11.6431
▁адмирала	-11.6431
▁Грег	-11.6433
анными	-11.6433
▁Рыж	-11.6434
▁судеб	-11.6434
▁Виктора	-11.6435
рица	-11.6436
▁наивно	-11.6436
лью	-11.6436
▁доверия	-11.6436
▁волка	-11.6437
▁Стефан	-11.6438
▁перелом	-11.644
▁тяну	-11.644
▁уверенностью	-11.6441
купа	-11.6441
▁доверял	-11.6441
▁безопасно	-11.6442
▁свят	-11.6443
▁искусстве	-11.6444
▁приедет	-11.6444
▁августе	-11.6445
▁войн	-11.6445
▁издания	-11.6446
▁страшным	-11.6446
кнуть	-11.6446
рона	-11.6446
▁мягкой	-11.6447
шнюю	-11.6448
▁бросать	-11.6448
лі	-11.6449
▁Дим	-11.645
чится	-11.6452
плю	-11.6452
▁воздухом	-11.6454
▁крыло	-11.6454
▁выпуска	-11.6455
▁процедил	-11.6457
ивали	-11.6459
▁материи	-11.6459
▁зна	-11.6459
▁сложив	-11.646
▁натура	-11.646
▁тронул	-11.646
▁Холод	-11.6461
▁серебр	-11.6461
▁морем	-11.6461
▁72	-11.6461
[...]
