<unk>	0
<s>	0
</s>	0
<|endoftext|>	0
<|конец|>	0
<|n|>	0
,	-2.60598
.	-2.98195
▁и	-3.85691
▁в	-4.06304
▁—	-4.29748
▁не	-4.32993
▁на	-4.51816
▁с	-4.76886
▁–	-4.78527
▁что	-4.79437
а	-4.81406
▁	-4.98096
-	-5.02675
?	-5.20575
и	-5.30665
▁я	-5.36187
е	-5.36393
▁по	-5.43334
▁он	-5.47167
▁как	-5.51605
▁к	-5.5224
!	-5.55463
▁за	-5.5731
▁его	-5.63974
▁«	-5.64278
:	-5.68231
...	-5.71428
▁из	-5.72513
у	-5.75156
▁от	-5.77919
▁у	-5.7906
▁а	-5.8109
▁это	-5.8566
м	-5.87611
▁Я	-5.9285
▁все	-5.95915
▁-	-5.9624
то	-5.96891
▁но	-5.96936
▁о	-6.00941
▁А	-6.01845
ы	-6.0229
▁И	-6.0276
▁же	-6.0652
▁В	-6.06639
▁было	-6.18589
▁так	-6.18832
▁она	-6.2195
о	-6.22999
ом	-6.2396
▁бы	-6.26749
▁вы	-6.30339
▁меня	-6.3333
▁ее	-6.33531
▁то	-6.35773
й	-6.35939
▁Но	-6.37394
▁Он	-6.41127
ов	-6.44719
▁до	-6.44819
▁был	-6.46859
▁для	-6.48186
»	-6.48556
▁мне	-6.48984
▁ты	-6.50474
▁только	-6.52044
▁еще	-6.56675
я	-6.56804
▁их	-6.58333
▁они	-6.60552
▁уже	-6.61583
▁чтобы	-6.63244
х	-6.63261
▁мы	-6.63642
▁когда	-6.64969
ся	-6.66064
▁(	-6.66095
▁под	-6.68028
▁при	-6.74476
▁или	-6.75826
▁Не	-6.77414
▁раз	-6.78803
▁С	-6.8497
ой	-6.85386
▁ему	-6.88392
▁если	-6.89889
ми	-6.90902
▁со	-6.92228
▁ни	-6.92343
▁На	-6.9569
▁чем	-6.99598
;	-7.00228
▁Это	-7.00742
▁даже	-7.0083
▁была	-7.02007
ю	-7.02269
▁Да	-7.02874
▁себя	-7.03523
».	-7.03638
▁У	-7.0724
▁него	-7.07344
▁сказал	-7.07357
▁время	-7.07426
▁ли	-7.07742
▁были	-7.08009
ами	-7.08892
ка	-7.09039
ный	-7.1071
го	-7.124
▁про	-7.13429
▁Она	-7.13902
ной	-7.1725
ные	-7.17717
▁того	-7.19392
▁во	-7.19697
▁По	-7.21176
▁будет	-7.22689
▁очень	-7.22731
▁быть	-7.2281
▁где	-7.23289
▁может	-7.24546
▁есть	-7.25588
▁нас	-7.25809
▁об	-7.26403
▁этого	-7.26441
ли	-7.28599
ных	-7.28832
▁кто	-7.30191
▁этом	-7.31778
▁без	-7.3197
▁Что	-7.32676
▁Ты	-7.33482
▁тебя	-7.33492
ки	-7.34724
▁Как	-7.35699
▁себе	-7.35798
▁нет	-7.36138
)	-7.37501
с	-7.37502
▁там	-7.38546
▁том	-7.39699
▁них	-7.41221
»,	-7.41397
ного	-7.43523
ная	-7.43531
ая	-7.43659
ет	-7.4564
▁больше	-7.45945
▁просто	-7.46546
▁вот	-7.46914
▁этот	-7.47106
▁ничего	-7.47235
▁можно	-7.4738
▁Ну	-7.47671
▁Вы	-7.4785
л	-7.499
▁Если	-7.4999
т	-7.50072
ть	-7.50185
▁тут	-7.50307
▁тебе	-7.5251
▁который	-7.5258
в	-7.5394
▁после	-7.53959
▁ей	-7.54098
▁вас	-7.54408
▁которые	-7.54983
▁здесь	-7.56258
▁тоже	-7.57162
ый	-7.5761
▁Так	-7.57701
▁да	-7.57724
ным	-7.57924
▁За	-7.58877
▁Мы	-7.5892
▁один	-7.58927
▁теперь	-7.59532
▁потом	-7.60113
▁К	-7.60165
▁О	-7.61529
на	-7.61963
▁сейчас	-7.62001
▁тем	-7.62494
▁ним	-7.63294
▁"	-7.63975
▁через	-7.64669
▁более	-7.64766
▁всех	-7.67472
▁несколько	-7.67788
▁всего	-7.67909
▁глаза	-7.68251
ах	-7.68289
ную	-7.68371
ые	-7.68499
за	-7.68654
▁Все	-7.6869
ку	-7.68806
▁Вот	-7.69092
но	-7.69615
▁Они	-7.71169
▁человек	-7.71382
▁надо	-7.72227
▁перед	-7.72912
▁ней	-7.73403
ла	-7.73462
▁вам	-7.74425
▁лишь	-7.74796
▁над	-7.74992
▁лет	-7.75627
▁своей	-7.75862
▁пока	-7.76348
▁г	-7.78039
▁нам	-7.7811
ых	-7.78749
▁тот	-7.79525
▁сам	-7.79754
▁им	-7.80104
нибудь	-7.80201
ого	-7.80695
▁Когда	-7.80859
▁мог	-7.81348
ей	-7.8142
▁жизни	-7.82497
▁пере	-7.83121
▁Нет	-7.84521
▁свою	-7.85529
▁снова	-7.85572
▁потому	-7.85871
▁этой	-7.86911
ым	-7.88217
ем	-7.8934
ую	-7.89395
▁эти	-7.90612
▁всегда	-7.90743
ное	-7.90788
▁нее	-7.92258
ам	-7.9293
▁такой	-7.93313
▁много	-7.93466
▁почти	-7.95345
▁тогда	-7.95353
▁день	-7.95573
▁ведь	-7.95932
▁чего	-7.96964
▁дело	-7.97822
▁руки	-7.98254
▁спросил	-7.98891
▁людей	-8.01118
ий	-8.01493
▁два	-8.01992
▁между	-8.02356
▁При	-8.04157
▁хотя	-8.04414
▁своих	-8.04612
ь	-8.0476
▁стал	-8.05295
▁никогда	-8.05324
▁знаю	-8.05511
▁совсем	-8.06258
▁своего	-8.06361
▁собой	-8.06379
▁свои	-8.06473
▁какой	-8.07009
▁сразу	-8.07844
му	-8.0789
▁*	-8.08065
▁года	-8.08274
▁жизнь	-8.08537
лись	-8.0858
).	-8.09171
▁нужно	-8.09208
▁времени	-8.09363
ок	-8.10222
▁Мне	-8.1031
к	-8.10987
ке	-8.1102
▁сказала	-8.11132
▁словно	-8.11929
▁сказать	-8.13267
▁голову	-8.13429
н	-8.13658
▁уж	-8.13876
▁почему	-8.13952
▁люди	-8.14422
▁руку	-8.15011
▁хорошо	-8.15374
▁мой	-8.16883
▁человека	-8.17078
ия	-8.17584
ном	-8.18239
ют	-8.18543
▁именно	-8.19523
▁вдруг	-8.19581
ись	-8.20945
▁будто	-8.21378
▁ответил	-8.21921
▁От	-8.22215
лась	-8.22376
сти	-8.22569
не	-8.22641
ными	-8.23046
▁лучше	-8.23397
ется	-8.23478
ие	-8.23507
▁которой	-8.23747
▁всем	-8.24075
▁вместе	-8.24287
▁быстро	-8.24372
▁тех	-8.25086
▁слишком	-8.25204
▁ко	-8.25313
▁Его	-8.25861
▁куда	-8.25887
▁слова	-8.259
▁друг	-8.26713
▁три	-8.26874
▁должен	-8.26951
▁которая	-8.27064
▁всё	-8.27205
▁свой	-8.27227
▁конечно	-8.28577
▁рядом	-8.29587
лся	-8.29613
▁другой	-8.29933
▁М	-8.30147
▁лицо	-8.30497
▁также	-8.30656
▁эту	-8.31319
ться	-8.31443
те	-8.32011
ло	-8.32311
▁такое	-8.33011
),	-8.33224
▁тому	-8.33559
▁назад	-8.33756
▁которых	-8.33962
"	-8.34143
▁могу	-8.34173
▁те	-8.34309
▁свое	-8.34486
▁этих	-8.35317
▁сторону	-8.35451
ской	-8.35505
▁своим	-8.3615
▁место	-8.36263
▁Только	-8.36934
▁голос	-8.37804
ский	-8.38097
ое	-8.38405
▁этим	-8.38591
ского	-8.38592
▁знал	-8.38844
▁Из	-8.3951
ны	-8.39825
▁случае	-8.40249
▁дома	-8.40582
▁стороны	-8.40618
кой	-8.40865
▁которого	-8.41315
▁Однако	-8.41507
▁вообще	-8.41626
ит	-8.42303
▁немного	-8.42579
д	-8.42717
▁мной	-8.42772
▁сделать	-8.43313
▁дверь	-8.43519
▁никто	-8.43751
ъ	-8.43764
▁одной	-8.43863
сть	-8.43985
▁совершенно	-8.4444
▁головой	-8.44465
им	-8.44588
▁чуть	-8.44879
▁Теперь	-8.4515
▁делать	-8.45351
ить	-8.45969
ен	-8.46032
▁эта	-8.46111
▁против	-8.46372
ию	-8.46521
▁её	-8.46769
ась	-8.47825
▁взгляд	-8.48343
▁прямо	-8.48569
▁До	-8.48595
по	-8.49214
▁самом	-8.49417
▁хотел	-8.49563
▁пор	-8.50531
▁одного	-8.51271
▁рас	-8.51638
▁Может	-8.5186
▁ещё	-8.52375
▁кого	-8.52477
▁То	-8.52911
▁точно	-8.5417
▁хоть	-8.54628
▁видел	-8.55332
ни	-8.55344
та	-8.56329
▁затем	-8.5647
▁понял	-8.57288
▁других	-8.58132
▁должны	-8.58403
▁стало	-8.58885
▁действительно	-8.59098
▁После	-8.59286
▁образом	-8.59356
▁вопрос	-8.59391
▁могла	-8.59534
▁т	-8.60328
▁говорил	-8.60332
▁ними	-8.60488
▁одно	-8.60561
▁деле	-8.60631
▁которую	-8.60793
▁сегодня	-8.60948
▁Кто	-8.61395
▁двух	-8.6148
▁говорит	-8.615
▁одна	-8.61515
▁наконец	-8.61646
▁момент	-8.61909
▁вокруг	-8.61927
▁оно	-8.6286
▁всю	-8.62871
▁мир	-8.62926
да	-8.63199
таки	-8.6382
▁начал	-8.64691
▁нему	-8.64732
▁Потом	-8.64875
▁моей	-8.6499
▁Про	-8.65315
▁Во	-8.65322
▁могут	-8.65971
▁долго	-8.66142
▁равно	-8.66152
▁нем	-8.66614
В	-8.67106
▁дальше	-8.67456
▁минут	-8.68021
▁Там	-8.68363
▁месте	-8.68541
ось	-8.68982
▁хочу	-8.69032
▁таким	-8.69135
▁значит	-8.69253
▁Тогда	-8.69644
▁могли	-8.69746
▁году	-8.6983
▁такие	-8.70061
▁самого	-8.70122
▁будут	-8.70216
▁весь	-8.70499
▁стоит	-8.70528
▁Для	-8.70715
▁опять	-8.70914
▁две	-8.70952
▁ж	-8.71231
С	-8.7131
▁дом	-8.71379
▁Почему	-8.71756
!»	-8.72204
▁дня	-8.72486
▁свет	-8.72659
▁кажется	-8.72675
▁стали	-8.72947
▁которое	-8.72993
ин	-8.73053
▁ноги	-8.73063
▁П	-8.73438
А	-8.73638
▁мало	-8.74043
▁какие	-8.7408
ыми	-8.74126
▁та	-8.74161
ясь	-8.74525
▁конце	-8.74548
?!	-8.75266
ков	-8.75333
▁моя	-8.75412
▁нельзя	-8.75643
▁каждый	-8.75647
р	-8.75834
ш	-8.75912
сь	-8.76081
▁давно	-8.76091
лось	-8.76128
▁среди	-8.76272
ются	-8.76997
▁сама	-8.77267
▁сюда	-8.77394
▁едва	-8.78141
▁часть	-8.78226
▁сделал	-8.78233
▁мои	-8.78447
▁увидел	-8.78541
г	-8.78753
▁решил	-8.78796
▁поэтому	-8.78979
▁говорить	-8.79175
▁знает	-8.79253
▁Под	-8.79377
▁туда	-8.79559
▁Или	-8.79921
▁мысли	-8.79933
ко	-8.80231
▁1	-8.80815
▁заметил	-8.80838
▁дела	-8.8126
ну	-8.81701
▁рукой	-8.81738
▁такого	-8.81798
▁ответ	-8.82327
▁прежде	-8.82416
▁другие	-8.83004
▁стала	-8.83128
или	-8.83194
▁Конечно	-8.83389
▁вполне	-8.83597
▁раньше	-8.83713
▁казалось	-8.84154
▁этому	-8.84632
▁той	-8.8515
▁Даже	-8.85195
▁достаточно	-8.85429
их	-8.85746
▁глазами	-8.85857
з	-8.85926
ят	-8.86082
▁отец	-8.86242
▁глаз	-8.86244
▁друга	-8.86369
▁хотелось	-8.86608
▁сколько	-8.8675
▁первый	-8.86791
ил	-8.86812
▁буду	-8.8698
▁посмотрел	-8.87155
▁места	-8.87385
ному	-8.87404
▁тело	-8.87849
▁пол	-8.87941
e	-8.88053
ских	-8.88235
б	-8.88404
▁тобой	-8.88445
▁Т	-8.88528
▁вновь	-8.88784
▁медленно	-8.88967
▁спросила	-8.88988
▁полу	-8.89079
▁2	-8.8935
▁Г	-8.89415
▁часто	-8.8945
▁вперед	-8.89563
▁3	-8.8998
▁таких	-8.90056
▁довольно	-8.90357
▁кроме	-8.90438
п	-8.90495
▁начала	-8.90666
▁год	-8.9072
ские	-8.91198
▁сил	-8.91342
▁Еще	-8.91489
▁подумал	-8.91653
ч	-8.91862
▁должна	-8.91986
▁пришлось	-8.92198
▁сердце	-8.92395
▁кивнул	-8.92591
▁стоял	-8.92983
▁женщина	-8.93246
–	-8.93348
ком	-8.93456
ев	-8.93544
▁пять	-8.9375
▁тихо	-8.9385
ец	-8.93983
▁двери	-8.94029
▁однако	-8.94076
▁менее	-8.94079
▁деньги	-8.94159
▁своем	-8.94262
ская	-8.94265
▁Ни	-8.94309
▁самое	-8.94512
▁котором	-8.94851
от	-8.94882
▁Ведь	-8.95015
▁Б	-8.9515
▁смерти	-8.95174
ешь	-8.95754
▁знать	-8.95907
▁Д	-8.9613
▁ночь	-8.96219
▁“	-8.96262
▁особенно	-8.96427
▁слово	-8.96429
ля	-8.96629
▁силы	-8.96663
▁правда	-8.96677
▁ту	-8.96998
▁лица	-8.97597
▁город	-8.98024
▁одну	-8.98173
▁удалось	-8.98175
▁моего	-8.9826
▁пути	-8.98373
▁части	-8.98664
▁нашей	-8.9867
▁Хотя	-8.98799
▁понять	-8.98852
▁всей	-8.98871
▁мере	-8.99588
▁возможно	-8.99657
▁большой	-8.99913
▁произнес	-8.99929
▁имя	-9.00037
▁сильно	-9.00284
▁руками	-9.00295
▁Со	-9.0039
▁Поэтому	-9.0041
▁работы	-9.00435
▁руках	-9.0059
▁ну	-9.0082
▁самой	-9.00988
▁наши	-9.01178
▁следует	-9.0123
▁думал	-9.01479
▁Сейчас	-9.01507
▁легко	-9.01554
▁взял	-9.01707
▁вид	-9.01842
▁девушка	-9.01982
▁войны	-9.01993
▁сами	-9.02295
▁домой	-9.02409
▁найти	-9.02437
▁знаешь	-9.02618
!..	-9.0267
▁такая	-9.02748
са	-9.02867
▁своими	-9.03186
▁второй	-9.03209
▁должно	-9.03312
▁мира	-9.03495
▁воды	-9.03603
ша	-9.0407
▁жить	-9.04539
▁какое	-9.0463
ния	-9.04749
ками	-9.04892
▁далеко	-9.05077
▁наш	-9.05258
▁думаю	-9.05448
▁столь	-9.05471
▁Здесь	-9.05648
▁имеет	-9.06112
он	-9.06329
▁которым	-9.06398
▁дней	-9.0653
Я	-9.06807
▁внимание	-9.07075
▁п	-9.07082
под	-9.07215
ер	-9.07705
▁самый	-9.07819
▁Н	-9.08114
▁де	-9.08189
▁вроде	-9.0832
▁города	-9.08418
▁4	-9.08486
ник	-9.08709
▁Где	-9.08773
▁вниз	-9.08851
И	-9.08968
▁часов	-9.08976
".	-9.09084
▁скоро	-9.09468
▁путь	-9.09853
▁является	-9.09889
цы	-9.09943
▁смотрел	-9.10099
▁России	-9.10108
▁мое	-9.10253
вер	-9.10286
ив	-9.10705
ль	-9.11086
▁придется	-9.11149
▁около	-9.11447
▁каким	-9.11512
▁явно	-9.1163
▁весьма	-9.11929
▁мать	-9.12068
▁оказался	-9.12221
▁скорее	-9.12249
▁меньше	-9.12482
ма	-9.12694
▁работу	-9.12732
▁какая	-9.12994
▁вышел	-9.13021
?»	-9.13181
▁Ее	-9.13235
К	-9.13325
ж	-9.13423
▁Раз	-9.1344
▁Тут	-9.13572
▁спокойно	-9.13628
­	-9.13753
▁глазах	-9.13778
ском	-9.13791
ф	-9.13829
▁отца	-9.13952
▁пусть	-9.143
▁Через	-9.14641
▁Пока	-9.14665
▁виду	-9.1491
▁улыбнулся	-9.15021
▁стол	-9.15405
▁взглядом	-9.1556
i	-9.16553
▁поскольку	-9.16654
▁Хорошо	-9.16764
ние	-9.1689
▁землю	-9.1693
▁Надо	-9.16942
ность	-9.17006
▁мире	-9.17148
a	-9.17526
▁нами	-9.17534
вы	-9.17874
▁Затем	-9.17941
▁Значит	-9.17966
▁детей	-9.17966
▁Тем	-9.18091
га	-9.18445
▁зачем	-9.18472
▁Л	-9.18622
▁иначе	-9.18938
▁идет	-9.19084
▁резко	-9.1915
П	-9.1933
ты	-9.19568
ле	-9.19659
...»	-9.19888
▁комнату	-9.19903
▁вовсе	-9.19905
▁кое	-9.19908
ство	-9.20168
▁наших	-9.20518
▁д	-9.20588
▁четыре	-9.20667
ва	-9.20826
▁5	-9.20851
'	-9.21231
▁голове	-9.2147
▁десять	-9.21566
▁случилось	-9.21731
▁мысль	-9.21779
▁ответила	-9.21789
▁обычно	-9.21953
s	-9.22064
▁откуда	-9.2224
▁час	-9.22316
▁мою	-9.22377
▁Ему	-9.22493
▁Ничего	-9.2255
▁пару	-9.22689
▁сквозь	-9.22707
▁успел	-9.23004
▁хочет	-9.2305
o	-9.2307
▁истории	-9.23201
▁нашего	-9.23292
ши	-9.23568
▁кому	-9.23712
▁будем	-9.23813
▁иногда	-9.23887
▁само	-9.24007
▁хочешь	-9.24028
либо	-9.24139
▁одним	-9.24171
▁понимаю	-9.24231
▁волосы	-9.24539
стью	-9.24571
▁Об	-9.24587
О	-9.24603
▁столько	-9.24867
▁видно	-9.24879
ца	-9.25198
▁возможность	-9.25262
▁знала	-9.25283
▁тысяч	-9.25322
▁сидел	-9.25422
▁женщины	-9.25871
э	-9.25875
▁разве	-9.25916
▁тела	-9.26103
▁виде	-9.26189
ик	-9.26237
▁глядя	-9.26474
▁Впрочем	-9.26493
▁видеть	-9.26589
▁земли	-9.2664
▁идти	-9.26725
▁полностью	-9.26803
▁рот	-9.26879
овой	-9.26909
▁говоря	-9.26978
ому	-9.2699
ина	-9.27112
▁Ф	-9.27121
▁Этот	-9.27472
де	-9.27581
▁доме	-9.27618
▁известно	-9.27696
▁своему	-9.27966
▁никак	-9.28202
▁разговор	-9.28235
/	-9.28525
▁годы	-9.28597
▁обратно	-9.28918
▁стать	-9.28936
▁готов	-9.28978
▁двадцать	-9.29063
▁Глава	-9.29182
▁другом	-9.29311
▁б	-9.29322
▁мимо	-9.29591
▁продолжал	-9.29715
▁моих	-9.29716
ать	-9.29828
▁земле	-9.29978
ности	-9.30031
▁ясно	-9.30056
ди	-9.30075
юсь	-9.30248
▁либо	-9.3044
▁слов	-9.30513
▁ради	-9.30626
ти	-9.30976
▁прав	-9.31084
▁пришел	-9.31287
▁матери	-9.31542
▁одном	-9.31575
скую	-9.31604
▁конца	-9.31661
ан	-9.31692
▁никаких	-9.31835
▁Просто	-9.31871
▁поднял	-9.31954
▁внимания	-9.32189
▁самым	-9.32195
▁плохо	-9.32386
▁хотела	-9.32928
▁вещи	-9.33115
Д	-9.33161
▁выше	-9.33308
▁настолько	-9.3331
▁груди	-9.33343
▁плечами	-9.33507
нее	-9.33517
▁лице	-9.33591
▁наверное	-9.33639
▁Один	-9.33724
▁невозможно	-9.34038
▁вами	-9.34397
▁вместо	-9.34427
▁трудно	-9.34573
ова	-9.3464
ское	-9.34758
▁например	-9.34855
▁власти	-9.34938
ра	-9.34976
ился	-9.35127
▁пошел	-9.35278
У	-9.35397
▁обо	-9.35476
▁трех	-9.35495
▁произошло	-9.35531
▁брат	-9.35689
▁комнате	-9.35711
▁Их	-9.35749
ней	-9.35774
▁последний	-9.3586
▁кем	-9.35902
▁многие	-9.35903
▁вернулся	-9.36006
ман	-9.36065
ите	-9.36161
▁связи	-9.36244
ис	-9.36378
▁Правда	-9.36519
▁внутри	-9.36656
▁другого	-9.36813
▁Тот	-9.37149
▁души	-9.37256
▁происходит	-9.37448
▁помочь	-9.37467
до	-9.37504
▁думать	-9.37515
▁сын	-9.37584
▁слегка	-9.37986
▁постоянно	-9.38092
▁Меня	-9.3819
▁Р	-9.38192
▁минуту	-9.38215
нет	-9.38376
ским	-9.38694
ут	-9.39035
▁удар	-9.39244
▁концов	-9.39412
▁головы	-9.39651
▁стены	-9.39669
▁мужчина	-9.39727
▁взять	-9.39839
▁пред	-9.40042
▁10	-9.40147
ст	-9.402
▁всему	-9.40332
▁дать	-9.40605
▁сначала	-9.40669
▁сих	-9.40847
▁станет	-9.40871
?..	-9.40956
▁крови	-9.41012
▁губы	-9.4117
▁неожиданно	-9.41338
ц	-9.41389
▁самых	-9.41391
из	-9.41503
▁Потому	-9.4157
▁армии	-9.41608
ится	-9.41609
▁ибо	-9.41683
▁Возможно	-9.41698
▁возле	-9.41701
М	-9.41733
▁вверх	-9.41875
▁какую	-9.41898
▁другим	-9.42017
▁Наконец	-9.42038
▁спиной	-9.42069
▁вся	-9.4228
▁осталось	-9.42466
▁оказалось	-9.42768
p	-9.42833
—	-9.42892
▁Та	-9.42909
ал	-9.43
▁нос	-9.4306
▁получил	-9.43099
▁другое	-9.4327
▁дал	-9.43321
▁рук	-9.43445
▁свете	-9.43494
▁могло	-9.43694
.)	-9.43799
▁Чтобы	-9.43801
ри	-9.43805
▁уверен	-9.44427
▁гораздо	-9.44436
ры	-9.44539
▁Есть	-9.44698
▁поняла	-9.44953
ту	-9.44961
▁голосом	-9.45019
▁любви	-9.4522
ба	-9.45433
▁ночью	-9.45485
▁пре	-9.45573
ства	-9.45716
▁кровь	-9.45738
су	-9.45745
▁подошел	-9.45755
при	-9.45797
▁капитан	-9.45824
▁завтра	-9.45881
▁молча	-9.45903
▁случай	-9.46024
вшись	-9.46038
▁Бог	-9.46063
▁Э	-9.46202
тер	-9.46266
▁воздух	-9.46348
▁слышал	-9.46491
ха	-9.46521
▁воду	-9.46653
▁Пусть	-9.46771
▁воз	-9.46972
Г	-9.46997
▁Очень	-9.47124
▁Разве	-9.47129
▁никого	-9.47206
▁говорят	-9.47224
▁машины	-9.47237
▁знаете	-9.47279
▁часа	-9.47562
▁течение	-9.47572
Б	-9.4759
▁права	-9.47623
ение	-9.47726
▁узнать	-9.47728
▁народ	-9.4788
▁отношения	-9.47948
",	-9.48006
▁смог	-9.48137
▁имени	-9.48171
▁помощь	-9.48205
▁ночи	-9.48261
▁лес	-9.48291
▁право	-9.48455
▁денег	-9.48458
▁Кроме	-9.48835
▁имел	-9.48917
▁речь	-9.49033
▁похоже	-9.49249
Н	-9.49359
▁No	-9.49472
ья	-9.49632
тся	-9.49644
▁таком	-9.49697
▁осторожно	-9.49733
▁некоторые	-9.49763
▁помощью	-9.49804
▁вечер	-9.49839
▁Гарри	-9.49886
▁лицом	-9.49904
▁необходимо	-9.50348
▁одновременно	-9.50457
▁Именно	-9.50496
▁вздохнул	-9.50628
▁Эта	-9.50696
▁говорю	-9.50865
▁любой	-9.50945
▁можешь	-9.51078
ила	-9.5121
”	-9.51249
би	-9.51253
▁новые	-9.51262
▁твой	-9.51318
▁крайней	-9.51371
▁возможности	-9.51641
▁любовь	-9.51762
ве	-9.51763
ня	-9.51783
▁порядке	-9.51838
▁качестве	-9.5184
▁Ладно	-9.51855
▁силу	-9.51896
ель	-9.51933
▁Зачем	-9.51939
си	-9.52013
▁оружие	-9.52066
▁очередь	-9.52275
▁первой	-9.52377
▁видела	-9.5257
▁человеком	-9.52573
▁работа	-9.52616
иться	-9.52618
ре	-9.52717
▁Эти	-9.52721
овые	-9.52784
илась	-9.52858
▁море	-9.52956
▁утром	-9.53087
▁работать	-9.53185
ги	-9.53206
▁увидеть	-9.53232
▁молодой	-9.53265
▁дороге	-9.5333
▁6	-9.53344
▁никакого	-9.53413
▁внимательно	-9.5343
▁парень	-9.53599
▁Можно	-9.53771
во	-9.53838
▁Пере	-9.53932
▁сел	-9.54004
▁18	-9.54032
▁состоянии	-9.54175
▁чтоб	-9.54216
▁самые	-9.54408
ения	-9.54454
▁дни	-9.54564
▁трудом	-9.54624
▁смерть	-9.54872
▁ждать	-9.54896
лю	-9.54935
▁такую	-9.54949
.]	-9.55038
▁солдат	-9.55039
▁чувство	-9.55077
▁общем	-9.55078
▁смотреть	-9.55142
ились	-9.55313
ее	-9.55396
▁многих	-9.55434
мер	-9.55436
▁вижу	-9.5545
ость	-9.55484
ющий	-9.55563
▁чему	-9.55626
▁дети	-9.55732
▁боль	-9.55784
▁говорили	-9.55833
▁15	-9.55894
▁Ш	-9.55898
▁впервые	-9.55936
ишь	-9.56162
▁руке	-9.56164
▁книги	-9.56248
▁огонь	-9.56276
ье	-9.5628
▁прекрасно	-9.5652
прежнему	-9.56773
▁находится	-9.56816
▁шаг	-9.56864
▁вопросы	-9.56873
▁мгновение	-9.56874
▁первого	-9.57058
▁новый	-9.57114
▁внезапно	-9.57205
▁встал	-9.57221
▁несмотря	-9.57357
дер	-9.57415
▁практически	-9.57423
▁дорогу	-9.57547
▁последние	-9.57681
▁тяжело	-9.57757
▁бывает	-9.57806
▁СССР	-9.57831
▁стояла	-9.57857
▁оказалась	-9.5798
▁страны	-9.5818
ча	-9.58225
▁показалось	-9.5849
об	-9.58585
▁улыбнулась	-9.58713
▁утра	-9.58714
▁пытался	-9.58721
▁каких	-9.58792
▁иметь	-9.58818
▁язык	-9.58837
▁можем	-9.5893
▁Сам	-9.58986
▁Без	-9.58996
овых	-9.59101
▁узнал	-9.59194
▁почувствовал	-9.59226
▁мама	-9.59229
что	-9.59489
▁Неужели	-9.59689
▁м	-9.5971
▁оба	-9.59897
▁бросил	-9.60011
▁вечером	-9.60316
▁комнаты	-9.60323
▁жена	-9.60375
ар	-9.60406
▁начали	-9.60448
цев	-9.60522
▁генерал	-9.60626
▁Ю	-9.6083
▁отсюда	-9.60878
▁дел	-9.60883
▁стояли	-9.60915
▁нечто	-9.60945
▁роль	-9.60946
▁века	-9.61073
ница	-9.61111
▁Ли	-9.61174
али	-9.61204
про	-9.61265
ости	-9.61279
▁которому	-9.61315
▁какого	-9.61332
ющие	-9.61373
▁нашел	-9.61382
шей	-9.61546
▁всеми	-9.6157
▁нескольких	-9.61603
▁письмо	-9.61872
▁остался	-9.61892
▁I	-9.61895
▁улице	-9.61993
▁окна	-9.62086
▁помощи	-9.62323
▁решение	-9.62566
че	-9.6257
▁солнце	-9.6265
▁посмотрела	-9.62682
▁мистер	-9.62732
▁можете	-9.62763
▁чувствовал	-9.62785
▁цели	-9.62794
вин	-9.62814
▁шел	-9.62878
▁Иван	-9.62883
▁немедленно	-9.6292
мы	-9.62974
ру	-9.62996
▁остановился	-9.63136
▁будешь	-9.63187
▁поднялся	-9.63251
▁Уже	-9.63264
▁план	-9.6334
▁Вам	-9.63371
▁поле	-9.63424
чи	-9.63559
▁хуже	-9.63702
▁протянул	-9.63844
▁ваш	-9.63914
▁ума	-9.63993
па	-9.64054
▁пытаясь	-9.64064
▁Тебе	-9.64085
▁согласился	-9.64138
▁гор	-9.64172
▁17	-9.64279
y	-9.64319
▁ног	-9.64397
▁получить	-9.64479
▁главное	-9.64488
йте	-9.64543
▁сына	-9.64619
▁бес	-9.64745
▁Нам	-9.64765
▁господин	-9.64792
▁городе	-9.64839
ках	-9.64875
гу	-9.65062
▁обязательно	-9.65259
▁машину	-9.65348
▁наверняка	-9.65437
▁З	-9.65548
▁говорила	-9.65556
▁вскоре	-9.65691
▁правильно	-9.65817
▁открыл	-9.65839
▁P	-9.65934
▁Эй	-9.65969
▁каждого	-9.66138
▁голова	-9.66147
▁женщин	-9.66213
▁ближе	-9.66421
▁первым	-9.66573
▁рода	-9.66633
▁света	-9.66721
▁следующий	-9.6703
▁стола	-9.67104
▁душе	-9.67171
▁знали	-9.67217
чу	-9.6723
▁оказались	-9.67239
▁громко	-9.67269
▁повернулся	-9.67319
▁э	-9.67468
▁положение	-9.67513
▁силой	-9.67557
▁сэр	-9.67609
пер	-9.67672
▁людьми	-9.67691
ший	-9.67751
▁видимо	-9.67866
▁людям	-9.67892
]	-9.67896
▁ребенка	-9.67902
Т	-9.67905
▁Спасибо	-9.68232
лин	-9.68324
▁вернуться	-9.684
▁работе	-9.68492
ро	-9.68533
▁небо	-9.68592
▁моим	-9.68931
же	-9.68979
▁временем	-9.68989
мо	-9.69027
1	-9.6909
▁Те	-9.69494
▁пожал	-9.69508
▁добавил	-9.69857
▁берегу	-9.69952
ше	-9.69955
▁становится	-9.69987
▁увидела	-9.70094
▁жил	-9.70127
▁понимал	-9.70254
▁важно	-9.70539
▁шум	-9.70722
▁услышал	-9.70764
▁словами	-9.71083
▁Ей	-9.71091
▁мол	-9.71098
▁плечо	-9.71122
▁поздно	-9.71381
▁смысл	-9.71391
▁хотите	-9.71431
ща	-9.71476
▁номер	-9.71487
▁7	-9.7149
▁сможет	-9.71554
се	-9.71742
▁нравится	-9.71857
▁принять	-9.71857
▁Ар	-9.72092
▁дочь	-9.72155
▁предложил	-9.72195
▁насколько	-9.724
▁действия	-9.72413
▁конец	-9.72489
кин	-9.72492
тон	-9.72536
▁кофе	-9.72595
▁боли	-9.72625
▁чувства	-9.72722
его	-9.7277
▁спать	-9.72895
▁приходилось	-9.72931
▁вышла	-9.72941
▁хочется	-9.72991
▁плечи	-9.7305
▁другу	-9.73105
со	-9.73195
▁искать	-9.73251
▁вести	-9.73257
ющих	-9.73384
нов	-9.73414
▁группы	-9.73475
▁остальные	-9.73506
нуть	-9.73601
ски	-9.73622
вшийся	-9.73734
▁Ах	-9.73991
▁пришла	-9.74011
▁двумя	-9.74028
▁черт	-9.74176
▁делает	-9.74247
▁дороги	-9.74307
▁Александр	-9.74391
Не	-9.74402
▁зрения	-9.74481
▁противника	-9.74509
▁стороне	-9.74518
▁решила	-9.74547
▁стене	-9.74767
▁вчера	-9.74814
▁период	-9.74866
▁вдоль	-9.74939
▁меч	-9.75007
▁странно	-9.75038
2	-9.7521
ников	-9.75385
▁смысле	-9.75414
ист	-9.75467
▁Никто	-9.75538
▁[	-9.75577
▁шли	-9.75663
▁двое	-9.75678
▁проблемы	-9.7568
вший	-9.75833
▁сильнее	-9.75837
▁страшно	-9.75923
▁нового	-9.75962
▁появился	-9.76
▁16	-9.76002
▁Мой	-9.76105
▁20	-9.76117
▁усмехнулся	-9.76126
▁грудь	-9.76192
▁умер	-9.76386
▁числе	-9.76495
▁желание	-9.76512
▁шесть	-9.76561
▁нужен	-9.7657
мен	-9.76603
▁девушки	-9.76621
ировать	-9.76635
▁видели	-9.76654
ор	-9.76685
▁пяти	-9.76934
▁Е	-9.76938
▁Наверное	-9.76955
▁спину	-9.76989
род	-9.77068
▁8	-9.77122
▁пальцы	-9.7713
▁ваше	-9.77241
▁верно	-9.77529
▁страх	-9.77623
ью	-9.77635
▁Х	-9.77671
▁поводу	-9.77777
▁угодно	-9.7791
▁цвет	-9.78032
Л	-9.78181
ешься	-9.78339
▁разных	-9.78363
▁результате	-9.78559
По	-9.78626
▁другую	-9.78673
▁подумала	-9.78758
▁новой	-9.78799
▁Андрей	-9.78821
▁Сегодня	-9.78868
▁миг	-9.78903
▁сон	-9.78916
▁Перед	-9.79044
▁помню	-9.79069
▁недавно	-9.79168
лен	-9.79218
▁Было	-9.79306
▁власть	-9.79344
▁вспомнил	-9.79521
▁постепенно	-9.79524
▁цвета	-9.79591
▁люблю	-9.79614
вид	-9.79635
▁сделала	-9.79889
▁наша	-9.79894
▁никому	-9.79895
▁вашей	-9.79928
▁S	-9.79943
▁окно	-9.80046
▁глубоко	-9.80074
▁самому	-9.80113
▁думала	-9.80135
▁Кон	-9.80173
▁12	-9.80182
▁народа	-9.80219
▁секунд	-9.80318
ста	-9.80508
▁запах	-9.80573
▁водой	-9.80775
ает	-9.81293
емся	-9.81565
▁движения	-9.81575
цу	-9.8158
ск	-9.81596
ос	-9.81611
▁ногами	-9.81724
▁спустя	-9.81733
▁Сколько	-9.81877
▁ветер	-9.81902
▁позже	-9.81989
ятся	-9.82062
▁заметила	-9.82089
▁счет	-9.8218
▁мужчины	-9.82302
щ	-9.82345
ат	-9.82362
▁рука	-9.82426
3	-9.82614
▁писал	-9.82675
▁ваши	-9.82839
▁утро	-9.8288
▁смотрела	-9.8296
(	-9.83002
▁корабль	-9.83014
▁Чего	-9.83024
▁начале	-9.83127
▁кровати	-9.83142
▁движение	-9.83211
ви	-9.83305
▁новых	-9.83328
▁Кстати	-9.8338
▁лично	-9.8344
вар	-9.83542
▁благодаря	-9.83659
▁крепко	-9.83751
▁доктор	-9.83766
▁Рас	-9.83856
▁попытался	-9.83889
▁Итак	-9.83994
▁примерно	-9.83996
▁пришли	-9.84022
▁неделю	-9.84048
▁воздухе	-9.84056
▁посмотреть	-9.84089
▁пошли	-9.84117
▁нужна	-9.84172
▁использовать	-9.84246
▁человеку	-9.84259
▁однажды	-9.84262
овать	-9.84346
▁н	-9.84346
▁впереди	-9.8438
▁муж	-9.84457
▁представить	-9.84457
▁степени	-9.84666
▁характер	-9.84787
▁которыми	-9.84966
▁системы	-9.8497
▁платье	-9.851
▁небольшой	-9.85126
▁твоя	-9.85198
▁понятно	-9.85271
ек	-9.85309
▁памяти	-9.8537
▁США	-9.85558
ду	-9.85624
▁ушел	-9.85736
▁оставалось	-9.85782
▁точки	-9.85811
▁заявил	-9.85864
▁покачал	-9.8588
▁звук	-9.85951
▁наиболее	-9.85994
▁воскликнул	-9.86038
▁Ко	-9.86051
▁колени	-9.86283
▁вода	-9.86302
▁шла	-9.86357
▁вероятно	-9.86367
▁напротив	-9.8642
▁пора	-9.86432
ика	-9.86485
▁первую	-9.86579
▁Сергей	-9.86632
▁случайно	-9.86645
▁факт	-9.86855
▁Думаю	-9.86886
▁часы	-9.86902
▁мужа	-9.86904
ника	-9.86916
▁the	-9.86927
ники	-9.86978
▁мальчик	-9.87023
ды	-9.87297
▁старик	-9.87363
▁Мак	-9.87378
▁некоторое	-9.87398
▁уйти	-9.87456
▁большим	-9.87546
▁Куда	-9.87656
▁Бога	-9.87675
▁состояние	-9.87715
▁поговорить	-9.87726
нии	-9.87932
▁Чем	-9.88012
▁история	-9.88063
▁проговорил	-9.88144
5	-9.88314
▁оттуда	-9.88321
▁семьи	-9.88453
▁14	-9.88457
▁считать	-9.88527
▁брата	-9.88558
▁времена	-9.88761
сон	-9.88808
▁убить	-9.88838
▁выход	-9.8886
▁душу	-9.88874
▁нечего	-9.88898
▁наше	-9.89052
▁причем	-9.89067
▁Давай	-9.89119
ового	-9.89232
▁крикнул	-9.89266
▁вошел	-9.89318
▁области	-9.89427
▁телефон	-9.89441
овая	-9.89485
ющего	-9.89546
▁вряд	-9.89564
▁решили	-9.89565
▁месяц	-9.89578
▁улыбкой	-9.89624
▁лежал	-9.89634
▁старый	-9.89705
▁дыхание	-9.89849
▁окончательно	-9.89864
ум	-9.8987
▁разные	-9.89936
▁одному	-9.9004
▁касается	-9.90105
▁метров	-9.90105
▁взглянул	-9.9025
▁всякий	-9.90336
▁стране	-9.90342
▁Ка	-9.90419
▁безопасности	-9.90426
Ф	-9.90442
▁нужны	-9.90474
▁зубы	-9.90519
▁приказал	-9.90566
▁рад	-9.90592
▁Три	-9.90605
▁кивнула	-9.90738
▁9	-9.90766
▁любил	-9.90816
▁твоей	-9.90881
▁собственной	-9.90936
▁любит	-9.91043
▁сообщил	-9.9117
▁полной	-9.91222
шие	-9.91224
▁забыл	-9.91264
▁очевидно	-9.91294
▁существует	-9.91479
▁миссис	-9.91639
▁близко	-9.9164
▁волос	-9.91649
▁абсолютно	-9.91671
▁большую	-9.91726
зи	-9.9183
▁минуты	-9.91831
лы	-9.91832
▁столом	-9.91898
▁Сначала	-9.92048
▁никакой	-9.92097
▁двор	-9.92147
▁способ	-9.92184
▁неё	-9.92187
▁образ	-9.92193
▁сторон	-9.92274
▁девочка	-9.92326
▁л	-9.92329
▁количество	-9.92395
ием	-9.92409
ями	-9.92458
ус	-9.92481
▁некоторых	-9.92489
▁последнее	-9.92648
▁остались	-9.92769
▁попросил	-9.92785
це	-9.9294
▁пошла	-9.93
▁принял	-9.93008
▁нашли	-9.93012
▁положил	-9.93133
▁друзей	-9.93137
▁ситуации	-9.9324
▁историю	-9.93297
шего	-9.93505
лей	-9.9355
▁ждал	-9.93583
▁выйти	-9.93709
▁тридцать	-9.93841
▁твои	-9.93871
▁вашего	-9.94042
▁партии	-9.94088
Х	-9.94091
▁Девушка	-9.94122
▁Какой	-9.94155
▁маленький	-9.94169
ран	-9.94184
▁компании	-9.94208
▁собирался	-9.94264
▁благо	-9.9436
▁видом	-9.94422
▁приказ	-9.94429
▁каждой	-9.94452
▁Люди	-9.94459
▁быстрее	-9.94459
▁форме	-9.94636
▁находился	-9.94717
▁секунду	-9.94945
▁Ор	-9.95021
▁развития	-9.95052
▁жив	-9.95062
▁решительно	-9.95076
щие	-9.95104
▁дух	-9.9511
4	-9.95131
▁прошел	-9.95207
▁делал	-9.95222
▁друзья	-9.95253
▁пожалуйста	-9.95257
▁11	-9.95306
▁связь	-9.95332
прав	-9.95332
▁буквально	-9.95395
▁мужчин	-9.95453
ний	-9.95469
▁ниже	-9.95475
мор	-9.95553
▁30	-9.95609
▁первые	-9.95635
раз	-9.95639
▁цель	-9.95749
▁нашу	-9.95772
скому	-9.9579
▁этими	-9.95854
▁большие	-9.96003
ала	-9.96024
▁вслед	-9.96038
▁A	-9.96094
▁тысячи	-9.96344
вшихся	-9.96353
▁множество	-9.96387
▁Ха	-9.96412
▁считал	-9.96462
три	-9.96466
ска	-9.96473
▁моем	-9.96492
▁бой	-9.96506
▁Мир	-9.96576
▁вышли	-9.96598
щий	-9.9665
▁думаешь	-9.96652
▁Похоже	-9.96657
▁стараясь	-9.96665
▁хватит	-9.96681
▁сила	-9.96863
▁широко	-9.96898
лу	-9.96904
▁серьезно	-9.96969
▁впечатление	-9.97016
гор	-9.97106
▁взяла	-9.97107
нос	-9.97172
▁II	-9.97213
лов	-9.97258
▁сто	-9.97268
▁закон	-9.97297
▁общества	-9.97327
вал	-9.97337
▁сердца	-9.97355
ай	-9.97433
▁ход	-9.97476
▁Вас	-9.97729
ической	-9.97744
овым	-9.97812
▁of	-9.97815
▁остается	-9.98106
▁Вер	-9.9819
▁война	-9.98235
▁скажу	-9.98301
шь	-9.98322
вшиеся	-9.98341
▁опыт	-9.98347
▁слезы	-9.98436
▁мисс	-9.98481
▁интересно	-9.98492
тель	-9.98613
шка	-9.98643
▁лестнице	-9.98768
ившись	-9.98779
ович	-9.98868
▁Таким	-9.98869
▁рано	-9.98933
▁недели	-9.98937
▁объяснить	-9.98954
ении	-9.98976
▁страха	-9.99016
▁упал	-9.99194
▁показал	-9.99249
▁моря	-9.99277
▁живет	-9.99286
ают	-9.99312
▁сделали	-9.99397
▁чаще	-9.99405
▁подумать	-9.99407
вших	-9.99446
▁войск	-9.99446
▁ногу	-9.99567
▁знают	-9.99568
енко	-9.99572
▁деятельности	-9.99667
▁машина	-9.99681
пол	-9.99716
▁редко	-9.99722
▁большая	-9.99767
▁Иногда	-9.9978
▁появилась	-9.99786
▁принялся	-9.99819
ню	-9.99821
енный	-9.99892
▁пар	-10.0009
сы	-10.0009
▁Несколько	-10.001
▁другими	-10.001
щих	-10.0015
З	-10.0022
▁тщательно	-10.0036
щей	-10.0046
▁сорок	-10.0052
▁честь	-10.0052
▁рассказал	-10.0059
▁дым	-10.0061
▁типа	-10.0067
▁Джек	-10.0067
▁лесу	-10.0085
▁следовало	-10.0091
▁Человек	-10.0098
▁пальцами	-10.01
▁Ла	-10.0108
Е	-10.011
▁удивился	-10.011
очка	-10.011
▁труда	-10.0134
чик	-10.0136
▁Москве	-10.0139
▁значение	-10.0144
▁каком	-10.0146
▁тени	-10.015
▁Ле	-10.0151
▁кор	-10.0175
▁оставил	-10.019
▁девушку	-10.0194
▁знак	-10.0199
▁зал	-10.0201
▁земля	-10.0212
жа	-10.0214
рон	-10.0217
▁высоко	-10.0217
▁раздался	-10.0241
▁трубку	-10.0244
▁Николай	-10.0246
▁пальцем	-10.0259
▁кабинет	-10.026
ших	-10.0261
▁шею	-10.0268
ете	-10.0273
▁сознание	-10.0275
▁месяцев	-10.0276
▁весело	-10.0281
▁процесс	-10.0286
▁Анна	-10.029
▁книгу	-10.0295
▁Виктор	-10.0296
▁интерес	-10.03
▁реки	-10.0302
▁Дело	-10.0304
▁пожалуй	-10.0304
▁C	-10.0306
ге	-10.031
▁ваша	-10.0311
▁короля	-10.0311
▁раза	-10.0313
▁больно	-10.0317
▁and	-10.0319
▁начинает	-10.032
▁семь	-10.0321
▁камень	-10.0326
▁Отец	-10.0339
▁хотели	-10.0344
шая	-10.0348
▁голоса	-10.0348
▁з	-10.0359
▁вкус	-10.0359
▁постели	-10.0362
▁смотрит	-10.0363
она	-10.0366
▁ребенок	-10.0374
▁темно	-10.038
▁Каждый	-10.0384
▁легче	-10.0384
шу	-10.0386
▁Джон	-10.0389
▁Откуда	-10.0391
▁разу	-10.0394
▁улицу	-10.0398
▁дает	-10.0403
▁Между	-10.041
▁лоб	-10.0413
▁ладно	-10.0417
▁корабля	-10.0421
енные	-10.0426
▁Гор	-10.0435
▁Оно	-10.0439
▁вз	-10.0442
▁самая	-10.0451
ян	-10.0452
▁месяца	-10.0462
ические	-10.0463
Э	-10.0463
ющей	-10.0471
кам	-10.0474
▁сидели	-10.0474
▁память	-10.0481
▁произнесла	-10.0484
▁начало	-10.0485
▁13	-10.0498
нь	-10.0498
▁оставить	-10.05
▁Всё	-10.0519
▁лицу	-10.0519
▁леди	-10.0528
▁Ага	-10.0532
▁хозяин	-10.0537
▁мгновенно	-10.0543
бор	-10.0554
▁рассказать	-10.0554
▁па	-10.0556
▁приходится	-10.0572
▁зная	-10.0573
er	-10.0577
▁берег	-10.0583
▁желания	-10.059
вшие	-10.0593
▁король	-10.0601
▁вон	-10.0614
ван	-10.0625
ана	-10.0628
▁прошло	-10.0632
▁гости	-10.0634
▁остаться	-10.0634
▁ум	-10.0642
▁кон	-10.0642
▁первых	-10.0657
▁государства	-10.0659
▁//	-10.0659
бо	-10.0663
▁бумаги	-10.0667
▁понимаешь	-10.067
▁войска	-10.0675
▁поля	-10.0677
▁информации	-10.0697
▁задумчиво	-10.0706
▁управления	-10.0717
▁навстречу	-10.0725
▁делом	-10.0731
▁зовут	-10.0735
▁выражение	-10.0735
▁честно	-10.0737
▁условиях	-10.0756
Р	-10.076
▁нашем	-10.0767
▁товарищ	-10.0768
▁ответа	-10.0771
▁вздохнула	-10.0785
▁душа	-10.0793
▁стен	-10.0798
лет	-10.0802
▁моему	-10.0808
▁имеют	-10.0814
▁воде	-10.0818
ющая	-10.0819
▁разумеется	-10.0822
▁Су	-10.0825
▁ужас	-10.0828
▁Кажется	-10.0829
▁сказали	-10.0832
▁сидела	-10.0838
.].	-10.0847
ел	-10.0849
▁всяком	-10.0857
▁десяти	-10.0862
▁горы	-10.0866
▁(«	-10.0868
▁пара	-10.0871
▁зло	-10.0875
▁обратился	-10.0876
бер	-10.0878
▁жизнью	-10.0879
▁наоборот	-10.0881
▁Например	-10.0883
▁отправился	-10.0884
▁Кор	-10.0887
ических	-10.0889
▁углу	-10.0894
▁ф	-10.0896
▁правду	-10.0901
▁навсегда	-10.0902
▁имею	-10.0905
тор	-10.0906
Ш	-10.0906
▁дорогой	-10.0907
▁пробормотал	-10.0916
ич	-10.092
На	-10.0923
▁порядок	-10.0925
▁будь	-10.0925
▁означает	-10.0929
▁направился	-10.0935
▁ждет	-10.0936
▁ответить	-10.0937
S	-10.094
▁сверху	-10.0948
▁немало	-10.0949
▁стр	-10.0952
ид	-10.0953
ический	-10.0957
▁смогу	-10.0964
▁решения	-10.0966
▁чай	-10.0967
▁церкви	-10.0972
▁достал	-10.0974
▁такими	-10.0978
▁проблем	-10.098
▁дому	-10.0984
вод	-10.0987
▁повторил	-10.0989
▁ею	-10.0999
▁Лучше	-10.1015
▁встречи	-10.1021
▁новую	-10.1027
▁направлении	-10.1037
бы	-10.1038
ницы	-10.1047
▁голосе	-10.1052
▁стоило	-10.1061
ину	-10.1062
▁состав	-10.1062
▁25	-10.1071
ющим	-10.1074
ден	-10.1089
»?	-10.1104
▁действий	-10.1111
▁Больше	-10.1118
▁поставил	-10.1119
▁третий	-10.1121
▁работал	-10.1121
▁работает	-10.1128
▁тепло	-10.1136
C	-10.1138
щего	-10.114
▁событий	-10.1142
▁целый	-10.1156
▁кстати	-10.116
▁Ма	-10.1175
▁будете	-10.1181
▁вечера	-10.1201
▁пойти	-10.1212
▁ощущение	-10.1214
▁леса	-10.1221
▁бог	-10.1222
▁губ	-10.1227
▁попал	-10.1229
▁письма	-10.1234
йся	-10.1236
▁вина	-10.1237
▁остальных	-10.1238
▁папа	-10.1239
жи	-10.1248
▁чувств	-10.1249
▁новое	-10.1249
▁основном	-10.1252
▁речи	-10.1255
▁исчез	-10.1256
▁территории	-10.1257
▁потерял	-10.1259
лад	-10.1261
▁знаем	-10.1262
▁осталась	-10.127
▁восемь	-10.1272
▁внутрь	-10.1275
ган	-10.1279
▁Вскоре	-10.1286
▁позади	-10.1298
▁строго	-10.1298
рин	-10.1301
▁сомнения	-10.1303
▁местах	-10.1304
▁давай	-10.1306
▁Зато	-10.1308
▁хватало	-10.1309
▁дворе	-10.1309
▁теле	-10.1311
▁Германии	-10.1312
ров	-10.1314
хо	-10.1316
▁Владимир	-10.1323
щая	-10.1325
▁командир	-10.1326
▁четырех	-10.1331
▁события	-10.1349
▁зале	-10.1349
6	-10.1351
▁князь	-10.1353
▁держать	-10.1353
▁целью	-10.1355
▁центре	-10.1357
▁организации	-10.1361
ева	-10.1368
▁нож	-10.1373
как	-10.1379
▁отличие	-10.1382
чер	-10.1388
▁радио	-10.1394
▁продолжил	-10.1395
▁Джо	-10.1399
▁Па	-10.1408
▁женщину	-10.1411
нем	-10.1416
ими	-10.1419
▁насчет	-10.1419
▁отношении	-10.1429
c	-10.1434
▁получилось	-10.1443
▁крайне	-10.1445
мет	-10.1445
▁ком	-10.1445
▁приятно	-10.1448
▁ре	-10.1459
кон	-10.146
t	-10.1461
▁смотрели	-10.1463
▁естественно	-10.1464
▁столе	-10.1469
▁B	-10.1473
▁жены	-10.149
▁относительно	-10.1498
бу	-10.1505
▁провел	-10.1505
▁крест	-10.1506
Да	-10.1508
ией	-10.1523
▁гг	-10.1527
▁сожалению	-10.1533
▁одни	-10.1535
▁ладони	-10.1546
▁читать	-10.155
нув	-10.1554
▁почувствовала	-10.1562
▁Вдруг	-10.1565
▁отдал	-10.1573
▁плен	-10.1579
▁(19	-10.1584
▁название	-10.1586
▁появились	-10.16
▁лежит	-10.1601
▁Мор	-10.1602
▁1.	-10.1603
вен	-10.1603
▁дали	-10.1605
▁Два	-10.1612
зна	-10.163
▁особо	-10.1631
▁группа	-10.1641
▁пить	-10.1643
▁выбор	-10.1654
стве	-10.1655
▁Какая	-10.1656
▁делу	-10.1662
рос	-10.1675
▁начать	-10.1682
▁M	-10.1684
▁Эл	-10.1689
▁видит	-10.1689
u	-10.169
▁энергии	-10.1694
▁имели	-10.1696
вшего	-10.17
▁идея	-10.1703
▁пользу	-10.1703
▁Бо	-10.1708
n	-10.1709
▁днем	-10.1722
▁отношение	-10.1724
▁русских	-10.1724
▁Мар	-10.1725
пи	-10.1726
▁исключительно	-10.1727
▁Бар	-10.1731
ики	-10.174
▁темноте	-10.175
▁Нужно	-10.1751
▁большинство	-10.1759
▁стену	-10.176
▁сотни	-10.1764
▁пистолет	-10.1765
▁Над	-10.1768
▁машине	-10.1768
▁большое	-10.1771
▁р	-10.1771
ющихся	-10.1776
▁Ре	-10.1781
▁боя	-10.1781
▁мягко	-10.1786
▁заметно	-10.179
▁ворот	-10.1803
▁ряд	-10.1805
хи	-10.1807
▁держал	-10.1816
▁очередной	-10.182
ического	-10.1824
▁прочь	-10.1833
▁Де	-10.1837
▁сестра	-10.1843
▁Пре	-10.1843
▁Интересно	-10.1856
ою	-10.1857
кая	-10.1859
▁зато	-10.1864
кс	-10.1867
▁оружия	-10.188
▁кино	-10.1881
▁срок	-10.1885
▁линии	-10.1886
▁счастье	-10.1887
▁ярко	-10.189
▁подошла	-10.19
▁другая	-10.1902
▁второго	-10.1912
ило	-10.1917
▁языке	-10.192
▁Боже	-10.1921
▁Глаза	-10.1926
▁успела	-10.1927
▁специально	-10.1928
▁стран	-10.1933
▁сидит	-10.1934
▁прошлом	-10.194
▁момента	-10.1945
овую	-10.1947
▁суд	-10.1953
▁Несмотря	-10.1957
▁сознания	-10.1959
▁солнца	-10.1959
нер	-10.196
сов	-10.1963
▁Им	-10.1973
“	-10.1975
ях	-10.1978
▁правило	-10.1978
нут	-10.1978
▁Надеюсь	-10.1979
ун	-10.1982
▁спас	-10.1999
▁войну	-10.2003
▁хлеб	-10.2014
▁твоего	-10.2022
▁мая	-10.2027
▁граф	-10.203
▁чувствовала	-10.2032
нию	-10.2034
▁ребята	-10.2035
▁заранее	-10.2049
фа	-10.205
▁каждом	-10.2058
нул	-10.2065
▁показать	-10.2071
▁нашим	-10.2076
▁пройти	-10.2082
▁схватил	-10.2087
▁главе	-10.2089
▁ходу	-10.2094
▁настоящий	-10.211
▁Господи	-10.211
▁Петр	-10.2113
▁обе	-10.2132
▁Моя	-10.2134
▁удастся	-10.2143
▁секрет	-10.2153
стей	-10.2155
▁Сталин	-10.216
▁поинтересовался	-10.2161
▁Иванович	-10.2163
▁пример	-10.2164
▁крик	-10.2164
▁отряд	-10.2165
стер	-10.2167
▁Особенно	-10.2169
▁замок	-10.2182
▁бур	-10.2182
▁придет	-10.2183
овый	-10.2187
▁трое	-10.2202
▁p	-10.2206
▁вопросов	-10.221
▁Франции	-10.2218
▁стар	-10.2224
▁впрочем	-10.2229
▁начальник	-10.2231
▁зря	-10.2232
первых	-10.2233
▁тотчас	-10.2236
▁сидеть	-10.2237
▁любом	-10.224
вшегося	-10.2242
▁хватает	-10.2244
▁забыть	-10.2246
▁угол	-10.2247
▁информацию	-10.2252
▁шагов	-10.2263
моему	-10.2264
▁твердо	-10.2268
▁являются	-10.2275
▁Разумеется	-10.2276
▁отвечал	-10.2283
▁врага	-10.2287
▁живот	-10.2294
▁играть	-10.2296
ическая	-10.2297
▁изо	-10.2297
▁отлично	-10.2302
▁карман	-10.2302
етесь	-10.2303
▁вернулась	-10.2308
▁мед	-10.2315
▁др	-10.2318
ё	-10.2324
▁вел	-10.2332
▁судя	-10.2333
▁маг	-10.2333
▁предложение	-10.2334
▁назвать	-10.2336
▁Казалось	-10.2341
▁невольно	-10.2341
▁кровью	-10.2342
▁ходить	-10.2348
▁анти	-10.2351
▁смогла	-10.2357
▁Ан	-10.2358
▁вынужден	-10.2359
▁край	-10.236
▁пришло	-10.236
▁мнению	-10.2365
▁хотят	-10.2372
▁далее	-10.2378
▁Кар	-10.2385
▁Однажды	-10.2387
ины	-10.2388
▁спросить	-10.239
▁жили	-10.2395
▁твое	-10.2397
▁встреча	-10.24
▁останется	-10.2402
▁мнение	-10.2402
▁обернулся	-10.2409
сен	-10.2409
▁снег	-10.2413
▁судьба	-10.2418
▁хороший	-10.242
▁автор	-10.2421
▁обоих	-10.2421
▁спине	-10.2434
▁рассказывал	-10.2442
▁вне	-10.2448
▁Алекс	-10.2451
▁род	-10.2457
▁многое	-10.2466
▁Игорь	-10.247
▁Марк	-10.2471
▁войне	-10.2476
▁дочери	-10.2476
▁Мама	-10.2483
▁отозвался	-10.249
7	-10.2498
▁первом	-10.2498
▁села	-10.2499
сер	-10.2503
▁причин	-10.2503
▁прошу	-10.2507
▁провести	-10.2513
скими	-10.2517
▁Пол	-10.2521
▁заниматься	-10.2523
▁случаях	-10.2528
▁Никогда	-10.2529
▁Черт	-10.2533
изм	-10.2537
▁Нью	-10.2537
▁приехал	-10.2546
▁замуж	-10.2549
▁рождения	-10.255
▁обнаружил	-10.2563
▁внизу	-10.2572
▁написал	-10.2573
▁труд	-10.2574
твор	-10.2574
▁пространство	-10.2585
▁Уж	-10.2589
▁называется	-10.2601
ству	-10.2619
▁необходимости	-10.2621
▁след	-10.2633
▁верить	-10.2642
▁слез	-10.2644
йтесь	-10.2645
▁/	-10.2647
эн	-10.2654
▁опасности	-10.2657
▁готовы	-10.2658
▁удовольствием	-10.2674
▁прошептал	-10.2674
ели	-10.2678
▁улицы	-10.2678
▁Том	-10.2681
▁действовать	-10.2682
▁путем	-10.2686
▁каждым	-10.2688
▁оказаться	-10.269
ще	-10.2706
▁бежать	-10.2706
▁одежду	-10.2711
▁продолжала	-10.2716
▁принес	-10.2721
▁Макс	-10.2722
ско	-10.2725
▁Михаил	-10.2726
▁профессор	-10.2732
▁рассказ	-10.2732
▁ваших	-10.274
мир	-10.2741
▁радости	-10.2742
ена	-10.2757
ющиеся	-10.2764
▁увидев	-10.2764
▁машин	-10.277
▁старался	-10.2775
▁снял	-10.2777
зе	-10.2781
▁ожидал	-10.2782
▁читал	-10.2786
▁кресло	-10.2789
▁частью	-10.2796
▁ничем	-10.2803
▁Олег	-10.2804
▁огня	-10.2806
▁силах	-10.2806
▁словом	-10.281
▁24	-10.2817
▁писать	-10.2818
▁роли	-10.2819
▁будущее	-10.2824
▁воздуха	-10.2826
▁лист	-10.2827
▁Некоторые	-10.2828
▁привык	-10.283
▁первое	-10.2833
▁ехать	-10.2834
енная	-10.2838
▁дар	-10.2838
тан	-10.2844
▁Алексей	-10.2846
▁сад	-10.2849
▁заговорил	-10.2862
шим	-10.2868
▁тоном	-10.2879
рик	-10.2882
▁значительно	-10.2886
▁способен	-10.2888
▁система	-10.2891
▁убил	-10.2895
щим	-10.29
▁думает	-10.2902
▁попасть	-10.2904
▁Ч	-10.2907
▁сумел	-10.2913
▁полковник	-10.2942
▁школы	-10.2942
▁Пер	-10.2942
r	-10.2956
▁деревьев	-10.296
рис	-10.2967
▁пишет	-10.2967
▁ключ	-10.2969
рен	-10.297
▁чувствую	-10.2972
▁поверхности	-10.2975
▁участие	-10.2982
ера	-10.2988
▁холодно	-10.2992
▁столу	-10.2992
▁звезд	-10.3008
лом	-10.301
▁прошла	-10.302
▁уши	-10.302
▁парня	-10.3023
▁2.	-10.3026
▁горло	-10.3034
▁туман	-10.3036
▁лейтенант	-10.3044
▁пятьдесят	-10.3044
▁больших	-10.3045
▁жаль	-10.3046
▁сторонам	-10.3056
▁Первый	-10.3061
аль	-10.3061
▁различных	-10.3071
▁22	-10.3073
▁См	-10.3073
▁вида	-10.3074
▁операции	-10.3082
чет	-10.3087
▁бросился	-10.3095
▁существо	-10.3096
итесь	-10.3098
▁бок	-10.3099
▁ударил	-10.3101
▁спал	-10.3102
▁согласно	-10.3108
▁аккуратно	-10.311
▁Бен	-10.3123
I	-10.3124
вот	-10.3125
▁гостей	-10.3129
▁сне	-10.3132
▁Сер	-10.3133
▁подняла	-10.3135
▁Вообще	-10.3136
щи	-10.3137
▁жену	-10.3144
▁берега	-10.3146
▁июня	-10.3148
▁число	-10.3156
▁последнего	-10.3156
▁разум	-10.3159
кий	-10.3161
▁Второй	-10.3167
▁формы	-10.3178
▁делают	-10.3181
▁самую	-10.3181
▁мин	-10.3193
ация	-10.3194
▁долларов	-10.3194
19	-10.3207
▁тему	-10.3207
▁краю	-10.3208
▁Лишь	-10.3211
▁стакан	-10.3213
▁офицер	-10.3216
▁средства	-10.3217
▁первая	-10.322
▁Сан	-10.323
▁Одна	-10.323
ическое	-10.3234
▁Нас	-10.3248
▁Время	-10.3251
▁главным	-10.3256
▁службы	-10.3256
▁готова	-10.3259
▁Голос	-10.3261
▁круг	-10.3265
▁коротко	-10.3269
кова	-10.327
▁последних	-10.3276
жен	-10.329
▁счастью	-10.3296
▁тон	-10.3301
▁двадцати	-10.3307
▁открыть	-10.3308
▁подальше	-10.3312
▁объяснил	-10.3314
тен	-10.3315
▁полный	-10.3322
▁вещей	-10.3323
образ	-10.3324
▁получается	-10.3325
▁Ц	-10.3326
шки	-10.333
лит	-10.3332
▁целом	-10.3337
▁вечно	-10.3345
▁стул	-10.3348
▁тишина	-10.3352
▁словам	-10.3352
▁книге	-10.3355
▁роман	-10.3366
▁Москву	-10.3368
▁ладонь	-10.3372
▁ушла	-10.3376
▁коня	-10.3377
▁класс	-10.3383
▁ворота	-10.3387
▁носом	-10.3388
лан	-10.3394
▁игры	-10.3398
фер	-10.3399
кер	-10.3401
▁мысленно	-10.3406
▁выглядел	-10.3414
ющее	-10.3415
▁радость	-10.3432
▁'	-10.3434
▁черные	-10.3435
▁дверью	-10.3442
▁успели	-10.3447
▁русской	-10.3447
овал	-10.3457
▁поможет	-10.3458
▁слышала	-10.3461
▁живут	-10.3462
▁никуда	-10.3462
▁говоришь	-10.3467
▁площади	-10.3469
▁книг	-10.3472
▁пост	-10.3473
▁указал	-10.3475
▁школе	-10.3476
en	-10.3477
ющийся	-10.3483
▁единственный	-10.3484
▁принимать	-10.3489
▁родителей	-10.3489
▁ста	-10.349
▁лошади	-10.349
!!!	-10.3494
▁непосредственно	-10.3495
▁августа	-10.3496
▁Мал	-10.3496
▁уровне	-10.3501
▁знаком	-10.3504
▁уровень	-10.3507
▁имела	-10.351
▁понимать	-10.351
▁большого	-10.3519
▁Дон	-10.3521
▁проблема	-10.3523
▁Какие	-10.3524
▁сзади	-10.3526
▁значения	-10.3527
▁радостно	-10.3529
▁сей	-10.3531
▁квартиру	-10.3531
▁животных	-10.3536
зы	-10.3539
▁ужасно	-10.3539
▁твою	-10.354
▁недо	-10.3546
▁Ку	-10.3546
тели	-10.3549
стоя	-10.3549
▁лежала	-10.355
▁бар	-10.3557
▁семье	-10.3559
▁времен	-10.356
▁фон	-10.356
▁уверена	-10.3565
ём	-10.3567
▁23	-10.3578
▁полном	-10.3579
▁оказывается	-10.3582
▁вовремя	-10.3583
▁поэт	-10.3588
▁душ	-10.3596
вторых	-10.3602
▁улыбка	-10.3603
▁сигнал	-10.3606
▁Более	-10.3607
▁прием	-10.3613
▁лиц	-10.3616
бе	-10.3617
▁всякого	-10.3622
▁последней	-10.3641
▁видишь	-10.3642
▁Лицо	-10.3646
▁районе	-10.3647
▁звуки	-10.365
▁оставаться	-10.3657
гер	-10.366
▁здания	-10.366
▁следом	-10.3662
▁вариант	-10.3674
▁глубине	-10.3675
▁телом	-10.3675
▁пыль	-10.3679
▁настоящее	-10.368
▁революции	-10.368
▁Скорее	-10.3685
▁живых	-10.3695
▁намного	-10.3702
▁ровно	-10.3704
▁получится	-10.3707
▁родители	-10.3709
▁смысла	-10.3709
жу	-10.3712
▁шанс	-10.372
▁причине	-10.3724
▁Среди	-10.3724
ген	-10.3725
▁пыталась	-10.3728
▁следы	-10.3731
▁чисто	-10.374
▁вспомнить	-10.3741
▁нормально	-10.3742
▁c	-10.3748
ed	-10.375
▁дерева	-10.3762
▁остров	-10.3763
▁суда	-10.3772
▁обед	-10.3775
▁населения	-10.378
▁Ба	-10.3783
▁N	-10.3786
▁старого	-10.3788
▁ч	-10.3794
A	-10.3798
ания	-10.3799
вшейся	-10.3805
мон	-10.3808
▁Мария	-10.3808
▁19	-10.3809
▁находились	-10.3813
овский	-10.3814
▁неплохо	-10.3815
▁шар	-10.3826
▁Пред	-10.3827
▁пойдет	-10.3828
▁считает	-10.3832
▁еле	-10.3833
▁прошли	-10.3833
▁любого	-10.3835
▁черный	-10.3836
▁июля	-10.3838
▁женой	-10.384
▁Многие	-10.3847
▁Прежде	-10.3848
▁спасибо	-10.3851
▁предмет	-10.3863
▁адрес	-10.3868
▁Видимо	-10.3875
▁Лу	-10.3887
▁Мои	-10.3888
▁выходит	-10.3889
дар	-10.3895
▁подобного	-10.3895
▁сентября	-10.3897
▁погиб	-10.3899
▁положении	-10.3902
▁возразил	-10.3905
▁пер	-10.3906
▁кусок	-10.3909
▁взгляда	-10.3915
l	-10.3922
оп	-10.3924
▁природы	-10.3928
▁ст	-10.3933
▁проще	-10.3934
▁поверить	-10.3935
▁поставить	-10.3935
▁центр	-10.3936
▁Ди	-10.3941
дел	-10.3956
дра	-10.3958
▁коридор	-10.3959
▁идут	-10.3963
ак	-10.3965
цов	-10.3966
▁удовольствие	-10.3967
лить	-10.3969
ировал	-10.397
▁заставить	-10.3971
[	-10.3971
▁личности	-10.3978
▁закрыл	-10.3981
▁форму	-10.3981
▁слушать	-10.3982
▁28	-10.3988
▁хозяина	-10.3989
f	-10.3995
▁ногах	-10.3996
ание	-10.4007
▁тень	-10.4009
фр	-10.4009
P	-10.4011
овое	-10.4018
ѣ	-10.4026
▁собственно	-10.4026
чит	-10.4029
▁разговора	-10.4033
▁неизвестно	-10.4037
▁Ру	-10.405
▁непременно	-10.4051
▁заставил	-10.4058
▁дам	-10.4061
▁держа	-10.4061
▁дорога	-10.4062
▁прийти	-10.4064
▁велел	-10.4064
▁огромный	-10.4068
▁21	-10.4069
▁рост	-10.4073
Ч	-10.4074
кур	-10.4074
▁Свет	-10.4078
▁брови	-10.4079
▁повезло	-10.4087
▁удивленно	-10.4091
▁игра	-10.4091
шую	-10.4099
▁лошадей	-10.41
▁Точно	-10.4102
▁самим	-10.4103
▁смогли	-10.411
▁нашла	-10.4118
▁100	-10.4119
▁in	-10.4119
▁купить	-10.4121
▁палец	-10.4123
пере	-10.4123
▁Ох	-10.4125
ёр	-10.4128
▁армия	-10.413
▁ухо	-10.4134
▁получили	-10.4135
▁подобно	-10.4138
▁открыла	-10.4139
▁Знаешь	-10.4146
▁средств	-10.4151
▁вред	-10.4151
тов	-10.4151
рас	-10.4156
▁скажет	-10.4159
▁отчего	-10.4164
▁годов	-10.4168
так	-10.417
▁планы	-10.4174
том	-10.4177
цион	-10.4179
▁27	-10.418
▁Вместо	-10.4183
▁ведет	-10.4184
▁кровать	-10.4188
▁самолет	-10.4189
▁встала	-10.4189
▁50	-10.4196
чат	-10.4198
▁наружу	-10.4202
▁условия	-10.4216
пре	-10.4223
▁воли	-10.4224
▁Бер	-10.4226
▁километров	-10.4229
▁Хар	-10.4229
▁отцом	-10.4231
▁Почти	-10.4233
▁ЦК	-10.4233
▁высокий	-10.4238
За	-10.4238
стр	-10.4243
▁привести	-10.4255
чен	-10.4259
▁Га	-10.426
▁семья	-10.4262
T	-10.4262
▁Лев	-10.4264
▁Ж	-10.4264
лер	-10.4264
▁ветра	-10.4267
▁заметить	-10.4272
▁взяли	-10.4273
▁книга	-10.4274
▁главный	-10.4275
▁горе	-10.4277
▁понимает	-10.428
▁боюсь	-10.4281
▁Англии	-10.4287
▁выглядит	-10.4289
▁Богу	-10.4291
ям	-10.4291
▁империи	-10.4291
▁мною	-10.4295
▁большей	-10.4296
▁ничто	-10.4298
▁вслух	-10.4299
▁спасти	-10.4303
дор	-10.4304
иль	-10.4305
▁Ши	-10.4305
▁скорость	-10.4318
▁Эр	-10.4318
▁удара	-10.4321
);	-10.4329
воз	-10.4334
▁замер	-10.4334
▁постель	-10.4336
вор	-10.4336
▁пятнадцать	-10.4342
▁Судя	-10.4348
▁помог	-10.4359
вшей	-10.436
0	-10.4363
▁поход	-10.4366
▁передать	-10.4368
▁Был	-10.4374
ас	-10.4378
дав	-10.4378
▁Капитан	-10.4389
▁Ту	-10.4394
▁Мало	-10.4395
очек	-10.4396
очки	-10.4397
▁капитана	-10.4398
▁искренне	-10.4402
мат	-10.4404
▁полчаса	-10.4412
▁мальчика	-10.4412
▁чрезвычайно	-10.4413
▁мозг	-10.4415
ушка	-10.4418
▁Опять	-10.442
▁мастер	-10.4423
дон	-10.4423
▁подобных	-10.4424
▁зависит	-10.4426
▁мер	-10.443
▁прошептала	-10.444
▁планеты	-10.4441
▁создать	-10.4443
▁понятия	-10.4443
ическую	-10.4455
ция	-10.4459
изма	-10.4459
▁желая	-10.4459
▁Пар	-10.4459
енных	-10.4463
▁Много	-10.4464
▁мо	-10.4467
ению	-10.4467
▁знания	-10.4468
▁договор	-10.4469
▁Пи	-10.4475
▁стоять	-10.4481
▁ранее	-10.4483
▁будущем	-10.4485
▁приходит	-10.4489
гар	-10.4489
▁представляет	-10.449
▁сведения	-10.4492
▁кожи	-10.4498
▁оставив	-10.45
▁Мари	-10.45
чки	-10.4505
телей	-10.4506
▁делали	-10.4509
шись	-10.4511
▁вещь	-10.4515
▁понимая	-10.4519
▁живой	-10.4519
кор	-10.4521
▁похож	-10.4522
▁Ник	-10.4522
▁остановилась	-10.4524
▁уровня	-10.4531
▁Ой	-10.4537
▁скажи	-10.4538
видимому	-10.4538
▁встретил	-10.4541
▁каждую	-10.4544
▁поднялась	-10.4546
зор	-10.4546
▁князя	-10.4556
▁Гар	-10.4557
зем	-10.4564
▁военных	-10.4572
8	-10.4572
▁слышно	-10.4574
▁пытались	-10.4576
▁счастья	-10.4584
▁хватило	-10.4587
▁октября	-10.4587
▁понимала	-10.4589
▁тип	-10.4589
▁смех	-10.4592
▁стремительно	-10.4596
▁Ра	-10.4597
▁квартире	-10.4602
▁T	-10.4605
▁повернулась	-10.4612
▁подобное	-10.4612
вой	-10.4612
▁порой	-10.4614
▁царя	-10.4615
▁просил	-10.4621
▁Ван	-10.4626
▁дождь	-10.4626
▁положения	-10.463
▁фронта	-10.4631
▁закричал	-10.4633
▁результат	-10.4638
▁назвал	-10.4639
нный	-10.4639
дж	-10.464
▁мест	-10.4644
ar	-10.4648
▁вино	-10.465
▁император	-10.4651
шку	-10.4653
▁борьбы	-10.4654
▁станции	-10.4657
▁Женщина	-10.4661
▁членов	-10.4661
▁Какое	-10.4673
▁воскликнула	-10.4675
▁прошлого	-10.4676
инг	-10.4676
▁отдать	-10.4679
дан	-10.4682
▁русского	-10.4683
Ж	-10.4684
▁Ти	-10.4688
▁полиции	-10.4692
▁документы	-10.4696
▁русский	-10.4698
▁воин	-10.4699
▁проверить	-10.47
▁рассказывать	-10.47
▁рассмеялся	-10.47
▁кухню	-10.471
▁состоит	-10.4712
сто	-10.4712
▁настроение	-10.4715
▁примеру	-10.4716
▁V	-10.4718
▁выхода	-10.4719
▁хвост	-10.4719
ву	-10.4722
▁пальцев	-10.4734
▁существа	-10.4736
▁вашу	-10.4736
▁майор	-10.4739
▁опасность	-10.4743
▁опустил	-10.4744
▁Ленин	-10.4749
▁боялся	-10.4764
▁чём	-10.4766
▁отсутствие	-10.4771
▁маленькая	-10.4773
▁ад	-10.4775
▁Антон	-10.4777
ющую	-10.4784
▁прочим	-10.4787
▁Кол	-10.4787
▁вошли	-10.4788
▁домов	-10.4797
▁вернулись	-10.4798
▁меж	-10.48
▁возраста	-10.4803
▁a	-10.4807
▁Рядом	-10.481
▁задача	-10.4811
пле	-10.4828
▁искусства	-10.4829
▁молодого	-10.4832
▁увидели	-10.4833
▁вытащил	-10.4834
M	-10.4838
▁принято	-10.4839
▁надеюсь	-10.4845
▁всяких	-10.4847
▁26	-10.4847
▁обещал	-10.4848
▁дядя	-10.4848
кар	-10.4848
▁Александра	-10.485
▁вывод	-10.4855
▁называют	-10.4865
▁собственного	-10.4868
▁мыслей	-10.4869
▁сказано	-10.4875
▁болезни	-10.4883
▁автомат	-10.4885
илось	-10.4888
▁идеи	-10.4889
▁лошадь	-10.489
▁пояс	-10.4899
▁добраться	-10.4906
▁основе	-10.4909
знач	-10.4909
▁уверенно	-10.4914
”.	-10.4916
ря	-10.4921
▁Стар	-10.4922
▁Господь	-10.493
▁гнев	-10.4933
▁повел	-10.4939
▁незаметно	-10.4942
▁услышала	-10.4944
▁кухне	-10.4945
▁новая	-10.495
▁ситуацию	-10.495
al	-10.4954
▁вернуть	-10.4959
▁Павел	-10.4964
▁наблюдал	-10.4965
▁Фа	-10.497
▁подобные	-10.4971
es	-10.4972
▁русские	-10.4973
▁срочно	-10.4985
▁Ге	-10.4988
▁пойду	-10.4993
▁спрашивает	-10.4996
▁наверх	-10.4997
▁лежали	-10.5004
вит	-10.501
▁каждое	-10.501
▁контроль	-10.5011
d	-10.5016
Что	-10.5025
сад	-10.5027
▁поспешно	-10.503
▁подтвердил	-10.5031
▁Ри	-10.5031
▁края	-10.5033
тро	-10.5033
▁брать	-10.504
пис	-10.5046
▁следующее	-10.5048
▁сложно	-10.505
▁поняли	-10.5051
▁дед	-10.5051
▁лорд	-10.5052
▁языка	-10.5056
▁пан	-10.5058
▁Земли	-10.506
▁твоих	-10.5062
сом	-10.5063
▁четко	-10.5069
▁мужик	-10.5075
▁воинов	-10.5082
▁рабочих	-10.5086
лег	-10.5088
▁солдаты	-10.509
▁маленькой	-10.5094
▁определить	-10.5095
▁шее	-10.5103
▁здорово	-10.5106
▁белые	-10.5113
▁врагов	-10.5113
▁мировой	-10.5115
▁небе	-10.5117
▁камни	-10.5126
▁марта	-10.5126
▁Москвы	-10.5134
▁Поскольку	-10.514
▁позиции	-10.5141
▁отношений	-10.5144
▁Дар	-10.5144
▁одежды	-10.5145
▁отцу	-10.5154
син	-10.5158
▁замка	-10.5163
мин	-10.5168
▁ждали	-10.5172
▁старой	-10.5172
вшим	-10.5174
▁звезды	-10.518
итель	-10.5183
вшая	-10.5187
▁Саша	-10.5189
▁Василий	-10.519
▁ноября	-10.519
▁старика	-10.519
тра	-10.5191
щее	-10.5191
чин	-10.5193
ряд	-10.5196
▁середине	-10.5196
▁своё	-10.5197
▁происходило	-10.5205
▁недостаточно	-10.5214
▁посреди	-10.5216
▁длинные	-10.5218
▁борт	-10.5218
▁простой	-10.5218
▁шести	-10.522
▁Ман	-10.5221
▁верю	-10.5225
▁пристально	-10.523
▁пола	-10.5235
▁понимаете	-10.5236
▁отвечает	-10.5236
▁декабря	-10.5245
▁пожар	-10.5251
▁молчал	-10.5254
▁кур	-10.5254
ход	-10.5255
▁долг	-10.5255
▁курс	-10.5256
▁Причем	-10.5258
▁культуры	-10.5266
▁говорите	-10.5269
▁января	-10.527
▁слушал	-10.5271
▁Лес	-10.5272
▁белый	-10.5282
▁Хо	-10.5282
▁завод	-10.5284
▁штаб	-10.5286
ации	-10.5288
▁требует	-10.5289
▁изменить	-10.5291
▁задумался	-10.5292
▁глупо	-10.5293
▁попыталась	-10.5294
▁отношению	-10.5294
▁Са	-10.5297
▁махнул	-10.5299
▁старший	-10.5301
▁транспорт	-10.5302
▁кресла	-10.5304
цем	-10.5305
▁молодых	-10.5312
▁думаете	-10.5319
▁Нельзя	-10.532
▁Би	-10.5324
▁Жан	-10.5326
▁Понятно	-10.5329
зу	-10.533
▁Борис	-10.5333
▁огнем	-10.5338
▁чувствуя	-10.5339
цами	-10.534
▁Роберт	-10.5342
▁коп	-10.5345
▁старые	-10.5346
ху	-10.5351
▁вошла	-10.536
▁Давайте	-10.5362
▁демон	-10.5363
▁поведение	-10.5364
▁острова	-10.5366
▁услышать	-10.5369
нные	-10.5372
енной	-10.5372
▁барон	-10.5373
▁уме	-10.5373
▁апреля	-10.5374
▁школу	-10.5378
▁кабинете	-10.5379
▁Кир	-10.5384
▁Доктор	-10.5389
▁другому	-10.5391
▁правительства	-10.5393
▁Скоро	-10.5397
▁данные	-10.5397
▁совет	-10.5398
▁Мистер	-10.54
▁объявил	-10.5402
▁труп	-10.5402
▁слышать	-10.5405
жив	-10.5411
▁кармана	-10.5414
▁фоне	-10.5415
пор	-10.5415
▁команды	-10.5418
▁Дай	-10.5418
▁несомненно	-10.5422
▁влияние	-10.5423
▁левой	-10.5424
▁окон	-10.5429
▁Мэри	-10.543
Как	-10.5432
▁систему	-10.5434
▁собирается	-10.5435
▁29	-10.5436
ницу	-10.5438
ед	-10.544
дей	-10.5442
ступ	-10.5453
▁вскочил	-10.5457
▁Тор	-10.5457
▁остановить	-10.5458
▁Ай	-10.5458
▁оставался	-10.5458
▁пьян	-10.5463
▁начальника	-10.5465
▁Старик	-10.547
▁Мин	-10.5472
▁частности	-10.5476
▁3.	-10.5477
▁способности	-10.5489
▁Тар	-10.5491
▁черной	-10.55
▁Такой	-10.5505
▁общего	-10.5506
▁отдел	-10.5507
▁порт	-10.551
▁неба	-10.5511
▁кости	-10.5513
ень	-10.5513
▁полка	-10.5517
▁правой	-10.5517
▁итоге	-10.5518
▁некогда	-10.5519
▁Европе	-10.552
▁Бел	-10.5522
▁этаж	-10.5525
▁кожа	-10.5525
▁будучи	-10.5527
!"	-10.5533
▁Федор	-10.5541
▁входа	-10.5543
▁корабли	-10.5547
▁Одно	-10.5553
кал	-10.5555
▁причины	-10.5565
▁de	-10.5565
▁поисках	-10.5568
▁состояния	-10.5575
▁действие	-10.5578
▁высокой	-10.558
▁дала	-10.558
▁генерала	-10.5594
▁вышло	-10.5595
мар	-10.5603
ниц	-10.5609
▁губами	-10.5619
▁узнала	-10.5619
▁надежды	-10.562
▁силами	-10.5621
▁сохранить	-10.5624
▁Сара	-10.5639
▁позволяет	-10.564
альный	-10.5643
▁хорошего	-10.5645
пар	-10.5653
▁уставился	-10.5656
▁воспоминания	-10.5657
▁ходил	-10.566
▁ушли	-10.5662
▁умереть	-10.5664
▁Иначе	-10.5666
▁стоят	-10.5667
▁класса	-10.5667
имся	-10.5668
▁кресле	-10.5675
▁сути	-10.5678
▁Карл	-10.5686
▁Хоть	-10.5687
▁Прошу	-10.5688
▁Люб	-10.5689
▁словах	-10.5691
бой	-10.5693
▁Род	-10.5696
▁молчание	-10.5697
▁груз	-10.5697
▁сестры	-10.5698
▁хлеба	-10.5708
▁--	-10.5715
▁кораблей	-10.5717
мут	-10.5723
h	-10.5732
▁нежно	-10.5733
▁III	-10.5736
▁числа	-10.5736
ир	-10.5737
▁Ин	-10.5739
▁клуб	-10.574
▁Дом	-10.5742
▁бывало	-10.5742
▁аромат	-10.5742
▁духа	-10.5753
истов	-10.5762
▁взгляды	-10.5763
»)	-10.5768
▁откровенно	-10.577
▁дай	-10.577
▁недолго	-10.5772
▁изменения	-10.5778
лив	-10.578
ён	-10.5785
▁дивизии	-10.5788
▁Обычно	-10.5791
▁компьютер	-10.5793
настоящему	-10.5799
▁отчаянно	-10.5799
▁Завтра	-10.5801
▁суть	-10.5809
ing	-10.5812
▁дерево	-10.5816
▁кожу	-10.5817
▁отказался	-10.5818
▁видите	-10.5819
▁попытки	-10.582
▁зала	-10.5824
▁послал	-10.5827
▁миру	-10.5832
▁девять	-10.5834
чка	-10.5835
▁член	-10.5835
▁оружием	-10.5835
щу	-10.5835
▁недель	-10.5839
▁позволить	-10.5841
▁Бор	-10.5846
эр	-10.5848
кра	-10.5849
▁судьбы	-10.5852
▁новым	-10.5852
нье	-10.5856
▁обществе	-10.5856
сс	-10.5856
▁сна	-10.5857
ланд	-10.5857
▁жителей	-10.5857
ци	-10.5861
▁любила	-10.5864
▁Оба	-10.5865
▁закончил	-10.5865
▁фигура	-10.5869
▁признать	-10.5882
▁40	-10.5886
▁Скажи	-10.5889
енную	-10.589
▁переход	-10.589
▁вес	-10.5892
еть	-10.5894
▁газеты	-10.5897
▁Сэм	-10.5897
▁концу	-10.5899
▁еду	-10.5899
▁общество	-10.5899
▁обязан	-10.59
▁Главное	-10.5908
▁поток	-10.5909
▁какими	-10.591
▁ужаса	-10.5917
▁занят	-10.5921
▁половину	-10.5925
▁великий	-10.5928
is	-10.593
▁недалеко	-10.5936
▁Земле	-10.5944
стро	-10.5944
▁любовью	-10.5944
▁Пан	-10.5944
▁шаги	-10.595
▁свободу	-10.5955
▁вели	-10.5956
▁деревья	-10.5957
▁сообщение	-10.5963
▁мрачно	-10.5964
▁фи	-10.5966
▁окажется	-10.5968
▁будущего	-10.5969
▁выяснить	-10.5971
▁ждала	-10.5971
▁боевой	-10.5983
▁упала	-10.5984
▁дорогая	-10.5984
▁светом	-10.5985
аться	-10.5988
▁возьми	-10.5993
▁спор	-10.6004
▁двигаться	-10.6012
▁принадлежит	-10.6016
▁работ	-10.6026
▁крестьян	-10.6027
▁магии	-10.6032
▁район	-10.604
▁Максим	-10.6041
▁правительство	-10.6046
▁скажешь	-10.605
▁дверей	-10.605
▁юноша	-10.6053
▁пытается	-10.6055
▁Пожалуйста	-10.6067
ним	-10.6067
▁Эль	-10.6068
▁написано	-10.6073
▁бога	-10.6074
▁собираюсь	-10.6074
▁The	-10.6074
▁сильный	-10.6078
свет	-10.6078
▁символ	-10.6082
▁Мать	-10.6082
▁женщиной	-10.6083
▁чудо	-10.6086
▁каждому	-10.6092
▁Гер	-10.6098
▁везде	-10.6098
нная	-10.61
▁снять	-10.61
▁меры	-10.6108
▁ситуация	-10.6109
▁встретиться	-10.6118
▁пояснил	-10.6121
нья	-10.6121
▁писатель	-10.6136
чек	-10.6142
▁Снова	-10.6144
▁царь	-10.6147
▁Кур	-10.6156
▁казался	-10.6157
▁взрыв	-10.616
▁согласилась	-10.616
▁находилась	-10.6165
▁продолжать	-10.6165
▁именем	-10.6165
▁врач	-10.6167
руч	-10.6171
▁вторая	-10.6173
▁въ	-10.6174
▁ногой	-10.6175
▁поближе	-10.6178
▁избавиться	-10.6183
Ну	-10.6183
▁говорится	-10.6189
▁волю	-10.6189
ица	-10.6189
▁проект	-10.6195
▁Такое	-10.6209
▁скажем	-10.6209
▁называли	-10.6212
▁ими	-10.6213
альные	-10.6213
ены	-10.6214
▁бою	-10.6215
▁слабо	-10.6216
▁маленькие	-10.6216
▁кар	-10.6221
▁протянула	-10.6221
▁костюм	-10.6223
▁здание	-10.6223
▁выйдет	-10.6228
▁получила	-10.6231
▁деятельность	-10.6237
▁месту	-10.6239
▁Питер	-10.6243
▁Тебя	-10.6246
оз	-10.6249
▁удивительно	-10.6253
▁войти	-10.6256
▁волны	-10.626
▁здоровье	-10.6261
▁Мол	-10.6264
готов	-10.6265
▁жила	-10.6273
▁Внезапно	-10.6274
▁Роман	-10.6277
▁встрече	-10.6277
▁Всего	-10.6281
см	-10.6283
re	-10.6288
▁вспомнила	-10.6289
вшаяся	-10.6289
▁отдела	-10.6295
▁брак	-10.6297
▁миллионов	-10.6298
рав	-10.63
▁Ваше	-10.6308
▁жест	-10.6318
▁ящик	-10.632
▁причина	-10.6323
▁подняться	-10.6328
▁огромные	-10.6329
▁роз	-10.633
▁Такие	-10.633
▁картины	-10.6332
▁Слишком	-10.6332
20	-10.6334
ирует	-10.6339
▁господа	-10.6341
Ю	-10.6341
▁риск	-10.6343
▁полно	-10.6347
▁умел	-10.6349
щую	-10.6349
▁поднять	-10.6354
▁представление	-10.6357
▁даст	-10.6359
▁черно	-10.6361
▁to	-10.638
▁рос	-10.6388
▁передал	-10.6391
▁Слушай	-10.6397
▁картину	-10.6402
зов	-10.6405
▁Сталина	-10.6411
▁повернул	-10.6417
▁остальное	-10.6417
▁квартиры	-10.6417
▁Мо	-10.6423
▁самостоятельно	-10.6423
▁языком	-10.6429
▁усилия	-10.6433
▁сделает	-10.6438
цен	-10.644
▁торопливо	-10.6443
▁сунул	-10.6444
▁зубами	-10.6447
▁рта	-10.6448
▁проводить	-10.6449
▁разобраться	-10.6453
▁решить	-10.6454
▁движением	-10.6455
▁век	-10.646
▁чувствовать	-10.6461
▁голод	-10.6463
▁бывший	-10.6464
▁отнюдь	-10.6468
▁роста	-10.6471
ора	-10.6476
▁бросила	-10.6476
▁взглянула	-10.6478
▁детства	-10.6479
▁Знаю	-10.648
▁границы	-10.6481
▁перестал	-10.6484
▁нервно	-10.6486
▁науки	-10.6495
▁добиться	-10.6496
▁цен	-10.6496
▁служить	-10.6497
▁Вся	-10.6497
▁убили	-10.65
B	-10.6503
▁прибыл	-10.6511
ари	-10.6512
▁кафе	-10.6514
▁возник	-10.6517
▁грустно	-10.6517
▁мясо	-10.652
▁стану	-10.6522
ишься	-10.6524
▁Дверь	-10.6525
▁Вон	-10.6528
▁народу	-10.6535
▁исчезла	-10.6537
▁поверхность	-10.6537
ало	-10.6538
on	-10.6539
▁службу	-10.6543
▁магазин	-10.6547
▁телу	-10.6551
▁учитель	-10.6551
▁встать	-10.6553
▁доступ	-10.6554
▁захотелось	-10.6557
ред	-10.6559
▁расстоянии	-10.6559
▁Кот	-10.6561
▁теории	-10.6563
▁любить	-10.6565
▁защиты	-10.6568
▁воле	-10.6568
▁создания	-10.6569
▁женщине	-10.6574
▁семи	-10.6579
▁развитие	-10.658
▁считают	-10.6583
▁кол	-10.6583
ант	-10.6591
ницей	-10.6592
▁Ольга	-10.6603
▁Петрович	-10.6605
вес	-10.6608
▁подарок	-10.6611
▁сухо	-10.6612
▁покачала	-10.6612
уса	-10.6613
▁союз	-10.6617
ул	-10.6618
▁ожидая	-10.662
▁эффект	-10.6622
пе	-10.6628
▁белой	-10.6629
▁Кара	-10.663
▁корпуса	-10.6632
▁Ми	-10.6635
ент	-10.6638
▁сержант	-10.6641
▁лагерь	-10.6644
▁началась	-10.6653
▁давал	-10.6656
ющейся	-10.6658
▁реке	-10.6659
▁полное	-10.666
▁Генри	-10.666
▁имена	-10.6662
▁толку	-10.6663
▁вашим	-10.6666
нных	-10.6668
▁волосами	-10.667
▁карты	-10.6672
▁целую	-10.668
рад	-10.6681
▁хмыкнул	-10.6684
▁Совсем	-10.6695
▁ш	-10.6697
▁Фи	-10.6697
us	-10.6701
▁текст	-10.6702
▁помещение	-10.6702
▁Едва	-10.6704
▁свободно	-10.6706
суд	-10.6707
▁Вместе	-10.671
▁включая	-10.6711
▁Ро	-10.6713
▁Иди	-10.6713
исты	-10.6713
▁бутылку	-10.6724
иков	-10.6729
▁считаю	-10.6729
▁Солнце	-10.673
▁способность	-10.6732
le	-10.6735
▁мозга	-10.6736
▁Весь	-10.6745
Про	-10.6747
▁сверх	-10.6749
енным	-10.6749
▁Действительно	-10.6759
став	-10.676
▁Россия	-10.6763
фе	-10.6766
тар	-10.6768
▁избежать	-10.6769
фи	-10.6771
▁холод	-10.6777
ует	-10.6778
▁появилось	-10.6781
ющегося	-10.6783
▁подробно	-10.6785
▁производства	-10.6786
Это	-10.679
▁возрасте	-10.679
▁собственных	-10.6792
вали	-10.6794
▁ныне	-10.6794
▁минимум	-10.6795
▁Бур	-10.6798
рей	-10.6799
▁нашему	-10.6803
▁опасно	-10.6804
▁Артур	-10.6805
▁кошмар	-10.6813
▁немцы	-10.6821
▁Че	-10.6821
▁надеялся	-10.6823
▁находятся	-10.6824
▁февраля	-10.6824
▁ма	-10.6824
лем	-10.6824
▁вернется	-10.6825
▁данном	-10.6832
▁бабушка	-10.6833
▁знакомый	-10.6836
▁собака	-10.6838
▁бу	-10.6838
▁рыб	-10.684
▁обороны	-10.6841
▁отвечать	-10.6841
▁императора	-10.6841
▁ран	-10.6841
▁герцог	-10.6842
▁групп	-10.6842
▁очереди	-10.6844
▁ужин	-10.6846
▁исследования	-10.6847
Ц	-10.685
ыч	-10.685
▁военной	-10.6852
▁стихи	-10.6854
дов	-10.6857
▁театр	-10.6861
▁главного	-10.6863
иной	-10.6863
▁девочки	-10.6863
▁любят	-10.6866
▁успешно	-10.6868
▁Тре	-10.6876
▁относится	-10.6878
нием	-10.6888
▁ходе	-10.6889
▁старых	-10.689
▁Мон	-10.6893
▁способны	-10.6893
▁борьбе	-10.6894
▁черты	-10.6896
▁улыбаясь	-10.6896
▁командира	-10.6904
енного	-10.6905
▁неподвижно	-10.6906
шек	-10.6908
нин	-10.691
▁ласково	-10.6911
▁остатки	-10.6915
▁якобы	-10.6924
плат	-10.6924
▁мороз	-10.6924
▁существование	-10.6925
ёт	-10.6928
▁отправиться	-10.6929
▁дважды	-10.6933
▁справа	-10.6936
▁смертью	-10.6936
▁собственные	-10.6937
▁бокал	-10.6938
▁материал	-10.6939
емые	-10.6953
▁Привет	-10.6953
слав	-10.6956
▁данный	-10.6961
год	-10.6961
▁процентов	-10.6962
▁протяжении	-10.6965
▁Ис	-10.6966
▁строй	-10.6967
▁телефону	-10.697
▁флот	-10.6973
гранич	-10.698
▁отряда	-10.698
▁плотно	-10.6983
▁встречу	-10.6985
▁исход	-10.6985
▁деревни	-10.6987
нка	-10.6992
▁вос	-10.7002
▁вопроса	-10.7007
▁Ал	-10.7007
▁правила	-10.7009
▁Джордж	-10.7011
▁родился	-10.7013
▁основания	-10.7015
▁великого	-10.7017
овыми	-10.7021
▁президент	-10.7025
▁пороге	-10.7028
▁двенадцать	-10.7033
▁оставили	-10.7034
▁форма	-10.7034
▁любую	-10.7037
▁казалась	-10.704
зо	-10.7043
▁неподалеку	-10.7043
▁точку	-10.7048
▁теми	-10.7049
▁Словно	-10.7054
▁покой	-10.7055
▁церковь	-10.7058
▁местных	-10.7061
▁уничтожить	-10.7061
▁двинулся	-10.7062
▁детьми	-10.7063
▁звали	-10.7069
▁кольцо	-10.707
▁заняться	-10.7073
▁офицеров	-10.7075
▁единственным	-10.7077
▁деревне	-10.7077
▁Наш	-10.708
▁сообщить	-10.7084
▁принялась	-10.7085
▁Бес	-10.7086
▁началось	-10.7087
▁последнюю	-10.7093
▁успех	-10.7093
телем	-10.7095
▁поведения	-10.7101
▁собиралась	-10.7104
▁вежливо	-10.7104
ции	-10.7104
▁вызвать	-10.7105
лат	-10.7105
▁плащ	-10.7105
вато	-10.7108
”,	-10.7111
▁выпить	-10.7112
▁запас	-10.7116
зер	-10.7116
▁всякой	-10.7129
▁Этого	-10.7131
▁кот	-10.7133
▁обратил	-10.7138
ицы	-10.7138
ур	-10.7139
▁странное	-10.7144
альная	-10.7144
▁кабинета	-10.7148
▁поезд	-10.7153
сте	-10.7157
▁дабы	-10.7162
▁становилось	-10.7164
▁начинается	-10.7168
▁Лен	-10.7172
▁расстояние	-10.7173
▁доктора	-10.7174
▁анализ	-10.7179
▁добавила	-10.7181
▁атаку	-10.7182
▁требуется	-10.7188
▁свободы	-10.719
▁помнил	-10.7191
▁Дальше	-10.7194
▁семью	-10.7194
▁убивать	-10.72
▁девушке	-10.7205
▁подходит	-10.7205
▁страну	-10.7206
ез	-10.7207
▁справиться	-10.721
▁Жизнь	-10.7217
дом	-10.7222
▁соответствии	-10.7223
▁качества	-10.7223
▁виноват	-10.7225
▁прошлое	-10.723
▁Прости	-10.723
10	-10.7231
▁данных	-10.7233
▁народов	-10.7233
▁ду	-10.7236
▁Вероятно	-10.7237
▁надежда	-10.7241
▁f	-10.7241
▁упор	-10.7245
▁представления	-10.7245
▁нахмурился	-10.7246
▁остановились	-10.7247
▁умеет	-10.7248
▁говори	-10.7249
▁особенности	-10.7251
бил	-10.7255
▁возвращаться	-10.7258
▁зависимости	-10.7259
шее	-10.7259
▁тел	-10.726
лага	-10.7262
▁эльф	-10.7266
▁визит	-10.7267
▁песни	-10.7267
▁проговорила	-10.7271
рок	-10.7272
▁разом	-10.7272
▁давать	-10.7273
▁s	-10.7274
быт	-10.7276
▁полную	-10.7277
▁особого	-10.7277
▁белых	-10.7277
▁убийства	-10.7278
▁Сен	-10.7279
атор	-10.7282
▁цветы	-10.7283
▁слева	-10.7283
▁спит	-10.7285
жд	-10.7286
▁пыли	-10.7286
▁дают	-10.7288
форм	-10.7289
▁Вера	-10.7293
in	-10.7301
▁разговаривать	-10.7303
▁автомобиль	-10.7306
▁Тай	-10.7307
▁Рим	-10.7307
▁Ки	-10.7308
▁ранен	-10.7309
▁ладонью	-10.7314
▁зуб	-10.7318
▁считали	-10.7326
▁выходу	-10.7327
▁добавить	-10.7329
▁штаба	-10.733
зд	-10.7332
емый	-10.7333
рет	-10.7333
▁отказаться	-10.7336
▁Простите	-10.7337
▁наряд	-10.734
ража	-10.7343
▁Пожалуй	-10.7344
▁позвонил	-10.7345
ата	-10.7348
▁Маг	-10.735
▁флота	-10.7351
▁имеется	-10.7353
▁Гу	-10.7356
▁сделаю	-10.7358
▁воспользоваться	-10.736
▁рублей	-10.7363
▁звон	-10.7368
▁огромной	-10.7369
30	-10.737
▁океан	-10.7372
теля	-10.7374
▁шагом	-10.7374
▁поцеловал	-10.7377
▁толпа	-10.7379
▁Катя	-10.7382
▁точнее	-10.7383
▁слышали	-10.7383
▁верил	-10.7384
▁жар	-10.7394
▁Ша	-10.7394
▁сжал	-10.7395
▁потери	-10.7399
▁Европы	-10.7399
▁капли	-10.74
▁вызвал	-10.7401
▁Ян	-10.7404
нев	-10.7404
▁цветов	-10.7406
▁мадам	-10.7409
▁видим	-10.7412
▁стоя	-10.7413
▁пакет	-10.7414
▁Будь	-10.7417
▁темные	-10.7418
шин	-10.7418
▁коленях	-10.7421
бр	-10.7425
▁автора	-10.7428
▁каждая	-10.7428
нки	-10.7429
Ты	-10.7431
▁герой	-10.7431
▁Тур	-10.7432
▁секунды	-10.7433
ление	-10.7436
▁колен	-10.7439
▁сравнению	-10.7441
▁Дик	-10.7443
▁наблюдать	-10.7445
▁зла	-10.7451
мысл	-10.7452
▁занимался	-10.7453
ительно	-10.7454
▁толпы	-10.7461
▁портрет	-10.7463
щик	-10.7467
▁дворец	-10.747
▁гостиной	-10.7471
k	-10.7473
ол	-10.7475
▁грубо	-10.7476
▁жалко	-10.7476
▁берет	-10.7476
▁ответственность	-10.7478
▁забыла	-10.748
▁послышался	-10.7481
▁враг	-10.7484
▁лег	-10.7485
▁проход	-10.7491
▁уходить	-10.7494
ающий	-10.7495
▁Прямо	-10.7498
▁картина	-10.7498
▁подал	-10.7499
▁скрип	-10.7501
▁нежели	-10.7502
▁играл	-10.7502
▁стекло	-10.7505
▁Кейт	-10.7508
▁разглядеть	-10.751
ара	-10.7511
▁веков	-10.7513
▁список	-10.7514
▁миром	-10.7515
▁добро	-10.7521
▁отдыха	-10.7522
▁задачи	-10.7523
кина	-10.7528
▁озера	-10.7528
▁Эх	-10.7528
ура	-10.7533
▁человеческого	-10.7533
9	-10.7535
▁лбу	-10.7536
ьный	-10.7539
m	-10.7544
▁бо	-10.7549
▁уехал	-10.7557
кос	-10.7557
ион	-10.7558
▁повод	-10.7561
ес	-10.7562
▁Ев	-10.7566
▁достиг	-10.7567
▁плечу	-10.7567
чок	-10.7568
▁Ричард	-10.7571
▁вашем	-10.7572
▁столик	-10.7572
▁предстоит	-10.7573
▁Фу	-10.7575
▁контакт	-10.7575
▁Наши	-10.758
▁слух	-10.7586
▁Ясно	-10.7589
▁тридцати	-10.7589
▁двора	-10.759
▁прервал	-10.7592
▁отчет	-10.7593
▁молод	-10.76
▁порядка	-10.7602
▁крики	-10.7602
щем	-10.7606
▁детстве	-10.761
фу	-10.7613
▁скал	-10.7613
▁представлял	-10.7614
▁опыта	-10.7619
шен	-10.7623
▁череп	-10.7624
▁пал	-10.7627
▁лучших	-10.7628
▁непонятно	-10.763
▁этаже	-10.7638
▁команду	-10.7638
▁Город	-10.7638
кан	-10.7645
▁информация	-10.7647
▁Генерал	-10.7655
▁позднее	-10.7657
▁называть	-10.7658
▁судьбу	-10.7659
▁взрыва	-10.766
▁отношениях	-10.7661
▁удавалось	-10.7661
▁праздник	-10.7672
▁направление	-10.7673
▁Ответ	-10.7673
▁огромное	-10.7675
▁ждут	-10.7678
чем	-10.768
▁экран	-10.7685
▁Се	-10.7687
▁умерла	-10.769
▁старше	-10.7692
▁стук	-10.7695
▁присутствие	-10.7696
▁двоих	-10.7696
▁обеда	-10.7696
▁принц	-10.7698
▁Странно	-10.7699
▁ощутил	-10.77
▁удовольствия	-10.7707
бит	-10.7708
▁проводил	-10.7711
аем	-10.7711
вая	-10.7711
▁Земля	-10.7713
▁газет	-10.7714
▁Сама	-10.7715
▁дракон	-10.7718
▁человечества	-10.7718
джи	-10.7719
▁скорости	-10.7721
▁искал	-10.7725
▁реальности	-10.7728
▁пес	-10.773
▁пик	-10.7735
▁названием	-10.7737
▁важное	-10.7738
▁директор	-10.7742
▁чужой	-10.7747
лик	-10.7749
▁покинуть	-10.7752
▁дав	-10.7755
▁жене	-10.7756
▁храм	-10.7756
▁север	-10.776
▁надеяться	-10.7762
▁31	-10.7765
▁положила	-10.7771
уз	-10.7771
▁любое	-10.7772
▁пил	-10.7778
▁видя	-10.778
▁выглядела	-10.7781
▁исключением	-10.7781
вест	-10.7782
▁заметили	-10.7782
бар	-10.7783
▁явился	-10.7784
▁правил	-10.7794
▁ди	-10.7795
▁лук	-10.7802
▁компания	-10.7803
кие	-10.7804
▁Вокруг	-10.7804
▁засмеялся	-10.7812
▁Господа	-10.7814
▁ха	-10.7818
▁сущности	-10.7819
▁различные	-10.7819
▁Вопрос	-10.782
an	-10.7822
аешь	-10.7822
▁успеха	-10.7822
▁чувствует	-10.7824
▁Само	-10.7829
▁трав	-10.783
▁испуганно	-10.783
▁характера	-10.7831
▁узнали	-10.7832
▁молодые	-10.7835
▁Господин	-10.7835
▁третьего	-10.7836
▁окну	-10.784
ьев	-10.7842
▁работой	-10.7843
▁богов	-10.7844
люб	-10.7844
ra	-10.7849
▁стрелять	-10.7852
▁Мужчина	-10.7853
▁ощущения	-10.7855
▁кругом	-10.7857
▁результаты	-10.7858
▁родной	-10.7862
▁камня	-10.7865
▁радостью	-10.7865
▁станут	-10.7867
▁Джеймс	-10.787
▁жители	-10.7874
▁армию	-10.7876
▁гибели	-10.7876
▁друзьями	-10.7879
бра	-10.7879
▁аппарат	-10.7883
▁ел	-10.7884
бан	-10.7884
кол	-10.7888
▁человеческой	-10.789
▁музыка	-10.7895
▁Дмитрий	-10.7896
▁боевых	-10.7898
▁узнает	-10.79
▁впоследствии	-10.7901
▁перемен	-10.7902
▁отправились	-10.7902
▁признался	-10.7906
▁нигде	-10.7906
ита	-10.7907
▁собрались	-10.7914
▁позволил	-10.7915
▁пустой	-10.7921
b	-10.7923
▁общей	-10.7923
рез	-10.7923
▁идиот	-10.7924
▁Эд	-10.7925
▁диск	-10.7926
▁кулак	-10.7926
▁склад	-10.7927
▁побежал	-10.7928
▁группу	-10.793
▁игру	-10.7931
▁стекла	-10.7931
сел	-10.7932
гра	-10.7933
▁длинный	-10.7934
▁Сердце	-10.7938
▁гад	-10.7938
ьных	-10.7942
▁существ	-10.7945
▁ожидать	-10.7946
▁втором	-10.7949
▁городу	-10.7951
▁ребят	-10.7951
▁ловко	-10.7952
▁собаки	-10.7957
▁целиком	-10.7964
▁товар	-10.7971
▁раздел	-10.7972
▁Жаль	-10.7973
▁написать	-10.7974
▁курсе	-10.7983
▁случится	-10.7983
▁фотографии	-10.7983
▁подбородок	-10.7989
▁способом	-10.7991
▁приняли	-10.7993
▁Тан	-10.7997
▁метод	-10.8
▁электро	-10.8001
▁мяса	-10.8002
▁проходит	-10.8008
▁разница	-10.8008
▁политики	-10.801
▁Париж	-10.8011
▁вызывает	-10.8013
▁перебил	-10.8016
▁полез	-10.8021
▁делах	-10.8022
▁скрыть	-10.8022
▁сутки	-10.8024
▁торжественно	-10.8024
▁пространства	-10.8025
Вы	-10.8032
it	-10.8034
▁убийство	-10.8035
▁Си	-10.8035
▁члены	-10.8036
ировали	-10.8037
▁Хочешь	-10.8038
▁вопросом	-10.8041
▁ограничен	-10.8043
▁скоростью	-10.805
▁мужчину	-10.8055
▁вздрогнул	-10.8061
▁собирались	-10.8063
▁Папа	-10.8067
▁остановил	-10.8068
▁нравилось	-10.8069
▁попросила	-10.8069
▁показался	-10.807
▁Шар	-10.807
▁дне	-10.8073
ur	-10.8073
▁форм	-10.8074
▁бывают	-10.8075
▁бросить	-10.8077
▁зеркало	-10.8082
▁преступления	-10.8083
▁очки	-10.8084
▁Рай	-10.8087
ват	-10.8088
▁системе	-10.8088
▁имея	-10.8089
▁шло	-10.809
40	-10.8092
Й	-10.8095
▁пламя	-10.8096
▁документ	-10.8096
▁Христа	-10.8101
▁братья	-10.8101
▁удивилась	-10.8106
▁кара	-10.8107
▁оттого	-10.8109
емых	-10.8111
▁немцев	-10.8113
бин	-10.8114
▁предстояло	-10.8117
▁неправильно	-10.8127
ностью	-10.8127
▁удивление	-10.8129
▁бал	-10.8131
▁отчетливо	-10.8134
▁щеки	-10.8137
▁золото	-10.814
тай	-10.814
есь	-10.8144
овского	-10.8145
▁опустился	-10.8145
▁Го	-10.8149
ическим	-10.815
▁Али	-10.8155
шем	-10.8156
▁имело	-10.8157
▁хорошие	-10.8162
▁шагнул	-10.8164
▁удивлением	-10.8164
▁неизбежно	-10.8164
▁полтора	-10.8171
▁коридоре	-10.8172
▁крепости	-10.8172
▁Рад	-10.8172
нс	-10.8173
▁возникает	-10.8176
▁снаружи	-10.8178
▁улыбку	-10.818
без	-10.8188
▁Елена	-10.819
▁частей	-10.8193
▁сесть	-10.8194
▁привел	-10.8198
▁сумку	-10.8198
▁птицы	-10.8199
мент	-10.82
▁ред	-10.8204
▁дурак	-10.8208
шит	-10.8218
▁рту	-10.8219
▁диван	-10.8225
▁принципе	-10.8227
▁сомнений	-10.8228
▁хорошее	-10.8228
▁мечта	-10.8232
▁делала	-10.8239
▁запад	-10.8241
▁доказать	-10.8242
▁напомнил	-10.8244
or	-10.8244
▁Фил	-10.8245
сан	-10.8245
▁Могу	-10.8247
пал	-10.8248
▁выбрал	-10.8251
▁пользоваться	-10.8255
▁невероятно	-10.8257
стой	-10.826
▁лагеря	-10.8264
▁собою	-10.8265
▁ла	-10.8271
▁мост	-10.8274
▁евреев	-10.8277
▁Говорят	-10.8277
▁заглянул	-10.8279
▁сидя	-10.828
руж	-10.8281
▁покоя	-10.8282
▁работали	-10.8287
▁играет	-10.8289
▁начинают	-10.829
▁Смотри	-10.8292
▁обнял	-10.8293
▁Утром	-10.8293
▁твоим	-10.8294
▁пи	-10.8294
▁продолжали	-10.8295
▁ро	-10.8297
▁глава	-10.8299
▁убедить	-10.8303
▁светло	-10.8304
▁неловко	-10.8309
▁военного	-10.8315
▁Марина	-10.8323
▁странным	-10.8324
ток	-10.8324
▁находиться	-10.8326
▁Союза	-10.8328
хан	-10.8329
▁вторую	-10.833
▁Мер	-10.8331
вшуюся	-10.8333
▁матерью	-10.8336
▁интересом	-10.8339
▁Брат	-10.8346
▁рез	-10.8346
▁фронт	-10.8347
▁оглянулся	-10.8347
▁процессе	-10.8354
печат	-10.8354
рак	-10.8361
▁XX	-10.8364
▁учителя	-10.8365
пит	-10.8367
▁давая	-10.8374
▁природе	-10.8374
▁уходит	-10.8377
▁государство	-10.8381
▁оп	-10.8386
лина	-10.8394
ьте	-10.8399
▁Стр	-10.8399
▁существования	-10.84
▁Костя	-10.8403
▁летом	-10.8405
▁Дома	-10.8406
▁черных	-10.8406
-1	-10.8407
шийся	-10.841
▁новости	-10.8415
лия	-10.8418
▁устало	-10.8419
▁сможешь	-10.8424
▁баб	-10.8425
▁низко	-10.8425
▁низ	-10.8426
▁помогает	-10.8426
▁Вроде	-10.8427
▁открыто	-10.8427
▁Мел	-10.843
▁принимал	-10.8432
▁Лет	-10.8434
▁разговоры	-10.8435
▁хорошая	-10.8437
▁чьи	-10.8438
чив	-10.8441
▁высокого	-10.8442
▁вернее	-10.8443
▁Раньше	-10.8444
рит	-10.8444
шему	-10.845
▁Совета	-10.8455
кую	-10.8456
▁печально	-10.8458
▁сахар	-10.846
лек	-10.8464
▁еды	-10.8464
▁дворца	-10.8464
▁мотор	-10.8466
▁Чу	-10.8466
▁судить	-10.8466
▁Такая	-10.8468
вшимся	-10.8469
един	-10.8469
▁полным	-10.8472
▁Пришлось	-10.8473
▁борту	-10.8478
▁рев	-10.8479
▁остановиться	-10.848
ост	-10.8482
▁Сар	-10.8486
▁верх	-10.8487
▁нём	-10.8493
▁прибыли	-10.8493
нес	-10.8494
▁советской	-10.8498
▁купил	-10.8498
▁правы	-10.85
город	-10.8501
дель	-10.8507
овали	-10.8508
▁наверно	-10.8508
▁появляется	-10.8509
▁пространстве	-10.8509
сты	-10.851
▁Насколько	-10.8511
▁советских	-10.8512
ался	-10.8513
▁открыв	-10.8516
▁Народ	-10.8519
▁старая	-10.8522
▁пальто	-10.8525
▁выполнять	-10.8525
▁сможем	-10.8526
▁прос	-10.8533
▁Две	-10.8533
пред	-10.8538
▁давайте	-10.8541
▁запрет	-10.8543
мана	-10.8547
▁подо	-10.8551
▁Томас	-10.8552
▁ос	-10.8552
од	-10.8553
все	-10.8554
▁фото	-10.8555
тей	-10.8557
▁рассказала	-10.8557
▁стенах	-10.8558
50	-10.8558
▁земель	-10.8561
▁поспешил	-10.8561
▁Егор	-10.8564
▁оставались	-10.8564
.).	-10.8565
▁девушек	-10.8566
бал	-10.8567
▁защиту	-10.8569
▁установить	-10.8571
00	-10.8575
ций	-10.8576
▁слава	-10.8581
▁пойдем	-10.8583
▁шепотом	-10.8585
▁казались	-10.8591
▁просить	-10.8591
▁повсюду	-10.8593
▁устроить	-10.8599
▁Николаевич	-10.8599
▁покинул	-10.86
▁согласен	-10.8601
▁обмен	-10.8602
▁лишен	-10.8603
ких	-10.8606
▁Эн	-10.8611
ящий	-10.8612
▁думая	-10.8615
▁недовольно	-10.8615
дет	-10.8618
▁закрыла	-10.862
▁надолго	-10.8623
▁охраны	-10.8623
ируя	-10.8625
▁комната	-10.8625
▁кричал	-10.8629
▁вела	-10.8631
▁подошли	-10.8633
▁взглянуть	-10.8634
бран	-10.8635
▁взяв	-10.8637
▁руб	-10.8639
▁делам	-10.864
▁изменилось	-10.8643
ким	-10.8646
▁бежал	-10.865
▁поверх	-10.8653
▁самих	-10.8654
▁мат	-10.8655
▁единого	-10.8656
▁боялась	-10.8658
▁победы	-10.866
▁страна	-10.8662
фф	-10.8665
▁братьев	-10.8665
▁голода	-10.8671
нский	-10.8672
▁карту	-10.8673
▁малыш	-10.8674
▁устал	-10.8675
▁сосед	-10.8675
▁вход	-10.8676
▁техники	-10.8686
брос	-10.8688
▁землей	-10.8693
▁всякие	-10.8694
▁источник	-10.8695
▁проснулся	-10.8702
▁дыма	-10.8708
▁негромко	-10.871
ад	-10.871
▁попробовать	-10.871
▁крупных	-10.871
▁саду	-10.8712
▁служил	-10.8713
▁выстрел	-10.8717
▁Вид	-10.8717
▁поворот	-10.8718
▁госпожа	-10.872
тур	-10.8721
▁Сразу	-10.8725
▁решать	-10.8728
▁смогут	-10.873
▁детали	-10.8731
▁Вар	-10.8731
пут	-10.8735
▁собак	-10.8736
▁Ум	-10.8745
▁Ибо	-10.8748
▁***	-10.8749
▁Ещё	-10.875
▁думали	-10.875
▁испытывал	-10.875
▁сыном	-10.8751
▁конверт	-10.8753
▁наклонился	-10.8754
▁Бе	-10.8755
эй	-10.876
▁сделано	-10.876
чуть	-10.876
»...	-10.8761
▁покое	-10.8762
▁прочих	-10.8763
▁самолета	-10.8765
▁1-	-10.8765
▁маленькую	-10.8765
▁фактически	-10.8768
▁иди	-10.8773
разум	-10.8777
▁коллектив	-10.8777
очку	-10.8777
чист	-10.8779
пон	-10.878
▁камней	-10.8783
▁связано	-10.8786
▁День	-10.8789
аре	-10.879
▁молодая	-10.879
кто	-10.8795
▁прямой	-10.8796
▁беда	-10.8805
▁выяснилось	-10.8814
▁понравилось	-10.8815
▁чувством	-10.8817
▁раны	-10.8818
▁делаешь	-10.8822
el	-10.8822
▁городов	-10.8824
▁сердито	-10.8824
Если	-10.8825
▁Ху	-10.8826
▁собственный	-10.8832
▁бояться	-10.8832
▁слухи	-10.8833
▁губам	-10.8836
▁положено	-10.8836
▁ракет	-10.8836
▁надеясь	-10.8837
▁заявила	-10.8838
ять	-10.8838
▁фигуры	-10.8841
▁окном	-10.8842
▁догадался	-10.8843
▁поиски	-10.8843
рек	-10.8844
▁смешно	-10.8845
рой	-10.8845
▁Первым	-10.8846
▁Кер	-10.8847
▁бросилась	-10.885
▁Эрик	-10.885
▁Аль	-10.885
▁половине	-10.8854
▁корпус	-10.8856
▁инженер	-10.8859
▁Алиса	-10.886
▁суток	-10.8861
▁пас	-10.8862
▁причиной	-10.8864
ическом	-10.8864
▁отдохнуть	-10.8869
▁волна	-10.887
▁Очевидно	-10.8872
▁учиться	-10.8873
тельный	-10.8877
▁термин	-10.8879
▁перевел	-10.8881
▁приводит	-10.8883
еля	-10.8884
▁Боб	-10.8885
▁золотой	-10.8895
▁предложения	-10.8895
нят	-10.8901
▁последним	-10.8902
▁ручку	-10.8904
▁десятка	-10.8904
▁помогать	-10.8911
▁1941	-10.8915
▁сбор	-10.8915
▁заодно	-10.8916
▁приходил	-10.8916
▁искусство	-10.8917
▁стыдно	-10.8917
▁присел	-10.8918
станов	-10.892
остью	-10.8922
нице	-10.8924
▁потребовал	-10.8924
▁глянул	-10.8924
▁Мальчик	-10.8926
▁помимо	-10.893
▁Хан	-10.8931
движ	-10.8933
▁сомневался	-10.8935
▁Остальные	-10.8936
▁передо	-10.8936
вет	-10.8938
ьер	-10.8939
лес	-10.8939
вед	-10.894
▁Жив	-10.8941
▁половина	-10.8945
▁главной	-10.8948
▁пожала	-10.8952
рыв	-10.8952
▁вызов	-10.8953
▁вор	-10.8953
▁жертву	-10.8956
ида	-10.8956
▁товарищей	-10.8958
▁прекрасный	-10.8959
▁мешок	-10.896
▁показывает	-10.896
▁возраст	-10.8962
▁ходили	-10.8963
▁Вчера	-10.8964
▁товарищи	-10.897
▁особой	-10.8972
▁Рон	-10.8973
▁понадобится	-10.8976
вшее	-10.8978
▁бред	-10.8978
▁холодной	-10.898
▁Верно	-10.8984
▁надел	-10.8985
▁предположить	-10.8987
▁годах	-10.8987
▁пу	-10.8988
▁площадь	-10.8989
уют	-10.8992
рю	-10.8992
▁малейшего	-10.8992
говор	-10.8994
▁организм	-10.8995
няя	-10.8997
ела	-10.8999
▁уверены	-10.8999
▁жестом	-10.9003
▁друж	-10.9004
вис	-10.9004
▁выбора	-10.9005
▁такому	-10.9005
▁пе	-10.9007
▁зверь	-10.9007
▁заметив	-10.9009
▁Глеб	-10.9011
ром	-10.9013
лок	-10.9018
▁4.	-10.9021
эл	-10.9022
▁Маша	-10.9022
▁оборот	-10.9024
▁Вряд	-10.903
▁исчезли	-10.903
коп	-10.9031
▁объект	-10.9033
стями	-10.9033
нар	-10.9034
яр	-10.9035
?"	-10.9036
▁большими	-10.9041
▁принести	-10.9041
▁тесно	-10.9041
▁похожи	-10.9042
▁Прошло	-10.9045
▁дышать	-10.9046
▁2-	-10.9048
▁ремонт	-10.9052
▁ничуть	-10.9056
▁добрый	-10.9057
ине	-10.9057
ард	-10.9058
▁глазам	-10.9062
еры	-10.9064
▁Шу	-10.9067
▁башни	-10.9068
▁Париже	-10.9071
▁случая	-10.9072
▁Стас	-10.9073
еб	-10.9073
▁Слава	-10.9073
▁мистера	-10.9075
▁заключается	-10.9076
дели	-10.9077
▁Хм	-10.9078
раж	-10.9079
ений	-10.9082
▁центра	-10.9083
▁необходимость	-10.9085
▁звонок	-10.9088
другому	-10.909
▁веру	-10.909
▁Ло	-10.9095
гон	-10.9096
▁буркнул	-10.9098
▁Син	-10.9099
лый	-10.9101
▁странный	-10.9102
▁дольше	-10.9106
чная	-10.9106
каз	-10.911
▁рада	-10.9111
▁газ	-10.9115
▁Май	-10.9116
▁коридору	-10.9118
▁бороться	-10.9119
▁восьми	-10.9119
▁Бу	-10.9119
▁Лили	-10.912
▁собрать	-10.912
▁остро	-10.9121
▁поверил	-10.9122
слов	-10.9129
▁Мартин	-10.913
▁идей	-10.9134
▁спрашивал	-10.9135
▁ярости	-10.9137
▁приехали	-10.9138
▁Зо	-10.9139
▁парни	-10.9139
▁попали	-10.914
▁десяток	-10.9141
эль	-10.9141
знаком	-10.9142
▁журнал	-10.9143
▁Россию	-10.9146
▁Мат	-10.9148
▁всерьез	-10.9151
ющимся	-10.9151
▁команда	-10.9151
ивший	-10.9152
▁Ос	-10.9153
реш	-10.9154
▁шоссе	-10.9155
▁становятся	-10.9162
▁полк	-10.9162
▁воины	-10.9163
енное	-10.9165
▁дама	-10.9168
▁Чуть	-10.9168
ющими	-10.917
▁X	-10.9172
▁представитель	-10.9173
▁Влад	-10.9173
▁охотно	-10.9174
▁луч	-10.9176
▁одежда	-10.9179
▁рис	-10.9181
били	-10.9181
▁давали	-10.9184
▁плане	-10.9186
▁замолчал	-10.9187
▁совета	-10.9189
▁странах	-10.919
▁масла	-10.9191
▁собственную	-10.9192
▁узнав	-10.9192
тек	-10.9194
▁задачу	-10.9197
▁счастлив	-10.9198
чей	-10.9198
▁предложить	-10.9199
▁подхватил	-10.9199
▁пошло	-10.92
▁подруга	-10.9206
▁держаться	-10.9208
▁Пошли	-10.9211
▁законы	-10.9212
стра	-10.9213
▁встретились	-10.9219
▁кос	-10.922
▁записи	-10.9222
▁костра	-10.9224
▁начнет	-10.9225
▁свод	-10.9226
▁лестницы	-10.9227
▁Бат	-10.9227
Мы	-10.9228
▁гнева	-10.9233
▁тихонько	-10.9239
▁ряда	-10.924
▁убедиться	-10.9241
▁обязанности	-10.9242
▁обстоятельства	-10.9246
▁обстоятельствах	-10.9246
▁заорал	-10.925
ливо	-10.9251
▁домом	-10.9251
▁стула	-10.9252
▁упорно	-10.9255
ске	-10.9255
▁слышу	-10.9257
▁мужем	-10.9258
▁достижения	-10.926
▁небрежно	-10.9261
▁бойцов	-10.9263
▁боится	-10.9265
действительности	-10.9266
▁получив	-10.9267
45	-10.9268
▁Отлично	-10.9268
▁искр	-10.9269
ацию	-10.9271
▁военные	-10.9273
тин	-10.9273
▁собрался	-10.9276
▁нередко	-10.9282
▁черного	-10.9288
▁поехал	-10.9294
▁терпеть	-10.9294
▁создание	-10.9297
▁настоящего	-10.9298
▁пройдет	-10.9302
▁огне	-10.9303
ol	-10.9303
бл	-10.9307
▁обеих	-10.9309
▁чей	-10.9312
▁высокие	-10.9315
▁присутствии	-10.9317
▁продолжает	-10.9318
▁чемодан	-10.932
▁просит	-10.9321
▁долю	-10.9321
▁объем	-10.9322
▁усилий	-10.9322
жига	-10.9323
▁порог	-10.9326
▁составе	-10.9328
▁красно	-10.9328
ику	-10.9337
▁показалась	-10.9341
▁разрешения	-10.9342
▁высоты	-10.9343
▁старалась	-10.9344
▁тяжелый	-10.9348
▁Майкл	-10.9348
след	-10.9349
▁мнения	-10.9351
лон	-10.9354
вил	-10.9356
▁Гитлер	-10.9356
нг	-10.9356
▁гордо	-10.9359
▁лежа	-10.936
▁лучший	-10.9361
▁Иисус	-10.9362
▁беседу	-10.9364
рам	-10.9365
▁какому	-10.9371
▁строить	-10.9371
▁пота	-10.9373
▁детям	-10.9376
▁программы	-10.9377
▁дверях	-10.9379
▁маневр	-10.9379
▁половины	-10.9379
▁попала	-10.938
▁Боюсь	-10.938
▁Пу	-10.9381
зв	-10.9382
▁уверенность	-10.9383
▁пот	-10.9384
▁перевод	-10.9384
вол	-10.9386
▁сильным	-10.9387
▁сиденье	-10.9394
кро	-10.9396
▁делами	-10.9398
▁смотри	-10.9408
▁Быть	-10.9415
▁Петра	-10.9415
▁ПО	-10.9416
▁ходит	-10.9417
бур	-10.9417
▁Фар	-10.9417
▁лед	-10.9418
▁отправил	-10.9419
▁гость	-10.9426
▁травы	-10.9427
ающих	-10.9427
▁сопровожда	-10.9428
ключи	-10.9431
▁приговор	-10.9431
▁ночной	-10.9431
▁спины	-10.9431
▁выходить	-10.9433
▁личность	-10.9435
чики	-10.9436
Вот	-10.9437
▁граждан	-10.944
рус	-10.9441
▁Увидев	-10.9444
▁Кому	-10.9445
▁листья	-10.9449
мена	-10.9449
стан	-10.9449
▁пригласил	-10.945
▁наверху	-10.9454
плыв	-10.9454
▁вод	-10.9454
▁гроз	-10.9454
▁Будет	-10.9458
▁приятель	-10.9461
▁болезнь	-10.9463
▁Должно	-10.9463
▁выдержал	-10.9463
▁господина	-10.9466
▁веке	-10.9466
▁Кирилл	-10.9468
▁поступил	-10.9469
▁грех	-10.947
очкой	-10.9471
▁билет	-10.9471
ьные	-10.9473
▁начиная	-10.9481
▁накануне	-10.9484
▁белого	-10.9486
чный	-10.9486
▁пары	-10.9491
мол	-10.9495
▁ожидании	-10.9497
истый	-10.9497
▁Король	-10.9498
▁действует	-10.9498
▁Ради	-10.9499
▁закона	-10.9499
▁университет	-10.9504
ову	-10.9505
▁иной	-10.9509
аж	-10.9511
▁Никаких	-10.9513
▁фильм	-10.9515
▁вампир	-10.9517
усь	-10.9517
▁отметил	-10.9517
▁сердцем	-10.9519
▁птиц	-10.952
▁жертвы	-10.9523
▁занятия	-10.9524
▁провал	-10.9526
▁статьи	-10.9528
▁ребенком	-10.9528
▁орган	-10.9529
айте	-10.953
▁XIX	-10.9531
▁гул	-10.9533
▁режим	-10.9535
▁лап	-10.9538
▁наук	-10.9539
▁заряд	-10.9539
ике	-10.9543
▁красный	-10.9543
▁героя	-10.9544
▁ствол	-10.9546
▁Великий	-10.9546
▁живу	-10.9546
▁35	-10.9547
▁тяжелые	-10.9547
▁веры	-10.9549
▁песок	-10.955
▁Богом	-10.9556
▁знакомых	-10.9558
▁полного	-10.9558
▁адмирал	-10.9561
il	-10.9563
▁морской	-10.9564
▁миль	-10.9566
▁управлять	-10.9571
▁обнаружили	-10.9571
▁сме	-10.9575
▁изнутри	-10.9576
▁лодки	-10.9578
▁древних	-10.9578
▁чести	-10.9578
гре	-10.9582
▁Вен	-10.9583
▁известный	-10.9586
▁перешел	-10.9588
▁мелкие	-10.9591
▁смотрю	-10.9592
▁встретить	-10.9593
▁желает	-10.9595
11	-10.9595
▁РФ	-10.9596
▁Лиза	-10.9598
▁выполнить	-10.96
▁Ваш	-10.9601
▁позвал	-10.9602
▁масса	-10.9603
▁планете	-10.9603
▁Лена	-10.9603
▁танков	-10.9606
▁путешествие	-10.9608
▁задание	-10.9609
▁литературы	-10.9611
▁провела	-10.9612
▁спорить	-10.9614
нной	-10.9615
▁ресторан	-10.9616
ления	-10.9616
▁полагаю	-10.9618
▁обернулась	-10.9619
▁привез	-10.9621
▁200	-10.9621
ище	-10.9622
▁потерять	-10.9622
▁соль	-10.9636
▁авто	-10.9636
▁делаю	-10.9636
▁мальчишка	-10.9637
▁наблюдая	-10.9637
▁помнишь	-10.9639
▁требовалось	-10.9641
▁терять	-10.9641
тельные	-10.9641
▁Ги	-10.9646
▁ле	-10.9648
▁оставалась	-10.9649
▁положить	-10.9651
евич	-10.9653
▁маленьких	-10.9654
▁следить	-10.9657
as	-10.9658
»:	-10.966
▁страдания	-10.966
гляд	-10.9661
▁Большой	-10.967
▁забыли	-10.967
▁связаны	-10.9671
▁дождя	-10.9673
▁экипаж	-10.9674
крас	-10.9675
▁пообещал	-10.9676
25	-10.9678
ством	-10.968
▁мертв	-10.9682
▁противник	-10.9685
▁Дэн	-10.9685
▁Сто	-10.9686
▁Парень	-10.9689
▁Ст	-10.9689
▁подняв	-10.969
тка	-10.9693
▁вспоминал	-10.9695
▁рассмеялась	-10.9696
▁Совет	-10.9697
▁примет	-10.97
▁Ленина	-10.9702
йди	-10.9702
▁неприятно	-10.9702
▁взялся	-10.9703
▁кров	-10.9707
▁тайны	-10.9708
▁Слова	-10.9711
▁новом	-10.9713
▁плоти	-10.9716
▁душой	-10.9717
▁работают	-10.9717
▁горько	-10.9719
▁виски	-10.9719
▁совершил	-10.9719
▁сети	-10.9719
лип	-10.9721
▁настоящая	-10.9721
пят	-10.9727
▁Москва	-10.9727
ирование	-10.9729
▁бывшего	-10.9732
ались	-10.9734
▁случаев	-10.9736
▁комплекс	-10.9737
▁милая	-10.9738
▁че	-10.9739
▁выбраться	-10.9742
▁приняла	-10.9743
тик	-10.9751
▁политической	-10.9751
▁Пора	-10.9751
▁набрал	-10.9752
▁приступ	-10.9758
▁рассмотреть	-10.9759
▁мыслями	-10.9759
▁острове	-10.9759
▁поблизости	-10.9764
ически	-10.9764
▁победу	-10.9765
▁появления	-10.9771
вшееся	-10.9774
пу	-10.9775
▁плав	-10.9777
▁назван	-10.9778
▁организма	-10.9778
▁лучи	-10.9779
▁внутренней	-10.9781
▁Миша	-10.979
▁крылья	-10.9791
▁крупные	-10.9792
▁реку	-10.9792
▁страсти	-10.9795
▁Сил	-10.9796
▁Сын	-10.9798
▁занять	-10.9802
▁Кам	-10.9805
▁процесса	-10.9805
▁живым	-10.9809
▁потолок	-10.9812
▁кучу	-10.9815
▁существу	-10.982
пад	-10.9822
▁d	-10.9823
▁возвращения	-10.9829
▁строя	-10.983
уд	-10.9832
вшими	-10.9834
▁щит	-10.9834
▁приготовления	-10.9836
▁желал	-10.9838
▁эпохи	-10.9839
вай	-10.984
▁Джейн	-10.9843
▁Ивана	-10.9843
маз	-10.9844
▁снизу	-10.9845
▁мечом	-10.9847
▁Спустя	-10.9847
▁Кос	-10.9854
▁подробности	-10.9855
▁отдельных	-10.9856
▁помощник	-10.9857
▁корм	-10.9857
▁поднялись	-10.9862
▁туалет	-10.9862
ань	-10.9864
дур	-10.9864
▁платья	-10.9868
▁Ген	-10.9872
▁Константин	-10.9874
▁удержать	-10.9878
▁последовал	-10.9881
▁Мое	-10.9883
▁Эмили	-10.9883
пы	-10.9888
▁Голова	-10.9888
▁фразу	-10.9893
нку	-10.9894
▁подход	-10.9895
▁маленького	-10.9897
▁ошибки	-10.9899
▁художник	-10.99
▁Воз	-10.9901
▁сообщила	-10.9903
▁двести	-10.9905
▁Совершенно	-10.9907
▁направилась	-10.9909
▁Руси	-10.9909
зин	-10.9915
▁обладает	-10.9921
▁штат	-10.9921
▁благополучно	-10.9922
▁четверо	-10.9927
▁целей	-10.9929
▁основной	-10.993
▁совести	-10.993
▁содержание	-10.9932
ируют	-10.9934
▁спальню	-10.9935
мест	-10.9936
▁Быстро	-10.9937
▁бетон	-10.9939
▁представил	-10.9939
▁появится	-10.9942
▁кредит	-10.9943
альных	-10.9947
▁Новый	-10.9947
▁титул	-10.9949
▁сорока	-10.9949
▁появление	-10.9952
▁пра	-10.9954
▁придумать	-10.9955
▁систем	-10.9958
▁высоких	-10.9959
▁открылась	-10.9963
▁неужели	-10.9963
▁платить	-10.9964
▁образования	-10.9966
▁широкой	-10.9967
▁звучит	-10.9972
▁прижал	-10.9972
▁Запад	-10.9974
▁мастера	-10.9975
g	-10.9976
Но	-10.9977
▁такси	-10.9981
▁любые	-10.9982
лож	-10.9987
▁ведут	-10.9988
▁Оп	-10.9989
▁большом	-10.9991
▁куски	-10.9992
▁единственное	-10.9993
▁принимает	-10.9995
▁чист	-10.9996
шке	-10.9997
▁Ду	-10.9997
▁вечеру	-10.9997
▁получает	-10.9998
▁бизнес	-11.0004
▁должность	-11.0005
стях	-11.0006
▁Люк	-11.0006
ведение	-11.0007
▁облик	-11.0013
▁Мил	-11.0014
▁письме	-11.0016
енок	-11.0027
▁урод	-11.0027
нула	-11.003
▁Лин	-11.0032
▁завтрак	-11.0035
▁Лондон	-11.0035
жит	-11.0035
▁Скажите	-11.0036
сме	-11.0038
▁отвернулся	-11.0039
▁Работа	-11.004
▁небольшую	-11.0045
▁Немного	-11.0045
▁пищи	-11.0046
▁достать	-11.0048
▁своя	-11.005
▁судно	-11.0051
▁сообщения	-11.0051
▁сперва	-11.0053
▁считая	-11.0054
ченко	-11.0059
▁мусор	-11.0061
чке	-11.0061
як	-11.0062
▁авторитет	-11.0064
▁дорого	-11.0069
▁вдвоем	-11.0072
▁носить	-11.0072
▁управление	-11.0073
еле	-11.0073
▁Были	-11.0073
▁десятки	-11.0074
-2	-11.0074
▁группе	-11.0077
эт	-11.0079
▁Естественно	-11.0082
▁замке	-11.0082
кры	-11.0085
рост	-11.0085
▁et	-11.0086
w	-11.0086
▁толпу	-11.0086
▁последняя	-11.0087
▁эмоции	-11.0087
▁спустился	-11.0091
▁входит	-11.0094
нным	-11.0094
▁масло	-11.0095
▁ру	-11.0098
▁держит	-11.0099
▁энергию	-11.01
▁поступить	-11.0101
ником	-11.0101
цам	-11.0103
▁захочет	-11.0105
▁северо	-11.0106
▁подозрительно	-11.0107
▁традиции	-11.0111
▁глухо	-11.0113
▁богу	-11.0113
гин	-11.0114
▁юг	-11.0114
▁сможете	-11.0115
▁крем	-11.0117
чку	-11.012
стрел	-11.0121
▁лето	-11.0124
▁людях	-11.0127
▁хотим	-11.0128
▁река	-11.0128
▁забрать	-11.0134
▁ударом	-11.0135
▁реакции	-11.0135
▁заставила	-11.0135
▁границу	-11.0136
[1	-11.0136
От	-11.0138
▁расскажу	-11.0138
▁ткани	-11.0139
▁служит	-11.014
▁старательно	-11.014
▁яростно	-11.0145
▁Большинство	-11.0149
тона	-11.0152
▁Самое	-11.0156
▁лучшие	-11.0158
▁ощущал	-11.0158
нную	-11.0158
▁Ран	-11.016
▁пешком	-11.0168
▁сумму	-11.0168
▁цивилизации	-11.0169
ств	-11.0171
щими	-11.0171
▁одиночестве	-11.0171
▁здоровья	-11.0172
▁духом	-11.0174
▁побольше	-11.0177
▁красиво	-11.0177
▁идеал	-11.0178
▁скалы	-11.0179
▁зверя	-11.018
▁одеяло	-11.0182
воль	-11.0183
вшую	-11.0187
▁следовательно	-11.0188
▁воскрес	-11.0189
▁полная	-11.019
▁мелко	-11.0192
▁кинжал	-11.0192
▁означало	-11.0193
▁существуют	-11.0194
нова	-11.0195
▁послан	-11.0195
вшему	-11.0195
▁случиться	-11.0195
▁создал	-11.0198
▁сопротивление	-11.0198
▁интересует	-11.0199
▁впрямь	-11.02
▁безусловно	-11.0201
▁зашел	-11.0203
▁продолжая	-11.0204
▁линию	-11.0205
топ	-11.0207
14	-11.0211
При	-11.0213
▁Лю	-11.0216
▁моими	-11.0217
▁тер	-11.0218
▁красивая	-11.0219
▁добра	-11.0219
▁Руки	-11.0224
▁окружен	-11.0225
▁пламени	-11.0228
они	-11.023
▁возникла	-11.0231
▁спрашиваю	-11.0233
▁вернусь	-11.0234
бол	-11.0234
▁услышав	-11.0236
▁местные	-11.0244
▁грязи	-11.0248
нец	-11.025
▁защитить	-11.025
▁отправить	-11.0252
▁Хозяин	-11.0254
▁короткий	-11.0255
▁славян	-11.0258
▁встреч	-11.0258
▁ль	-11.026
▁графа	-11.026
▁последствия	-11.0264
иц	-11.0268
▁скандал	-11.0269
днев	-11.027
▁черта	-11.0271
▁органов	-11.0272
▁Ветер	-11.0272
▁названия	-11.0272
▁предварительно	-11.0274
▁раствор	-11.0275
▁писателя	-11.0278
▁холодный	-11.0279
▁слуг	-11.0279
стар	-11.028
▁взор	-11.028
▁Рис	-11.0283
▁военно	-11.029
▁поражение	-11.0293
▁Ча	-11.0294
▁позицию	-11.0294
куп	-11.0295
▁Рей	-11.0295
▁устав	-11.0298
▁попытка	-11.0298
▁Герман	-11.0299
▁яйца	-11.0303
▁обращая	-11.0303
▁работала	-11.0304
▁дальнейшем	-11.0308
бег	-11.0309
▁гром	-11.0312
▁глубины	-11.0318
▁милый	-11.0319
▁бра	-11.0319
▁попытаться	-11.0319
Нет	-11.0321
▁помещения	-11.0321
▁некуда	-11.0323
▁сотрудников	-11.0325
▁реальность	-11.0326
мина	-11.0326
▁Гри	-11.0334
▁вплоть	-11.0343
▁произведения	-11.0345
▁нашими	-11.0346
▁потеряла	-11.0346
▁заказ	-11.0349
ушки	-11.0349
▁сознании	-11.035
▁предметы	-11.0352
▁одних	-11.0354
▁растерянно	-11.0357
▁Филипп	-11.0357
▁убит	-11.0357
▁кармане	-11.0358
▁обеспечить	-11.0362
▁прощения	-11.0367
▁уехать	-11.0367
▁борьба	-11.0369
▁активно	-11.0372
▁решив	-11.0372
ается	-11.0372
▁обращаясь	-11.0373
▁одежде	-11.0374
гад	-11.0374
▁пробормотала	-11.0376
▁похожа	-11.0378
▁Увы	-11.0379
▁ло	-11.0382
▁сделав	-11.0382
▁решился	-11.0384
▁избран	-11.0386
чить	-11.0392
▁фирмы	-11.0395
▁шт	-11.0395
um	-11.0397
пря	-11.0402
▁облака	-11.0403
▁красные	-11.0405
▁наблюдения	-11.0406
мой	-11.0407
▁прочие	-11.0407
▁попросту	-11.0408
▁близ	-11.0415
вать	-11.0417
N	-11.0419
▁превратился	-11.0421
▁общий	-11.0422
▁партизан	-11.0424
▁задач	-11.0427
Все	-11.043
▁обман	-11.0433
дал	-11.0434
пил	-11.0435
▁оставила	-11.0438
▁Неожиданно	-11.0438
▁Долго	-11.0439
▁признаться	-11.0439
рии	-11.0441
▁здоров	-11.0447
▁наступление	-11.045
лез	-11.0453
▁сыну	-11.0453
▁заняты	-11.0454
▁напрасно	-11.0455
▁беседы	-11.0457
▁тысячу	-11.0458
▁ворон	-11.046
▁разума	-11.0462
▁отпустил	-11.0464
чий	-11.0467
▁Италии	-11.0467
▁кулаком	-11.0469
▁путешествия	-11.047
▁некоторым	-11.047
▁экране	-11.047
▁штаны	-11.0472
▁пору	-11.0473
▁ненадолго	-11.0474
▁подойти	-11.0474
▁представителей	-11.0475
лиз	-11.0476
▁Мед	-11.0476
▁толком	-11.0478
▁IV	-11.0479
▁Шел	-11.0482
нного	-11.0482
▁пятидесяти	-11.0483
зар	-11.0485
▁наполовину	-11.0485
▁сего	-11.0486
▁свист	-11.0486
▁товарища	-11.0486
▁глубже	-11.0488
очной	-11.0488
▁стиле	-11.049
▁лад	-11.0492
чика	-11.0492
▁выдохнул	-11.0495
▁сотен	-11.0496
нное	-11.0498
▁дно	-11.0502
▁став	-11.0503
▁плюс	-11.0503
▁стрел	-11.0504
▁поклонился	-11.0504
▁сход	-11.0505
▁собственное	-11.0505
шив	-11.0509
▁хорошенько	-11.051
▁делается	-11.0513
▁подождать	-11.0513
ающие	-11.0514
▁этажа	-11.0515
▁Пойдем	-11.0519
лл	-11.052
▁номера	-11.0521
уха	-11.0524
▁произойдет	-11.053
▁разрушен	-11.0534
▁носил	-11.0535
▁взят	-11.0543
▁боги	-11.0544
▁называл	-11.0544
15	-11.0545
▁Хватит	-11.0545
▁вынул	-11.0546
▁Год	-11.0548
▁музыку	-11.0549
▁противо	-11.0551
▁Первая	-11.0552
▁профессора	-11.0552
очке	-11.0554
▁переговоры	-11.0555
▁животное	-11.0556
▁общения	-11.0558
▁второе	-11.0561
▁ц	-11.0566
▁страстно	-11.0567
▁силе	-11.057
▁ал	-11.0571
▁захват	-11.0571
▁включил	-11.0575
▁сторож	-11.0578
▁квадрат	-11.0579
▁птица	-11.0579
▁небес	-11.058
▁предложила	-11.058
▁вашему	-11.0582
▁Хочу	-11.0584
▁внутренних	-11.0584
▁кругу	-11.0585
енький	-11.0587
▁легкий	-11.0587
▁обратиться	-11.0587
▁орудий	-11.0589
рат	-11.059
▁гроб	-11.059
▁Лорд	-11.059
▁службе	-11.0597
▁барабан	-11.0597
▁регулярно	-11.06
▁0	-11.0602
▁начинал	-11.0603
▁участок	-11.0606
ители	-11.0606
▁60	-11.061
▁огромным	-11.0611
линг	-11.0613
▁Кого	-11.0613
▁корабле	-11.0615
жда	-11.0615
▁носа	-11.0616
▁посмотрим	-11.0617
▁президента	-11.0618
at	-11.0619
▁делая	-11.0622
▁жестко	-11.0622
▁звери	-11.0622
▁лав	-11.0623
▁вздох	-11.0624
▁рай	-11.0625
▁Ше	-11.0626
тре	-11.0627
▁подряд	-11.0628
▁h	-11.063
▁настоящим	-11.0634
▁собственным	-11.0634
▁идею	-11.0636
▁холма	-11.0637
▁наедине	-11.0637
▁кавалер	-11.0639
▁знаний	-11.0639
ук	-11.064
▁Хи	-11.0642
стен	-11.0647
▁должности	-11.0648
▁Илья	-11.0649
бери	-11.0649
▁пилот	-11.0651
▁духов	-11.0655
▁Тоже	-11.0656
▁следующей	-11.0658
▁предупредил	-11.0659
▁Кап	-11.0659
ании	-11.0659
▁провели	-11.066
▁десятков	-11.0662
▁рыба	-11.0663
водит	-11.0664
ирования	-11.0665
лой	-11.0667
▁хорошим	-11.0668
▁чин	-11.0668
ест	-11.067
▁связан	-11.067
▁Эм	-11.0672
▁заявление	-11.0672
].	-11.0677
▁данной	-11.0678
▁спец	-11.0679
бежал	-11.0682
▁чашку	-11.0683
▁возникло	-11.0684
▁Иванов	-11.0685
▁старшего	-11.0685
▁попросить	-11.0688
сп	-11.0693
▁бывал	-11.0693
▁удачно	-11.0694
▁солнцем	-11.0694
▁проблему	-11.0695
щен	-11.0695
▁тряс	-11.0695
▁Вечером	-11.0696
ue	-11.0696
▁ухмыльнулся	-11.0699
▁любопытством	-11.07
▁комиссар	-11.0701
▁считается	-11.0702
дин	-11.0704
▁волнения	-11.0706
▁поймал	-11.0708
▁театра	-11.0711
дум	-11.0713
▁плана	-11.0716
▁масс	-11.0716
▁тремя	-11.0719
▁Правильно	-11.0719
▁ножом	-11.0721
пра	-11.0722
▁постоял	-11.0722
▁деревню	-11.0723
▁девочку	-11.0723
▁потянулся	-11.0724
▁Му	-11.0724
▁человеческих	-11.0728
▁рубашку	-11.073
▁дура	-11.0731
▁выглядеть	-11.0731
ителя	-11.0731
▁военный	-11.0735
кус	-11.074
▁удары	-11.0743
▁бесполезно	-11.0743
▁представляю	-11.0744
▁проник	-11.0744
▁смотрят	-11.0744
▁поскорее	-11.0748
▁ужасом	-11.0749
▁доклад	-11.0749
▁Знаете	-11.075
▁одинаково	-11.075
▁Короче	-11.075
▁отдельные	-11.075
▁территорию	-11.0751
рь	-11.0751
▁правую	-11.0752
▁разведки	-11.0752
▁выбрать	-11.0754
▁выскочил	-11.0757
▁деньгами	-11.076
▁фа	-11.0762
▁хозяйка	-11.0764
луч	-11.0767
работ	-11.077
▁контроля	-11.0771
▁Вз	-11.0771
хар	-11.0774
▁атаки	-11.0774
▁пункт	-11.0775
▁золота	-11.0775
▁кладбище	-11.0776
▁отошел	-11.0779
▁длинными	-11.0781
▁Тим	-11.0782
▁Согласно	-11.0783
▁неуверенно	-11.0783
▁Малыш	-11.0786
▁Никита	-11.0787
▁Тро	-11.0794
▁толпе	-11.0795
▁носу	-11.0795
▁спинку	-11.0797
▁факты	-11.0797
▁убежден	-11.0804
▁Впервые	-11.0805
▁удобно	-11.0807
▁указ	-11.0808
▁Дэвид	-11.081
▁весел	-11.0811
жим	-11.0812
▁объяснять	-11.0813
▁показала	-11.0814
▁нажал	-11.0816
▁массы	-11.0818
▁красоты	-11.0819
V	-11.0819
▁романа	-11.082
овна	-11.0823
▁Император	-11.0823
нима	-11.0824
ово	-11.0824
▁шлем	-11.0829
▁Сергеевич	-11.083
▁Твой	-11.083
▁следов	-11.0833
▁убийца	-11.0836
▁механизм	-11.0837
▁получал	-11.084
нок	-11.0846
▁Америке	-11.0846
▁сестру	-11.0847
80	-11.0848
▁Хор	-11.0849
▁расти	-11.0849
▁мужчиной	-11.085
▁руководство	-11.085
▁b	-11.0851
▁средство	-11.0852
▁племени	-11.0853
▁пятна	-11.0853
▁Кал	-11.0854
▁45	-11.0855
▁мотив	-11.0855
▁горах	-11.0857
вала	-11.0859
▁совершить	-11.0859
▁подъем	-11.086
▁слезами	-11.0861
▁траве	-11.0862
▁труб	-11.0863
▁транс	-11.0866
▁принесли	-11.0869
ющаяся	-11.0876
▁тишине	-11.0876
▁ежедневно	-11.0878
▁официально	-11.0879
▁святой	-11.0879
тив	-11.0881
▁местности	-11.0881
▁отыскать	-11.0882
▁гостя	-11.0883
лли	-11.0885
»).	-11.0888
▁вперёд	-11.0888
▁перейти	-11.0888
▁ожидания	-11.0889
▁бить	-11.0889
▁отметить	-11.0893
▁дитя	-11.0893
▁бархат	-11.0895
бел	-11.0897
▁девчонка	-11.0898
ьи	-11.0901
▁Красной	-11.0902
▁Всем	-11.0908
лич	-11.0908
▁кнопку	-11.0909
тал	-11.091
лар	-11.091
▁Была	-11.0911
▁увидит	-11.0913
▁духе	-11.0914
▁тварь	-11.0916
▁трон	-11.0917
▁видов	-11.0919
▁уточнил	-11.092
овом	-11.0921
▁канал	-11.0922
▁пят	-11.0922
▁интересы	-11.0922
▁документов	-11.0922
▁сильные	-11.0923
▁обычный	-11.0924
ицу	-11.0927
▁ошибка	-11.0928
▁Лео	-11.0929
▁автобус	-11.093
▁улицам	-11.093
▁звука	-11.0931
▁иду	-11.0931
▁способна	-11.0932
▁задал	-11.0933
▁направил	-11.0936
et	-11.0936
ir	-11.0938
▁Грин	-11.0938
▁пута	-11.0939
▁кирпич	-11.0939
▁креп	-11.094
▁обстоятельств	-11.0942
▁понимали	-11.0942
форд	-11.0944
▁ритм	-11.0952
▁марш	-11.0953
▁современной	-11.0953
езд	-11.0956
▁развернулся	-11.0956
▁гре	-11.0956
▁уселся	-11.0958
мур	-11.0962
▁непри	-11.0966
гал	-11.0967
▁потеря	-11.0968
▁величество	-11.0969
надцат	-11.0972
емая	-11.0974
▁Николая	-11.0976
▁ненависть	-11.0978
▁посоветовал	-11.0978
▁привели	-11.0979
▁густой	-11.0979
▁шеф	-11.0979
▁играли	-11.0983
▁автоматически	-11.0986
▁прошлой	-11.099
▁справедливо	-11.0992
▁акт	-11.0992
игра	-11.0993
▁Молодой	-11.0993
ливый	-11.0993
ож	-11.0995
▁ошибку	-11.0996
инский	-11.0996
бить	-11.0999
▁Ме	-11.0999
▁изображение	-11.1001
▁Вадим	-11.1005
риан	-11.1005
▁Другие	-11.1005
телю	-11.1005
▁нисколько	-11.1009
▁скот	-11.101
▁Вин	-11.1011
▁Юр	-11.1011
ливая	-11.1012
▁храма	-11.1012
▁твоем	-11.1014
▁закрыть	-11.1014
▁начался	-11.1014
▁скучно	-11.1015
▁думают	-11.1015
ьная	-11.1017
▁сыр	-11.102
хим	-11.1022
▁независимо	-11.1026
▁Союз	-11.1027
низ	-11.1028
ывая	-11.1028
▁000	-11.103
▁Генрих	-11.1032
▁верхом	-11.1038
тр	-11.1041
▁прости	-11.1047
▁потеряли	-11.1047
▁стеной	-11.1047
▁нападения	-11.1047
лил	-11.1048
▁Семен	-11.1048
▁странные	-11.1049
▁ген	-11.1049
▁усмехнулась	-11.1051
▁сомневаюсь	-11.1052
▁истины	-11.1054
цвет	-11.1056
▁многом	-11.1057
▁философ	-11.1057
юр	-11.1058
▁Дед	-11.1058
▁полагал	-11.1061
▁отправилась	-11.1063
▁огромная	-11.1063
▁принялись	-11.1065
▁32	-11.1065
гла	-11.1067
▁непрерывно	-11.1067
пас	-11.1072
▁следующего	-11.1072
▁позвонить	-11.1075
▁Ком	-11.1076
пала	-11.1076
▁улыбался	-11.1076
▁Денис	-11.1077
▁гостиную	-11.1077
▁пределы	-11.1078
▁урок	-11.1078
▁занимается	-11.108
▁Всегда	-11.1081
▁пр	-11.1081
▁королева	-11.1082
▁настоящей	-11.1084
▁Крис	-11.1084
▁черная	-11.1084
там	-11.1086
▁явления	-11.1087
▁темной	-11.1089
▁сине	-11.109
▁мага	-11.109
щит	-11.1094
▁сцене	-11.1095
До	-11.1096
чные	-11.1097
):	-11.1097
емой	-11.1098
▁испытания	-11.1098
▁дрожь	-11.11
▁траву	-11.11
▁Чарли	-11.11
▁определенно	-11.1103
▁объяснял	-11.1103
▁плот	-11.1105
▁Прим	-11.1107
▁облегчением	-11.1107
цию	-11.1109
▁Наташа	-11.1109
▁жарко	-11.1111
уль	-11.1112
▁окончания	-11.1113
▁экспедиции	-11.1115
▁люк	-11.1118
альной	-11.1118
ища	-11.112
▁жду	-11.1124
душ	-11.1125
ключа	-11.1126
▁Америки	-11.1127
▁повтор	-11.1127
18	-11.1128
стям	-11.1128
▁l	-11.1129
▁поставили	-11.113
▁Юрий	-11.1134
▁вопросу	-11.1135
▁стена	-11.1136
▁показания	-11.1139
▁придумал	-11.1139
▁соответственно	-11.114
▁ангел	-11.114
▁университета	-11.114
▁битвы	-11.1141
▁поколения	-11.1141
▁бесконечно	-11.1141
▁плат	-11.1141
▁отцов	-11.1142
▁принесла	-11.1142
▁чересчур	-11.1142
сса	-11.1143
▁конь	-11.1143
▁компанию	-11.1144
▁единственная	-11.1144
▁побед	-11.1145
▁следил	-11.1146
пом	-11.1147
инов	-11.1147
▁ученых	-11.1147
▁вдали	-11.1148
еров	-11.1149
▁высшей	-11.1149
▁Вал	-11.1152
щему	-11.1153
▁Дети	-11.1154
▁получать	-11.1158
13	-11.1159
▁отрицательно	-11.116
▁общее	-11.1163
▁5.	-11.1163
▁большинства	-11.1163
▁захотел	-11.1164
▁некий	-11.1167
▁переспросил	-11.1168
▁грохот	-11.1174
▁Кен	-11.1175
▁мешает	-11.1175
▁моё	-11.1176
▁Ева	-11.1177
▁братом	-11.1178
▁несколькими	-11.1181
▁поддерживать	-11.1182
мира	-11.1182
▁порыв	-11.1182
▁Советского	-11.1183
▁костер	-11.1183
оф	-11.1186
▁расположен	-11.1188
теле	-11.1189
▁чуд	-11.119
▁Мастер	-11.1191
▁напоминает	-11.1193
▁показывая	-11.1194
▁поп	-11.1195
хал	-11.1196
жать	-11.1196
▁металл	-11.1198
леп	-11.1198
▁плод	-11.1198
▁коллег	-11.1201
▁кухни	-11.1202
▁глубокий	-11.1204
43	-11.1207
▁дошло	-11.1208
▁Извините	-11.1212
порт	-11.1213
▁лучшее	-11.1214
▁мут	-11.1214
рев	-11.1215
▁поднос	-11.1215
ствовать	-11.1216
▁целая	-11.1218
▁следовать	-11.1218
▁основных	-11.1219
▁Пушкин	-11.1221
▁поморщился	-11.1222
▁Чер	-11.1223
▁Дер	-11.1224
▁мил	-11.1226
▁сцену	-11.1226
▁выводу	-11.1228
▁темноты	-11.123
лас	-11.1235
▁бомб	-11.1235
дре	-11.124
▁громче	-11.1241
▁напряженно	-11.1243
01	-11.1243
иров	-11.1244
▁Трудно	-11.1245
▁рва	-11.1246
▁Майк	-11.1246
▁образование	-11.1247
▁рыбы	-11.1252
нор	-11.1254
▁жениться	-11.1255
▁актив	-11.1256
▁голов	-11.1256
▁смело	-11.1256
▁домик	-11.1257
▁настойчиво	-11.1258
▁раб	-11.126
▁выражением	-11.126
▁Коля	-11.1263
▁журналист	-11.1263
▁напряжение	-11.1268
▁океана	-11.1268
▁стандарт	-11.1268
▁Мисс	-11.1271
▁вначале	-11.1273
▁область	-11.1273
▁дьявол	-11.1274
▁колено	-11.1274
▁обращаться	-11.1275
ему	-11.1282
▁отдельно	-11.1283
ителей	-11.1286
▁аль	-11.1286
▁остальным	-11.1287
▁История	-11.1287
ющееся	-11.1288
▁шутку	-11.1288
▁скажите	-11.129
▁жадно	-11.129
▁пород	-11.1293
▁успев	-11.1294
запад	-11.1294
▁поклон	-11.1296
кого	-11.1298
▁занял	-11.1299
▁белым	-11.13
▁хорошей	-11.1303
▁коже	-11.1303
▁белом	-11.1305
▁Гра	-11.1305
▁батальон	-11.1307
▁Видишь	-11.1307
▁доволен	-11.1312
▁видны	-11.1312
Со	-11.1313
▁фигуру	-11.1313
евой	-11.1313
▁Кай	-11.1314
▁эмоций	-11.1314
▁Тра	-11.1315
это	-11.1317
▁считала	-11.132
▁причинам	-11.132
кат	-11.1322
▁Всю	-11.1323
▁Гол	-11.1323
▁Далее	-11.1324
▁щеке	-11.1325
▁успехом	-11.1327
▁наказание	-11.1327
▁ночам	-11.1328
▁нелегко	-11.133
▁жертв	-11.1331
▁сапоги	-11.1332
▁забор	-11.1334
▁восстановить	-11.1335
▁Вит	-11.1335
▁поставила	-11.134
▁допустить	-11.1342
▁пульс	-11.1342
▁Этим	-11.1345
▁живо	-11.1345
фон	-11.1346
▁Сав	-11.1346
▁чистой	-11.1347
▁враги	-11.1348
▁Элис	-11.135
▁Извини	-11.1352
▁легкой	-11.1354
▁личной	-11.1355
дела	-11.1355
▁объяснения	-11.1358
иса	-11.1359
▁рухнул	-11.1359
▁Часть	-11.1361
льные	-11.1361
чал	-11.1362
▁заново	-11.1365
▁бак	-11.1366
▁христиан	-11.137
▁составляет	-11.137
▁основании	-11.1371
▁население	-11.1371
вел	-11.1376
▁получалось	-11.1377
▁объяснение	-11.1377
▁бедра	-11.1378
▁частично	-11.1379
▁легким	-11.1379
▁немецких	-11.1381
▁девушкой	-11.1381
▁комнат	-11.1385
▁темы	-11.139
▁видят	-11.1391
▁Любовь	-11.1392
▁коридора	-11.1394
▁полет	-11.1395
▁Кэтрин	-11.1397
пл	-11.1398
очный	-11.1399
▁Ры	-11.1401
▁познакомиться	-11.1401
▁хрипло	-11.1402
▁основные	-11.1406
▁забот	-11.1407
▁шкаф	-11.1408
▁губу	-11.141
ленд	-11.141
▁великой	-11.1415
аз	-11.1416
▁массив	-11.1416
где	-11.1417
▁высоким	-11.1422
ленный	-11.1423
▁бег	-11.1425
▁поры	-11.1426
тянут	-11.1427
▁случалось	-11.143
▁дипломат	-11.143
▁даром	-11.143
▁рассказа	-11.1432
пов	-11.1433
дам	-11.1434
▁НА	-11.1435
▁небольшая	-11.1437
▁сели	-11.1439
▁пива	-11.1442
овской	-11.1444
▁нетерпеливо	-11.1445
▁Ваша	-11.1445
▁энергия	-11.1447
▁Индии	-11.1447
▁Таня	-11.1449
▁рассматривать	-11.1449
▁похожий	-11.145
▁футов	-11.1451
▁обычной	-11.1451
▁грязь	-11.1452
▁спала	-11.1454
▁партия	-11.1455
▁институт	-11.1456
▁прочитал	-11.1457
▁борьбу	-11.1457
▁тур	-11.1459
русски	-11.146
▁Одним	-11.146
▁карте	-11.1461
▁конфликт	-11.1463
▁выпил	-11.1465
▁ман	-11.1466
▁подготовки	-11.1469
▁зимой	-11.1469
▁блок	-11.1471
▁половиной	-11.1473
▁крепость	-11.1476
Он	-11.1478
▁чая	-11.1478
▁Добро	-11.1479
▁брал	-11.1482
▁крикнула	-11.1483
▁крыши	-11.1484
▁миф	-11.1485
▁терпеливо	-11.1485
▁рассказывает	-11.1486
▁ученые	-11.1487
▁массу	-11.149
▁бросились	-11.149
нис	-11.1494
▁звучал	-11.1495
▁дамы	-11.1496
ору	-11.1498
▁Первое	-11.1498
▁угла	-11.1499
▁утверждает	-11.1499
▁i	-11.1499
▁достоинства	-11.1502
▁продать	-11.1503
te	-11.1505
▁золотом	-11.1505
▁страшного	-11.1505
▁состава	-11.1508
▁водитель	-11.1508
альным	-11.151
▁жир	-11.151
▁следующие	-11.1519
▁Киев	-11.1521
▁использовал	-11.1521
▁судьбе	-11.1522
▁войско	-11.1522
▁намерен	-11.1523
▁неприятности	-11.1523
▁занимались	-11.1525
▁рявкнул	-11.1528
▁увидишь	-11.153
▁внутренний	-11.1533
▁врача	-11.1534
▁перестала	-11.1534
▁33	-11.1536
id	-11.1537
▁проворчал	-11.1538
▁шеи	-11.154
▁государственной	-11.1541
▁слаб	-11.1542
ie	-11.1545
▁священник	-11.1549
▁спрашивать	-11.1549
▁новость	-11.1554
▁телевизор	-11.1554
▁желаю	-11.1557
▁ушей	-11.1559
▁Готов	-11.1559
▁Отсюда	-11.1561
хов	-11.1562
17	-11.1563
▁найдет	-11.1563
▁Вполне	-11.1565
лев	-11.1565
▁промышленности	-11.1567
▁базы	-11.1569
ць	-11.1571
▁1917	-11.1574
▁Давно	-11.1575
▁участия	-11.1575
берг	-11.1576
опыт	-11.1579
▁Степан	-11.158
..."	-11.1581
▁черными	-11.1582
арь	-11.1582
!)	-11.1585
▁становился	-11.1586
▁черту	-11.1588
60	-11.1589
▁забыв	-11.1592
▁пояса	-11.1592
▁Собственно	-11.1593
▁бед	-11.1593
▁глазом	-11.1593
▁воля	-11.1596
▁ярость	-11.1596
▁Михайлович	-11.1597
спо	-11.1597
▁густо	-11.1598
▁насквозь	-11.16
добр	-11.1601
зелен	-11.1604
▁чужие	-11.1604
▁дуб	-11.1604
▁поначалу	-11.1605
▁Около	-11.1606
▁Андрея	-11.1609
▁Джа	-11.1611
▁Чтоб	-11.1616
29	-11.1618
21	-11.162
кали	-11.162
ота	-11.1623
ума	-11.1625
нимал	-11.1626
▁съ	-11.1626
▁дра	-11.1627
▁Граф	-11.1627
мал	-11.1629
▁влияния	-11.163
▁имеем	-11.163
▁судорожно	-11.1633
▁мелких	-11.1635
▁английский	-11.1637
▁Кит	-11.1638
▁эпизод	-11.1641
▁Внутри	-11.1641
▁Баб	-11.1644
▁легкие	-11.1644
тки	-11.1644
▁насмешливо	-11.1644
▁увы	-11.1645
▁испугался	-11.1645
▁умею	-11.1648
▁юго	-11.1648
поинтересовалась	-11.1649
▁поэта	-11.165
▁правде	-11.1651
»;	-11.1651
голов	-11.1653
▁сделан	-11.1655
зон	-11.1655
▁потряс	-11.1655
▁подвал	-11.1658
▁предназначен	-11.1658
▁целых	-11.166
▁топ	-11.1661
▁близких	-11.1662
пущен	-11.1662
▁модель	-11.1664
▁большее	-11.1665
▁обнаружить	-11.1666
▁бор	-11.1667
▁Взгляд	-11.1668
▁сигарету	-11.1672
▁наука	-11.1673
▁ГЛАВА	-11.1675
▁этап	-11.1675
фор	-11.1678
▁парней	-11.1679
▁доложил	-11.1679
▁волн	-11.168
▁каб	-11.1681
Йорк	-11.1681
▁ищет	-11.1685
▁талант	-11.1686
▁утверждал	-11.1687
▁дев	-11.1688
▁ключи	-11.1689
▁относятся	-11.1689
ял	-11.1691
▁иностранных	-11.1691
▁пулемет	-11.1693
▁материала	-11.1693
▁привело	-11.1695
инского	-11.1698
▁холода	-11.1699
▁молодым	-11.17
▁повторила	-11.1704
▁поддержки	-11.1704
ющуюся	-11.1707
▁Оказалось	-11.171
▁мет	-11.171
▁расход	-11.1711
▁родов	-11.1713
▁слабость	-11.1716
▁помнить	-11.1718
▁начинать	-11.172
▁страсть	-11.1722
▁Крест	-11.1724
▁потер	-11.1725
▁веки	-11.1726
▁Миссис	-11.1729
24	-11.1732
▁заклинание	-11.1733
▁изрядно	-11.1734
▁отчасти	-11.1734
▁Великой	-11.1735
▁орудия	-11.1735
▁вступил	-11.1736
▁вины	-11.1736
▁занима	-11.1739
▁количества	-11.1739
▁многим	-11.1739
▁неторопливо	-11.174
бес	-11.174
▁бас	-11.174
▁Смерть	-11.1741
▁Наша	-11.1741
▁снега	-11.1741
▁Рука	-11.1743
▁самыми	-11.1748
▁Валентин	-11.1751
▁выгод	-11.1754
▁Благодаря	-11.1756
▁Фер	-11.1756
▁запись	-11.1756
▁чья	-11.1759
▁лапы	-11.1759
лых	-11.1761
▁удивления	-11.1763
▁тайну	-11.1765
▁толкнул	-11.1767
▁реакция	-11.1767
▁глядел	-11.1768
▁обрадовался	-11.177
▁огромную	-11.177
▁человеке	-11.177
▁директора	-11.177
▁Можешь	-11.1772
▁пос	-11.1773
▁ветром	-11.1773
▁понятие	-11.1774
▁ответственности	-11.1778
▁Ур	-11.1779
▁наличие	-11.1779
▁окружающих	-11.1781
▁ша	-11.1782
▁отвлек	-11.1783
▁послушно	-11.1783
▁хорош	-11.1786
▁защищать	-11.1788
▁размышления	-11.1788
▁Пес	-11.1791
▁получит	-11.1791
12	-11.1793
▁склон	-11.1793
▁отличается	-11.1794
тельная	-11.1795
▁кризис	-11.18
▁бело	-11.18
▁городом	-11.18
▁обход	-11.1801
ia	-11.1803
▁единственной	-11.1803
эм	-11.1805
▁ряды	-11.1805
▁мужу	-11.1806
▁Рен	-11.1807
▁37	-11.1808
мед	-11.181
▁вправду	-11.181
▁дыша	-11.1811
▁Тихо	-11.1812
▁тыс	-11.1814
▁изредка	-11.1814
▁Кое	-11.1814
совет	-11.1817
▁понимание	-11.1817
▁тонкие	-11.1818
▁Рик	-11.1819
▁Ваши	-11.1823
▁Лис	-11.1823
▁тюрьме	-11.1824
▁мышцы	-11.1824
шими	-11.1826
кле	-11.1826
▁Благодарю	-11.1828
▁Дан	-11.1829
▁36	-11.183
▁поражен	-11.183
▁левую	-11.1831
▁политика	-11.1831
▁умолк	-11.1832
▁любишь	-11.1833
▁достичь	-11.1835
раб	-11.1837
▁простор	-11.1837
▁тест	-11.1839
▁Стоит	-11.184
▁Люси	-11.1842
▁оглядел	-11.1843
▁Тер	-11.1843
▁вплотную	-11.1844
водил	-11.1845
▁дракона	-11.1846
▁подготовлен	-11.1847
▁заставляет	-11.1847
оса	-11.185
▁ошибся	-11.185
▁схватила	-11.1854
▁организация	-11.1858
▁высоте	-11.1859
▁принцип	-11.1863
▁Артем	-11.1863
▁люд	-11.1864
▁принца	-11.1864
▁лаборатории	-11.1866
▁ново	-11.1867
▁Чи	-11.1867
▁пен	-11.1873
▁контракт	-11.1873
▁супруга	-11.1874
▁погибли	-11.1875
▁полгода	-11.1876
чиков	-11.1876
▁кричит	-11.1882
центр	-11.1882
▁Вселенной	-11.1886
цией	-11.1887
▁асфальт	-11.1887
▁плавно	-11.1888
▁пушки	-11.1889
▁четверть	-11.1889
▁любили	-11.189
пуск	-11.189
▁Лондоне	-11.189
▁нынче	-11.1892
тая	-11.1893
▁знакомы	-11.1896
пп	-11.1896
▁тяжелым	-11.1899
бивать	-11.19
ируем	-11.19
▁платок	-11.1901
▁Джим	-11.1901
▁кувшин	-11.1903
▁Вос	-11.1904
▁рабочие	-11.1907
▁бумагу	-11.1907
▁соблазн	-11.1907
▁офицеры	-11.1911
▁костей	-11.1912
▁Послушай	-11.1914
▁Ол	-11.1914
▁темных	-11.1917
▁полета	-11.1917
▁Сказал	-11.1917
▁своём	-11.1917
▁железной	-11.192
▁размеров	-11.1924
▁назначен	-11.1926
im	-11.1927
▁офицера	-11.1927
тем	-11.1928
чным	-11.1928
▁ужина	-11.193
▁становились	-11.1931
клад	-11.1931
▁материалы	-11.1932
▁направо	-11.1933
лис	-11.1934
▁рукав	-11.1935
▁влюблен	-11.1935
▁договора	-11.1936
▁позволит	-11.194
▁немножко	-11.194
▁возможностей	-11.1942
▁понимают	-11.1942
▁продукты	-11.1942
▁Марии	-11.1943
▁огромного	-11.1945
▁детектив	-11.1945
▁долгие	-11.1945
бри	-11.1946
ску	-11.1946
▁сообразил	-11.1947
▁молоко	-11.1947
▁министр	-11.1948
вез	-11.1951
▁долгое	-11.1953
»!	-11.1953
какие	-11.1954
ическими	-11.196
пел	-11.1961
Ма	-11.1962
▁аж	-11.1962
▁наклон	-11.1963
дол	-11.1963
▁рассчитывать	-11.1963
сып	-11.1964
▁лучшего	-11.1966
▁лодку	-11.1968
глаз	-11.1971
ительный	-11.1971
▁ложь	-11.1973
▁дико	-11.1974
зен	-11.1975
▁предупредить	-11.1976
▁лежать	-11.1976
▁дворце	-11.1977
груз	-11.1977
▁поймать	-11.1978
▁Последний	-11.1979
▁Суд	-11.1979
▁танк	-11.198
▁пыл	-11.1981
▁e	-11.1982
▁приехала	-11.1987
Так	-11.1988
ворот	-11.1989
▁добрался	-11.199
▁веществ	-11.199
▁Российской	-11.1991
▁двинулись	-11.1992
▁опер	-11.1996
▁инстинкт	-11.1997
▁План	-11.1997
▁цену	-11.1997
23	-11.1998
▁ожидала	-11.1998
▁клан	-11.1998
▁шага	-11.1998
бед	-11.2
▁сурово	-11.2001
▁Стало	-11.2001
▁встречались	-11.2004
▁зл	-11.2005
▁нервы	-11.2012
▁рассматривал	-11.2012
▁сует	-11.2012
▁старались	-11.2013
▁меньшей	-11.2013
нд	-11.2013
нк	-11.2015
▁тратить	-11.2016
▁найден	-11.2019
▁любопытство	-11.202
▁носит	-11.202
▁рак	-11.202
▁городской	-11.2021
лён	-11.2022
▁происхождения	-11.2025
▁привет	-11.2026
▁Фо	-11.2026
▁бессмысленно	-11.2027
▁небу	-11.2028
▁нужды	-11.2029
▁поддержку	-11.2029
▁осмотрел	-11.203
уч	-11.203
16	-11.2032
▁послать	-11.2032
изации	-11.2032
▁дон	-11.2032
▁показывал	-11.2033
нского	-11.2033
▁напряжения	-11.2033
▁закричала	-11.2035
▁собрал	-11.2036
▁главных	-11.2037
09	-11.2037
▁следующим	-11.2039
▁рюкзак	-11.2041
▁ставить	-11.2043
ош	-11.2043
ch	-11.2043
▁пароход	-11.2045
▁статус	-11.2045
▁охран	-11.2046
иста	-11.2047
ивая	-11.2048
▁продуктов	-11.2048
▁отступил	-11.2048
▁неудач	-11.2052
▁ушах	-11.2053
▁ар	-11.2053
70	-11.2054
▁код	-11.2054
▁обычного	-11.2055
тянуть	-11.2057
▁Билл	-11.2057
▁отказ	-11.206
▁объятия	-11.2062
цел	-11.2064
▁рок	-11.2065
▁слуги	-11.2066
▁клад	-11.2068
▁пиво	-11.2069
▁сестре	-11.207
▁неважно	-11.2071
▁профессионально	-11.2072
Ре	-11.2073
▁рассказывала	-11.2074
▁Эли	-11.2075
рож	-11.2076
▁экс	-11.2077
▁Твоя	-11.2079
жат	-11.2082
▁необходимые	-11.2083
▁самолетов	-11.2086
▁научиться	-11.2087
▁растения	-11.2088
▁резерв	-11.2088
▁шут	-11.2089
▁равнодушно	-11.2089
▁забрал	-11.2091
▁плоть	-11.2091
▁Другой	-11.2093
▁мечтал	-11.2093
▁знакомые	-11.2094
▁знание	-11.2096
▁цепи	-11.2098
▁черном	-11.21
дея	-11.2101
▁природа	-11.2101
▁Впереди	-11.2102
▁столицы	-11.2102
▁практике	-11.2102
енд	-11.2105
бле	-11.2109
▁Адам	-11.2109
тесь	-11.211
▁говорилось	-11.211
▁выстрелил	-11.2111
▁попробовал	-11.2112
▁оценить	-11.2113
▁Цвет	-11.2113
▁годами	-11.2115
▁прозвучал	-11.2115
▁событие	-11.2116
▁усталость	-11.2119
▁пищу	-11.2119
▁отдых	-11.2121
▁возможным	-11.2122
▁нужда	-11.2125
▁спасения	-11.2125
▁доверять	-11.213
глав	-11.2133
лая	-11.2134
▁буквы	-11.2134
▁важным	-11.2134
▁политических	-11.2135
▁успокоить	-11.2135
▁представляют	-11.2136
▁функции	-11.2136
ut	-11.2138
носит	-11.2141
▁красивый	-11.2141
▁большинстве	-11.2141
ани	-11.2142
▁Двое	-11.2145
▁плеча	-11.2146
▁тупо	-11.2147
вели	-11.2148
▁сеть	-11.2158
26	-11.216
▁участников	-11.216
▁Тело	-11.2161
05	-11.2162
▁метро	-11.2163
▁ткнул	-11.2164
сона	-11.2165
▁многочисленные	-11.2166
▁запомнил	-11.2167
▁надежде	-11.2168
▁ведьма	-11.2168
90	-11.217
▁реклам	-11.217
27	-11.2174
▁сюрприз	-11.2175
▁зрелище	-11.2175
▁вспоминать	-11.2176
емого	-11.2177
▁фамилия	-11.2177
▁инспектор	-11.218
▁секретарь	-11.218
▁импульс	-11.2185
▁красным	-11.2186
▁страхом	-11.2187
▁Кра	-11.2188
▁Девочка	-11.2189
▁небольшие	-11.2191
▁доставить	-11.2191
▁Каким	-11.2195
▁халат	-11.2197
▁ходят	-11.2199
▁святого	-11.22
жение	-11.22
▁полковника	-11.2201
▁милость	-11.2204
▁восток	-11.2205
▁соч	-11.2207
лам	-11.2207
▁нарушил	-11.2209
▁Волк	-11.221
▁боясь	-11.221
▁вер	-11.2211
▁спасение	-11.2211
▁свойства	-11.2213
▁издалека	-11.2213
▁опустилась	-11.2216
Об	-11.2217
▁озеро	-11.2217
▁сцены	-11.2219
▁удается	-11.2221
▁Уилл	-11.2223
ограф	-11.2224
▁властью	-11.2225
▁приготовлен	-11.2225
▁личного	-11.2226
▁тонн	-11.2227
▁Цар	-11.2227
▁Иисуса	-11.2228
▁возвращается	-11.2229
▁Иль	-11.223
▁куб	-11.2233
▁основан	-11.2234
мышлен	-11.2234
▁заставило	-11.2234
▁Речь	-11.2238
ri	-11.224
▁Ангел	-11.2241
▁смотря	-11.2241
▁фронте	-11.2241
руш	-11.2241
▁ехали	-11.2243
▁участвовал	-11.2245
▁монет	-11.2246
кнул	-11.2247
гло	-11.2249
▁враща	-11.2249
онов	-11.2251
▁уставилась	-11.2252
▁суп	-11.2254
два	-11.2257
▁проникнуть	-11.2258
▁пейзаж	-11.2258
▁замерла	-11.226
▁Леонид	-11.2261
▁разрыв	-11.2262
▁обще	-11.2262
▁хозяйства	-11.2262
▁направления	-11.2262
▁профессиональны	-11.2263
▁опустила	-11.2264
ведения	-11.2264
▁Джона	-11.2265
▁модели	-11.2266
▁представители	-11.2267
▁рыбу	-11.2267
▁держала	-11.2268
▁колес	-11.2269
▁отделения	-11.2269
▁готовить	-11.2271
▁приподнял	-11.2276
▁обнаружила	-11.2277
▁обстановке	-11.2279
▁обоз	-11.2279
▁Старый	-11.228
▁проходили	-11.2281
▁набор	-11.2285
▁34	-11.2286
▁раздраженно	-11.2288
▁огляделся	-11.2288
▁столовой	-11.2289
▁1)	-11.229
▁жестоко	-11.229
▁улыбается	-11.2291
▁вздрогнула	-11.2291
▁неизменно	-11.2295
▁Командир	-11.2296
▁Полу	-11.2297
▁весной	-11.2298
зван	-11.2299
▁дорог	-11.2299
▁ненависти	-11.2299
▁Дух	-11.23
▁записку	-11.23
▁маршрут	-11.2303
▁особых	-11.2303
▁целое	-11.2304
▁контр	-11.2305
▁целях	-11.2308
▁полиция	-11.2309
▁лома	-11.2309
▁скрылся	-11.231
▁сказав	-11.231
▁представляла	-11.2311
06	-11.2312
▁ча	-11.2313
стон	-11.2314
▁кусты	-11.2314
▁явление	-11.2314
ело	-11.2315
▁плеч	-11.2315
▁длинной	-11.2317
бре	-11.2317
▁Слав	-11.232
▁идем	-11.2322
▁шестьдесят	-11.2323
КА	-11.2323
гов	-11.2324
▁Боль	-11.2325
▁мечты	-11.2325
▁добровольно	-11.2328
▁охотник	-11.2328
▁опубликован	-11.2329
инка	-11.2329
▁экзамен	-11.2329
вик	-11.2329
▁w	-11.2332
▁Ника	-11.2334
▁хор	-11.2335
▁брату	-11.2337
▁пропал	-11.2339
▁главы	-11.234
▁кулаки	-11.234
▁лениво	-11.2341
жида	-11.2341
лог	-11.2341
▁коснулся	-11.2342
нда	-11.2344
▁вылез	-11.2346
▁Нина	-11.235
▁премьер	-11.2351
▁ударов	-11.2351
▁внешней	-11.2353
▁тихий	-11.2354
▁белье	-11.2358
бен	-11.2358
ею	-11.2359
чных	-11.2362
пев	-11.2363
▁литературе	-11.2369
▁Роб	-11.237
▁Уильям	-11.2372
▁попытку	-11.2373
▁принцесса	-11.2374
▁развернул	-11.2376
▁парад	-11.2378
▁потребуется	-11.2378
▁философии	-11.2379
▁настоящие	-11.2382
еро	-11.2384
▁религии	-11.2385
▁советского	-11.2386
▁захватить	-11.2387
сил	-11.2388
▁металла	-11.2388
▁стыд	-11.2389
▁сундук	-11.2389
стран	-11.2392
кинув	-11.2392
▁данным	-11.2392
▁проекта	-11.2394
▁переглянулись	-11.2395
▁Азии	-11.2396
▁ехал	-11.2397
▁условий	-11.2398
▁сражаться	-11.24
▁жен	-11.24
▁броне	-11.2402
▁периода	-11.2402
еев	-11.2402
▁Ск	-11.2403
▁нрав	-11.2406
▁верхней	-11.2408
▁моментально	-11.2408
хот	-11.2409
▁налево	-11.2411
▁офис	-11.2413
▁министра	-11.2417
▁Гур	-11.2419
▁слове	-11.242
еж	-11.2421
▁Васильевич	-11.2421
▁темноту	-11.2422
▁Дела	-11.2422
▁гибель	-11.2423
▁ученый	-11.2424
▁протокол	-11.2427
▁мгновений	-11.2427
▁головами	-11.2428
▁Будем	-11.2429
▁поцелуй	-11.2429
▁тревожно	-11.243
▁привыкли	-11.243
▁рамках	-11.2431
▁парк	-11.2434
▁Сол	-11.2434
▁потихоньку	-11.2437
▁щедро	-11.2437
▁подруги	-11.2442
▁расчет	-11.2443
▁ванной	-11.2444
▁общаться	-11.2446
▁прибор	-11.2447
чество	-11.2447
▁m	-11.2449
▁кратко	-11.245
▁показаться	-11.2452
▁коров	-11.2456
ic	-11.2456
ведя	-11.2459
▁Фрэнк	-11.2461
олог	-11.2462
▁падает	-11.2463
▁вере	-11.2463
▁готово	-11.2463
▁повторял	-11.2464
▁умрет	-11.2464
▁уха	-11.2466
▁лагере	-11.2466
▁имеешь	-11.2468
▁производство	-11.2469
▁замечал	-11.2471
оне	-11.2474
▁змеи	-11.2476
▁атом	-11.2477
▁больнице	-11.248
▁площадке	-11.2482
▁поговорим	-11.2483
▁Понял	-11.2484
▁руководством	-11.2485
▁2)	-11.2487
▁стояло	-11.2487
▁точка	-11.2487
am	-11.2488
▁черным	-11.249
▁местного	-11.2491
▁молодости	-11.2491
▁надежду	-11.2492
▁спрятал	-11.2493
крыл	-11.2494
▁выражения	-11.2496
▁существовать	-11.2497
▁оставляя	-11.2499
07	-11.2501
▁найдется	-11.2501
▁красной	-11.2502
▁Бри	-11.2502
трен	-11.2502
▁фамилии	-11.2503
▁Профессор	-11.2504
▁поправил	-11.2504
▁тюрьмы	-11.2504
▁глоток	-11.2505
▁меча	-11.2506
▁ветру	-11.2506
▁доказательства	-11.2506
▁налогов	-11.2506
ано	-11.2507
28	-11.2508
кса	-11.2508
▁тяжелой	-11.2509
▁зашагал	-11.251
ацией	-11.2515
▁сердцу	-11.2516
▁хмуро	-11.2519
▁актер	-11.2519
▁полки	-11.2519
▁Пра	-11.2521
▁погреб	-11.2523
▁секс	-11.2525
вей	-11.2526
▁удивлен	-11.2527
▁Гон	-11.2527
▁белая	-11.2528
▁38	-11.2529
лё	-11.2529
▁телефона	-11.2529
▁третьей	-11.253
▁красного	-11.2531
▁костюме	-11.2531
▁плече	-11.2532
▁двум	-11.2532
▁бежали	-11.2532
▁вызван	-11.2532
▁рабочего	-11.2533
▁являлся	-11.2533
▁коем	-11.2535
▁встали	-11.2535
▁горле	-11.2536
▁маслом	-11.2537
*	-11.2537
▁позор	-11.2538
22	-11.2539
▁важные	-11.2541
▁смеха	-11.2543
▁человечество	-11.2543
роз	-11.2544
аются	-11.2544
▁крыше	-11.2545
ицей	-11.2545
▁призыв	-11.2547
▁поехать	-11.2548
▁столетия	-11.2554
▁проходил	-11.2555
▁тюрьму	-11.2556
▁продукт	-11.2557
▁осмотр	-11.2558
▁стенами	-11.2559
▁кожей	-11.2562
▁бутылки	-11.2562
▁уйдет	-11.2568
▁помните	-11.257
▁использования	-11.2571
▁засмеялась	-11.2572
▁муки	-11.2572
▁богат	-11.2573
▁эксперимент	-11.2573
дать	-11.2574
▁продолжить	-11.2575
▁предприятия	-11.2576
▁держали	-11.2577
тельных	-11.2579
▁поехали	-11.258
▁приблизился	-11.2581
▁улыбке	-11.2583
▁Благо	-11.2589
▁сильное	-11.259
▁сознательно	-11.259
▁показали	-11.2592
нувшись	-11.2592
▁Элизабет	-11.2592
вуд	-11.2593
▁собрание	-11.2594
▁доход	-11.2596
тых	-11.2598
▁тетя	-11.26
рия	-11.2601
верен	-11.2601
▁мертвых	-11.2606
▁пили	-11.2606
▁голосов	-11.2607
▁камеры	-11.2608
▁газету	-11.261
▁правом	-11.261
▁мужской	-11.2613
▁лом	-11.2615
▁команде	-11.2616
мп	-11.2617
▁больной	-11.2617
▁достала	-11.2618
▁монах	-11.262
▁воспоминаний	-11.2622
▁мозги	-11.2623
▁1942	-11.2623
▁всякое	-11.2624
▁выступил	-11.2624
▁закончить	-11.2624
▁коней	-11.2625
оль	-11.2626
▁добрались	-11.2629
▁согласиться	-11.263
▁рванул	-11.2631
▁адвокат	-11.2635
ающего	-11.2636
▁вопросительно	-11.2636
▁несет	-11.264
анта	-11.2644
▁выпустил	-11.2645
кать	-11.2645
▁трубы	-11.2649
▁волк	-11.2649
»),	-11.2649
▁сум	-11.265
▁Саймон	-11.265
▁штука	-11.2652
▁магов	-11.2653
▁смехом	-11.2653
▁спешил	-11.2653
▁верит	-11.2654
▁сопровождении	-11.2656
▁старуха	-11.2658
▁Фин	-11.2659
▁находилось	-11.2659
▁причину	-11.2661
▁чужих	-11.2663
▁начались	-11.2663
▁крышу	-11.2668
▁серьезные	-11.2669
▁надеждой	-11.2669
▁фыркнул	-11.267
▁дожидаясь	-11.267
шир	-11.267
▁Четыре	-11.2672
▁собирать	-11.2674
аты	-11.2674
▁гал	-11.2675
▁устроил	-11.2678
▁Ирина	-11.2678
▁Также	-11.2679
▁Дж	-11.2679
▁восторг	-11.268
▁Лор	-11.2681
▁Дю	-11.2682
▁Жен	-11.2682
▁определил	-11.2683
▁равновесие	-11.2683
▁вещества	-11.2686
▁выдал	-11.2687
▁6.	-11.2688
▁Гре	-11.2688
▁Помню	-11.2691
▁игр	-11.2691
▁Настя	-11.2695
▁Сэр	-11.2695
35	-11.2695
▁Петров	-11.2696
▁кап	-11.2696
креп	-11.2697
▁3-	-11.2697
▁инструмент	-11.2697
аны	-11.27
▁украшен	-11.2701
уча	-11.2702
▁Слово	-11.2703
▁Света	-11.2704
▁Тол	-11.2704
истые	-11.2705
▁открытия	-11.2705
лежа	-11.2706
шейся	-11.2707
▁Закон	-11.2707
▁кричать	-11.2707
▁ногам	-11.2708
еет	-11.2708
▁убрал	-11.2708
▁Рейн	-11.2711
▁кусочек	-11.2712
36	-11.2715
▁образован	-11.2717
▁реально	-11.2717
ением	-11.2718
▁занятий	-11.2719
писал	-11.2719
▁щеку	-11.272
ясн	-11.2721
▁известных	-11.2722
ляр	-11.2725
▁границе	-11.2726
▁записал	-11.2731
пан	-11.2732
▁многочисленных	-11.2733
▁превратилась	-11.2734
▁отпуск	-11.2739
ящие	-11.274
ьную	-11.2741
▁возьмет	-11.2743
▁слышит	-11.2744
▁сошел	-11.2746
▁отозвалась	-11.2746
▁Надежда	-11.2746
▁Кира	-11.2747
▁почувствовать	-11.2748
▁шепот	-11.2748
▁треск	-11.2748
▁ткань	-11.2749
▁глуп	-11.275
▁завода	-11.2751
▁огромных	-11.2752
▁количестве	-11.2753
▁правды	-11.2754
▁гору	-11.2754
алась	-11.2755
▁созда	-11.2755
▁покажу	-11.2758
▁пусто	-11.2759
▁намек	-11.2759
▁Лей	-11.276
▁зов	-11.2765
▁Кан	-11.2766
▁осознал	-11.2766
▁клетки	-11.2768
▁местом	-11.2768
▁максимально	-11.2769
▁злобно	-11.277
▁Стивен	-11.277
▁маленьким	-11.2772
▁придётся	-11.2772
▁начинаю	-11.2774
сия	-11.2775
▁вырваться	-11.2776
▁паузу	-11.2776
▁отвечала	-11.2778
смотр	-11.2779
▁пребывания	-11.278
▁фигур	-11.2782
▁писем	-11.2783
▁закат	-11.2786
вшимися	-11.2787
▁уверенности	-11.2787
нными	-11.2788
▁Наверняка	-11.2788
▁сидят	-11.2789
▁выглядели	-11.279
▁твари	-11.279
▁родственников	-11.279
▁мяч	-11.2791
▁огород	-11.2791
▁шпион	-11.2792
li	-11.2793
▁продолжила	-11.2794
рес	-11.2796
▁свидания	-11.2797
▁признал	-11.2797
▁спокойствие	-11.2799
▁постучал	-11.2799
▁палубе	-11.2804
▁банк	-11.2804
▁конечном	-11.2809
▁всюду	-11.2809
▁развод	-11.281
▁глубин	-11.281
▁автомобиля	-11.2814
▁стремление	-11.2814
▁троих	-11.2815
▁презрительно	-11.2815
▁живого	-11.2815
▁упрямо	-11.2816
▁давала	-11.2816
▁зеленый	-11.2816
оте	-11.2819
▁получше	-11.2819
ялся	-11.2821
ившийся	-11.2822
▁проч	-11.2824
шихся	-11.2825
▁привязан	-11.2826
▁учитывая	-11.2826
ЛИ	-11.2827
▁пределами	-11.2828
▁Св	-11.2831
рем	-11.2834
▁менять	-11.2834
▁Джи	-11.2835
▁нужным	-11.2836
▁идеально	-11.2836
▁экипажа	-11.2837
▁луна	-11.2839
▁пределах	-11.2841
▁Александрович	-11.2842
ыш	-11.2844
▁мор	-11.2846
▁планет	-11.2847
▁сторона	-11.2849
▁вследствие	-11.2849
▁револьвер	-11.285
▁Пал	-11.285
▁Полагаю	-11.285
▁тайна	-11.2853
▁круга	-11.2853
▁особенного	-11.2854
▁мусульман	-11.2854
▁наступления	-11.2855
▁Петербург	-11.2856
▁интервью	-11.2856
▁Григорий	-11.2856
▁требования	-11.2857
▁страшный	-11.2859
щихся	-11.2861
▁Великого	-11.2862
▁легких	-11.2864
▁свин	-11.2864
▁дернул	-11.2865
▁болью	-11.2865
▁цел	-11.2867
▁обучения	-11.2868
нит	-11.2868
▁вопреки	-11.2871
▁Джей	-11.2872
▁глубокой	-11.2872
▁высокая	-11.2873
иком	-11.2873
▁спокойным	-11.2874
▁лорда	-11.2875
▁горел	-11.2878
▁обращен	-11.288
▁паспорт	-11.288
▁началом	-11.2881
▁дворян	-11.2882
▁пещеры	-11.2886
ером	-11.2887
▁сущность	-11.2888
▁известны	-11.2888
▁жутко	-11.2888
▁командование	-11.2892
▁камеру	-11.2893
▁предлагал	-11.2894
▁среднего	-11.2898
ru	-11.2898
ющему	-11.2898
евский	-11.2901
▁цветами	-11.2902
▁желанием	-11.2902
▁дружно	-11.2902
▁Ребята	-11.2903
▁линия	-11.2903
▁чудом	-11.2905
▁органы	-11.2906
33	-11.2908
ино	-11.2909
вернут	-11.2911
▁листок	-11.2911
▁распространен	-11.2912
▁брошен	-11.2914
▁простым	-11.2914
▁песню	-11.2915
▁кле	-11.292
▁цикл	-11.2921
▁магазина	-11.2922
▁скомандовал	-11.2924
глас	-11.2926
▁конкретно	-11.2927
▁слову	-11.2927
▁связанные	-11.2928
▁команд	-11.293
▁особ	-11.2935
тера	-11.2937
ительные	-11.2937
бель	-11.294
▁бесшумно	-11.294
лист	-11.2941
нуться	-11.2942
▁роде	-11.2943
▁подозрения	-11.2943
беж	-11.2944
▁рисковать	-11.2946
▁занятие	-11.295
▁плакать	-11.295
ly	-11.295
▁затылок	-11.2951
▁Эту	-11.2951
▁Гос	-11.2951
▁спеша	-11.2951
▁Автор	-11.2951
▁открытым	-11.2951
▁заставили	-11.2952
▁герцога	-11.2954
лай	-11.2955
▁славу	-11.2955
▁развел	-11.2956
▁Будто	-11.2956
▁бросив	-11.2957
▁брюки	-11.2959
▁забав	-11.2961
1.	-11.2961
▁Обо	-11.2965
▁напоминал	-11.2967
▁ложки	-11.2968
▁положив	-11.297
▁хитро	-11.2971
нить	-11.2971
▁отвел	-11.2972
гнул	-11.2974
▁обязаны	-11.2974
▁размером	-11.2974
▁великолепно	-11.2978
▁живое	-11.2979
▁комиссии	-11.2979
ься	-11.2981
▁собственными	-11.2982
нешь	-11.2983
сек	-11.2984
▁разговаривал	-11.2984
▁Порт	-11.2984
рд	-11.2986
▁бегу	-11.2986
▁спальне	-11.2989
▁виды	-11.299
Ко	-11.2993
▁герои	-11.2993
▁отделение	-11.2993
меня	-11.2993
▁боевые	-11.2994
▁судов	-11.2997
▁давление	-11.2997
▁первыми	-11.2997
сель	-11.2998
▁победа	-11.2998
ent	-11.2999
▁собеседник	-11.3
▁Видно	-11.3001
▁вскинул	-11.3001
▁тро	-11.3002
▁га	-11.3002
иг	-11.3003
▁работников	-11.3004
▁выходил	-11.3005
▁позволила	-11.3008
▁магия	-11.301
тес	-11.3011
▁беспокойство	-11.3013
▁неожиданности	-11.3013
▁епископ	-11.3014
▁вдох	-11.3014
▁моменты	-11.3015
▁разглядывая	-11.3017
▁галстук	-11.3019
▁застыл	-11.302
▁Володя	-11.302
▁прост	-11.3022
▁темный	-11.3024
▁уст	-11.3025
▁Её	-11.3027
▁Шан	-11.3027
тис	-11.3028
▁слуга	-11.3031
мас	-11.3031
▁зайти	-11.3031
▁вырос	-11.3031
▁татар	-11.3032
▁председатель	-11.3032
▁интересов	-11.3036
▁убрать	-11.3036
▁русским	-11.3038
▁открытой	-11.3038
Ка	-11.3039
▁Бал	-11.3041
▁сюжет	-11.3041
▁Японии	-11.3043
▁ослаб	-11.3043
▁держав	-11.3043
▁встречал	-11.3045
▁фразы	-11.3047
пен	-11.3047
▁ответы	-11.3048
▁ртом	-11.3049
кров	-11.305
носил	-11.3051
цом	-11.3051
▁Оказывается	-11.3052
▁столице	-11.3053
бира	-11.3054
▁2000	-11.3055
▁вера	-11.3056
▁встречаться	-11.3057
енно	-11.3057
▁нога	-11.3057
▁целые	-11.3059
▁приходят	-11.3059
▁следующую	-11.3065
▁пули	-11.3066
▁волну	-11.3067
▁собеседника	-11.3067
дро	-11.3068
▁района	-11.3069
▁вынуждены	-11.307
▁соседей	-11.3072
верт	-11.3073
▁привела	-11.3074
▁Гитлера	-11.3075
▁обстоятельство	-11.3075
▁наполнен	-11.3078
▁мило	-11.3078
▁раскрыл	-11.3081
▁страницы	-11.3081
▁проклят	-11.3082
▁сумеет	-11.3084
▁Христос	-11.3088
▁законов	-11.3089
▁небольшое	-11.309
▁банка	-11.3091
▁подняли	-11.3092
▁пассажир	-11.3093
▁авиа	-11.3093
▁разрешение	-11.3093
▁хлопнул	-11.3094
▁начнут	-11.3095
▁Честно	-11.3095
▁магнит	-11.31
▁допрос	-11.31
▁ценности	-11.3102
▁Лар	-11.3103
▁дверцу	-11.3104
▁Вед	-11.3104
▁картин	-11.3105
▁потянул	-11.3107
▁печаль	-11.3108
▁высказал	-11.3108
▁рабочий	-11.3109
▁Лиз	-11.3109
чувств	-11.3109
▁Фе	-11.3113
кри	-11.3114
▁древней	-11.3114
▁черную	-11.3115
▁едет	-11.3116
доб	-11.3117
▁лучшим	-11.3119
деля	-11.3119
▁привлечь	-11.312
▁престол	-11.3121
▁кольца	-11.3121
▁золотых	-11.3122
▁получения	-11.3123
▁70	-11.3123
▁улыбки	-11.3124
▁белыми	-11.3125
▁задать	-11.3127
▁крас	-11.3128
▁холодным	-11.3128
▁Вода	-11.3129
▁занавес	-11.3132
тельно	-11.3132
▁Достаточно	-11.3134
▁исследований	-11.3136
▁случаю	-11.3137
▁Кле	-11.3137
▁горячо	-11.3138
▁игре	-11.3138
▁лодка	-11.3138
▁заключение	-11.314
▁Князь	-11.314
▁важнее	-11.3142
▁приходили	-11.3143
▁Землю	-11.3144
▁пад	-11.3146
▁программу	-11.3146
▁понимания	-11.3146
▁красивые	-11.3147
▁смертельно	-11.3148
плет	-11.3148
рах	-11.315
▁выглядело	-11.3151
▁метрах	-11.3151
▁приложил	-11.3152
▁див	-11.3154
▁перестали	-11.3154
▁государь	-11.3155
▁Первые	-11.3155
евых	-11.3156
▁предков	-11.3156
▁внутреннего	-11.3157
▁возьму	-11.3157
▁племен	-11.3158
▁учеников	-11.3159
▁мрамор	-11.316
▁концерт	-11.3162
▁трудности	-11.3163
▁подать	-11.3164
▁Конан	-11.3165
▁Пьер	-11.3165
th	-11.3165
▁Ас	-11.3166
ступив	-11.3166
▁золотые	-11.3169
▁Йо	-11.3171
▁найду	-11.3171
▁всячески	-11.3172
бежав	-11.3172
▁улицах	-11.3173
▁Королев	-11.3174
▁разными	-11.3174
▁помнит	-11.3179
▁льда	-11.3179
▁приехать	-11.3179
▁изменился	-11.3179
▁собираешься	-11.318
труд	-11.3181
▁кончик	-11.3184
47	-11.3184
▁широкий	-11.3184
▁стиль	-11.3184
▁воевать	-11.3187
▁группой	-11.3188
▁двигатель	-11.319
▁угрозы	-11.319
▁тревоги	-11.3191
▁плечах	-11.3196
ьян	-11.3196
▁призван	-11.3197
▁желто	-11.3199
▁больницу	-11.32
чн	-11.3201
мок	-11.3202
▁старым	-11.3202
▁преступление	-11.3208
▁Тони	-11.3208
▁преодолеть	-11.321
▁молока	-11.321
▁Одни	-11.3212
▁отражение	-11.3212
Во	-11.3214
енс	-11.3214
▁завет	-11.3215
▁случаи	-11.3218
▁караван	-11.3218
▁швед	-11.3219
рий	-11.322
▁возвращался	-11.3221
▁устройство	-11.3221
енными	-11.3222
▁героев	-11.3222
▁ритуал	-11.3223
ложив	-11.3226
▁направились	-11.3229
▁подобной	-11.3235
ставлял	-11.3235
▁карт	-11.3236
.).]	-11.3238
▁великих	-11.3238
▁побег	-11.3238
подоб	-11.324
▁стрелы	-11.324
▁обратилась	-11.3242
▁сколь	-11.3243
▁пятно	-11.3243
▁пальца	-11.3244
▁признание	-11.3245
▁силуэт	-11.3246
▁Понимаешь	-11.3247
своему	-11.3248
▁французский	-11.3249
▁квартир	-11.3249
ul	-11.3249
▁Эми	-11.3251
▁заклинания	-11.3252
▁Вторая	-11.3252
шиеся	-11.3253
▁гон	-11.3253
▁ордена	-11.3256
жал	-11.3258
▁Муж	-11.326
▁методы	-11.3263
▁трус	-11.3264
▁неудобно	-11.3264
▁кошка	-11.3265
▁остаются	-11.3265
▁читает	-11.3266
▁института	-11.327
▁супер	-11.3272
▁капитал	-11.3272
▁квартира	-11.3273
▁грани	-11.3273
▁смеяться	-11.3275
вязан	-11.3276
шко	-11.3279
▁СС	-11.3279
нно	-11.328
▁прицел	-11.3282
▁скромно	-11.3283
▁Пе	-11.3284
▁Прав	-11.3284
▁Полковник	-11.3286
▁хан	-11.3286
▁висел	-11.3286
▁пахло	-11.3286
▁лечения	-11.3287
▁маму	-11.3287
▁рынок	-11.3287
▁охранник	-11.3289
▁признак	-11.3289
▁выжить	-11.3289
▁коли	-11.3289
▁вождя	-11.3289
▁Мик	-11.3291
вести	-11.3294
▁распоряжение	-11.3294
▁произнёс	-11.3296
▁новыми	-11.3299
▁Энн	-11.33
▁поднимая	-11.33
▁совесть	-11.3301
▁безнадежно	-11.3301
▁Надя	-11.3302
▁блеск	-11.3304
▁побери	-11.3304
▁крепче	-11.3305
▁отлича	-11.3306
▁лун	-11.3307
▁открыли	-11.3311
▁портал	-11.3313
.],	-11.3315
ьного	-11.3316
▁круто	-11.3316
▁предположил	-11.3317
▁главная	-11.3317
▁перехода	-11.3318
▁заглянуть	-11.3318
РА	-11.3318
▁помолчал	-11.332
▁поглядел	-11.3322
▁повторить	-11.3323
▁Машина	-11.3323
▁настроения	-11.3324
▁мамы	-11.3327
▁эпоху	-11.3328
▁вспомнив	-11.3328
▁произойти	-11.3328
▁Лит	-11.3328
▁свернул	-11.333
▁нанести	-11.333
очные	-11.3331
ально	-11.3331
▁рынке	-11.3332
▁Позже	-11.3333
▁Ред	-11.3335
▁Павлович	-11.3339
ального	-11.3341
▁собралась	-11.3343
брав	-11.3347
▁салат	-11.3347
▁ката	-11.3349
онос	-11.3349
ленные	-11.3352
▁неоднократно	-11.3354
нтар	-11.3356
▁пыта	-11.3358
▁оставлять	-11.3359
▁зеленые	-11.3361
▁ветви	-11.3362
▁Лан	-11.3364
▁вывел	-11.3365
▁услышали	-11.3367
▁указывает	-11.337
▁варвар	-11.337
▁песня	-11.337
▁барьер	-11.3371
▁висели	-11.3371
ьной	-11.3372
▁спали	-11.3372
▁болезненно	-11.3374
44	-11.3375
▁выразил	-11.3376
▁американский	-11.3376
▁обойтись	-11.338
▁направлен	-11.3381
▁архив	-11.3382
▁тарелку	-11.3382
▁деда	-11.3384
грыз	-11.3385
▁пират	-11.3386
ro	-11.3387
▁бара	-11.3388
▁соли	-11.3389
▁обычных	-11.3391
▁замечательно	-11.3391
звуч	-11.3395
▁царство	-11.3396
айн	-11.3396
▁одет	-11.3396
▁помогли	-11.3396
▁смущенно	-11.3396
▁легла	-11.3397
▁глубину	-11.3399
Ле	-11.3399
▁заговор	-11.3401
нять	-11.3402
▁Север	-11.3403
▁имеются	-11.3404
▁Бело	-11.3405
▁Эдвард	-11.3406
▁изначально	-11.3409
▁Буду	-11.341
▁стороной	-11.3411
▁Зе	-11.3411
▁согласие	-11.3412
рэ	-11.3412
▁надпись	-11.3414
▁1943	-11.3416
▁спальни	-11.3416
▁обещание	-11.3416
еш	-11.3418
▁Дракон	-11.3419
▁скрывать	-11.342
▁взгляде	-11.3423
▁растений	-11.3423
▁жалоб	-11.3425
▁колдун	-11.3425
чную	-11.3426
▁глупости	-11.3433
▁держался	-11.3434
▁Джесси	-11.3437
▁покинули	-11.3437
▁музыки	-11.3438
▁дерга	-11.3439
▁воскресенье	-11.344
▁электрон	-11.3441
▁дневник	-11.3441
▁временно	-11.3441
кладывал	-11.3445
▁вреда	-11.3451
льный	-11.3451
чина	-11.3452
▁Бак	-11.3453
▁отвечаю	-11.3453
▁Единственное	-11.3454
тика	-11.3456
▁машинально	-11.3456
вое	-11.3459
04	-11.3459
▁поиск	-11.3462
▁важных	-11.3463
▁намерения	-11.3463
▁выразить	-11.3466
▁топор	-11.3466
ящих	-11.3466
▁коло	-11.3467
▁прикрыл	-11.3467
▁наступил	-11.347
▁случается	-11.3471
▁Точнее	-11.3472
▁Демон	-11.3474
мести	-11.3476
▁Жена	-11.3477
▁молитвы	-11.3479
ывать	-11.3483
▁операцию	-11.3483
▁рус	-11.3485
ьем	-11.3486
▁теория	-11.3486
▁хирург	-11.3489
▁мышц	-11.349
▁американских	-11.349
▁любимой	-11.3492
▁предполагал	-11.3495
▁цены	-11.3497
▁называет	-11.3499
▁королю	-11.3499
▁разговоров	-11.3499
мерз	-11.3499
▁робко	-11.3499
бек	-11.35
▁построить	-11.3501
▁500	-11.3502
▁руководства	-11.3503
▁явля	-11.3503
▁искали	-11.3504
▁реформ	-11.3504
▁взглянув	-11.3505
▁одиночку	-11.3506
▁Силь	-11.3508
нт	-11.3511
▁Мам	-11.3513
▁баба	-11.3516
▁Пен	-11.3516
▁шумно	-11.3518
▁суждено	-11.3519
▁Вернее	-11.3519
▁качество	-11.3521
зя	-11.3521
▁пир	-11.3521
▁80	-11.3523
▁Леди	-11.3523
сту	-11.3524
▁болот	-11.3525
53	-11.3526
▁Ке	-11.3528
▁организовать	-11.3528
▁присутствующих	-11.3529
▁пресс	-11.353
тельную	-11.353
▁закрыв	-11.3531
▁тонкой	-11.3531
бах	-11.3533
▁щелкнул	-11.3534
▁удаля	-11.3536
▁казаться	-11.3539
▁39	-11.3539
▁обладал	-11.354
os	-11.354
▁триста	-11.354
кнув	-11.3543
тянув	-11.3543
▁требовал	-11.3544
▁диване	-11.3544
▁существовании	-11.3544
▁рабов	-11.3545
▁возразила	-11.3546
шегося	-11.3549
▁звезда	-11.3549
▁вывести	-11.355
летний	-11.355
▁Пара	-11.3551
▁звуков	-11.3551
того	-11.3554
▁убор	-11.3555
2)	-11.3555
▁вернул	-11.3556
▁пел	-11.3556
▁организован	-11.3557
▁интереса	-11.3558
▁государств	-11.3561
▁предположение	-11.3561
▁двигались	-11.3561
v	-11.3563
▁столб	-11.3565
▁кристалл	-11.3565
▁коль	-11.3565
▁армий	-11.3565
нке	-11.3567
бли	-11.3568
▁подниматься	-11.3571
▁женился	-11.3572
▁создавать	-11.3573
▁видимости	-11.3574
▁Стив	-11.3575
▁Гл	-11.3575
▁объектив	-11.3576
▁операция	-11.3576
▁крыс	-11.3576
▁структур	-11.3576
ывал	-11.3577
▁убедился	-11.3579
▁любимый	-11.3579
▁статью	-11.3579
▁постарался	-11.3583
▁локоть	-11.3584
▁углом	-11.3584
▁устала	-11.3584
▁комитет	-11.3585
▁Софи	-11.3587
▁маме	-11.3587
▁войсками	-11.3587
▁предлагает	-11.3588
▁точности	-11.359
▁опустив	-11.3591
▁змея	-11.3591
▁осенью	-11.3592
рим	-11.3592
▁страшное	-11.3593
▁моста	-11.3595
▁Иоанн	-11.3596
▁заговорила	-11.3598
▁мал	-11.3598
▁выпуск	-11.36
▁трава	-11.36
ини	-11.3601
▁учения	-11.3602
▁добрые	-11.3603
веду	-11.3603
▁плечом	-11.3603
нской	-11.3604
▁художника	-11.3605
▁доверие	-11.3605
атур	-11.3606
▁бабушки	-11.3606
▁приказу	-11.3608
▁блин	-11.3609
▁колхоз	-11.3609
▁посредством	-11.361
▁помещении	-11.3611
▁чудовище	-11.3612
▁сном	-11.3616
▁бросал	-11.3616
▁заверил	-11.3619
▁встретила	-11.3619
▁газете	-11.362
▁Кре	-11.362
▁растет	-11.362
▁выбирать	-11.362
▁(18	-11.3621
▁собран	-11.3621
ложены	-11.3624
▁воздействия	-11.3625
▁труднее	-11.3626
▁собаку	-11.3627
иш	-11.3628
▁разрешил	-11.3628
▁шляпу	-11.3628
веща	-11.3628
▁блюдо	-11.3629
▁ужасе	-11.3631
▁шрам	-11.3633
▁слабый	-11.3633
▁красивой	-11.3635
▁призрак	-11.3635
▁Северус	-11.3636
▁фраза	-11.3637
▁обстановку	-11.3637
▁орден	-11.3638
▁сухой	-11.3638
▁программ	-11.3638
щиеся	-11.3639
▁снегу	-11.3639
▁молчали	-11.3639
нич	-11.364
очного	-11.3644
▁весом	-11.3645
▁почет	-11.3645
▁обнаружен	-11.3646
▁Пас	-11.3649
▁признаки	-11.3651
▁успокоил	-11.3655
кину	-11.3656
крат	-11.3656
▁Сон	-11.366
▁деревьями	-11.3661
▁Китай	-11.3663
▁повторять	-11.3664
▁мирно	-11.3665
▁вал	-11.3665
▁последнем	-11.3666
▁щекам	-11.3666
▁нарочно	-11.3668
▁собор	-11.3671
▁имеете	-11.3671
▁результатов	-11.3671
▁вправо	-11.3672
▁открывать	-11.3673
▁устройства	-11.3673
пали	-11.3674
▁базе	-11.3674
▁призналась	-11.3675
▁опор	-11.3677
▁стакана	-11.3677
▁печати	-11.3678
▁задумалась	-11.3678
▁древние	-11.3679
▁Дей	-11.368
▁вмешался	-11.3681
▁вину	-11.3682
▁промолчал	-11.3682
▁пасть	-11.3683
▁Видите	-11.3686
▁ге	-11.3687
▁столицу	-11.3688
рал	-11.3688
▁бытия	-11.3689
▁маги	-11.3689
фо	-11.3691
акт	-11.3692
ad	-11.3694
▁вершине	-11.3696
▁куртку	-11.3696
▁прошлый	-11.3697
▁приход	-11.3699
пс	-11.3699
▁новому	-11.3701
▁выводы	-11.3702
▁сражения	-11.3702
рог	-11.3702
жил	-11.3702
крест	-11.3702
▁ти	-11.3703
▁Последние	-11.3703
▁Сергея	-11.3704
▁горд	-11.3705
▁горя	-11.3708
▁300	-11.3708
ительным	-11.3712
▁Сид	-11.3712
рош	-11.3713
▁би	-11.3714
енькая	-11.3718
▁применения	-11.3718
▁размышлял	-11.3719
▁Пир	-11.3719
▁мужчине	-11.372
▁умеют	-11.372
▁проведен	-11.372
▁назначения	-11.3722
▁физически	-11.3723
▁греш	-11.3723
▁содержа	-11.3723
▁миллион	-11.3724
▁пита	-11.3725
лав	-11.3726
▁Эмма	-11.3727
ящего	-11.3729
▁бр	-11.3731
▁десант	-11.3732
▁соответствует	-11.3732
▁Ак	-11.3732
▁мыслью	-11.3733
▁программа	-11.3734
▁чудеса	-11.3734
▁настаивал	-11.3736
▁существовало	-11.3736
▁шире	-11.3738
▁земной	-11.3739
фин	-11.3739
▁ба	-11.3739
▁расстояния	-11.374
▁использовали	-11.374
▁подумав	-11.374
▁отвернулась	-11.3743
бат	-11.3743
▁удивлению	-11.3743
▁обеими	-11.3743
▁существенно	-11.3744
▁научился	-11.3745
ительная	-11.3746
мел	-11.3747
▁боку	-11.3748
▁красота	-11.3749
ёв	-11.375
▁донесся	-11.3753
▁плохого	-11.3754
▁эконом	-11.3755
▁Пять	-11.3756
▁поездки	-11.3756
▁происходящее	-11.3757
▁обычным	-11.3758
орд	-11.3761
▁водки	-11.3761
▁влиянием	-11.3763
▁араб	-11.3764
▁выражен	-11.3766
▁Сел	-11.3767
▁двенадцати	-11.3768
▁животные	-11.3768
бравшись	-11.3768
меш	-11.3768
▁внешне	-11.3769
▁судья	-11.3769
▁собираются	-11.377
▁недоверчиво	-11.3772
дай	-11.3773
▁тормоз	-11.3775
▁пополам	-11.3775
▁Вест	-11.3776
55	-11.3777
▁Примерно	-11.378
▁блокнот	-11.3783
▁сан	-11.3786
▁уходил	-11.3789
▁свечи	-11.379
▁губах	-11.379
▁отправили	-11.3791
▁ладонями	-11.3793
▁надежно	-11.3793
▁педагог	-11.3793
▁XVIII	-11.3796
изирован	-11.3796
▁огни	-11.3797
▁Гай	-11.3798
вые	-11.3798
▁тучи	-11.38
▁дороже	-11.3802
▁правления	-11.3802
▁рецепт	-11.3805
32	-11.3807
тека	-11.3808
[6	-11.3811
▁умом	-11.3811
▁отсутствия	-11.3811
хожу	-11.3811
▁прекратить	-11.3812
▁цирк	-11.3812
▁предметов	-11.3815
вых	-11.3818
сам	-11.3818
тащил	-11.3819
▁девяти	-11.382
▁признан	-11.3821
▁цепь	-11.3822
▁донос	-11.3824
▁отрезал	-11.3825
чь	-11.3827
▁планов	-11.3827
▁высоту	-11.3827
▁боятся	-11.3829
▁друзьям	-11.3831
ование	-11.3832
▁рассчитывал	-11.3833
▁вернемся	-11.3833
▁городах	-11.3835
▁надеялась	-11.3835
▁ши	-11.3836
▁каза	-11.3837
▁Испании	-11.3837
49	-11.3838
▁наказания	-11.3838
48	-11.3838
▁Украины	-11.3839
▁Прекрасно	-11.3839
чать	-11.3839
▁лежат	-11.3839
▁впечатления	-11.384
▁служба	-11.3842
▁старую	-11.3843
▁понравился	-11.3844
▁Кат	-11.3846
ице	-11.3847
ьным	-11.3848
▁скуч	-11.3848
▁НКВД	-11.3849
▁Женя	-11.385
▁любезно	-11.3851
▁тонкий	-11.3853
уна	-11.3855
▁Аня	-11.3855
сед	-11.3856
▁освободить	-11.3856
рать	-11.3858
▁выходили	-11.3858
▁простые	-11.386
▁флаг	-11.3862
▁проб	-11.3863
▁диалог	-11.3864
торг	-11.3864
▁Толстой	-11.3866
▁животе	-11.3866
▁спрятан	-11.3868
если	-11.3869
▁красавица	-11.387
▁грозит	-11.3873
▁смутно	-11.3873
▁согласия	-11.3876
сет	-11.3876
▁Думаешь	-11.3877
▁сада	-11.3878
▁идеолог	-11.3879
▁сыновей	-11.388
▁зубов	-11.3881
иды	-11.3882
▁ростом	-11.3882
▁Хе	-11.3886
иф	-11.3888
джа	-11.389
▁закончилась	-11.389
▁понадобилось	-11.3892
елю	-11.3893
▁букет	-11.3893
▁подобным	-11.3894
▁арест	-11.3894
▁холм	-11.3896
▁восторга	-11.3897
ившиеся	-11.3898
▁мл	-11.3902
овала	-11.3904
▁мебель	-11.3904
▁груд	-11.3905
▁рам	-11.3905
ation	-11.3906
▁контролировать	-11.3907
▁усы	-11.3908
боль	-11.3908
ливать	-11.3908
▁влево	-11.391
▁лета	-11.3912
▁готовности	-11.3912
здоров	-11.3912
▁фе	-11.3913
▁разряд	-11.3913
▁двигался	-11.3916
▁услуг	-11.3917
▁клана	-11.3918
▁относиться	-11.3918
▁Академии	-11.3919
НО	-11.3919
46	-11.3919
пустил	-11.3919
▁заполнен	-11.3919
▁Способ	-11.3921
▁представляется	-11.3921
▁закончится	-11.3921
▁прочел	-11.3926
▁проснулась	-11.3926
▁Алан	-11.3926
▁подобрал	-11.3928
гром	-11.3928
▁подвиг	-11.3928
альную	-11.3928
▁вблизи	-11.393
▁первому	-11.393
▁пытаются	-11.3931
▁тупик	-11.3931
▁партию	-11.3932
▁используя	-11.3932
▁НЕ	-11.3933
давно	-11.3933
ования	-11.3933
▁осад	-11.3934
▁плит	-11.3941
▁социальной	-11.3942
▁добычу	-11.3943
▁Ган	-11.3945
▁монастыря	-11.3947
▁рассеянно	-11.3949
▁похожие	-11.3951
▁одиннадцать	-11.3951
▁приглашение	-11.3952
▁Гром	-11.3953
▁вызвали	-11.3953
▁выдать	-11.3953
имо	-11.3954
▁страда	-11.3955
▁обычные	-11.3955
▁важный	-11.3958
▁сумки	-11.3959
стрит	-11.396
▁сорвал	-11.396
▁простых	-11.396
ори	-11.396
▁живые	-11.3961
▁горели	-11.3961
скочив	-11.3962
▁Сквозь	-11.3962
▁казни	-11.3963
▁учился	-11.3965
▁штраф	-11.3966
зра	-11.3966
▁встретили	-11.3966
▁небольшого	-11.3966
▁сомневаться	-11.3967
ейн	-11.3967
▁жива	-11.3968
▁доброго	-11.3968
▁Ким	-11.3968
еру	-11.3968
▁определенные	-11.397
▁Толстого	-11.3971
▁строительство	-11.3971
▁договорились	-11.3971
яться	-11.3971
ёл	-11.3975
▁услуги	-11.3977
▁питания	-11.3977
▁сия	-11.3978
▁разговоре	-11.3978
▁судна	-11.398
▁твоему	-11.3981
▁милиции	-11.3982
щиков	-11.3983
▁рыцарь	-11.3983
▁погода	-11.3983
▁данного	-11.3987
▁Принц	-11.3988
▁падения	-11.3989
▁поднес	-11.399
▁выступления	-11.3991
тороп	-11.3991
▁злой	-11.3991
инга	-11.3992
▁понравится	-11.3993
▁клинок	-11.3995
▁окнами	-11.3996
▁Некоторое	-11.3998
▁Рок	-11.3999
▁Лай	-11.4
▁закончилось	-11.4003
▁признаков	-11.4004
▁некое	-11.4005
▁семьдесят	-11.4008
▁Меч	-11.4009
▁g	-11.4009
▁полицейский	-11.401
▁ценность	-11.401
▁перевести	-11.4011
▁считаешь	-11.4012
летнего	-11.4012
равня	-11.4012
▁Вол	-11.4012
писать	-11.4013
▁делаете	-11.4016
▁поступать	-11.402
мель	-11.4021
чев	-11.4021
▁занимает	-11.4023
▁испытал	-11.4023
▁кружев	-11.4029
▁весть	-11.4029
▁материалов	-11.403
▁помогал	-11.4032
дев	-11.4032
▁задания	-11.4033
ог	-11.4034
▁среде	-11.4034
▁плакала	-11.4035
▁великим	-11.4036
▁особый	-11.4036
▁правилам	-11.4037
дри	-11.4037
▁приют	-11.4038
▁Армии	-11.404
▁скорей	-11.4041
прос	-11.4041
▁1918	-11.4042
▁содержимое	-11.4043
▁почт	-11.4044
▁млн	-11.4044
▁стон	-11.4045
поль	-11.4045
▁фамилию	-11.4046
▁стукнул	-11.4047
▁био	-11.4047
▁молчала	-11.4048
▁участвовать	-11.4049
▁школа	-11.4051
рова	-11.4051
▁стер	-11.4051
▁евреи	-11.4054
▁советник	-11.4055
▁полон	-11.4058
авший	-11.406
▁Пап	-11.406
▁замерз	-11.4062
▁Центр	-11.4064
▁печ	-11.4064
▁отыскал	-11.4064
▁артефакт	-11.4066
▁выхватил	-11.4068
▁толк	-11.4069
▁вытер	-11.407
▁мрак	-11.4071
▁Сами	-11.4071
▁Ля	-11.4073
▁любых	-11.4073
▁помешать	-11.4074
▁Сал	-11.4074
▁указывая	-11.4074
▁ценой	-11.4074
▁чар	-11.4077
▁идёт	-11.4078
▁резин	-11.4079
▁советские	-11.4079
▁расположение	-11.408
▁объекта	-11.408
75	-11.4082
▁пса	-11.4083
▁русском	-11.4084
▁демократ	-11.4087
▁тяжелых	-11.4087
▁шорох	-11.4088
▁Хуан	-11.409
▁кг	-11.4091
54	-11.4091
веден	-11.4092
▁Сим	-11.4092
▁1939	-11.4093
[5	-11.4093
▁Помнишь	-11.4094
льная	-11.4094
▁вертолет	-11.4095
▁осведомился	-11.4096
▁небольшим	-11.4097
▁тре	-11.4102
▁сладко	-11.4103
▁побережье	-11.4106
▁юности	-11.4106
un	-11.4106
▁побежала	-11.4106
▁колонны	-11.4107
▁слушала	-11.4109
▁Кровь	-11.411
▁слон	-11.411
▁Роза	-11.4111
▁формально	-11.4111
▁Товарищ	-11.4113
://	-11.4114
нести	-11.4114
▁пап	-11.4115
▁гу	-11.4116
▁исправить	-11.4116
▁раненых	-11.4116
ящая	-11.4117
▁обняла	-11.4118
▁сломан	-11.4119
очных	-11.412
енька	-11.4121
яли	-11.4121
▁ра	-11.4122
сар	-11.4122
▁наслед	-11.4125
▁начнется	-11.4125
▁гостинице	-11.413
▁пересек	-11.413
38	-11.4132
ллер	-11.4132
▁Выходит	-11.4132
42	-11.4132
st	-11.4136
▁справедливости	-11.4137
▁серьезным	-11.4137
коричнев	-11.4137
▁хо	-11.4137
▁больного	-11.4138
битый	-11.414
▁Крас	-11.414
▁студентов	-11.4141
▁известен	-11.4143
▁сигарет	-11.4144
▁чел	-11.4145
вос	-11.4146
▁побывал	-11.4147
дем	-11.4147
▁Шер	-11.4148
ёшь	-11.4149
сея	-11.4151
▁умный	-11.4151
▁Бет	-11.4152
▁лихорадочно	-11.4152
▁солдата	-11.4153
▁неделе	-11.4153
ДА	-11.4153
част	-11.4154
▁коллеги	-11.4154
▁историк	-11.4155
▁Империи	-11.4158
▁Татьяна	-11.4159
▁покор	-11.416
▁Дев	-11.4162
▁любая	-11.4162
▁миллиона	-11.4162
▁журнала	-11.4163
▁Хотел	-11.4164
ира	-11.4166
▁Напротив	-11.4166
▁полоса	-11.4167
▁дадут	-11.4167
▁прибавил	-11.417
▁Кро	-11.417
▁Удар	-11.4171
▁степень	-11.4174
нька	-11.4176
▁бойся	-11.4177
▁звонил	-11.4177
▁Игнат	-11.4178
▁официант	-11.4178
▁современных	-11.4178
▁счета	-11.4182
▁множества	-11.4183
▁похорон	-11.4183
▁баран	-11.4185
▁видео	-11.4185
ющем	-11.4187
план	-11.4188
▁Джейк	-11.4189
▁выбросил	-11.4189
▁еврей	-11.419
▁указания	-11.419
▁учение	-11.419
76	-11.4191
▁баланс	-11.4197
▁семьей	-11.4198
резал	-11.4198
▁академии	-11.4202
▁распоряжении	-11.4203
▁Мур	-11.4204
дя	-11.4204
▁очертания	-11.4206
иан	-11.4206
▁виден	-11.4207
▁королевы	-11.4207
▁Сай	-11.4207
▁кат	-11.4208
силь	-11.4209
▁потолка	-11.4209
▁тонко	-11.4211
▁Пят	-11.4212
▁основа	-11.4213
▁конча	-11.4213
▁(17	-11.4214
▁следа	-11.4216
▁поражения	-11.4216
лении	-11.4217
▁свадьбы	-11.4218
вад	-11.4219
▁Луи	-11.4219
▁спуск	-11.4221
▁дошли	-11.4222
▁Ночью	-11.4223
▁мета	-11.4224
▁сеньор	-11.4225
▁объятиях	-11.4226
▁серые	-11.4226
▁монастырь	-11.4227
▁месяцы	-11.4227
▁шоколад	-11.4229
▁рассказы	-11.4229
▁Ад	-11.423
▁уважение	-11.423
оны	-11.423
▁Здравствуйте	-11.423
▁монитор	-11.4231
▁скелет	-11.4231
дь	-11.4231
▁оказать	-11.4233
▁Деньги	-11.4233
цар	-11.4234
гр	-11.4234
▁заключил	-11.4234
▁выполнения	-11.4236
ge	-11.4237
▁шагах	-11.4238
▁Фор	-11.4238
▁жених	-11.4239
▁обла	-11.424
▁приблизительно	-11.4241
39	-11.4244
обра	-11.4245
▁дано	-11.4246
▁ученик	-11.4247
31	-11.4249
▁сравнительно	-11.4249
▁допустим	-11.425
шев	-11.425
▁фильма	-11.425
щика	-11.4251
енье	-11.4252
гн	-11.4252
▁просила	-11.4256
▁чье	-11.4258
▁ровным	-11.4259
▁достигли	-11.4259
▁Поттер	-11.426
▁амулет	-11.426
▁падали	-11.4262
▁расстроен	-11.4263
▁показались	-11.4263
▁пустыне	-11.4263
▁слеп	-11.4263
▁48	-11.4263
▁специалистов	-11.4264
трав	-11.4265
оч	-11.4266
▁немецкий	-11.4267
▁жажду	-11.4267
ведет	-11.4268
▁лог	-11.4268
▁связанных	-11.427
▁послание	-11.4272
▁банки	-11.4273
▁обсудить	-11.4274
дорож	-11.4274
▁листьев	-11.4275
▁агент	-11.4275
▁поймет	-11.4275
рут	-11.4275
▁Цел	-11.4276
▁хлоп	-11.4277
▁крышку	-11.4277
▁общих	-11.4278
▁обратить	-11.4279
▁пляж	-11.4283
▁оборон	-11.4285
▁освещен	-11.4285
▁дочерью	-11.4285
▁воображение	-11.4286
▁Можете	-11.4286
▁командиров	-11.4287
▁короткие	-11.4287
▁особое	-11.4288
▁крупный	-11.429
▁ще	-11.429
вич	-11.4292
▁гордость	-11.4293
▁май	-11.4295
руб	-11.4296
▁ущерб	-11.4297
▁рейс	-11.4299
▁la	-11.4299
▁Роджер	-11.4299
▁Подожди	-11.4299
▁постиг	-11.4302
▁милорд	-11.4302
▁Свят	-11.4302
▁стуле	-11.4303
▁благодарность	-11.4303
▁изучать	-11.4303
▁берегов	-11.4304
▁английского	-11.4307
▁обсуждать	-11.4308
▁уголь	-11.4309
▁описание	-11.4309
даст	-11.431
▁тянет	-11.4311
▁единой	-11.4311
волос	-11.4311
▁бригады	-11.4311
▁используют	-11.4314
▁42	-11.4315
▁Понимаю	-11.4315
▁Куп	-11.4315
брат	-11.4316
▁стан	-11.4317
▁боже	-11.4318
▁потребность	-11.432
▁разговаривали	-11.4322
▁феномен	-11.4322
слал	-11.4323
▁Придется	-11.4324
град	-11.4326
▁стих	-11.4327
▁студент	-11.4327
▁ели	-11.4328
▁усталости	-11.4328
▁руль	-11.4329
▁петь	-11.433
▁третья	-11.433
▁бил	-11.4331
▁успеть	-11.4331
▁движении	-11.4331
▁средствами	-11.4333
▁Лук	-11.4334
▁климат	-11.4335
утся	-11.4337
▁криво	-11.4337
▁собственности	-11.4337
▁палубу	-11.434
▁молот	-11.4348
▁посмотри	-11.4351
▁перешли	-11.4351
▁соседней	-11.4352
▁Ворон	-11.4353
▁глупость	-11.4359
▁учить	-11.4359
▁проявления	-11.4361
▁больных	-11.4363
▁бодр	-11.4363
▁свету	-11.4364
▁отчаяния	-11.4367
кот	-11.4367
▁распахнул	-11.4368
▁обращение	-11.4368
▁Коз	-11.4371
▁испугалась	-11.4372
▁достав	-11.4373
▁сняла	-11.4374
▁караул	-11.4378
▁свобода	-11.4381
▁Сад	-11.4381
▁вещах	-11.4382
водят	-11.4383
шёл	-11.4383
▁Женщины	-11.4384
▁Кри	-11.4384
▁сообщили	-11.4386
▁Постепенно	-11.4387
уме	-11.439
ИТ	-11.4392
▁беспокоиться	-11.4394
▁следующем	-11.4394
▁замкнут	-11.4394
▁передачи	-11.4396
▁сказки	-11.4396
▁смотрите	-11.4397
▁Святого	-11.4397
чего	-11.4399
om	-11.4399
▁мудр	-11.4399
▁Хью	-11.4399
▁ходила	-11.4401
▁колеса	-11.4402
▁метра	-11.4402
▁пах	-11.4402
▁воина	-11.4404
▁клиент	-11.4405
▁поднимается	-11.4407
▁миллионы	-11.4408
▁человеческий	-11.441
▁молчать	-11.4411
▁обнаружив	-11.4412
▁провод	-11.4413
▁площадку	-11.4413
▁создан	-11.4414
▁Разговор	-11.4415
▁Уверен	-11.4416
▁погас	-11.4417
▁слабым	-11.4417
▁штук	-11.4417
▁цыган	-11.442
▁взглядами	-11.4421
▁армией	-11.4422
▁Расс	-11.4422
▁Помимо	-11.4422
▁лейтенанта	-11.4422
▁шума	-11.4423
▁широкие	-11.4424
▁замечает	-11.4426
▁приказа	-11.4426
▁Бре	-11.4428
▁кро	-11.4429
▁коз	-11.443
▁грудью	-11.443
▁разрыва	-11.4431
ечка	-11.4432
▁Третий	-11.4433
▁трёх	-11.4434
тел	-11.4435
▁танки	-11.4438
▁элементов	-11.4439
▁угрозу	-11.4439
государственного	-11.4441
▁пуст	-11.4442
▁завел	-11.4443
ола	-11.4443
▁страхов	-11.4444
селен	-11.4445
▁относился	-11.4448
чил	-11.4449
ne	-11.445
▁произошла	-11.4451
берт	-11.4452
▁сестрой	-11.4453
▁верхов	-11.4456
▁Следовательно	-11.4456
▁контейнер	-11.4456
▁собственном	-11.4457
▁подушку	-11.4458
▁узнаю	-11.4459
▁камнем	-11.4461
▁поделать	-11.4461
ter	-11.4463
▁курса	-11.4463
▁морю	-11.4463
▁предлагаю	-11.4463
▁установил	-11.4465
▁прежней	-11.4467
▁догадаться	-11.4467
▁ракеты	-11.4467
▁сфере	-11.4469
▁тайной	-11.4471
▁принадлежал	-11.4472
▁легенда	-11.4473
раст	-11.4474
▁появляются	-11.4474
▁деятель	-11.4475
▁откинулся	-11.4476
▁Федерации	-11.4478
ающей	-11.4483
▁просьбу	-11.4483
▁150	-11.4484
▁королем	-11.4486
▁заменить	-11.4488
▁младший	-11.449
▁отказалась	-11.4491
▁угрюмо	-11.4492
▁открытие	-11.4494
▁туго	-11.4495
▁Ново	-11.4496
▁экономики	-11.4497
▁обрыв	-11.4498
▁знаки	-11.4501
▁Коп	-11.4502
▁горячей	-11.4503
▁лимон	-11.4504
▁партнер	-11.4505
▁врагом	-11.4505
▁Оста	-11.4505
▁туфли	-11.4506
▁корни	-11.4506
▁прим	-11.4506
▁оси	-11.4506
ставить	-11.4508
▁авиации	-11.4509
▁лишний	-11.4512
▁извлек	-11.4513
▁Хотелось	-11.4514
▁потенциал	-11.4515
03	-11.4515
ТО	-11.4516
▁воспринимал	-11.4516
изация	-11.4516
▁надоело	-11.4516
анти	-11.4517
▁Всех	-11.4518
гас	-11.4519
▁бе	-11.4521
▁вином	-11.4523
▁девица	-11.4525
▁гладко	-11.4526
▁прекрасная	-11.4526
гун	-11.4526
▁преимущество	-11.4527
▁миров	-11.4527
▁подмигнул	-11.4529
▁уз	-11.4531
Де	-11.4535
▁вспоминая	-11.4536
шкой	-11.4536
еда	-11.4536
десят	-11.4537
жива	-11.4537
▁плохой	-11.4538
▁редкость	-11.4538
▁знакомства	-11.4538
▁встретился	-11.4538
ложения	-11.4539
▁странная	-11.4539
▁Бир	-11.4541
▁победить	-11.4541
▁образа	-11.4541
▁нуждается	-11.4541
▁дна	-11.4542
закон	-11.4542
ходят	-11.4543
▁мотоцикл	-11.4544
вшем	-11.4546
▁беспомощно	-11.4547
▁пахнет	-11.4548
▁Шум	-11.4548
▁разорвал	-11.455
▁привлек	-11.4552
уп	-11.4553
▁СПб	-11.4553
▁поезда	-11.4556
▁семей	-11.4559
▁Дженни	-11.456
▁пассажиров	-11.4561
▁фунтов	-11.4562
▁вдвое	-11.4563
▁поистине	-11.4564
▁Довольно	-11.4567
▁Ив	-11.4568
▁бывших	-11.4568
▁шепнул	-11.4569
▁потянулась	-11.457
▁пользовался	-11.457
копа	-11.4572
▁бровь	-11.4572
▁Марго	-11.4572
▁знакомым	-11.4573
альное	-11.4574
▁вкусу	-11.4574
▁третьем	-11.4576
уш	-11.4576
благодар	-11.4577
▁швырнул	-11.4578
▁мышления	-11.4579
65	-11.458
цин	-11.4583
▁Коль	-11.4583
▁видать	-11.4583
▁полицию	-11.4585
уг	-11.4586
▁пытаюсь	-11.4588
▁боялись	-11.4588
▁похожее	-11.4591
▁цена	-11.4591
▁Ста	-11.4592
▁аристократ	-11.4593
▁прислал	-11.4593
▁микро	-11.4593
▁мучительно	-11.4594
▁эр	-11.4595
▁собираясь	-11.4595
▁пустые	-11.4597
шаяся	-11.4597
▁тихим	-11.4597
▁ус	-11.4598
▁умирать	-11.4599
▁коробку	-11.4599
▁странной	-11.46
гни	-11.46
▁невозмутимо	-11.46
▁выбран	-11.46
▁женский	-11.4602
▁сложнее	-11.4602
▁умение	-11.4602
▁возмутился	-11.4602
▁облегчение	-11.4603
▁Часто	-11.4604
▁вагон	-11.4605
▁заключен	-11.4606
▁Бед	-11.4607
вард	-11.4607
08	-11.4607
исто	-11.4608
овича	-11.461
▁Страх	-11.461
▁Екатерина	-11.461
▁взором	-11.4611
▁похлопал	-11.4612
▁вклад	-11.4612
▁гостиницы	-11.4616
▁членом	-11.4617
▁1944	-11.4617
льник	-11.4617
нулась	-11.4618
▁рынка	-11.4618
▁шок	-11.4619
▁Тео	-11.462
▁ударила	-11.4621
АР	-11.4624
ква	-11.4624
▁спрыгнул	-11.4625
▁Берлин	-11.4625
▁плевать	-11.4626
▁объяснила	-11.4626
зел	-11.4626
▁Кей	-11.4626
льных	-11.4627
▁песка	-11.4628
▁свободе	-11.4628
▁зоны	-11.4629
▁отдавал	-11.463
▁джентльмен	-11.4632
▁КГБ	-11.4633
▁Вик	-11.4634
▁станешь	-11.4635
▁камнями	-11.4635
кое	-11.4636
гл	-11.4637
▁Мира	-11.4638
▁слой	-11.4639
▁зенит	-11.464
цер	-11.4641
“.	-11.4642
▁неохотно	-11.4642
чкой	-11.4642
▁источников	-11.4643
пада	-11.4644
▁Первой	-11.4644
▁владения	-11.4649
▁хвостом	-11.465
▁свободное	-11.465
▁продаж	-11.4652
шиб	-11.4652
▁появиться	-11.4653
ийский	-11.4653
▁пошёл	-11.4653
▁верный	-11.4654
▁выстрела	-11.4655
▁любимого	-11.4658
▁пуга	-11.4659
гул	-11.4662
▁высшего	-11.4662
▁лба	-11.4663
▁подвод	-11.4663
▁43	-11.4664
▁мод	-11.4665
▁сильной	-11.4666
▁Соня	-11.4666
▁сахара	-11.4667
02	-11.4668
▁рубеж	-11.4669
▁звание	-11.467
ено	-11.4671
▁подтверждение	-11.4673
Си	-11.4673
▁банков	-11.4674
▁клиентов	-11.4674
▁вопросам	-11.4674
▁мятеж	-11.4674
▁Церкви	-11.4678
▁поступок	-11.468
рот	-11.468
ета	-11.4681
ивает	-11.4682
сох	-11.4682
рина	-11.4682
▁перенес	-11.4683
▁Минут	-11.4683
▁помогла	-11.4683
66	-11.4684
ивать	-11.4685
▁ковер	-11.4686
▁приносит	-11.4686
▁убийстве	-11.4686
▁бойцы	-11.4687
клон	-11.4688
▁политике	-11.4688
эк	-11.4688
▁мешать	-11.469
горел	-11.469
▁предпочел	-11.4692
бет	-11.4692
▁Юра	-11.4695
ологии	-11.4696
▁читала	-11.47
граф	-11.4701
▁театре	-11.4701
носить	-11.4702
▁иное	-11.4704
▁элементы	-11.4704
▁задачей	-11.4706
▁Павла	-11.4706
▁подозревал	-11.4706
▁ребенку	-11.4707
▁живы	-11.4708
▁бежит	-11.4708
кала	-11.471
▁интересное	-11.4711
бывал	-11.4712
▁драться	-11.4712
▁Владимира	-11.4713
лился	-11.4714
▁Вика	-11.4715
лые	-11.4716
▁бунт	-11.4717
скор	-11.4717
74	-11.4717
▁Мет	-11.4718
▁базу	-11.4718
56	-11.4718
▁строительства	-11.4719
▁соединя	-11.4719
шить	-11.4719
▁брон	-11.472
▁Двадцать	-11.4721
лета	-11.4721
боя	-11.4724
▁лип	-11.4725
▁Смит	-11.4726
ича	-11.4728
▁отмахнулся	-11.4728
▁связана	-11.4728
▁карандаш	-11.4731
▁Обе	-11.4732
▁несчастный	-11.4733
▁41	-11.4734
▁вяло	-11.4734
▁рубашки	-11.4735
▁охоту	-11.4736
▁хорошую	-11.4738
полз	-11.4738
▁вызвало	-11.474
▁молнии	-11.474
▁человеческие	-11.4741
емое	-11.4741
▁дяди	-11.4741
▁стадии	-11.4741
анов	-11.4742
оры	-11.4742
▁вступить	-11.4743
▁чудовищ	-11.4745
▁произнести	-11.4746
▁пустил	-11.4748
▁общин	-11.4748
анна	-11.4749
▁Мэтью	-11.475
▁текста	-11.4752
▁ан	-11.4753
▁Марта	-11.4754
▁прыгнул	-11.4756
▁Спас	-11.4756
▁статья	-11.4756
ствовал	-11.4758
▁проведения	-11.4759
▁Услышав	-11.476
▁ощутила	-11.4762
▁обвинения	-11.4762
лова	-11.4762
▁отчаяние	-11.4763
▁знаменитый	-11.4764
▁пишу	-11.4766
▁ударить	-11.4767
▁маленькое	-11.4768
▁наполнил	-11.4768
▁близости	-11.4769
▁Жак	-11.477
▁оставшиеся	-11.4772
▁отстал	-11.4773
▁прекрасной	-11.4773
тащить	-11.4773
мета	-11.4773
▁интеллигент	-11.4776
▁мм	-11.4778
▁велика	-11.4779
▁упасть	-11.478
▁представлен	-11.4781
▁пробежал	-11.4782
▁вторым	-11.4784
чай	-11.4784
▁дер	-11.4785
▁Вес	-11.4785
нике	-11.4786
▁свободной	-11.4787
▁рану	-11.4787
▁наблюдала	-11.479
▁вынес	-11.4792
▁смел	-11.4794
▁грузовик	-11.4794
льд	-11.4796
▁нанес	-11.4796
▁лучшем	-11.4799
▁запястье	-11.4801
ИН	-11.4801
▁бел	-11.4804
▁Ночь	-11.4805
елей	-11.4805
▁выругался	-11.4806
▁упражнения	-11.4806
▁местами	-11.481
етт	-11.481
▁имен	-11.4811
▁скажете	-11.4813
▁творится	-11.4813
▁шнур	-11.4813
▁специалист	-11.4814
скорб	-11.4814
ьей	-11.4814
▁структуры	-11.4815
▁рукам	-11.4816
▁кинулся	-11.4818
▁зачастую	-11.4818
▁пожелал	-11.4818
▁совместно	-11.4819
▁парт	-11.4819
гой	-11.4819
▁забывать	-11.482
▁сделаем	-11.4821
▁ветки	-11.4823
▁ложе	-11.4823
▁извини	-11.4824
▁среды	-11.4824
▁вождь	-11.4824
▁заплатить	-11.4824
сли	-11.4826
96	-11.4827
▁ружье	-11.4828
-3	-11.4828
▁светлые	-11.4829
▁сбежал	-11.483
истым	-11.483
▁сынок	-11.4833
▁пациент	-11.4833
▁круги	-11.4834
▁Зи	-11.4834
▁запустил	-11.4834
▁свежий	-11.4835
ичный	-11.4836
▁вручил	-11.4836
▁задумал	-11.484
сор	-11.4841
▁горяч	-11.4841
▁Какого	-11.4843
94	-11.4844
чан	-11.4845
▁мужики	-11.4845
▁спокойной	-11.4846
▁настроении	-11.4847
▁сборник	-11.4848
▁землян	-11.4848
▁ставит	-11.4848
▁пытаться	-11.4849
▁тьма	-11.4849
▁вопросами	-11.485
▁задавать	-11.485
▁Джин	-11.4852
двига	-11.4853
▁Дин	-11.4855
▁Ильич	-11.4857
▁встречаются	-11.4857
▁окруж	-11.4858
98	-11.4859
▁демона	-11.4862
▁народом	-11.4862
▁Большая	-11.4864
вшемуся	-11.4867
▁снимать	-11.4869
ложен	-11.4869
▁фашист	-11.4872
▁сопротивления	-11.4874
▁считаете	-11.4875
▁коммунист	-11.4876
▁показывать	-11.4877
52	-11.4878
▁вздохом	-11.4878
грамм	-11.4879
▁Яр	-11.4883
вернув	-11.4883
▁Хай	-11.4883
▁44	-11.4883
▁отверстие	-11.4883
▁полезно	-11.4885
ЛА	-11.4885
▁короткое	-11.4885
▁революция	-11.4886
▁начинали	-11.4887
▁одева	-11.4888
▁поту	-11.489
▁назвали	-11.4891
▁VI	-11.4892
Та	-11.4892
Ст	-11.4892
▁планету	-11.4895
▁взрослых	-11.4895
▁беды	-11.4897
▁государственных	-11.4897
▁Дже	-11.4898
▁становилась	-11.4899
▁Зак	-11.4901
▁языки	-11.4902
кладывая	-11.4903
▁отряды	-11.4903
ступление	-11.4904
▁слушая	-11.4906
▁Сашка	-11.4908
▁сумели	-11.4909
▁Ир	-11.4909
▁аппетит	-11.491
работа	-11.4912
▁свыше	-11.4913
▁вооруженных	-11.4914
▁сильных	-11.4914
меча	-11.4915
абель	-11.4916
▁высокую	-11.492
▁зараз	-11.4921
▁посту	-11.4921
▁поняв	-11.4922
▁лишних	-11.4924
▁нахмурилась	-11.4925
▁борода	-11.4926
▁отнес	-11.4926
▁наступила	-11.4928
▁писателей	-11.4929
▁приема	-11.4931
▁полит	-11.4931
шат	-11.4932
▁необычайно	-11.4932
▁черное	-11.4933
эд	-11.4934
▁морских	-11.4934
▁сирот	-11.4935
▁желании	-11.4936
▁аппарата	-11.4937
▁дальнем	-11.4937
▁чертов	-11.4938
Ла	-11.494
жек	-11.4941
▁решений	-11.4942
▁Але	-11.4942
▁счету	-11.4942
▁штурм	-11.4944
▁вершины	-11.4946
щики	-11.4946
▁ожидает	-11.4947
▁приходить	-11.4948
шли	-11.4949
▁нападение	-11.4949
▁отдавать	-11.4951
▁Начальник	-11.4951
ушку	-11.4952
▁простого	-11.4953
▁находил	-11.4953
▁остальными	-11.4953
▁велико	-11.4953
шками	-11.4954
▁оглядываясь	-11.4954
▁рек	-11.4955
▁пришёл	-11.4955
▁посетителей	-11.4956
▁Бек	-11.4957
▁отличался	-11.4959
▁пирамид	-11.496
▁Одновременно	-11.4961
▁сыт	-11.4963
▁сообщает	-11.4963
▁родителям	-11.4963
▁занимал	-11.4964
▁сумма	-11.4965
▁серо	-11.4966
нется	-11.4966
▁кружку	-11.4967
2.	-11.4967
▁женщинами	-11.4968
бегает	-11.4969
▁тишину	-11.4974
▁версии	-11.4978
▁отвести	-11.4978
37	-11.4978
▁Люд	-11.4978
монт	-11.4979
▁арестован	-11.498
▁теплой	-11.498
▁привезли	-11.498
аса	-11.4981
▁альбом	-11.4981
▁необходимым	-11.4981
▁гном	-11.4984
▁развитии	-11.4985
ене	-11.4987
▁КПСС	-11.4987
▁понравилась	-11.4989
тягивая	-11.4991
▁борта	-11.4991
▁состоял	-11.4992
рач	-11.4993
▁участке	-11.4994
85	-11.4996
▁Михаила	-11.4996
▁фургон	-11.4997
▁Майор	-11.4997
▁союзников	-11.4997
▁салон	-11.4998
▁Такого	-11.4998
▁грозно	-11.4998
▁окружении	-11.4999
68	-11.4999
▁Голуб	-11.5002
78	-11.5004
▁обречен	-11.5004
▁местной	-11.5004
▁политику	-11.5012
▁пропасть	-11.5012
▁градусов	-11.5012
▁красными	-11.5012
анная	-11.5014
▁аргумент	-11.5015
▁балкон	-11.5018
▁обсуждали	-11.5018
АЛ	-11.5019
▁лабиринт	-11.5019
▁счастлива	-11.502
▁1940	-11.502
ec	-11.502
▁статье	-11.502
▁покосился	-11.502
▁взлет	-11.5021
ере	-11.5021
фт	-11.5021
▁следствие	-11.5023
эс	-11.5025
▁1945	-11.5026
▁простить	-11.5026
▁лож	-11.5026
елла	-11.5027
99	-11.5027
няк	-11.5028
▁врачи	-11.5028
▁Карла	-11.5028
чие	-11.5031
гружен	-11.5031
▁Иосиф	-11.5031
▁перенос	-11.5032
▁Стан	-11.5033
▁убеди	-11.5033
▁несчастье	-11.5035
▁Фред	-11.5037
▁Ци	-11.5038
весел	-11.5039
▁фотографию	-11.5039
▁запросто	-11.5039
▁увидите	-11.5039
▁памятник	-11.5041
▁моменту	-11.5042
▁мощный	-11.5042
▁фундамент	-11.5043
▁мозгу	-11.5044
▁Хелен	-11.5044
▁принимали	-11.5045
▁покорно	-11.5046
▁четвертый	-11.5046
▁Северной	-11.5047
▁рассказывали	-11.5049
▁производил	-11.505
▁осуществить	-11.505
▁страниц	-11.5051
▁начав	-11.5053
▁местность	-11.5053
▁сильного	-11.5053
▁ближайшие	-11.5054
▁умирает	-11.5058
▁комфорт	-11.5058
▁браслет	-11.506
▁звать	-11.5063
▁начальником	-11.5063
▁придут	-11.5064
▁прожил	-11.5065
▁зеркала	-11.5066
▁n	-11.5067
▁Перси	-11.5068
▁безумно	-11.5068
▁кадров	-11.5069
▁обнажен	-11.5069
▁любому	-11.5071
▁движений	-11.5072
бург	-11.5073
▁известного	-11.5073
▁начальство	-11.5074
▁обучение	-11.5074
▁обидно	-11.5074
▁заключения	-11.5074
▁читатель	-11.5074
▁особым	-11.5074
▁каприз	-11.5074
▁санитар	-11.5075
▁выпрямился	-11.5076
▁Сор	-11.5077
▁лишним	-11.5077
нял	-11.5079
▁велосипед	-11.508
▁Гуд	-11.5081
▁Твои	-11.5081
▁изменение	-11.5081
▁испытывать	-11.5081
▁шофер	-11.5083
▁вытащить	-11.5083
кла	-11.5084
▁классе	-11.5086
▁узкой	-11.5089
▁угроза	-11.509
86	-11.509
▁волнение	-11.5091
▁прилив	-11.5091
▁сохрани	-11.5091
ностей	-11.5092
▁Наверно	-11.5093
▁гол	-11.5095
62	-11.5095
▁периодически	-11.5097
▁разошлись	-11.5097
▁уроки	-11.5098
▁роты	-11.51
▁подразделения	-11.5101
существ	-11.5103
▁покраснел	-11.5104
▁немецкие	-11.5105
▁магазине	-11.5107
▁категорически	-11.5108
67	-11.5108
▁Вор	-11.5109
▁град	-11.511
▁сосредоточен	-11.511
Из	-11.5112
▁терял	-11.5112
▁Чай	-11.5112
▁мощь	-11.5112
тый	-11.5113
▁воздействие	-11.5114
▁большего	-11.5115
руга	-11.5116
▁приду	-11.5117
ико	-11.5119
▁Джонни	-11.5119
▁шест	-11.512
док	-11.5121
ложить	-11.5121
▁аспект	-11.5121
▁жу	-11.5122
ившихся	-11.5122
▁взглядов	-11.5123
▁описал	-11.5127
тельной	-11.5127
▁пережить	-11.513
▁чаю	-11.5131
кажу	-11.5131
▁просвет	-11.5131
88	-11.5135
▁поддержал	-11.5135
ходим	-11.5136
▁подобие	-11.5136
▁некромант	-11.5137
▁змей	-11.5138
▁познания	-11.514
▁тракт	-11.5141
▁сдержать	-11.5142
▁играла	-11.5142
▁кинул	-11.5143
▁Пат	-11.5143
▁коры	-11.5144
▁тревога	-11.5145
валь	-11.5146
▁ледяной	-11.5147
▁буд	-11.5147
▁заставляя	-11.5147
▁культ	-11.5148
X	-11.5149
▁составить	-11.515
спеш	-11.515
▁заброшен	-11.5152
▁долгих	-11.5152
▁Стефан	-11.5153
▁Глядя	-11.5154
▁господ	-11.5154
▁имущество	-11.5155
▁сломал	-11.5155
41	-11.5156
▁горизонт	-11.5157
▁Брон	-11.5157
▁хозяйство	-11.5158
евые	-11.5159
▁похвал	-11.5159
▁посетил	-11.516
▁отража	-11.516
▁исходя	-11.5161
ада	-11.5162
ийского	-11.5162
▁шансы	-11.5163
▁Жуков	-11.5163
▁уважением	-11.5163
нина	-11.5163
▁понедельник	-11.5164
ающая	-11.5165
▁разобрать	-11.5165
▁вскочила	-11.5166
▁Наполеон	-11.5166
▁Бра	-11.5168
▁девочек	-11.5169
▁бухгалтер	-11.517
▁расширя	-11.517
▁исполнение	-11.5171
▁любопытно	-11.5171
▁вечность	-11.5173
34	-11.5173
▁торговли	-11.5175
▁прочесть	-11.5177
ранж	-11.5179
▁отчаянии	-11.518
▁исчезло	-11.5182
▁цифры	-11.5183
див	-11.5184
▁пойдут	-11.5184
▁уста	-11.5186
▁принимая	-11.5188
Ар	-11.5189
▁очередную	-11.519
▁ухода	-11.519
▁шал	-11.519
▁мальчишки	-11.5191
▁ЗА	-11.5191
▁47	-11.5193
▁позвонила	-11.5194
▁псих	-11.5196
and	-11.5197
▁мелочи	-11.5198
▁взвод	-11.5199
▁паузы	-11.5199
▁Туда	-11.5201
жав	-11.5201
▁чувствуешь	-11.5201
▁восемьдесят	-11.5202
▁артиллерии	-11.5203
▁Мэтт	-11.5203
▁длинным	-11.5205
▁изображен	-11.5206
▁спутник	-11.5207
▁вырвался	-11.5209
▁Степ	-11.5209
▁кричали	-11.5209
▁доски	-11.521
▁черед	-11.521
лилась	-11.521
▁чистый	-11.5211
▁подарил	-11.5212
▁возникли	-11.5212
▁красных	-11.5212
мак	-11.5214
▁направлению	-11.5214
▁мамой	-11.5215
▁прочитать	-11.5216
гли	-11.5217
▁Возле	-11.5217
▁Рез	-11.5219
▁законам	-11.522
▁реже	-11.522
▁отказа	-11.5221
чел	-11.5222
▁товаров	-11.5223
▁толстый	-11.5223
▁известной	-11.5224
▁непро	-11.5224
▁Китае	-11.5224
нен	-11.5225
▁печать	-11.5226
▁проводили	-11.5228
▁решено	-11.523
▁открывая	-11.5231
▁канон	-11.5233
▁реальной	-11.5233
актив	-11.5233
▁скрыт	-11.5234
▁предела	-11.5235
▁упрям	-11.5236
▁парламент	-11.524
▁предпринять	-11.524
пет	-11.524
▁шу	-11.5241
▁Леон	-11.5241
▁родилась	-11.5245
▁терпение	-11.5245
97	-11.5245
летней	-11.5246
▁звонка	-11.5248
евым	-11.5248
▁разбудил	-11.5248
▁белое	-11.5249
эконом	-11.5249
▁святых	-11.5251
▁сезон	-11.5251
▁ближайшее	-11.5253
▁пятнадцати	-11.5253
ителем	-11.5254
сло	-11.5255
87	-11.5256
оре	-11.5257
▁привыкла	-11.5257
▁Драко	-11.5257
брать	-11.5257
▁публично	-11.5259
иде	-11.5261
▁пишут	-11.5262
▁очередного	-11.5262
ийских	-11.5263
▁щель	-11.5265
▁деталь	-11.5266
ати	-11.527
▁Последнее	-11.527
▁перец	-11.527
▁всякую	-11.527
▁трудов	-11.5271
▁личный	-11.5271
▁манер	-11.5272
▁воротам	-11.5273
ТА	-11.5274
▁ошибок	-11.5275
▁дивизия	-11.5276
бирает	-11.5277
▁нелепо	-11.5277
▁брака	-11.5279
▁слышишь	-11.528
▁Вижу	-11.5282
▁осени	-11.5282
▁Кин	-11.5283
▁сбежать	-11.5286
▁покои	-11.5286
▁сосредоточиться	-11.5287
кладывать	-11.529
▁ботинки	-11.529
▁побежали	-11.529
▁Сюда	-11.5291
▁изучал	-11.5292
▁лидер	-11.5293
ившего	-11.5294
▁общение	-11.5295
▁Пушкина	-11.5296
Хо	-11.5296
▁старости	-11.5298
▁личные	-11.5299
▁Сила	-11.5302
▁поднимался	-11.5302
вый	-11.5303
▁лихо	-11.5303
▁аналог	-11.5304
op	-11.5304
▁немецкой	-11.5305
▁богатства	-11.5308
▁утверждать	-11.531
▁природу	-11.5312
▁крыльями	-11.5312
▁сирен	-11.5313
яет	-11.5314
▁Стро	-11.5314
▁Остров	-11.5314
кром	-11.5315
▁шп	-11.5316
▁Сп	-11.5318
▁Хэ	-11.5319
▁зоне	-11.5319
жка	-11.5321
▁отбросил	-11.5324
▁1991	-11.5326
▁понят	-11.5326
▁подле	-11.5328
▁родственники	-11.5329
▁сосуд	-11.5335
тана	-11.5335
▁первоначально	-11.5335
▁купе	-11.5336
▁Давид	-11.5339
▁пуля	-11.5339
▁св	-11.5342
▁слав	-11.5343
▁Вася	-11.5344
▁7.	-11.5344
▁хи	-11.5345
▁необходимое	-11.5345
▁маз	-11.5345
▁уважения	-11.5347
▁найдут	-11.5347
▁рычаг	-11.5351
▁приказы	-11.5351
▁надеть	-11.5352
▁действ	-11.5352
▁футбол	-11.5352
покой	-11.5352
▁привычка	-11.5353
▁пистолета	-11.5355
▁выбрался	-11.5355
▁вставил	-11.5356
▁Патрик	-11.5358
▁предложен	-11.5358
▁маркиз	-11.5359
▁Пет	-11.5359
▁Лер	-11.5359
▁t	-11.536
▁роду	-11.536
▁залив	-11.5361
йд	-11.5362
▁3)	-11.5364
▁фонтан	-11.5365
▁дышал	-11.5366
врат	-11.5366
▁мыслях	-11.5366
▁поисков	-11.5367
метр	-11.537
▁красоту	-11.5371
▁глав	-11.5371
▁луны	-11.5371
▁максимум	-11.5372
▁произведение	-11.5372
▁Феликс	-11.5374
▁самолеты	-11.5374
▁застал	-11.5376
▁раздражение	-11.5376
▁дву	-11.5376
▁проводит	-11.5376
▁расследование	-11.5377
▁трижды	-11.5377
▁Святой	-11.5378
▁верст	-11.5382
▁устроили	-11.5382
▁катер	-11.5382
▁горит	-11.5383
▁бомбы	-11.5384
▁животного	-11.5384
▁ранга	-11.5384
▁танец	-11.5384
нн	-11.5385
▁хозяином	-11.5385
▁уютно	-11.5385
▁жертвой	-11.5387
ласт	-11.5388
▁строки	-11.5388
лд	-11.5389
ходишь	-11.5389
▁Ари	-11.539
▁полку	-11.539
▁науке	-11.5392
▁трупы	-11.5393
▁вероятность	-11.5395
▁спуска	-11.5395
▁полные	-11.5398
▁убежище	-11.5399
▁дыхания	-11.5399
ющимися	-11.54
▁Мэгги	-11.5401
олов	-11.5402
ною	-11.5402
▁бешено	-11.5403
▁узел	-11.5403
▁клин	-11.5406
ывали	-11.5406
▁богатство	-11.5408
атель	-11.5408
▁Кост	-11.5408
▁голубые	-11.5409
▁дошел	-11.5409
▁Робин	-11.5409
ill	-11.541
телен	-11.541
▁свидетельствует	-11.541
теп	-11.5413
▁издали	-11.5413
крашен	-11.5414
▁огромными	-11.5415
▁снегом	-11.5416
▁размер	-11.5416
▁простите	-11.5417
▁странного	-11.5418
▁Солнца	-11.5418
▁зиму	-11.5418
▁умы	-11.5418
▁бре	-11.5419
▁бат	-11.5419
▁шансов	-11.542
▁определение	-11.542
кинуть	-11.5421
▁Хотите	-11.5421
▁песен	-11.5422
▁комплект	-11.5423
▁болит	-11.5423
▁сапог	-11.5426
▁Роланд	-11.5427
рид	-11.5427
рт	-11.5428
▁кормить	-11.5429
▁переговоров	-11.543
▁творчества	-11.543
▁разглядел	-11.5431
▁Книга	-11.5432
▁длинных	-11.5434
▁находит	-11.5435
▁славы	-11.5437
▁часами	-11.5438
▁Дядя	-11.544
▁громким	-11.5441
▁доказательств	-11.5441
▁Баз	-11.5441
▁Мен	-11.5441
▁Ch	-11.5442
▁Михайлов	-11.5447
▁Словом	-11.5447
▁парашют	-11.5447
ОВ	-11.5447
ану	-11.5448
▁собрания	-11.5449
▁просьбой	-11.5449
▁Эк	-11.5449
▁зим	-11.5449
ce	-11.5449
▁Луна	-11.545
дис	-11.5451
▁виднелись	-11.5451
▁приняв	-11.5453
▁XVI	-11.5455
▁французского	-11.5457
▁Сир	-11.5459
Мо	-11.546
рил	-11.5461
▁хрен	-11.5461
поро	-11.5463
▁валя	-11.5464
▁изменений	-11.5465
▁стремится	-11.5467
▁писали	-11.5467
▁облако	-11.5469
▁играют	-11.547
▁Добрый	-11.5471
▁лыс	-11.5472
Ли	-11.5474
дева	-11.5475
▁бюро	-11.5475
▁научно	-11.5477
▁живем	-11.5477
▁финал	-11.5478
▁бумаг	-11.548
▁прелест	-11.5484
▁Й	-11.5485
▁содержания	-11.5486
ийской	-11.5487
▁Мужчины	-11.5488
▁вниманием	-11.5488
етта	-11.5489
▁обид	-11.549
▁некоторой	-11.549
▁учил	-11.5491
▁Ана	-11.5491
▁руга	-11.5491
▁гуля	-11.5493
▁видение	-11.5493
▁родину	-11.5493
▁созна	-11.5495
▁робот	-11.5496
▁клуба	-11.5497
▁обзор	-11.5498
▁плоды	-11.5498
хай	-11.5499
▁милости	-11.5499
▁прогресс	-11.5499
▁юге	-11.5502
▁будьте	-11.5503
дже	-11.5503
есс	-11.5504
▁опасаясь	-11.5504
▁смесь	-11.5504
▁строк	-11.5505
▁энергично	-11.5505
▁Рот	-11.5506
▁англичан	-11.5506
▁Рам	-11.5507
▁поцеловала	-11.5509
давались	-11.551
▁тема	-11.5512
тти	-11.5512
▁сходить	-11.5513
▁порога	-11.5517
▁чу	-11.5517
▁напасть	-11.5518
▁Вир	-11.5518
▁планета	-11.5518
▁приведет	-11.5521
▁довелось	-11.5523
▁тщетно	-11.5523
▁полосы	-11.5523
▁снят	-11.5523
▁комсомол	-11.5526
▁увижу	-11.5526
▁запер	-11.5527
▁предположения	-11.5527
▁фыркнула	-11.5528
▁успокоиться	-11.553
▁середины	-11.5531
▁подполковник	-11.5532
▁мае	-11.5532
▁хаос	-11.5534
▁русская	-11.5535
▁возможных	-11.5535
▁воров	-11.5535
▁Джен	-11.5535
▁сжала	-11.5538
▁бандит	-11.5539
▁фокус	-11.5539
▁удержаться	-11.554
▁ведро	-11.5542
▁хода	-11.5543
▁Верховного	-11.5543
▁Поль	-11.5543
▁недоуменно	-11.5543
полит	-11.5544
▁слабости	-11.5544
ковский	-11.5544
93	-11.5545
▁создает	-11.5545
▁уехала	-11.5545
▁4-	-11.555
▁Посмотри	-11.5551
▁рассвете	-11.5552
▁произвести	-11.5554
инь	-11.5554
▁оценки	-11.5555
▁Тир	-11.556
тический	-11.5561
▁Ярослав	-11.5563
▁холл	-11.5563
▁наставник	-11.5564
▁меняется	-11.5564
▁большому	-11.5564
▁библиотеке	-11.5568
▁46	-11.5568
▁превратились	-11.5568
▁зеркале	-11.5568
▁куча	-11.5571
▁юноши	-11.5572
▁заняли	-11.5572
▁великое	-11.5573
▁быстрый	-11.5573
▁использование	-11.5574
▁хранить	-11.5574
▁разработан	-11.5574
▁метр	-11.5575
▁границ	-11.5575
▁Право	-11.5576
▁руководителя	-11.5577
Ме	-11.5578
зия	-11.5579
гард	-11.5579
▁камере	-11.558
▁высших	-11.558
▁провинции	-11.558
сот	-11.5582
▁свеч	-11.5582
▁мам	-11.5584
▁ряду	-11.5586
гур	-11.5587
▁Стоя	-11.5588
▁посмотрев	-11.5589
▁стремился	-11.559
59	-11.5591
нские	-11.5591
▁попало	-11.5591
▁брит	-11.5591
овских	-11.5591
даль	-11.5592
▁наличии	-11.5592
▁шарик	-11.5592
▁почтительно	-11.5593
голос	-11.5594
▁ор	-11.5595
пек	-11.5597
дой	-11.5597
▁Ден	-11.5599
▁округ	-11.5599
▁Ленинград	-11.5599
▁довести	-11.56
▁изменилась	-11.5601
▁острый	-11.5601
▁цветок	-11.5602
▁Бан	-11.5602
▁слушает	-11.5603
▁определенной	-11.5603
▁гражданин	-11.5604
▁счастливой	-11.5606
▁молчит	-11.5609
▁грандиоз	-11.561
▁степи	-11.5613
ирован	-11.5613
▁белую	-11.5614
▁яркие	-11.5615
мм	-11.5616
щийся	-11.5616
▁тяжко	-11.5616
▁ожидали	-11.5617
95	-11.5618
▁шутки	-11.5619
аясь	-11.5619
▁коне	-11.562
▁склону	-11.562
▁прах	-11.5621
▁племянник	-11.5621
▁зол	-11.5621
▁обиды	-11.5622
▁спрятаться	-11.5622
▁бул	-11.5623
▁тайно	-11.5624
▁скользнул	-11.5625
▁тягот	-11.5627
▁экземпляр	-11.5627
▁шутка	-11.5627
▁серьезное	-11.5628
▁рисунок	-11.5628
▁острые	-11.5629
Ис	-11.5631
▁бесплатно	-11.5631
▁свидание	-11.5631
63	-11.5633
▁язв	-11.5633
▁Валь	-11.5634
▁заснул	-11.5634
▁хороших	-11.5635
▁крейсер	-11.5636
овод	-11.5637
▁ищут	-11.5637
▁Позвольте	-11.5639
▁яркий	-11.5639
▁прокричал	-11.564
▁согласны	-11.564
▁ставил	-11.5642
▁крут	-11.5642
▁посмотрели	-11.5642
крутил	-11.5642
▁современного	-11.5643
▁взмахнул	-11.5644
▁блюда	-11.5645
▁мужика	-11.5645
▁подругу	-11.5646
рап	-11.5648
лена	-11.5648
пустив	-11.5649
▁расходы	-11.565
▁лежало	-11.565
тягивал	-11.5652
▁легкостью	-11.5652
▁политические	-11.5653
▁средней	-11.5655
▁дрожа	-11.5656
▁волч	-11.5656
▁улыбалась	-11.5656
▁застыла	-11.5657
▁горизонта	-11.566
люби	-11.566
▁шторм	-11.566
▁неверно	-11.566
72	-11.5661
▁New	-11.5662
елем	-11.5663
▁безопасность	-11.5663
▁нижней	-11.5664
▁долгий	-11.5664
▁кустов	-11.5664
▁схватить	-11.5666
▁обратном	-11.5666
▁запрещен	-11.5666
▁мигом	-11.5667
▁закону	-11.567
▁танка	-11.567
▁испытание	-11.5671
кажет	-11.5673
оваться	-11.5673
▁рады	-11.5677
▁немецкого	-11.5677
▁захвачен	-11.5679
▁пустую	-11.568
▁научных	-11.5681
▁помогут	-11.5682
▁Сент	-11.5682
▁батальона	-11.5684
друг	-11.5685
▁покупать	-11.5686
▁сведений	-11.5686
▁уходили	-11.5687
▁зад	-11.5688
▁бросили	-11.569
▁проявил	-11.569
читал	-11.5691
бон	-11.5692
▁пожалел	-11.5693
▁ребра	-11.5696
▁жертва	-11.5696
▁оригинал	-11.5696
▁шаман	-11.5696
▁рукава	-11.5697
▁сражение	-11.5697
▁рога	-11.57
▁закурил	-11.5701
▁Зло	-11.5701
кладывает	-11.5701
▁владел	-11.5702
▁срока	-11.5704
ары	-11.5707
▁способы	-11.5707
▁безум	-11.5711
▁описать	-11.5713
▁Небес	-11.5713
▁пролив	-11.5715
▁поесть	-11.5716
▁вирус	-11.5717
▁кончится	-11.5719
▁понемногу	-11.5719
▁пользы	-11.5719
▁испытывает	-11.572
▁старается	-11.5721
▁родитель	-11.5722
▁прочее	-11.5722
▁вспоминает	-11.5723
▁болта	-11.5727
▁Погоди	-11.5727
▁глухой	-11.5728
▁Мей	-11.5729
валились	-11.5729
▁Поначалу	-11.573
енка	-11.573
▁наследник	-11.5731
фар	-11.5732
79	-11.5732
77	-11.5732
▁смену	-11.5732
▁исполнен	-11.5733
▁цилиндр	-11.5734
изу	-11.5734
▁Мысли	-11.5734
рр	-11.5734
джер	-11.5734
кли	-11.5735
гонять	-11.5736
тельным	-11.5736
народ	-11.5737
▁каса	-11.5737
пур	-11.5738
аций	-11.574
▁наблюдатель	-11.574
арт	-11.5741
▁анализа	-11.5741
▁голубой	-11.5742
сок	-11.5744
ящей	-11.5744
▁подходил	-11.5744
▁предмета	-11.5745
▁страшной	-11.5746
▁действовал	-11.5747
[7	-11.5747
▁личное	-11.575
▁табурет	-11.575
▁долга	-11.575
▁распахнулась	-11.575
▁тьмы	-11.5751
▁Бол	-11.5752
▁пружин	-11.5752
▁облач	-11.5756
▁хлопот	-11.5756
▁обоим	-11.5758
▁поступки	-11.5758
▁развед	-11.5759
▁заработал	-11.576
тас	-11.576
▁сумела	-11.5761
▁заботы	-11.5762
▁затих	-11.5762
▁Барон	-11.5763
▁Ход	-11.5763
▁благ	-11.5765
▁маску	-11.5766
▁спирт	-11.5766
▁бояр	-11.5767
нга	-11.5767
юще	-11.5767
▁музей	-11.5768
▁Плохо	-11.5768
▁установки	-11.5768
▁истину	-11.5768
▁редактор	-11.5769
▁энергией	-11.577
нцы	-11.5772
▁серый	-11.5774
▁бережно	-11.5775
шт	-11.5776
▁Твое	-11.5778
▁Симон	-11.5778
▁полдень	-11.5778
▁Павлов	-11.5779
▁американской	-11.5779
▁располага	-11.5779
▁любим	-11.578
▁размера	-11.5782
▁языков	-11.5783
▁погладил	-11.5783
▁заболевания	-11.5784
▁составлен	-11.5784
▁Пит	-11.5785
▁Конрад	-11.5785
▁мяс	-11.5785
▁собира	-11.5785
▁проверил	-11.5786
▁серьезный	-11.5787
пить	-11.5788
▁Вернувшись	-11.5789
▁хол	-11.579
сю	-11.5791
▁Юля	-11.5791
▁Георгий	-11.5791
▁незнакомец	-11.5792
мара	-11.5792
▁тревогу	-11.5793
▁налил	-11.5793
ставим	-11.5793
▁преимущественно	-11.5795
открыт	-11.5795
▁полицейских	-11.5796
▁обморок	-11.5796
▁краски	-11.5796
▁пиджак	-11.5798
тереть	-11.5798
▁помнила	-11.5798
▁каменной	-11.5798
▁информацией	-11.5799
▁насыщен	-11.58
▁дорогие	-11.5801
▁поднимаясь	-11.5802
▁молодец	-11.5804
▁выслушал	-11.5805
▁опытом	-11.5805
▁повторяю	-11.5806
▁приходило	-11.5806
▁прочно	-11.5808
▁варианты	-11.5808
▁микрофон	-11.5809
▁Лейтенант	-11.581
▁дождем	-11.581
▁Дел	-11.581
▁открывает	-11.5811
щелк	-11.5811
▁состояла	-11.5812
▁сбоку	-11.5813
▁мешало	-11.5814
▁приятеля	-11.5815
▁виновато	-11.5816
ьтесь	-11.5816
▁губернатор	-11.5817
▁находясь	-11.5818
▁железа	-11.5821
▁заставив	-11.5821
▁поддержать	-11.5823
▁ответили	-11.5823
▁исполня	-11.5826
▁туч	-11.5826
виз	-11.5827
▁бле	-11.5828
▁больницы	-11.5829
бей	-11.583
▁убедительно	-11.5831
▁притом	-11.5831
▁отверг	-11.5833
▁тяжелое	-11.5834
▁хозяев	-11.5834
мил	-11.5835
▁мел	-11.5836
▁температура	-11.5837
▁интересах	-11.5837
правил	-11.5838
▁гар	-11.5838
▁спуститься	-11.5839
желт	-11.5839
чо	-11.584
▁личных	-11.5841
▁Росс	-11.5841
жела	-11.5842
▁Стоило	-11.5842
▁сняли	-11.5843
▁худ	-11.5843
рика	-11.5843
▁издал	-11.5843
▁вытянул	-11.5844
▁удержался	-11.5845
▁копыт	-11.5845
▁народы	-11.5847
▁привычно	-11.5847
▁известие	-11.5849
лёт	-11.585
▁Рак	-11.585
▁жалобно	-11.5851
▁склонился	-11.5851
▁переживания	-11.5854
меть	-11.5854
▁говорим	-11.5855
ёс	-11.5855
кей	-11.5858
ировала	-11.5859
▁прибыль	-11.5859
▁короткой	-11.586
▁Десять	-11.5861
▁ежели	-11.5862
▁очаг	-11.5862
▁охота	-11.5862
▁сочета	-11.5862
▁основу	-11.5863
▁пропустить	-11.5865
▁Дет	-11.5866
est	-11.5867
▁подобный	-11.5869
▁эфир	-11.587
▁патруль	-11.5873
▁техника	-11.5876
▁гидро	-11.5877
нож	-11.5878
▁согре	-11.5879
▁точке	-11.5879
▁утверждение	-11.5879
▁режиссер	-11.5881
▁бегом	-11.5883
дз	-11.5883
▁яйцо	-11.5884
ывает	-11.5884
▁несу	-11.5887
▁Германия	-11.5887
▁Эльф	-11.5888
64	-11.5888
▁St	-11.5889
▁хозяину	-11.5889
дат	-11.5889
▁арбалет	-11.589
нских	-11.5891
57	-11.5891
▁представляли	-11.5891
тора	-11.5891
▁женщинам	-11.5892
▁процессы	-11.5893
▁условно	-11.5894
▁знакомство	-11.5896
тым	-11.5897
человечески	-11.5898
▁горячий	-11.5899
▁присутствия	-11.59
▁оторвал	-11.5901
▁упоминал	-11.5901
▁49	-11.5903
▁девяносто	-11.5904
▁опасения	-11.5906
аков	-11.5907
▁Западной	-11.5907
▁Хал	-11.5908
▁Куб	-11.5909
▁спутников	-11.591
▁изображения	-11.591
▁свар	-11.5911
▁частенько	-11.5911
тии	-11.5913
▁широким	-11.5917
▁прокурор	-11.5917
▁родных	-11.5917
цо	-11.592
▁операций	-11.5921
▁суде	-11.5921
▁выгодно	-11.5922
▁XVII	-11.5922
▁приходила	-11.5922
ватый	-11.5922
▁человеческое	-11.5923
▁Война	-11.5924
▁криком	-11.5926
▁изд	-11.5926
▁Никак	-11.5927
▁Мысль	-11.593
▁Небо	-11.593
▁газов	-11.5931
▁убийцы	-11.5932
▁очистить	-11.5932
▁падал	-11.5933
ant	-11.5936
▁рассуждения	-11.5936
▁Сей	-11.5936
▁Виктория	-11.5936
▁акцент	-11.5936
▁резкий	-11.5937
▁познакомился	-11.5937
дд	-11.5937
▁Миш	-11.5939
▁практики	-11.594
▁камин	-11.594
тру	-11.5942
▁што	-11.5942
▁движется	-11.5943
▁увлека	-11.5943
▁образу	-11.5944
▁нагло	-11.5945
▁скуп	-11.5947
▁лампы	-11.5948
▁Послушайте	-11.5949
тяг	-11.595
▁Альберт	-11.5952
▁возвращались	-11.5954
▁позволили	-11.5954
вери	-11.5955
▁учебник	-11.5955
▁летать	-11.5956
▁общественного	-11.5958
▁подошёл	-11.5958
▁газета	-11.596
▁менеджер	-11.596
▁источником	-11.596
икой	-11.5961
▁Лов	-11.5961
▁Станислав	-11.5962
▁обещан	-11.5962
▁отпустить	-11.5963
▁найдем	-11.5963
▁Маркус	-11.5964
▁разочарование	-11.5966
▁перспектив	-11.5967
▁Учитель	-11.5967
▁показывают	-11.5967
▁визг	-11.5969
ленная	-11.5969
▁отвратительно	-11.5969
▁требуют	-11.597
▁Лок	-11.5972
▁90	-11.5972
▁исключено	-11.5973
▁низким	-11.5973
▁отеля	-11.5975
▁секретаря	-11.5975
▁челюсть	-11.5976
рк	-11.5976
▁Став	-11.5976
▁маленькими	-11.5977
▁Помните	-11.5979
ивших	-11.598
▁Самый	-11.5981
▁вещами	-11.5981
Те	-11.5982
▁пачку	-11.5982
▁нетерпением	-11.5983
▁готовый	-11.5983
▁ресторане	-11.5985
▁бормотал	-11.5985
времен	-11.5986
РИ	-11.5988
▁съезд	-11.5989
▁Курт	-11.599
▁перерыв	-11.599
▁реакцию	-11.599
▁сообща	-11.5992
▁изучения	-11.5992
Кар	-11.5995
▁победил	-11.5996
▁некому	-11.5998
▁книжку	-11.5999
водя	-11.6001
▁вооружение	-11.6001
▁хром	-11.6002
▁имелись	-11.6002
▁Черный	-11.6002
▁похода	-11.6003
▁стрелял	-11.6004
брод	-11.6005
▁дедушка	-11.6006
▁собственному	-11.6007
▁чайник	-11.6007
▁поте	-11.6007
▁теряет	-11.6008
▁образы	-11.6009
гг	-11.601
▁Рус	-11.6012
▁учетом	-11.6012
ственным	-11.6013
▁вырвал	-11.6014
береж	-11.6014
▁прижалась	-11.6015
▁берут	-11.6015
▁завтрака	-11.6017
▁упомянут	-11.6017
▁страшные	-11.6017
▁охоты	-11.6019
инки	-11.6019
истом	-11.602
▁лев	-11.6022
▁возвращении	-11.6023
▁устраивает	-11.6024
дзе	-11.6024
▁закончен	-11.6025
▁детской	-11.6026
▁карта	-11.6026
▁закончился	-11.6026
дох	-11.6027
▁фор	-11.6027
▁наблюдали	-11.6027
▁разделить	-11.6029
▁думай	-11.603
▁Петербурге	-11.6032
▁обстановка	-11.6034
▁коснулась	-11.6034
один	-11.6035
▁Дайте	-11.6036
▁краем	-11.6036
▁родителями	-11.6037
▁освободи	-11.6038
▁противников	-11.6039
▁майора	-11.6042
только	-11.6043
▁сотрудники	-11.6043
▁проблемой	-11.6044
▁убитых	-11.6044
коро	-11.6046
йдёт	-11.6046
▁произведен	-11.6046
▁Жанна	-11.6047
бивал	-11.6048
▁двига	-11.6048
ящим	-11.6049
▁происхождение	-11.605
▁Смотрите	-11.6054
▁спутника	-11.6055
▁нехорошо	-11.6055
ческой	-11.6055
ивал	-11.6056
▁Дим	-11.6057
▁комитета	-11.6058
ment	-11.6058
сток	-11.6062
▁длинную	-11.6062
▁ружья	-11.6063
был	-11.6063
▁защищен	-11.6065
ери	-11.6065
▁Рима	-11.6065
▁надела	-11.6066
▁греб	-11.6066
▁неопределенно	-11.6066
рн	-11.6067
▁Эс	-11.6068
▁воротник	-11.6071
▁материи	-11.6071
▁Перевод	-11.6072
▁тарелки	-11.6074
▁противником	-11.6074
▁отваж	-11.6075
▁Даша	-11.6076
▁севере	-11.6077
сков	-11.6077
▁протест	-11.6079
▁усилием	-11.6079
греб	-11.6079
▁особняк	-11.6079
▁интер	-11.608
▁доброй	-11.6081
▁свидетелей	-11.6082
▁Ваня	-11.6082
▁окликнул	-11.6086
▁необыкновенно	-11.6086
▁Указ	-11.6086
▁звонить	-11.6087
▁леп	-11.6088
держа	-11.6089
▁высоком	-11.6091
▁защита	-11.6092
▁стрелков	-11.6092
▁Браун	-11.6093
▁подъезда	-11.6093
▁искус	-11.6094
▁напомнить	-11.6095
▁паре	-11.6096
гонял	-11.6097
▁короче	-11.6097
▁Алексея	-11.6098
рай	-11.6098
▁посол	-11.6099
▁висела	-11.6099
▁психо	-11.6102
ТИ	-11.6102
▁тьме	-11.6102
▁виновата	-11.6102
▁масштаб	-11.6103
▁писала	-11.6106
▁эпи	-11.6106
▁Белл	-11.6107
жин	-11.6107
▁потребности	-11.6108
▁бодро	-11.6108
▁След	-11.6109
▁Ноги	-11.6111
▁книгах	-11.6112
▁карманы	-11.6113
▁указывал	-11.6115
▁крестьяне	-11.6115
▁пропустил	-11.6115
▁артист	-11.6117
84	-11.6117
▁Евгений	-11.6118
▁лицами	-11.6118
▁рассвета	-11.6119
51	-11.6119
▁помощника	-11.612
▁лодке	-11.612
▁хороша	-11.6121
оде	-11.6124
▁издания	-11.6124
▁солнечный	-11.6126
▁ступени	-11.6126
рублен	-11.6126
▁встречается	-11.6128
▁Клянусь	-11.613
▁шёл	-11.6131
▁Медленно	-11.6132
▁счёт	-11.6133
▁перелом	-11.6133
дит	-11.6133
еса	-11.6133
▁запасы	-11.6134
▁поспешила	-11.6135
▁психологии	-11.6136
дос	-11.6136
▁снаряд	-11.6136
▁Салли	-11.6138
▁отодвинул	-11.6138
▁украшения	-11.6139
▁беззвучно	-11.6139
ага	-11.614
Когда	-11.6141
▁обращать	-11.6141
▁видения	-11.6143
▁представлять	-11.6143
мах	-11.6145
▁свидетельство	-11.6145
▁попыток	-11.6146
▁фонарь	-11.6146
▁тревож	-11.6147
▁пещеру	-11.6147
плю	-11.6149
▁послышались	-11.6149
▁заместитель	-11.6149
▁Крым	-11.615
▁просьба	-11.615
двор	-11.6152
олет	-11.6152
▁прихода	-11.6153
чков	-11.6154
▁били	-11.6155
пин	-11.6155
▁количеством	-11.6156
▁давным	-11.6156
пусти	-11.6157
▁повесил	-11.616
▁Макар	-11.616
▁войной	-11.6161
▁сложив	-11.6162
▁Клэр	-11.6163
сии	-11.6163
▁владельца	-11.6166
▁повести	-11.6167
еты	-11.6168
▁икон	-11.617
▁вправе	-11.6173
▁битве	-11.6175
▁1920	-11.6176
ac	-11.6177
▁захватил	-11.6181
▁Место	-11.6182
▁дыр	-11.6183
▁настороженно	-11.6183
▁зрение	-11.6183
▁обращения	-11.6184
▁http	-11.6185
▁успокоился	-11.6185
▁нехотя	-11.6186
▁грохотом	-11.6186
▁продолжение	-11.6187
▁Гермиона	-11.6188
▁Георг	-11.6189
ительных	-11.6193
шан	-11.6193
▁средних	-11.6194
шний	-11.6194
▁маленьком	-11.6194
92	-11.6195
▁Сем	-11.6198
▁зрителей	-11.6199
▁поврежден	-11.6199
▁слыхал	-11.62
▁Флор	-11.62
▁уверенностью	-11.62
▁получали	-11.62
лейтенант	-11.6202
▁вызвала	-11.6203
▁предельно	-11.6205
▁демонов	-11.6205
яд	-11.6205
▁ходом	-11.6207
▁пульт	-11.6208
▁влез	-11.6211
▁священника	-11.6212
▁приедет	-11.6212
иты	-11.6213
рё	-11.6213
▁лак	-11.6213
▁парой	-11.6213
▁открыт	-11.6213
▁зритель	-11.6214
▁рабы	-11.6214
▁печали	-11.6215
▁ответом	-11.6215
▁Лед	-11.6216
▁упомянул	-11.6216
▁заведения	-11.6217
▁Любой	-11.6217
▁упали	-11.6219
▁камен	-11.6219
▁доказательство	-11.6219
▁вздохнув	-11.6219
▁тысяча	-11.622
▁отныне	-11.6222
▁Необходимо	-11.6222
com	-11.6225
тт	-11.6226
▁предметом	-11.6226
▁крепкий	-11.6227
ёк	-11.6228
▁профессии	-11.6228
▁Хей	-11.6228
▁промах	-11.6228
▁возникают	-11.6228
▁мешка	-11.6229
гран	-11.623
хитр	-11.6231
▁быстрым	-11.6233
пира	-11.6233
▁округа	-11.6234
▁исключения	-11.6236
▁умело	-11.6236
▁уют	-11.6237
▁благодарен	-11.6237
▁опираясь	-11.6237
энд	-11.6239
▁категории	-11.624
нским	-11.624
▁принят	-11.624
например	-11.6241
▁вольно	-11.6241
▁исследование	-11.6242
читать	-11.6242
штейн	-11.6242
▁посла	-11.6243
▁обезьян	-11.6245
▁Анны	-11.6245
▁палатки	-11.6247
▁испортил	-11.6247
▁лифт	-11.6248
▁Гус	-11.6249
▁талию	-11.6249
▁высот	-11.625
вяз	-11.625
цеп	-11.6251
▁Жар	-11.6251
▁тронул	-11.6251
Ха	-11.6251
▁целовал	-11.6252
▁подарки	-11.6253
▁Орлов	-11.6254
▁саму	-11.6255
▁дерьмо	-11.6255
▁поколение	-11.6256
▁этапе	-11.6256
▁веришь	-11.6257
▁фантазии	-11.6257
▁летит	-11.6257
▁вертел	-11.6258
▁75	-11.6258
▁пауза	-11.6258
▁сильная	-11.6261
▁разочарован	-11.6261
▁поглощен	-11.6262
▁восста	-11.6263
▁испытывала	-11.6264
▁тише	-11.6264
▁падение	-11.6268
нз	-11.6269
▁кида	-11.6269
▁связаться	-11.6269
▁кан	-11.6271
▁великан	-11.6272
▁милиционер	-11.6272
▁воздухом	-11.6272
▁Разум	-11.6276
pe	-11.6277
▁Воздух	-11.6278
▁канат	-11.6278
▁обращал	-11.6279
▁запрос	-11.628
▁выдохнула	-11.628
▁злости	-11.6281
▁оставшихся	-11.6282
пуга	-11.6282
▁матушка	-11.6282
▁внешность	-11.6286
▁желудок	-11.6287
▁залива	-11.6288
▁сохранять	-11.629
▁духовной	-11.6291
истая	-11.6292
бас	-11.6292
полу	-11.6294
▁уродлив	-11.6294
гнув	-11.6295
числен	-11.6296
▁поэзии	-11.6297
▁Виль	-11.6297
▁мар	-11.6298
▁применять	-11.6298
▁магией	-11.63
▁вскрикнула	-11.63
▁выключил	-11.63
▁ноге	-11.6301
▁дур	-11.6302
“,	-11.6304
▁версия	-11.6305
▁Рассказ	-11.6305
▁суше	-11.6306
кен	-11.6307
раста	-11.6308
нули	-11.6309
▁трепет	-11.6309
ивали	-11.6309
▁выглянул	-11.631
▁нарушение	-11.631
ОЙ	-11.631
▁Лично	-11.631
▁правый	-11.6311
▁пользовались	-11.6311
▁снимал	-11.6311
▁стека	-11.6312
▁американского	-11.6313
▁посвящен	-11.6313
валилась	-11.6314
▁процедил	-11.6314
▁окончил	-11.6314
▁Матвей	-11.6314
▁показывали	-11.6315
▁четверти	-11.6315
▁судеб	-11.6316
числ	-11.6316
▁следователь	-11.6316
ard	-11.6317
▁Дорога	-11.6318
▁морем	-11.6319
аг	-11.6319
▁распорядился	-11.6319
▁Старший	-11.632
▁Отчего	-11.6321
▁требовать	-11.6322
▁пленных	-11.6323
▁теплый	-11.6323
▁Друг	-11.6323
▁спустились	-11.6323
▁Ер	-11.6323
против	-11.6326
филд	-11.6326
▁мелькнула	-11.6327
▁консерв	-11.6327
▁служили	-11.6328
▁подъезд	-11.6329
▁объясняет	-11.633
▁вложил	-11.6331
▁учит	-11.6331
▁приятным	-11.6333
▁повернувшись	-11.6333
▁Гр	-11.6334
▁психолог	-11.6335
▁ездить	-11.6337
▁Васильев	-11.6338
▁тумана	-11.6338
▁Брайан	-11.6339
НИ	-11.6341
▁горла	-11.6341
▁почувствовав	-11.6341
▁Луис	-11.6342
▁конкурент	-11.6343
▁сны	-11.6344
▁юноше	-11.6345
▁обещаю	-11.6349
▁тьму	-11.6349
▁соединения	-11.635
сей	-11.635
▁Говори	-11.6351
▁заднем	-11.6353
▁парус	-11.6353
▁национальной	-11.6354
▁мягкой	-11.6356
▁Прос	-11.6356
▁нашлось	-11.6357
очную	-11.6357
▁содержит	-11.6357
▁ухом	-11.6357
▁лечь	-11.6357
▁могилу	-11.6358
▁оборону	-11.6358
▁Думал	-11.6358
▁благодарности	-11.6361
▁Сперва	-11.6361
▁поднима	-11.6361
▁бегать	-11.6362
▁фар	-11.6363
▁поглядывая	-11.6363
58	-11.6363
▁Вначале	-11.6363
чих	-11.6363
▁доверял	-11.6363
ork	-11.6364
▁колокол	-11.6365
▁Эг	-11.6366
ОР	-11.6368
▁пыш	-11.6369
▁развива	-11.637
оген	-11.637
▁кончилось	-11.6371
ометр	-11.6372
▁предложили	-11.6375
▁помогло	-11.6376
▁рыцаря	-11.6376
▁ручей	-11.6377
▁сопротивляться	-11.6378
битые	-11.6378
▁стойки	-11.6379
▁доверия	-11.6379
▁днях	-11.6381
▁прочего	-11.6382
▁всадников	-11.6382
▁лазер	-11.6384
▁возбужден	-11.6384
▁волшебник	-11.6384
▁построен	-11.6384
евского	-11.6384
▁перехватил	-11.6385
опа	-11.6386
▁вскричал	-11.6387
▁свитер	-11.6387
▁Южной	-11.6389
▁Путь	-11.6389
▁нечем	-11.6391
ливым	-11.6391
▁график	-11.6393
кл	-11.6393
▁праздника	-11.6394
▁кра	-11.6395
▁обеспечен	-11.6395
биты	-11.6396
▁руководитель	-11.6396
▁водил	-11.6396
▁субботу	-11.6396
▁спина	-11.6396
▁низкий	-11.6397
▁выкрикнул	-11.6397
▁забота	-11.6397
нэ	-11.6397
ическому	-11.6399
▁молодежь	-11.6399
▁бумаге	-11.64
▁плет	-11.64
▁угрожающе	-11.6401
▁технологии	-11.6401
▁получают	-11.6404
▁американцы	-11.6405
лера	-11.6405
▁In	-11.6406
дана	-11.6406
▁отправлен	-11.6406
▁закончила	-11.6408
▁длиной	-11.6409
смерт	-11.6411
▁отомстить	-11.6411
▁поделаешь	-11.6412
▁выдержать	-11.6412
▁воспоминание	-11.6412
ившие	-11.6414
кси	-11.6414
жден	-11.6415
▁завис	-11.6415
▁либерал	-11.6416
▁брод	-11.6416
▁многими	-11.6416
▁алмаз	-11.6418
▁различия	-11.6418
▁барона	-11.6418
▁небом	-11.6419
▁Наталья	-11.642
йдите	-11.642
▁Бон	-11.6421
▁охрана	-11.6421
▁нравился	-11.6423
▁серьёзно	-11.6424
▁добрым	-11.6424
▁мудрость	-11.6425
▁Виктора	-11.6427
▁поперек	-11.6428
▁громкий	-11.6429
▁скул	-11.6429
▁откликнулся	-11.6429
▁английском	-11.643
ерс	-11.643
▁Америка	-11.6432
▁Огонь	-11.6432
пыта	-11.6432
стин	-11.6435
▁лука	-11.6435
▁водя	-11.6437
стать	-11.6437
чник	-11.6438
▁рассчитан	-11.6439
▁сквер	-11.6442
▁повернула	-11.6442
▁напоминала	-11.6442
▁едой	-11.6443
▁тревогой	-11.6443
▁островов	-11.6443
мени	-11.6444
▁врачей	-11.6444
83	-11.6445
▁кип	-11.6445
гну	-11.6445
▁оснований	-11.6445
▁бюджет	-11.6446
ёж	-11.6447
▁широкую	-11.6448
▁боишься	-11.6449
ьном	-11.645
▁журнале	-11.645
англ	-11.6451
▁физической	-11.6451
▁небольших	-11.6451
▁открытом	-11.6452
резать	-11.6452
▁партий	-11.6452
▁замечание	-11.6455
▁буфет	-11.6455
▁тренер	-11.6455
▁пацан	-11.6457
АТ	-11.6459
человек	-11.646
ительную	-11.6462
▁использует	-11.6462
▁Белый	-11.6463
▁ездил	-11.6463
нас	-11.6464
▁несли	-11.6464
▁университете	-11.6465
▁Вольф	-11.6467
▁разбил	-11.6469
▁Марка	-11.6469
▁накопи	-11.647
▁Андреевич	-11.647
▁Против	-11.647
▁недовольство	-11.6471
▁взамен	-11.6473
▁выдох	-11.6474
пт	-11.6474
лететь	-11.6474
▁мести	-11.6474
▁замедлил	-11.6476
▁нужный	-11.6476
тыка	-11.6477
▁командовал	-11.6477
▁внутренним	-11.6477
▁крыло	-11.6478
сси	-11.6479
▁Игра	-11.6482
▁обыск	-11.6483
▁потеряв	-11.6483
▁сцена	-11.6484
▁настиг	-11.6484
▁удалился	-11.6485
▁мес	-11.6486
▁предан	-11.6486
▁послушать	-11.6487
нами	-11.6488
вари	-11.6489
▁улыбаться	-11.649
▁разным	-11.649
▁хрусталь	-11.649
▁основательно	-11.6491
▁полночь	-11.6491
ушек	-11.6492
▁позволял	-11.6492
▁счастливым	-11.6493
▁обычная	-11.6493
▁блондин	-11.6494
вра	-11.6495
▁Фри	-11.6497
▁искусстве	-11.6497
▁волка	-11.6498
▁военным	-11.6498
▁забывал	-11.6499
инд	-11.65
▁правительственн	-11.6502
▁сыграть	-11.6502
▁смеялся	-11.6503
▁проспект	-11.6504
▁организаций	-11.6506
авшего	-11.6506
▁еда	-11.6506
▁Бах	-11.6506
аф	-11.6508
▁пещере	-11.6509
▁рассматривая	-11.651
▁принципы	-11.6511
Са	-11.6511
▁ванную	-11.6514
едем	-11.6514
чного	-11.6515
▁боле	-11.6515
▁прощание	-11.6516
рел	-11.6518
▁Каждая	-11.6518
▁персонал	-11.6518
▁семейства	-11.6519
▁оборвал	-11.652
ist	-11.6521
▁долине	-11.6521
ложи	-11.6522
▁Дур	-11.6522
пат	-11.6523
несла	-11.6525
▁проявить	-11.6525
▁безопасно	-11.6526
▁добрых	-11.6526
▁суммы	-11.6527
▁полагается	-11.6528
▁Блэк	-11.6529
▁монарх	-11.6529
▁выпад	-11.6529
▁Бэ	-11.653
▁грамот	-11.653
▁истинно	-11.653
▁улов	-11.653
▁смеялись	-11.653
▁рассвет	-11.6533
▁Имя	-11.6533
▁счел	-11.6533
▁велик	-11.6534
▁ловушку	-11.6534
▁согласились	-11.6535
стре	-11.6535
▁гл	-11.6537
фан	-11.6538
казан	-11.6538
▁уныло	-11.654
▁охрану	-11.6541
▁уснул	-11.6542
▁исчезает	-11.6542
хлеб	-11.6542
▁перешла	-11.6543
▁сжимая	-11.6543
▁улыбнувшись	-11.6544
▁запахом	-11.6544
▁мягкий	-11.6548
▁сойти	-11.655
▁Советской	-11.655
▁зашла	-11.6551
нц	-11.6551
восток	-11.6551
пись	-11.6552
▁исполнилось	-11.6552
▁обеспечения	-11.6552
▁выполнял	-11.6556
▁битва	-11.6559
▁перемены	-11.6559
▁добился	-11.656
▁прогноз	-11.6561
▁сплошь	-11.6561
▁крово	-11.6562
▁тяжесть	-11.6562
пуст	-11.6563
▁очков	-11.6564
▁прислушиваясь	-11.6565
▁беду	-11.6566
▁седло	-11.6566
▁выдержала	-11.6567
▁чёрт	-11.6567
▁Знал	-11.6567
▁напрямую	-11.6568
носят	-11.6568
▁номере	-11.6569
глян	-11.657
▁событиях	-11.6571
▁естественным	-11.6571
▁азарт	-11.6572
нику	-11.6572
▁произошел	-11.6573
брал	-11.6578
▁дочка	-11.6579
▁швейцар	-11.6579
▁двинулась	-11.6582
ерн	-11.6583
ig	-11.6584
▁позе	-11.6586
▁дивана	-11.6586
▁поделиться	-11.6586
▁Альфред	-11.6587
▁Следует	-11.6588
▁частиц	-11.6592
лаз	-11.6593
▁крыша	-11.6593
▁сменить	-11.6594
▁дурно	-11.6594
▁режима	-11.6595
▁занялся	-11.6595
▁зданий	-11.6595
даются	-11.6596
▁Петя	-11.6596
▁возражал	-11.6596
треб	-11.6597
ольд	-11.6597
▁Угу	-11.6597
▁деревня	-11.6598
▁участь	-11.6599
бух	-11.6599
▁произносит	-11.6601
▁доброе	-11.6602
шо	-11.6603
гора	-11.6603
▁отсек	-11.6603
▁краской	-11.6604
▁аэродром	-11.6604
▁Валя	-11.6604
▁тюрем	-11.6605
▁кандидат	-11.6605
▁элемент	-11.6606
▁великие	-11.6606
▁девчонки	-11.6607
ine	-11.6607
▁научной	-11.6608
▁гриб	-11.661
▁потерян	-11.661
уди	-11.6611
▁бледно	-11.6612
▁практику	-11.6612
▁убийц	-11.6613
▁гордостью	-11.6614
▁меру	-11.6616
▁прежние	-11.6617
▁надобно	-11.6617
▁известные	-11.6618
▁пригласить	-11.6618
▁занимаются	-11.6619
▁подавля	-11.6619
▁Эдди	-11.6621
▁социальных	-11.6621
▁гражданской	-11.6621
▁Игоря	-11.6622
▁применение	-11.6622
нера	-11.6622
▁древнего	-11.6624
▁определенных	-11.6624
▁залу	-11.6624
▁убежать	-11.6625
▁противоположной	-11.6625
▁вариантов	-11.6626
▁открытую	-11.6626
▁сейф	-11.6627
▁кадр	-11.6627
▁зрел	-11.6627
▁куртки	-11.6628
▁ушло	-11.6629
▁Луч	-11.6629
▁лечение	-11.6629
▁Коб	-11.663
[2	-11.663
▁вопль	-11.663
▁лозунг	-11.663
вина	-11.6631
способ	-11.6633
▁соседи	-11.6634
▁накинул	-11.6634
▁границей	-11.6636
91	-11.6637
▁теряя	-11.6637
▁кобыл	-11.6637
▁значительной	-11.6639
▁науч	-11.6641
▁блага	-11.6641
▁Вечер	-11.6642
▁глубокие	-11.6642
▁поеду	-11.6644
▁оборудование	-11.6644
селя	-11.6644
▁Кинг	-11.6645
▁войн	-11.6645
▁потратил	-11.6646
▁нарушения	-11.6646
▁Церковь	-11.6646
▁Царь	-11.6647
▁исполнить	-11.6648
▁устраивать	-11.6649
андер	-11.665
▁банку	-11.6652
унд	-11.6652
▁ищу	-11.6653
▁улыба	-11.6654
▁делаем	-11.6654
▁ров	-11.6655
йский	-11.6657
▁округе	-11.6658
▁повар	-11.6659
▁re	-11.6659
▁уловил	-11.6659
▁работаю	-11.666
▁кал	-11.6661
▁Мишка	-11.6661
▁сотню	-11.6662
▁имущества	-11.6662
▁французской	-11.6663
ити	-11.6663
▁лжи	-11.6664
▁классов	-11.6665
▁плачет	-11.6665
▁принципиально	-11.6666
▁подготовил	-11.6666
▁непросто	-11.6668
▁доля	-11.6669
▁просили	-11.6669
▁усадил	-11.6669
▁чудес	-11.667
▁крив	-11.6673
▁сложности	-11.6674
▁превратить	-11.6674
▁августе	-11.6675
▁жидкость	-11.6675
▁кругов	-11.6675
▁потрясен	-11.6675
▁возразить	-11.6676
ственные	-11.6676
▁Ок	-11.6677
▁практика	-11.6677
▁полков	-11.6678
la	-11.6679
▁Парижа	-11.6679
▁богатых	-11.6679
▁участка	-11.6682
▁миниатюр	-11.6682
▁тяжелая	-11.6684
▁надписью	-11.6685
▁седла	-11.6685
▁покончить	-11.6688
▁Глаз	-11.669
▁указала	-11.6691
▁мул	-11.6691
Йорке	-11.6692
английски	-11.6698
▁прикосновение	-11.6698
▁продал	-11.6698
▁стат	-11.6699
▁столовую	-11.6699
▁долгого	-11.6699
▁углов	-11.67
▁боком	-11.67
69	-11.6701
▁множеством	-11.6702
Кто	-11.6703
▁Алек	-11.6704
▁заботиться	-11.6706
▁воспитание	-11.6706
▁денеж	-11.6709
▁готовность	-11.671
▁старое	-11.671
▁перевернул	-11.671
▁тепла	-11.671
▁серой	-11.6712
уда	-11.6712
▁8.	-11.6713
несли	-11.6713
▁кабины	-11.6715
▁Яков	-11.6716
▁спускаться	-11.6716
▁присела	-11.6717
▁обряд	-11.6717
▁корень	-11.6718
▁программе	-11.6719
▁любопытства	-11.6721
▁центральной	-11.6721
▁приступил	-11.6722
есса	-11.6722
▁сложил	-11.6723
▁последовательно	-11.6723
▁залп	-11.6724
НА	-11.6727
кру	-11.6727
▁куплен	-11.6728
89	-11.6729
▁подскочил	-11.673
▁совету	-11.673
▁кусочки	-11.6731
▁окинул	-11.6731
▁кричала	-11.6731
▁племя	-11.6732
▁условии	-11.6734
8.	-11.6734
▁создали	-11.6734
ните	-11.6738
▁Стой	-11.6739
Па	-11.674
▁мак	-11.6741
▁длинная	-11.6742
бла	-11.6743
▁верила	-11.6744
▁сходство	-11.6746
▁отъезда	-11.6747
▁курил	-11.6749
▁застыв	-11.675
▁выступ	-11.6751
▁брали	-11.6751
▁простая	-11.6752
▁побледнел	-11.6753
▁внутренние	-11.6753
▁имелось	-11.6754
▁позволяют	-11.6754
▁просьбе	-11.6755
▁убеждения	-11.6755
▁проходила	-11.6758
▁гордости	-11.6758
▁Гуров	-11.6759
▁мероприятия	-11.6759
▁коньяк	-11.6763
▁пробурчал	-11.6764
▁целого	-11.6766
▁скажут	-11.6767
▁Федорович	-11.6767
▁превращается	-11.6767
▁формул	-11.6767
▁газа	-11.6768
▁принесет	-11.6769
льф	-11.677
▁страшная	-11.6771
Ан	-11.6771
▁Далеко	-11.6771
▁посмел	-11.6771
▁корзин	-11.6775
▁угод	-11.6776
цкий	-11.678
▁Джимми	-11.6781
мит	-11.6783
▁сестер	-11.6783
чества	-11.6784
▁погружен	-11.6785
▁повернуть	-11.6787
▁Цель	-11.6788
▁дождаться	-11.6789
стань	-11.6792
▁угас	-11.6794
▁богом	-11.6795
▁толпой	-11.6797
▁собственность	-11.6797
▁красотой	-11.68
▁эм	-11.6801
губ	-11.6802
вую	-11.6802
▁мягким	-11.6804
▁качеств	-11.6804
▁Чарльз	-11.6804
ственный	-11.6804
▁копье	-11.6806
▁действиях	-11.6806
▁Востоке	-11.6806
дина	-11.6807
▁Поли	-11.6807
ированный	-11.6808
сюда	-11.6808
работать	-11.6809
▁55	-11.6809
▁рисовал	-11.6809
▁волнуйся	-11.6809
учи	-11.681
▁Главный	-11.681
▁волной	-11.6811
▁предупреждал	-11.6814
▁Гил	-11.6814
▁разглядывал	-11.6815
сол	-11.6815
▁мгновения	-11.6815
шер	-11.6816
▁Наде	-11.6817
щение	-11.6818
▁собираетесь	-11.6818
▁лестницу	-11.6819
сим	-11.6819
▁будущей	-11.6819
▁результатом	-11.6819
чук	-11.682
шил	-11.6821
этаж	-11.6821
▁сегодняшний	-11.6822
▁жрец	-11.6822
▁каменные	-11.6822
▁произведений	-11.6823
▁хозяева	-11.6823
▁сокровища	-11.6824
Ро	-11.6824
▁Наиболее	-11.6825
▁Подо	-11.6825
шкин	-11.6827
▁советы	-11.6829
▁командованием	-11.683
нцев	-11.683
держав	-11.6831
▁корточки	-11.6831
▁греха	-11.6831
▁фермер	-11.6833
ающим	-11.6833
▁Запада	-11.6835
▁инстинктивно	-11.6835
▁хищн	-11.6836
чной	-11.6836
▁левый	-11.6838
буд	-11.684
▁Зал	-11.684
▁подождал	-11.684
служив	-11.684
▁расп	-11.6841
▁схватился	-11.6841
▁прилип	-11.6841
▁круп	-11.6841
▁Стол	-11.6843
Ку	-11.6843
▁Ивановна	-11.6844
ектор	-11.6844
▁Хол	-11.6846
▁фонарик	-11.6846
ировав	-11.6847
▁врасплох	-11.6847
▁улица	-11.6847
▁любимая	-11.6849
▁возврат	-11.685
▁противостоять	-11.6851
▁перевал	-11.6851
▁толков	-11.6852
▁культура	-11.6852
нрав	-11.6853
плав	-11.6853
▁клянусь	-11.6853
хорош	-11.6853
хотя	-11.6853
▁переводе	-11.6854
▁прекраща	-11.6854
▁трат	-11.6854
▁дереву	-11.6855
▁Встреча	-11.6855
▁гигант	-11.6855
▁хором	-11.6855
▁умерли	-11.6856
анд	-11.6856
▁занималась	-11.6858
▁крыльцо	-11.6858
▁Известно	-11.6858
ЕН	-11.6861
▁инвалид	-11.6862
онный	-11.6862
▁росли	-11.6864
▁ящика	-11.6864
▁приключений	-11.6864
щейся	-11.6865
▁отличаются	-11.6865
▁чувствовали	-11.6865
▁республики	-11.6866
▁Идем	-11.6866
▁космос	-11.6867
КИ	-11.6867
▁хрип	-11.6868
▁прекрасные	-11.687
▁печи	-11.687
▁Удивительно	-11.6871
▁свободного	-11.6872
▁тумане	-11.6872
▁сыщик	-11.6872
овки	-11.6873
▁конструкции	-11.6873
▁Лас	-11.6874
▁нашёл	-11.6874
ep	-11.6874
▁ночного	-11.6874
▁источника	-11.6875
▁дескать	-11.6875
▁человеч	-11.6876
▁явилась	-11.6876
▁держась	-11.6877
▁Западе	-11.6879
▁взаимно	-11.6879
▁каково	-11.6879
▁убьет	-11.688
▁встречался	-11.6882
▁походил	-11.6883
.)]	-11.6885
▁лететь	-11.6885
▁перво	-11.6885
▁фактов	-11.6886
дача	-11.6886
▁разбираться	-11.6886
▁пустоту	-11.6887
▁останутся	-11.6887
▁небольшом	-11.6888
▁примитив	-11.6888
▁стимул	-11.6888
▁герб	-11.6888
▁яд	-11.6889
▁Рит	-11.6889
▁народного	-11.689
▁зверей	-11.6891
▁куп	-11.6892
▁внук	-11.6893
▁духу	-11.6893
▁темп	-11.6893
▁Таких	-11.6894
▁лицах	-11.6896
▁составляли	-11.6896
стол	-11.6899
▁настоящую	-11.6899
▁площадки	-11.69
▁трюм	-11.69
▁являлись	-11.6901
слу	-11.6901
▁зеленой	-11.6903
рана	-11.6903
вилл	-11.6903
▁Внизу	-11.6904
▁нарезать	-11.6904
▁гнус	-11.6904
оты	-11.6905
▁выбрала	-11.6908
анс	-11.6909
▁Грей	-11.691
овская	-11.6911
▁поднимались	-11.6911
▁договориться	-11.6912
дора	-11.6912
▁ягод	-11.6915
▁приведен	-11.6915
▁повышен	-11.6915
ньем	-11.6916
▁мосту	-11.6916
сос	-11.6919
▁бульон	-11.6919
▁члена	-11.6919
▁поменьше	-11.6919
▁нужные	-11.692
▁джинсы	-11.6922
▁завал	-11.6923
▁торгов	-11.6923
▁Кли	-11.6925
▁взволнован	-11.6925
▁рассыпа	-11.6926
▁усилен	-11.6926
катыва	-11.6929
▁используется	-11.6929
▁оркестр	-11.6929
▁прекрасное	-11.693
▁сдержанно	-11.6932
рубил	-11.6932
▁Англию	-11.6933
▁огонек	-11.6933
▁Лос	-11.6934
▁побережья	-11.6936
ложу	-11.6937
▁рубашка	-11.6937
твоему	-11.6937
▁вызывать	-11.6937
▁шкафа	-11.6937
▁уходят	-11.6938
▁багаж	-11.6938
▁главные	-11.6938
▁сыновья	-11.694
▁ловить	-11.694
▁поста	-11.6941
▁безжалостно	-11.6941
овка	-11.6942
▁действуют	-11.6943
▁продавать	-11.6943
▁лезть	-11.6943
▁ярким	-11.6944
▁Бул	-11.6944
▁прежнего	-11.6945
▁ля	-11.6946
▁слушаю	-11.6946
▁довольны	-11.6948
вшемся	-11.695
▁всхлип	-11.6953
говорить	-11.6955
шн	-11.6955
▁прилично	-11.6956
йского	-11.6957
▁привычки	-11.6957
▁Важно	-11.6958
▁Гали	-11.6961
ot	-11.6961
▁подушки	-11.6961
▁назначение	-11.6962
▁грехи	-11.6963
▁марте	-11.6964
▁восход	-11.6964
▁проверки	-11.6965
▁худо	-11.6966
73	-11.6967
▁хр	-11.6967
дадут	-11.6969
▁счастливо	-11.6969
▁подбежал	-11.697
нном	-11.697
▁постараюсь	-11.6971
▁мудрости	-11.6972
▁Юн	-11.6973
▁городских	-11.6973
▁сенатор	-11.6973
▁выступает	-11.6974
▁признавал	-11.6976
▁терза	-11.6977
▁гарнизон	-11.6977
▁бывшей	-11.6978
луча	-11.698
▁учесть	-11.698
▁причал	-11.6981
▁интриг	-11.6982
нулись	-11.6982
▁законом	-11.6984
Петербург	-11.6984
▁путей	-11.6984
▁расы	-11.6984
ущий	-11.6986
▁молодежи	-11.6986
▁Бок	-11.6986
▁троп	-11.6986
▁позиций	-11.6987
▁Труд	-11.6988
▁представляешь	-11.6988
рубить	-11.699
▁спи	-11.699
▁требовали	-11.699
▁дров	-11.699
иях	-11.6991
▁лаз	-11.6993
em	-11.6993
▁астроном	-11.6993
▁смеется	-11.6994
▁подойдет	-11.6994
▁волей	-11.6996
▁Сибири	-11.6996
▁дорожке	-11.6996
▁напомнила	-11.6996
никами	-11.6998
▁купа	-11.6999
▁ме	-11.6999
▁молния	-11.7
▁процессов	-11.7
▁лучшему	-11.7
▁Мэй	-11.7
▁кошки	-11.7001
▁газетах	-11.7002
▁наступает	-11.7002
льц	-11.7003
▁парке	-11.7003
▁способностей	-11.7003
▁посыл	-11.7004
82	-11.7005
▁полом	-11.7005
▁легкое	-11.7006
▁ведущей	-11.7007
▁невеста	-11.701
▁обязанностей	-11.7011
▁напоминали	-11.7012
▁рукоять	-11.7012
▁попадает	-11.7013
▁персон	-11.7013
атели	-11.7013
▁вызывали	-11.7014
▁выдвинул	-11.7014
▁выжил	-11.7014
▁зловеще	-11.7016
▁поверь	-11.7017
▁замерли	-11.7017
▁уступ	-11.7017
▁невыносимо	-11.7019
▁ураган	-11.7019
▁носят	-11.702
▁выступал	-11.702
▁альтернатив	-11.7021
▁вылетел	-11.7022
▁Глав	-11.7022
▁оставляет	-11.7023
▁посуду	-11.7023
ливает	-11.7024
▁нравятся	-11.7024
▁здании	-11.7024
▁камне	-11.7025
▁нести	-11.7027
▁лют	-11.7028
▁почесал	-11.7029
▁моложе	-11.7029
▁Маль	-11.7031
▁должное	-11.7031
▁веревку	-11.7034
▁травм	-11.7034
▁комендант	-11.7035
▁воспользовался	-11.7035
▁удерживал	-11.7035
▁чтение	-11.7036
▁Русь	-11.7036
▁Джека	-11.7036
катился	-11.7037
очная	-11.7037
▁узнают	-11.7038
▁начинала	-11.7039
▁крышей	-11.704
охран	-11.704
▁распоряжения	-11.7041
▁Хам	-11.7041
▁нравилась	-11.7042
шуюся	-11.7042
шедших	-11.7042
▁Легко	-11.7042
de	-11.7043
▁колесо	-11.7044
▁Госпожа	-11.7044
▁забавно	-11.7045
тяж	-11.7045
▁51	-11.7045
▁безразлично	-11.7046
▁физик	-11.7047
унов	-11.7048
▁Атлант	-11.7049
▁52	-11.7049
▁ручки	-11.7053
▁интересного	-11.7053
мотал	-11.7054
▁плакал	-11.7054
▁Рат	-11.7055
ходящих	-11.7055
▁Советский	-11.7057
▁морду	-11.7057
▁выполнен	-11.7057
▁наследство	-11.7057
▁(1	-11.7057
▁шкафу	-11.7059
разному	-11.7059
▁обошлось	-11.7059
▁приготовить	-11.7059
▁горлу	-11.7062
▁удач	-11.7062
▁древности	-11.7062
имый	-11.7062
▁базар	-11.7063
▁захватили	-11.7064
▁подвале	-11.7065
▁деловито	-11.7066
▁кухонн	-11.7068
льно	-11.7068
ходит	-11.7069
▁культур	-11.7073
▁учили	-11.7073
▁гнал	-11.7073
▁объектов	-11.7073
рыж	-11.7073
▁испытать	-11.7074
▁пятьсот	-11.7075
▁растерялся	-11.7076
коль	-11.7077
▁Того	-11.7077
▁сотрудник	-11.7077
спар	-11.7078
▁поедем	-11.7078
▁ученого	-11.7079
▁понес	-11.708
▁мелочь	-11.708
▁отход	-11.7082
▁Нового	-11.7084
▁машиной	-11.7085
▁мастерской	-11.7085
▁связыва	-11.7086
▁обладают	-11.7086
▁итог	-11.7086
ленных	-11.7087
инской	-11.7088
▁живота	-11.7091
овцев	-11.7092
▁стой	-11.7092
▁факел	-11.7093
▁подсказал	-11.7094
▁лесной	-11.7094
▁руководителей	-11.7094
ow	-11.7094
▁Ничто	-11.7094
▁пункта	-11.7095
▁Рев	-11.7096
чест	-11.7096
▁Нэнси	-11.7097
Ба	-11.7099
▁каст	-11.7099
для	-11.7099
▁копья	-11.7099
▁носили	-11.7101
▁присоединиться	-11.7102
▁требую	-11.7102
торы	-11.7104
▁оглянулась	-11.7104
▁Скотт	-11.7104
▁тигр	-11.7105
▁высокими	-11.7105
▁поведал	-11.7106
▁обитателей	-11.7107
▁Должен	-11.7107
▁собственная	-11.7108
Бр	-11.7109
▁вспыхнул	-11.7109
▁старшим	-11.7109
▁лучшей	-11.711
каза	-11.711
▁Юноша	-11.711
▁среднем	-11.7111
▁грави	-11.7111
▁слушай	-11.7111
▁ученики	-11.7111
ыр	-11.7114
▁Бель	-11.7114
▁доводилось	-11.7114
▁лесом	-11.7114
▁шелк	-11.7114
▁темными	-11.7114
▁появляться	-11.7115
▁пожилой	-11.7115
▁нетрудно	-11.7117
▁вызывал	-11.7119
лея	-11.7119
▁Берег	-11.712
▁мучитель	-11.7121
[...]
